#version: 0.2
d e
Ġ de
Ġ e
Ġ l
o s
Ġ c
e r
Ġ p
e n
Ġ a
o n
a r
a s
e s
n l
Ġ <
Ġ s
a n
c i
o r
Ã ³
Ġl a
a d
a l
i n
Ġe n
u e
u n
Ġ m
r e
s t
Ġe l
Ġ y
t e
Ã Ń
i c
q ue
Ġ t
Ã³ n
o m
Ġc on
r a
Ġ un
Ġ que
Ġ f
r o
d i
Ġ E
Ã ¡
t i
d o
Ġs e
en t
r i
Ã ©
Ġ h
Ġ C
ci Ã³n
a m
Ġde l
o l
Ġ n
Ġl os
Ġs u
Ġ A
Ġ 1
Ġ S
Ġ L
t a
Ġ re
t o
Ġ o
Ġ v
Ġe s
l e
Ġ in
Ġc om
Ġ (
ad o
Ġ P
Ġ M
Ġe st
l a
Ġp or
Ġa l
Ġp ar
a b
Ġ g
ÃŃ a
en te
i s
r es
d a
Ġl as
t u
i l
Ã ±
Ġ b
i o
r an
Ġun a
Ġ d
ic a
e c
i st
Ġ di
u l
i m
d ad
ci on
t er
i a
e l
Ġ T
Ġ D
i g
Ġ B
Ġp ro
ad a
e m
Ã º
Ġ R
Ġ1 9
b i
ci a
Ġ 2
u s
u i
Ġcom o
a c
Ġ G
Ġpar a
Ġ F
i t
l o
Ã¡ s
al es
Ġde s
u er
t r
v i
ĠE l
u c
ĠE n
Ġ I
ic o
Ġp er
a ciÃ³n
t or
Ġc u
i z
de n
ĠL a
Ġn o
b re
0 0
p a
g o
c u
Ġ H
Ġ N
Ġe x
o c
i ent
ad os
Ã¡ n
Ġ J
Ġa c
cion es
r as
u m
or m
a t
an do
s e
Ġa n
i Ã³n
Ġ V
Ġm Ã¡s
t os
d os
er a
t es
ti v
i en
Ġ j
p e
m o
a y
p o
Ã© n
u r
i r
a j
i ci
Ġm e
Ġ U
ri m
Ġf ue
Ġl o
t re
c h
er o
i dad
g u
i v
m ente
Ġ O
Ġ r
p or
) .
p er
de s
ad or
Ã© s
Â ł
an o
i b
q ui
ĠE st
t ra
ar i
Ġp o
Ġs o
c o
Ġa r
Ġs er
e g
) ,
t en
Ġsu s
Ġa Ã±
am bi
am ente
c a
Ġ te
q u
Ġp r
p u
de r
c e
Ġt o
an te
p ar
in a
b l
Ġ or
Ġ res
ient o
Ġe m
z a
on es
Ġh ab
Ġc a
i e
Ġp rim
t ro
Ġen tre
in o
ad as
m a
ĠU n
Ġa s
ambi Ã©n
ar on
Ġ im
r u
an a
en cia
er s
p l
ĠA l
al mente
i da
ic os
c on
pa Ã±
Ġs i
c l
Ġc ar
Ġo b
t as
ÃŃ n
Ġt ra
c es
Ġ "
g un
Ġl e
Ġc i
Ġcon s
Ġp a
ic as
l as
Ġ2 0
ist a
l an
Ġs on
er n
â Ģ
Ġ Â
Ãº n
p os
Ġp res
Ġh a
Ġf orm
Ġp ue
ĠE s
f er
ĠI n
u g
Ġes c
Ġt i
d as
ent es
Ġ2 00
Ġ1 8
p i
t ar
l os
ue v
Ġt ambiÃ©n
e z
ĠC on
tu ra
ĠS an
o ci
u y
l es
Â »
Ġm o
ĠL os
Ġin ter
d u
1 9
Ġa m
is mo
ÃŃ s
d uc
or es
o g
ab a
ĠÂ «
i den
ĠR e
Ã© r
Ġn a
n a
ent o
cion al
Ġ K
p res
Ġm ay
Ġp re
i f
Ġf uer
b a
Ġ W
en s
Ġc as
ti l
Ġm an
in ci
ĠS e
j o
al iz
Ġme di
Ġp os
er on
ar a
Ġc or
Ġso bre
en er
Ġdi s
as ta
tr os
Ġp u
Ġest e
ĠA n
Ġm ar
Ġs ig
Ġa b
u ran
Ġg ran
ĠC h
a g
Ġt er
Ġs ol
Ġl le
s on
uc h
ar io
Ġf in
Ġci u
Ġd os
Ġ 3
t ica
b r
ĠaÃ± os
an tes
in g
Ġc ol
ÃŃ an
i tu
t al
ter i
Ġc an
uran te
ĠM ar
f ici
Ġpar ti
m an
i do
t on
er os
Ġest a
u b
m in
l am
h e
Ġpar te
ent a
Ġper o
Ġre g
st r
Ġp ol
Ġc re
ci o
Ġh asta
p on
g a
Ġ |
Ġc am
u t
Ġ Ã©
ul ar
on a
v e
p le
Ġciu dad
Ġm un
Ġpr inci
Ġ20 1
i de
Ġ19 9
Ġd on
ĠA r
ĠD e
la ciÃ³n
Ġdes de
Ġn uev
Ġe j
i os
Ġf un
Ġn om
Ġt ien
en do
v o
Ġin f
u di
tiv o
Ġs in
t ico
m e
Ġ Ã¡
ec h
Ġmay or
Ġdon de
il l
por t
c ul
ab le
ĠaÃ± o
ari os
ci as
ÃŃ o
tu r
ĠL as
ĠC ar
un to
b le
Ġe ra
g os
v en
Ġp as
j e
ÃŃ as
aj o
g ra
g r
Ġm a
i ones
ue l
b ar
ic h
em bre
Ġ us
Ġper son
e o
Ã± o
ci al
Ġ -
de m
an os
ĠC om
Ġprinci p
d r
Ġd urante
ĠS u
pu Ã©s
Ġh i
z o
re c
st itu
Ġm en
Ġa p
g en
v a
or a
Ġ 4
m as
b er
Ġ Y
i on
Ġy a
ist or
Ġg ener
am iento
Ġ u
e t
ĠN a
ent os
m i
b ol
Ġin cl
Ġcu al
paÃ± ol
Ġest ado
en di
ar ro
ran s
n o
i dos
ar se
v er
ri b
Ġ âĢ
g an
Ġdi st
ador es
Ġc l
t ado
Ġa u
Ġ19 8
t in
ar es
Ġes pe
Ġ Ã
i ciÃ³n
Ġform a
en a
Ġde n
Ġt an
Ġl lam
Ġest Ã¡
Ġs al
Ġg o
Ġ 5
Ġal gun
s o
Ã³ r
p ec
u ro
Ġpa ÃŃs
Ġt en
tr as
Ã© c
Ġpue de
u d
Ġprim er
Ġt r
Ġcon tra
Ġo c
Ãº l
Ġc er
Ġm uch
Ġm on
c ar
ri st
Ġa d
Ġh ac
gu a
Ġc al
ĠP ar
Ġo tros
e d
l l
em p
Ġpol ÃŃ
Ġpro duc
u ra
is iÃ³n
Ġcu ando
i er
u st
j a
om in
ĠP or
da des
m os
tiv a
ĠF ran
Ġ ro
es ti
Ġte m
ern o
Ġ qui
Ġhab ÃŃa
Ġes paÃ±ol
r os
e a
ien do
al l
an z
Ãº bl
al a
ĠL e
Ġc ent
un que
Ġv er
it al
ist em
m iento
iv ers
Ãºl ti
Ġc o
ica ciÃ³n
an d
Ġprim era
Ġ19 7
Ã³ m
pu es
Ġp e
as e
ÃŃ st
ab an
ĠD es
e ci
Ġim port
Ġdes puÃ©s
Ã± a
Ġt ras
til iz
uer ra
Ġm uy
Ġen cu
Ġ 6
Ġt rans
Ġfuer on
Ġl ug
Ġpro v
ec es
Ġm ismo
Ġpro p
Ġm u
Ġac tu
Ġm i
Ġ ra
t ic
paÃ± a
a p
Ġl ib
Ġesc ri
Ġin v
Ġca p
Ġv ez
Ġ do
Ġg ru
Ġre aliz
Ġcon oci
Ġu tiliz
Ġt u
Ġti em
Ġtien e
Ġsu per
f ec
Ġ z
č Ċ
Ġun o
istor ia
ar d
t Ã³
dem Ã¡s
Ġlle g
Ġnom bre
Ġencu ent
al idad
bi erno
ĠR o
i d
in e
Ġre ci
Ġtra b
Ġas ÃŃ
Ġm il
2 0
Ãº s
Ġan ti
Ġ Ãºlti
Ġ1 5
ta ciÃ³n
Ġde st
Ġ Z
Ġn Ãº
or te
ida des
Ġdi fer
ar ia
Ġs istem
Ġc ul
Ġdes arro
Ġt res
i Ã³
Ġespe ci
Ġde ci
tor es
ol og
Ġh er
Ġem bar
Ġto do
ue go
oc a
Ġde f
b e
Ġcon f
l u
il la
Ġ1 7
cu r
us o
Ġor ig
ri s
ient os
Ġest udi
r en
Ġc ab
Ġh an
Ġc h
ĠA s
ist as
Ġcom un
Ġ 7
Ġc os
Ġ19 6
ri g
Ġlug ar
ĠJ u
Ġse gun
ĠM e
ĠN o
Ġv ari
Ġpo b
Ġse c
Ġf ran
Ġdi rec
Ġex ist
om a
Ġsig ui
Ġsol o
Ġf am
ĠA m
00 0
di a
Ġg ra
Ġembar go
Ġe qui
at ro
Ġo f
Ġm is
Ġtiem po
tiv os
i as
an cia
Ġse g
Âł Âł
Ġdi v
Ġ da
Ġre pres
d ic
ÃŃ m
Ġl oc
c os
Ġ 8
u ciÃ³n
bi do
Ġel ec
Ġb an
g e
im a
Ġs im
Ġp lan
Ġv ol
i to
en e
ri l
er v
at al
ĠC as
ra ciÃ³n
ĠC u
Ġqui en
Ġp el
Ġf r
aj e
Ã³ g
Ġa par
ĠC o
Ġe di
Ġp es
Ġc ada
Ġh om
Ġ is
Ã± os
c er
Ġsi do
ient ras
i p
. .
in as
Ġsu r
Ġre la
Ġm uer
ti do
Ġre f
Ġv i
Ġv al
Ġp la
Ġa unque
ti r
ĠEs paÃ±a
u al
f ÃŃa
or d
it ar
Ġtan to
ĠS in
Ġc r
Ġ 9
ĠM a
st a
olog ÃŃa
ĠM on
t h
Ġpres iden
ĠnÃº m
o y
Ġ k
ce p
n e
t Ã¡n
ĠC ol
ĠG u
Ġpu bl
un iden
Ġo tras
Ġ1 6
Ġa le
Ġ19 4
ci os
ĠP a
p era
f ic
Ġ Q
i or
ici p
te c
en o
Ġto dos
ci Ã³
e le
i ta
j os
tur al
Ġe v
Ġme j
ĠB ar
ch o
om o
Ġ19 5
c ri
an g
Ġ ig
1 8
Ġa f
Ġm in
l lo
Ġv ida
Ġre c
Ġb ajo
ĠJ os
ch a
Ġb as
Ġpob laciÃ³n
Ġpue den
I I
ĠC or
Ġgo bierno
ĠEst ados
Ġestado uniden
Â» .
du ci
Ġcon tin
ac h
a v
Ġh um
Ġha cia
i le
Ġcom ple
Ġcon str
Ġl i
ĠP ro
di Ã³
Ġ19 3
ib le
ÃŃ tu
Ġn i
d or
b o
Ġlle v
os a
Ġgener al
Ġsistem a
Ġtr ad
Ġ1 0
ui r
t icas
tor io
Ġ X
vi r
Ġl ar
Ã³ l
Ġin ici
ĠEst e
Ġcom p
Ġmun do
Ġ qu
ĠUn idos
ĠJu an
os o
t icos
Ġen con
ĠL u
gan iz
Ġsu b
ĠT he
il o
en z
ci s
p ti
Ġe con
ĠM an
oc o
b an
Ã¡ f
g res
Ġpu es
g ent
Ġf e
ri a
ĠÃ ģ
Ġh ay
y o
Ġn e
qui er
Ġes e
dos e
el l
Ġm ientras
Ġre v
Ġ ,
Ġest Ã¡n
ÃŃ cul
Ġres ul
ĠJ o
Ġest able
i ano
ol Ã³g
Ġt or
e ta
Ġgru po
x im
ĠP er
t an
i es
p en
Ġs iendo
Ġalgun os
" .
ÃŃ f
" ,
ter a
Ã¡ c
c an
p re
Ġap ro
emp lo
Ġpro f
v al
ĠnÃºm ero
Ġb ien
teri or
Ġs en
if ic
ĠT ambiÃ©n
Ġsi tu
Ġest os
ton ces
ac ter
Ġnuev o
c as
b res
i an
Ġre y
qu es
ĠUn ivers
cu la
Ãºbl ica
ĠS eg
Ġmun icip
am a
Ġh ech
in os
ĠT o
ar ÃŃa
ad re
ti Ã³
Ġfam il
y a
y ec
Ġd ÃŃa
Ġr om
Ġestadouniden se
Ġpro ces
Ġpo der
i al
ĠA le
il idad
t am
h i
Ġv en
Ġo fici
e p
ĠO r
ĠE uro
ĠM un
c el
Ġh istoria
z as
Ġp al
Ġan tes
om e
Ġg an
ci l
ĠC am
ĠG ran
Ġter ri
ul io
te g
Ġj un
Ġb ar
ĠV al
ĠP ara
Ġj unto
Ã¡ l
Ġg uerra
cion ales
bi Ã³
e dad
Ġo tro
Ġpe que
ĠI s
im iento
l ig
Ġc in
ĠG o
p ol
den cia
le c
f r
un d
ue la
ci miento
e x
ĠP o
ĠÃ© l
Ġre con
Ġc las
in cia
ĠC an
ti vi
Ġen tonces
Ġdest ac
u es
b ra
j er
ig n
Ġt ar
p as
Ġob je
ĠJos Ã©
Ġ1 2
Ġde bido
Ã¡ m
p an
Ġej emplo
Ġin s
Ġl en
Ġn orte
ĠEst a
t ados
Ã©r ica
Ġtrab aj
ĠS al
Ġ ri
Ġm us
ĠA u
p ular
Ġ Ãºn
di al
ec e
ĠNa cional
di o
te m
u en
pi os
uc ciÃ³n
Ġencuent ra
Ġm Ãºs
ÃŃtu lo
Ġincl uy
Ġv arios
Ġ1 4
tu ras
Ġfin al
Ġn eces
ri Ã³
ĠÃ© p
Ġcom enz
g ar
Ġde b
Ġen tr
re a
b as
Ġtra v
Ġrepres ent
re m
iv el
ĠM Ã©
n os
Ġf il
Ġa demÃ¡s
Ġto da
Ġm es
Ġest aba
i der
Ġj ug
Ġcom er
er g
Ġcar acter
t amente
Ġmej or
ĠM o
Ġpresiden te
ĠE x
ter na
Ġz ona
Ġde re
ti s
Ġparti ci
Ġperson as
Ġr ÃŃo
Ġob ra
Ã ¼
min ist
Ġpres ent
l or
Â» ,
u la
a ciones
ent al
es te
Ġna cional
ri d
Ġor ganiz
Ġor den
Ġpubl ic
Ġgran des
Ġm ill
Ġp l
Ġtrav Ã©s
Ġt Ã©r
Ġf al
Ġ19 2
f o
Ġa t
Ġper mi
Ġser vi
r al
Ġmen os
Ġser ie
Ġti po
t ad
c ent
Ġn ivel
Ġin c
on g
2 00
Ġdi ci
Ġv is
Ġcu atro
Ġa po
ci den
iz o
Ġcon tro
Ġmuer te
Ġm om
Ġde r
c al
Ġan te
Ġcu enta
Ġparti r
Ġimport ante
Ġf u
Ġa v
ÃŃ cula
ti on
ĠD urante
Ġe ran
tu bre
Ġprov incia
ic e
Ġmayor ÃŃa
Ġinf orm
c ol
pti embre
Ġdi rig
Ġn eg
Ã©r ci
ĠC l
ĠL o
Ġt om
tiv as
ui do
Ġc uer
Ġ1 3
Ġau tor
en cias
i ra
Ġcons ider
Ã© l
ri o
r ado
ĠÃ©p oca
Ġmi em
Ġmay o
Ġtu vo
Ġprincip al
x ico
ĠB o
ĠC al
Ġm Ã¡
Ġdiv ers
ci ales
Ġorig in
di da
ad io
Ġs ue
que l
b io
s a
ĠM ad
h a
Ġe fec
Ã³ lo
du st
Ġmuch os
ĠS o
Ġequi po
Ġseg Ãºn
Ġv ers
Ġm er
Ġse ptiembre
ir m
Ġtem por
Ġcas o
Ġel los
Ġoc tubre
Ġ .
bi er
Ġ1 1
gu as
Ġj ulio
ĠâĢ Ķ
Ġo tra
ra g
Ġse Ã±
f orm
uer to
Ġcons ide
Ġb ri
om ÃŃa
ĠN uev
ĠEst ado
Ġde j
Ġg ol
Ġca us
Ġmedi o
Ġtien en
a z
ĠS i
Ġin g
Ġen ero
Ġcent ro
Ġ ide
gos to
ri z
orm ente
Ġdici embre
Ġden tro
Ġun os
r uc
de ra
t ante
Ġjun io
b os
Ġreg iÃ³n
h o
Ġus o
Ġa gua
ĠUn a
Ġque d
e za
Ġin t
ĠP e
Ġsig n
or ÃŃa
er ic
Ġinter na
j as
Ġencon tr
un a
m Ã¡n
Ġcontin u
s iÃ³n
Ġhac e
les ia
Ġmar zo
Ġa y
p ul
Ġest as
Ġle y
ĠpolÃŃ tica
br ero
u da
Ġmill ones
Ġl ÃŃn
Ġv e
Ġa gosto
ĠUnivers idad
el o
Ġo cu
Ġpro gra
Ġb a
ĠC ent
Ġhac er
Ġmo v
tor ia
Ġman era
ec u
Ġdist in
Ġm as
Ġp Ãºbl
Ġhab it
v ar
ĠSan ta
ist Ã³r
teri ormente
d ÃŃa
vi embre
Ġm Ã©
Ġa g
Ġti er
Ġe t
Ġcon stitu
Ġc ele
Ġcap ital
Ġin de
ĠA demÃ¡s
pl ic
p ro
ĠMÃ© xico
Ġlib er
Ġecon Ã³m
Ã©rci to
Ġv o
ĠF ue
pos iciÃ³n
Ġdef in
Ġdifer entes
i k
Ġpro yec
Ġlar go
Ġpo pular
un da
ĠA c
Ġab ril
ol uciÃ³n
Ġem pres
Ġp ie
Ġmu jer
Ġhech o
Ġde m
p Ãºblica
Ġmom ento
e f
b lo
ĠFran cia
Ġci er
ĠG uerra
Ġcon vir
Ġin te
Ġt al
Ġd Ã©c
i di
Ġparti do
Ġto tal
Ġno viembre
Ġp un
Ġl ÃŃ
Ġpel ÃŃcula
Ġin di
Ġre fer
ti dad
Ġp unto
ĠI m
Ġcon j
r on
Ġca pa
19 9
Ġl uego
Ġd ich
u z
er ÃŃa
vi Ã³
ic amente
Ġsegun do
le v
ĠC a
b um
ĠI I
z ar
Ġes pa
Ġes pec
Ġl eg
Ġam pl
Ġde cl
t s
Ġna tural
Ġbri tÃ¡n
ĠpaÃŃs es
Ġvari as
1 0
Ġalgun as
Ġden omin
Ġfun d
Ġcon st
Ġdesarro ll
on ia
r era
Ġdesarro llo
Ġto das
Ġmis ma
ĠS a
ig a
Ã¡ r
Ġv eces
ari as
on o
Ġ ur
Ġex ten
p el
âĢ Ŀ
Ġp oco
t ÃŃn
b ern
Ġc ir
iv il
Ġsigui ente
ci do
Ġ ub
ch e
Ġac tivi
Ġsegun da
Ġa ta
Ġfe brero
Ġre lig
p endi
Ã± as
i cia
cu m
Ġc ambi
Ġh izo
v es
re g
Ġtrab ajo
Ġfamil ia
Ġper io
ĠÃ¡ l
Ġa quel
Ġban da
i el
Ġin dust
ten er
t ada
Ġten ÃŃa
Ġl anz
c k
âĢ Ķ
ica ciones
i das
ĠMar ÃŃa
Ġorig en
ĠCar los
ĠÃºlti mo
Ġm or
Ġnuev a
1 7
ab or
ĠpolÃŃ tico
Ġhab er
ĠN e
Ġter min
Ġl es
Ġt ri
ĠâĢ ľ
on as
Ġmedi ante
Ġ 0
Ġf or
ĠMad rid
ĠEuro pa
t ran
Ġest re
Ġtar de
ĠEn tre
Ã¡ tica
ĠT ras
Ġprincip ales
Ġob ras
ĠLu is
Ġel em
ic al
Ġanti gu
1 5
Ġin st
Ġcontro l
Ġp in
ol u
br os
Ã©c n
gra fÃŃa
Ġt ro
Ġso cial
Ã© ase
ĠP ol
uer do
Ġan im
p Ã³
Ġmunicip io
q uer
aj es
ĠtÃ©r m
Ġ| |
Ġd omin
Ġest o
Ã¡n dose
Ġd ÃŃas
gent ina
Ġex per
ÂłÂł ÂłÂł
Ġpro ble
Ġlo gr
c Ã©s
or o
m on
Ġpal ab
tiv amente
ut bol
Ġprim eros
or n
ĠI g
er as
Ġmo der
ĠRe pÃºblica
h n
por te
an t
Ġp ri
Ġa um
iv o
de l
Ġb aj
Ġs ino
r ic
ru z
ĠP la
ĠÃ¡l bum
Ġcas i
im o
Ġ2 5
te l
Ġun ivers
g as
di do
Ġcon oc
ĠF e
Ġcu ales
v ia
ol a
m ientos
Ġn um
per io
i re
ĠDes de
b ia
Ġmil itar
Ġel la
ĠG ar
an za
r y
Ġh istÃ³r
1 6
Ġhabit antes
Ã¡ tico
re cu
iv a
f a
an as
Ġf utbol
Ġprof es
Ã© tica
Ġdi se
ĠFran cis
ĠCom o
iz aciÃ³n
Ġm at
ĠH istoria
ÃŃ os
Ġllam ado
Ġder ro
Ġt ener
Ġconoci do
Ġg en
g el
Ġar t
Ġest ruc
Ġg ri
d al
Ġfr ente
ter min
Ġ19 0
pues ta
Â º
ĠmÃºs ica
ĠT er
Ġdes cu
emp re
Ġob s
Ġex pres
m ar
re de
k a
ĠG e
Ġproces o
k e
Ġc rist
Ġinv esti
Ġres pec
ĠT e
c re
Ġal c
ci dad
Ġad minist
c ado
pues to
Ġt he
pe z
Ġterri torio
ĠP rim
Ġdes c
Ġis la
Ġpor que
Ġfran cÃ©s
Ġhab ÃŃan
Ġv ia
is o
ĠR a
ĠD i
ĠÃ© x
1 2
Ġproduc ciÃ³n
ion al
er ro
ĠF ern
it os
b ro
Ġh or
ĠH er
il ar
Ġs an
Ġ =
Ġconside ra
us iÃ³n
ÃŃst icas
ĠB a
if ica
Ġimport antes
tu d
Ġdeci r
ĠM us
p h
Ġhi jo
ĠV Ã©ase
ad amente
z os
ed ro
Ġf recu
Ġpes ar
t bol
ti ene
Ġ ir
ig o
ĠT ra
Ġmo de
ĠAn ton
Ġpue blo
ĠMun dial
om as
ĠS ol
Ġ3 0
ĠM or
Ġn orm
.. .
Ġes p
Ġtrad i
Ġg u
Ġb ase
Ġre al
ĠNuev a
1 4
f on
Ġa ut
Ġcu ar
Ġcom par
il lo
Ġincl uso
bi r
Ġfutbol ista
ti a
on io
i u
ens a
Ġma teri
Ġalc anz
m ana
Ġig ual
Ãº tbol
Ġs ÃŃ
Ġde be
Ġl im
e v
ĠtÃ©rm ino
Ġa h
Ġper ten
ar do
in ado
u do
ĠS h
ÃŃ gen
ĠH a
Ġgo bern
ĠdÃ©c ada
Ġcom paÃ±
Ġ ital
Ġem ple
Ġes a
Ġinter pre
Ġb lan
ab les
Ġcom Ãºn
Ġtempor ada
Ġm al
Ġsi empre
Ġcom ien
b el
ag n
Ġoc as
b ur
ta g
ue gos
ĠP r
ĠCh ile
u ri
i ana
bl es
e as
atal la
re z
Ġactu al
= "
ĠO l
Ġcin co
ĠFrancis co
v il
n as
ĠP edro
Ġt Ã©cn
Ġfin ales
vi eron
Ġcon di
ĠT h
st as
Ġpa pel
teri ores
Ġa tra
Ġcr ÃŃ
Ġac uerdo
Ġs ab
Ġconstr ucciÃ³n
Ġgru pos
ĠD a
en d
i ente
b al
Ġ20 2
ĠP rem
19 8
tu vo
Ġmiem bros
v ers
ĠSeg Ãºn
Ġdi f
Ġal rede
Ġrecon oci
Ġmuch o
Ġpos ible
p ciÃ³n
t Ã³n
ĠS er
ac o
Ġb o
Ġb us
Ġinf lu
res pon
ador a
Ġla do
Ġp adre
k i
en ci
Ġsuper fici
Ġdecl ar
Ġcer ca
se g
dr ÃŃa
Ã³ s
Ġfuer a
ĠG al
m ent
ĠE m
ĠCu ando
l Ã©s
ier ra
Ġpos e
Ġprop ie
ien cia
Ġre laciÃ³n
Ġ18 9
Ġpro duci
Ġex pl
ĠlÃŃn ea
Ġcas a
ÃŃst ica
uro pe
Ġc ivil
Ġcual quier
Ġde termin
ti sta
qui tec
Ġmuch as
Ġcam bio
ĠH o
1 3
Ġf ac
ar an
ta ba
in aciÃ³n
Ġsu f
ra c
av or
Ġcol or
on d
p la
Ġse par
ĠA d
man ia
Ġcl ub
ta ciones
ar e
i eron
Ġen erg
s os
ar ca
Ġcuer po
Ġac t
Ġcomenz Ã³
p aciÃ³n
en as
ĠDes puÃ©s
Ġp at
Ġ os
) :
Â °
par tam
Ġper man
Ġest u
ente mente
d ica
f t
ĠJo hn
ĠAm Ã©rica
ĠR eg
Ġnum eros
Ġprop io
Ġencuent ran
x to
f f
Ġciu dades
Ġconj unto
Ġcor respon
ĠespaÃ±ol a
Ġcon ver
Ġc at
ĠEst o
Ġ200 0
Ġg e
Ġub ic
ra m
Ġmov imiento
Ġedi fici
x ic
ul o
Ġ w
vi er
Ġan d
ti en
k o
if icaciÃ³n
Ġpr Ã¡c
Ġ %
Ġt ÃŃtulo
Ġas es
ci n
m en
gres o
ti o
ĠT or
Ġconvir tiÃ³
ti z
it or
Ġdi o
Ġlleg Ã³
ĠIn terna
Ġc Ã³
em a
Ġel eg
t ando
Ġcu m
ĠAnton io
Ġprincip almente
Ġel lo
Ġcom b
ĠÃ©x ito
Ġnom br
Ġen fer
er va
em or
Ġej Ã©rcito
Ġse gu
Ġf ÃŃs
Ġdis co
Ġescri tor
es a
Ġex tra
Ġf avor
Ġen car
Ġso ci
Ġestudi o
tic ular
ist ro
Ġloc al
Ġcons erv
Ġmu es
Ġing lÃ©s
l ar
Ġg ui
i te
m it
Ġfran ces
Ġg Ã©n
Ġespeci es
Ġs ac
Ġa Ãºn
Ġ ol
ĠAr gentina
v an
Ġh on
ent Ã³
Ġh istor
Ġl uch
l io
Ġvers iÃ³n
Ġcam po
Ġser ÃŃa
ĠRe al
Ġf ig
Ġg as
Ġin ten
Ġ iden
es t
Ġ2 4
Ġp an
Ġsign ifica
l la
lan d
ĠL ib
l ÃŃ
Ġprinci pios
ech a
Ġreg res
Ġr ad
Ġd u
Ġet c
ĠJ a
v ÃŃa
Ġllam ada
ĠA unque
og ra
itu d
ĠAl gun
Ġv uel
Ġest ilo
ĠG ener
Ġ18 8
c le
ĠS oci
ĠIm perio
ac e
Ġe duc
Ġo bl
or k
Ġdi vi
Ġdes cri
Ġalrede dor
ul tura
Ġv a
stitu ciÃ³n
Ġe urope
Ġam bos
t ales
ar Ã¡
Ġp en
b or
Ġpues to
de z
c ÃŃa
Ġmo do
5 0
ĠUn iÃ³n
Ġper ÃŃo
Ġac ep
Ġval or
c or
Ġse a
Ġp on
Ġres pon
r ad
rim onio
Ġv ic
Ġlib ro
ĠB er
Ġac tor
ri to
Ġab and
ui da
1 1
Ġapro xim
ĠM in
Ġm it
eg a
Ġcom pe
Ġv ir
Ġhom bres
ĠÃºlti ma
ĠÃ¡ rea
gr Ã¡f
ĠP os
tur ales
Ġen fr
ti fic
Ġtier ra
Ġrelig ios
Ġo p
Ġde dic
Ġespeci almente
Ġar quitec
ĠC ab
c om
Ġb al
Ġl uz
r Ã³
Ġcir c
Ġcar go
d ico
Ġres to
ĠRe ino
ter o
Ġrela cion
Ġa gr
ĠPar tido
ĠP al
Ġte lev
ĠE j
i x
Ġv el
Ġ '
ĠC iu
Ġb u
Ġr u
Ġa do
ĠpÃºbl ico
ĠS ur
Ġestudi os
an to
Ġsigui entes
Ġr Ã¡
ens o
Ġpar ticular
Ġp ens
Ġan terior
ĠCo pa
Ġa z
ĠAle mania
Ġcu r
ĠIg lesia
Ġdo cum
ĠCas til
ent ar
Ã© tico
Ġh oy
Ġofici al
Ġ200 7
ve la
Ġale mÃ¡n
Ġal ta
d ra
Ġin m
ĠT a
g ado
du jo
Ġ201 0
ĠA t
Ġ Ã³r
ÃŃcul as
pen dencia
ul as
ĠP res
Ġj uego
Ġtem pera
Ġal im
ar o
Ġb atalla
Ġ200 6
Ġdes em
Ġcan tidad
Ġm ol
Ġpro ce
t amiento
Ġt ur
Ġ200 5
Ġelec ciones
ĠI tal
ac k
ĠV en
Ġk m
t y
Ġda tos
Ġim ag
Ġcons ig
Ġre un
aliz aciÃ³n
Ġcon cep
ĠS us
g aciÃ³n
ient ÃŃf
Ġenerg ÃŃa
Ġ18 7
o d
t Ã¡
Ġfun cion
ĠR am
r Ã¡f
re as
ĠPer Ãº
Ġ| -
Ġmen or
ĠF in
ber t
ĠR os
Ġmes es
Ġespe cial
Ġz onas
ĠGo bierno
ac a
Ġsuperfici e
Ġau to
l ic
ri dad
un ca
Ġespa cio
Ġ2 2
Ġdirec tor
il las
L a
Ġcent ral
19 7
Ġ2 3
Ġcar rera
. ,
Ġpun tos
Ġelem entos
r Ã¡n
dad os
ĠB e
ru y
Ġse lec
p lo
in es
ch os
or ge
Ġprim ero
per ador
al la
Ġproyec to
Ġm os
duc ciÃ³n
Ġcab o
ec er
Ġin tro
Ġest ar
Ġfuer zas
Ġ on
st e
) ;
ĠC rist
Ġ Ã³
Ã© m
i ro
Ġresul tado
Ġ200 8
Ġfun ciÃ³n
ĠA b
ĠR es
Ġpro b
Ġhom bre
ĠP as
cul o
vi du
Ġpro por
il es
Ġin str
Ġ /
qu ÃŃ
ic k
gu ay
Ġar te
Ġa pl
ta ble
Ġfuer te
Ã³n ica
ĠB ol
Ġfr on
Ã©n dose
Ġantigu o
l ad
ĠQ u
ĠN orte
Ġinterna cional
Ġex tre
di r
Ġconoci da
pos i
Ġr en
Ġcam pe
e b
tar io
Ġsu ces
Ġmon ta
Ġ18 6
Ġact riz
Ġan un
il i
ĠMan uel
ĠInterna cional
Ġ200 4
Ġor ient
tia go
Ġam bi
ĠP ero
ĠÃºn ico
Ã¡ st
Ġc ine
de ro
Ġsuper ior
ĠperÃŃo do
ec en
Ġvi ol
ĠM ig
Ġcomp r
Ġcon ce
Ġcon qu
Ġm ul
Ġdist rib
Ġpos iciÃ³n
Ġc ri
tor ios
Ġc ientÃŃf
tr Ã³
h u
Ġs Ã³lo
eci Ã³
Ġo cur
Ġfin almente
Ġab s
Ġse x
Ġmujer es
ĠAs ÃŃ
Ġpos ib
Ġf a
E l
u ras
c en
ĠM i
Ġal to
Ġf o
Ġindi vidu
g er
v el
Ġlen gua
Ġal g
Ġra z
Ġsec re
ti tud
cel ona
Ġ200 9
ĠCiu dad
Ġme xic
Ġelec tr
am eric
ÃŃst ico
ĠH ar
Ġre d
Ġrepres enta
Ġs a
Ġes per
Ġ [
Ġv iv
Ġ201 1
Ġe dad
Ġcu ad
Ġcul tura
Ġme tros
Ġprogra ma
Ġindust ri
Ġsitu aciÃ³n
Ġe p
Ġse is
Ġcas os
Ġ1 00
Ġde ri
Ġel las
Ġpre m
Ġinter ior
Ġcol on
Ġre cu
Ġcon t
Ġparti dos
ri r
Ġest aban
Ġh o
er io
Ġobs erv
pon e
ogra fÃŃa
Ġcan tante
ĠMar tÃŃn
Ġf on
ĠSan tiago
ĠItal ia
p r
partam ento
ri que
uen os
Ġcon ten
Ġun as
Ġpo ten
ĠV ir
am os
c Ã³
Ġorigin al
Ġli bre
Ġsig lo
Ġcon tr
Ġre cur
ĠV ic
Ġfuer za
Ġproble mas
Ġar gent
h er
h t
ĠIn ter
Ġd ar
Ã© g
ĠB an
ĠS on
tor ial
Ġinform aciÃ³n
Ã¡ g
ist e
ci mientos
Ġa fec
Ġactivi dad
a u
se jo
Ġ2 8
3 0
Ġaband on
ĠO ri
Ġf i
Ġg al
d ado
ĠB al
Ġv ent
Ġd ic
ĠMig uel
ĠCl ub
Ġservi cio
Ġdere cho
Ġd in
en da
ĠPrem io
Ġpres encia
Ġmen cion
ta c
Ġn unca
Ġmode lo
Ġde por
Ġ2 7
Ġf l
tu al
ĠIn g
Ġte orÃŃa
Ġcons ecu
ĠBar celona
Ġpas o
me tros
ĠFern ando
Ġam or
Ġ2 6
ĠD o
Ġ2 1
la ter
Ġenfer me
ĠM ay
iz a
l er
ĠM al
p es
Ġmedi da
i res
on al
Ġal go
ciden tal
Ġloc alidad
ist encia
Ġprov oc
Ġpr on
c era
Ġdifer encia
tag on
Ġf Ãºtbol
Ġ ib
Ġestruc tura
ĠY ork
t aron
ent ales
ular es
ue lo
Ġtelev isiÃ³n
Ġprop ia
p s
Ġl ig
Ġs os
Ġe r
Ġ200 3
ĠD em
Ã©c tr
in s
Ġel im
ĠPar ÃŃs
ber to
Ġte c
ĠSeg unda
ĠI II
Ġo este
to do
as a
ĠV er
Ġprov inci
at os
Ġpr ue
ĠB en
per aciÃ³n
Ġc el
Ġcre aciÃ³n
Ġsistem as
ĠR ec
ĠbritÃ¡n ico
ĠCh ina
Ġdes a
Ġcapa cidad
Ġtro pas
Ġt rib
ÃŃcul o
Ġperio do
j ar
k m
Ġb or
ĠLe Ã³n
Ġcol ec
d ar
Ġexper im
Ġapo yo
ĠO c
ĠEst os
t ino
Ġm ec
Ġservi cios
Ġprimer as
t ina
aj a
Ġp uer
ĠS ch
Ġinflu encia
u ales
Ġexist en
Ã¡n do
Ġprincip io
Ġse de
di eron
Ġpar tes
Ġj u
um ento
ĠB el
f e
ie te
m ano
Ġpos teriormente
Ġmil it
Ġm adre
ĠCent ro
Ġdescu b
Ġdis pu
Ġcon ci
cia ciÃ³n
Ãº a
Ġcons um
ĠC ap
Ġmedi a
Ġinde pendi
Ġperson a
h am
Ġf Ã¡
ib lio
ĠgÃ©n ero
ona to
t om
ces o
Ġexist e
ĠÃºlti mos
r ados
Ġt ama
ĠseÃ± al
ĠH e
Ġgran de
Ġ199 0
ci endo
Ġcaus a
Ġ201 2
Ġlleg ar
Ġar m
Ġfund am
ĠM er
Ġca teg
Ġcl Ã¡s
Ġvel oci
g Ã³
ĠrÃ¡ pi
am ientos
ri do
Ġ il
olÃ³g ico
Ġdivers os
r ÃŃa
m ac
h an
Ġpos i
ĠIn stitu
n er
r ada
ÃŃ p
ĠH u
Ġno che
Ġreg ist
Ġanti gua
el i
b u
tu s
Ġse m
Ã ¶
Ġs ir
ĠâĢ ĵ
pues tos
19 6
Ġreci biÃ³
Ġnuev os
Ġdirec ciÃ³n
ĠD ios
ab ilidad
Ġ5 0
Ġpermi te
Ġp oc
ĠH ay
gun a
Ġo pera
ĠSu per
Ġf echa
âĢ ĵ
ue z
Ġpalab ra
ĠG re
ĠJ un
Ġimport ancia
ĠAu tor
Ġobl ig
ĠD el
g al
Ġencon tra
Ġes pos
Ġin d
in i
r or
Ġinc or
Ġfun dad
Ġcon ven
Ġnuev as
Ġre ac
ĠR oma
Ġempres a
ĠE di
ĠR us
ĠT ierra
la ciones
Ġac er
Ġc ic
ĠD iv
Ġsoci edad
ĠP an
em os
Ġ200 2
Ġcu yo
Ġsu st
Ġe ta
Ġtra ta
i am
n es
ti stas
Ġapar ece
an ci
ĠGener al
ien e
ĠCom un
Ġa ire
Ġ200 1
Ġpas Ã³
is is
Ġgra b
es tiv
e go
ĠG ra
Ġem pez
i anos
Ġej er
bl os
Ġf ab
ĠW ill
ĠEs c
Ġref orm
Ġ199 9
ĠRe y
Ġhi jos
Ã¡ ticas
Ġcor ri
ĠCol om
Ġestu vo
f i
den te
Ġedi ciÃ³n
Ġj ef
Ġgra cias
Ġ18 4
ent ado
Ġpre par
Ġac om
Ġpri v
tu l
ala cio
Ġform aciÃ³n
ĠD is
Ġper s
ĠPrim era
ĠC os
Ġ idi
cep ciÃ³n
Ġj o
da p
ĠR om
gu st
Ġargent ino
Ġaproxim adamente
ĠA ires
v as
Ġsen tido
Ġform as
ĠM ag
ub o
Ġtec n
ur os
Ġen c
ĠM il
Ã¡c ter
Ġcele br
iden te
Ġmun dial
later ra
Ġital iano
Ġcan ciÃ³n
Ġin stitu
ĠJ ap
Ġre tir
ti m
en es
Ġt a
Ġf irm
Ġah ora
in ar
Ġv oc
Ġtama Ã±o
Ġconsig ui
Ġf ra
le y
Ġinte gr
Ġhon or
Ġem perador
Ġre co
v is
Ġcum pl
str al
Ġpres enta
Ġconstitu y
Ġdivers as
Ġig lesia
Ġcu ya
Ġcon v
Ġcar Ã¡cter
Ġpro tagon
e y
Ġcos ta
âĢ Ļ
Ġa bier
Ġproduc tos
Ġqu ÃŃm
Ġmit ad
Ġob st
Ġno vela
Ġdo c
Ġay ud
em pl
tera tura
Ġobje tivo
Ġ2 9
Ġpr omo
Ġor o
y os
ĠP at
Ġrespec to
an cias
ĠS te
d ores
ĠJ es
s es
' s
Ġorganiz aciÃ³n
Ġcaracter ÃŃsticas
Ġimag en
ura ciÃ³n
ĠMus eo
Ġman if
an ce
Ġde str
cent er
ui dos
d on
Ġsec tor
ĠIng laterra
Ġm agn
ĠÃ ī
ĠnÃº cle
ran do
Ġdich o
Ġcre cimiento
ĠB uenos
Ġpo drÃŃa
Ġman ten
ir se
Ġdere chos
Ġj ust
Ġperson aje
ti f
Ġllev Ã³
ĠC ruz
Ġb om
t t
Ġd ice
Ġinter Ã©s
Ġactu alidad
Ġne go
Ġis las
Ġcon cent
ĠM as
qu ÃŃa
Ġcondi ciones
Ġperson al
Ġn in
Ã¡ ticos
ient es
ĠE r
Ġcom pon
Ġti pos
Ġmen udo
Ġim p
Ġsim ple
Ġtrans form
Ġactivi dades
Ġrealiz ar
ab lo
Ġcom pos
ĠRe v
Ġpo bl
ĠO b
Ġ198 0
Ġconf lic
l y
ti da
Ġc la
xim o
t adas
ĠB ras
t ÃŃa
Ġ iz
Ġecon omÃŃa
Ġincor por
Ġen vi
Ġman os
Ġcan dida
ĠÃºn ica
ol e
esti Ã³n
Ġmateri al
Ġur b
s i
Ġcat Ã³l
Ġ18 2
Â ²
j es
Ġl ong
Ġ201 3
Ġconf orm
Ġqu in
olu cion
ÃŃ g
k er
Ġ199 8
ĠCon s
Ġtier ras
u almente
Ġpalab ras
l i
Ġn ues
Ġac ab
tu m
w s
Ġdis pon
ĠCastil la
Ġa dap
Ġac ciÃ³n
Ġa ten
Ġes cu
ĠB or
Ġsim ilar
in d
ĠAlgun os
ĠT ÃŃtulo
Ġof re
ber g
Ġ18 5
Ġde mos
Ġm emor
ĠG on
Ġutiliz a
ĠUn ido
Ġ201 4
v ent
Ġt ales
ĠCon greso
Ġes f
ier e
Ġveloci dad
tu ro
tic amente
Ġr adio
e os
Ġal lÃŃ
pul s
iv os
Ġm ic
Ġte ma
Ġj ud
p al
vi d
Ġactu almente
Ġas pec
ĠÃģ n
p ir
Ġme z
Ġrefer encia
Ġmer cado
ĠN ic
Ġsu ce
Ġacom paÃ±
ÃŃcul os
ian za
Ġocas iones
es e
ĠE d
Ġmin istro
ĠJap Ã³n
Ġado p
Ġapo y
Ġrela ciones
Ġcomun idad
Ġex tran
Ġt ab
Ġv ig
Ġob ten
ien cias
on te
Ġinst al
ar lo
g ip
w a
ia ciÃ³n
ĠD ie
Ġ201 5
ĠF er
Ġmus ical
ÃŃ r
ac to
ĠLe y
im e
te ll
Ġdes con
Ġmiem bro
Ġjo ven
Ġre alidad
Ġ &
Ġel Ã©ctr
Ġfun da
di endo
an s
Ġedifici o
Ġf ies
Ġcan ciones
it as
z ado
cl am
Ġm ano
it es
Ġa cu
Ġ18 3
Ġpue blos
Ġapro b
Ġtras lad
Ġ4 0
ĠCon sejo
ens iÃ³n
Ġre cha
estiv al
ĠP re
ĠF uer
Ġindust ria
z Ã¡
Ġcu anto
Ġcol abor
ĠFe der
Ġtempera tura
it ario
Ġrec or
ĠM Ã¡s
ĠL ond
um entos
Ġn os
Ġiz quier
ĠL i
e tas
se Ã±
ir ma
Ġefec to
ĠF il
ĠY o
p ado
ĠGar cÃŃa
. )
Ġcom ba
Ġinter es
Ġest ra
ĠT ur
ci ente
Ġentr en
us a
ar ra
Ġpeque Ã±o
ĠespaÃ±ol es
Ġmo di
ÃŃm p
qu il
te ca
Ġher mano
Ġd ado
Ġel ev
Ġl ec
n i
ĠD on
ter ÃŃa
am e
Ġproduc e
Ġas oci
dem ia
di os
ĠColom bia
Ġmues tra
Ġide a
Ġa vi
Ġpublic Ã³
Ġcal le
l Ã¡n
Ġv an
Ġquien es
Ġlen guas
tor no
Ġmay ores
olÃ³g ica
Ġincluy endo
Ġal tura
ig os
den a
ĠB ur
4 0
Ġdise Ã±
Ġref le
oc h
Ġv as
Ġv eci
Ġna v
Ġanim ales
Ġvic toria
cul os
Ġin fer
Ġrealiz Ã³
ĠR ÃŃo
pe di
on el
Ġlogr Ã³
Ġre duci
Ġmilit ares
Ġay uda
ÃŃf ico
Ġescri biÃ³
Ġ199 6
Ġlug ares
ĠV illa
man as
Ġgener almente
ĠJ e
ciden te
ĠD omin
Ġ199 7
l en
Ġclas e
ĠEst as
Ġgan Ã³
Ġespeci e
ĠM u
it an
Ġg uer
k s
Ġperson ajes
Ġsign ific
Ġrespon s
Ġo tor
qu ia
ĠO tros
ĠT om
Ġpu do
Ġs iete
bl ic
tis mo
in t
Ġincluy e
ic ales
ĠP u
ay a
Ã¡n ica
ĠAl fon
ist o
uy e
Ġcont rib
is mos
Ġmin u
ĠBras il
Å į
ri os
ter as
man es
ĠT rans
rib e
ĠC at
Ġdi g
tu almente
pi as
ĠÃ¡ r
ĠVen ez
ĠcompaÃ± ÃŃa
Ġeduc aciÃ³n
Ġinvesti gaciÃ³n
ĠeconÃ³m ica
Ġma tem
Ġb el
ĠQ ue
Ġdeci diÃ³
Ġenfr ent
ÂłÂłÂłÂł ÂłÂłÂłÂł
Ġexist encia
ÃŃ c
Ġconst ruy
uc le
Ġhor as
ĠM at
Ġar ch
Ġbaj a
Ġpropor cion
Ġcam paÃ±a
Ġhi ja
ĠF o
ĠA y
Ġk il
Ġ197 0
Ġdise Ã±o
ĠC atal
ÃŃn ci
Ġmedi os
fer encia
Ġf ru
Ġpla ta
ib les
t ador
ĠInstitu to
Ġ i
Ġch il
Ġli ter
ĠH um
ero p
Ġex pan
Ġex cl
ti dos
ÃŃm bol
Ġsur g
bur go
Ġqued Ã³
ĠEn rique
ĠD an
ĠP ue
ĠDiv isiÃ³n
ĠLib er
Ġprob able
Ġh u
ur Ã³
Ġp i
Ġcal idad
ĠO s
os p
ĠL iga
Ġcon duc
Ġhum anos
d ÃŃan
Ġobje to
un do
Ġb Ã¡s
in al
Ġd Ã³l
Ġv ista
Ġsig los
ris is
Ġe vi
im en
Ġfal le
Ġequi pos
Ġpeque Ã±a
Ġmunicip al
s u
Ġcer c
ĠCh ar
Ġc Ã©l
Ġplan tas
Ġdi ez
Ġs uel
Ġcomer cial
Ġni Ã±os
Ġ199 2
Ġv ide
Ġm ando
Ġfig ura
ĠF eli
Ġpa tr
am es
Ġb os
mi te
or e
ris mo
ĠS ec
ĠB as
Ġp uerto
ich a
Ġlong itud
ĠÃģn gel
o j
ĠCam pe
Ġso ciales
Ġen s
ĠT u
Ġcab eza
Ġespos a
it ado
Ġfun ciones
Ġten ÃŃan
Ġin gen
Ġcul tural
Ġre ino
oc k
es tr
Ġ20 19
ĠÂ ¿
ter rÃ¡n
es iÃ³n
Ġ199 4
Ġtradi cional
ent aciÃ³n
Ġar mas
Ġev itar
ur al
Ġa de
Ġter cer
Ġinde pendencia
Ġh e
ĠV i
i ado
Ġpose e
d amente
l las
Ġconver tir
is iones
Ġvo z
ven ciÃ³n
gen es
c la
Ġreg iones
ĠFeli pe
ĠA g
ĠJ er
Ġdefin i
Ã¡n dez
Ġdich a
Ġnombr ado
Ġpel ÃŃculas
II I
ari ciÃ³n
am p
Ġf en
Ġde partamento
Ġencontr ar
Ġconsider ado
Ġter cera
Ġs il
i ales
qu is
ĠD ÃŃa
Ġman tener
ist en
Ġconoc e
Ġ199 5
Ã³n imo
ĠNe w
ĠU r
ing Ãºn
ĠE dad
2 5
Ġ201 6
tes is
ra el
di go
Ġa plic
i ar
ci da
ci na
Ġin dic
ĠWill iam
Ġ201 8
de res
Ġlle va
Ġcam ino
Ã¡l isis
ĠB ern
Ġpro teg
ren o
Ġob tuvo
Ġp ul
Ġte mas
ĠVenez uela
un tos
Ġsig ue
Ġobst ante
tr Ã¡s
Ġat rib
ĠAlfon so
Ġar g
b ran
Ġdi os
Â ª
Ġtiem pos
ĠcÃ©l ulas
19 5
ĠS im
it y
am Ã©rica
Ġver ano
8 0
Ġjug ador
Ġtrad iciÃ³n
em en
Ġsue le
om Ã©
Ġp s
Ġcon cl
Ġest aciÃ³n
tivi dad
| |
Ġte x
rag Ã³n
Ġmedi ados
es ta
ĠY a
Ġfu ente
Ġhistor i
Ġob tener
de o
Ġdiv isiÃ³n
Ã ¨
ÃŃn s
Ġ199 1
Ġcon ec
r um
Ġgol pe
Ġaf irm
r ar
Ġh ici
Ġqu Ã©
Ġjef e
ĠF u
Ġcambi os
Ġ quer
ÃŃtu los
m er
Ġnatural eza
Ã¡m ara
Ġcom e
Ġvol viÃ³
ĠMe di
an ÃŃa
ion ales
la v
w are
Ġs ang
Ġempres as
Ġpos terior
Ġin gres
Ġas um
Ġcomun icaciÃ³n
cur so
Ġpro tec
Ġind ÃŃgen
ĠG a
g ada
Ġfrances a
Ġnumeros os
pl es
ĠEj Ã©rcito
Ġcon tem
ĠCas a
ĠEuro pe
Ġextran j
Ġem b
ĠLond res
Ġel abor
Ġmat rimonio
oc r
Ġlen gu
Ġv ac
Ġde pen
ĠA ca
is po
Ġsu stitu
Ġpar que
Ġres ta
Ġt oc
ci dos
Ġa guas
Ġtoda vÃŃa
emp la
Ġeleg ido
ÃŃ z
i des
Ġn ingÃºn
Ġre par
Ġgui tar
Ġin vi
Ġeta pa
Ġcon tac
ter n
Ġa gu
Ã³ c
Ġl ista
ĠP uerto
t n
p ie
c omo
al e
Ġun idad
Ġs om
le z
Ġmej ores
Ġdist ancia
Ġloc ales
og rÃ¡f
ĠDa vid
Ġesc uela
ĠD er
ĠcÃ³ mo
ech o
ue las
Ġes ca
v ador
Ġas c
Ġ201 7
ĠA st
Ġ x
os os
Ġin me
Ġcor te
Ġad qui
ĠprÃ¡c tica
un di
Ġadminist ra
ĠCent ral
ĠM ac
Ġentr ada
2 2
Ġlib ros
Ġdistin tos
ĠÃ¡ reas
Ġdi jo
Ġfin aliz
om ina
ĠlÃŃn eas
Ġrev ista
Ġpo eta
x ima
Ġincluy en
es o
Ġcl ima
u f
fr ica
al ista
Ġar ro
Ġllam a
al o
Ġcon seg
Ġtrans porte
ĠÃ¡ ra
de raciÃ³n
Ġdem Ã¡s
Ġrom ano
ĠAn ti
k y
ĠH ol
Ġproduc to
Ġgobern ador
Ġdes ign
l in
ĠSe Ã±
on e
Ġfal ta
or ÃŃas
Ġen em
Ġej empl
Ġ3 1
en se
Ġefec tos
ĠC la
Ġc ruz
Ġpar e
w n
Ġ199 3
Ġpo dÃŃa
Ġs ÃŃn
n et
Ġan teriores
ĠG er
den tes
til lo
is p
Ġpro dujo
Ġt ÃŃp
Ġp Ãºblica
Ġpres iÃ³n
ĠpolÃŃ ticos
Ġsegu ridad
Ġcateg orÃŃa
ĠÂ ¡
Ġal cal
Ġperio di
Ġcre ar
Ã©g imen
Ġa di
t antes
ĠB ro
Ġre empla
Ġe cu
ĠB ri
iv e
Ġs ens
Ġres tos
Ġcol oc
Ġpr ome
Ġma es
Ġim pres
Ġ196 0
Ġdesa par
or g
Ġconcep to
ĠM uch
re y
Ġpropie dad
ĠCon stituciÃ³n
Ġg ira
Ġhum ano
Ġderi v
Ġcar re
a ug
ĠJes Ãºs
en ca
Ġor gan
ac es
Ġform ar
endi Ã³
Ġ20 20
ĠM ientras
6 0
Ġfin anci
Ġconsecu encia
Ġluch a
Ġblan co
Ġconvir ti
ÃŃnci pe
Ġinf l
Ġej ecu
ĠP lan
Ġa st
Ġata que
pu blic
ĠdÃ³l ares
Ġdis min
ĠÃ¡r bol
Ġalg Ãºn
ent an
Ġkil Ã³
Ġenferme dad
ĠM c
Ġgri ego
u x
a to
Ġp ris
Ġproble ma
Ã³ st
ĠhistÃ³r ico
r om
Ġb ol
min os
Ġli teratura
Ġalgun a
Ã³n ico
Ġcon vier
Ġo cho
un ci
Ã³lo go
f il
ĠEs paÃ±ol
Ġ ran
Ġsal ud
Ġc risis
Ġse cu
tu gu
it Ã¡n
um en
te dr
Ġac ceso
Ġrecu per
Ġprem io
ĠA z
ill er
Ġ Î
Ġcompos itor
Ġsec und
ĠAr m
Ġcar b
Ġ6 0
Ġest ados
2 3
erop uerto
ĠÃģ frica
Ġdistin tas
Ġtor n
ĠOr den
ĠH en
im ientos
y as
ĠAn dr
ĠP ablo
Ġclas ific
Ġj a
Ġcomer cio
and ro
ĠRus ia
Ġres iden
ĠPa ÃŃs
ar t
Ġt oma
Ġconci er
ĠL uego
Ġf er
Ġresul tados
f os
ĠJ ust
as h
tien en
Ġre bel
im ismo
c Ã¡n
le g
ĠAle j
ĠM ari
Ġson ido
il io
Ġser Ã¡
io grafÃŃa
Ġiden tific
Ġ198 9
Ġfo to
olÃ³g icos
Ġ18 0
Ġfu entes
Ġcompe ti
ĠI V
Ġsol dados
Ġd an
Ġvia je
ri eron
Ġna cionales
Ġlleg ada
ĠR ich
ĠtÃ©r minos
Ġ8 0
ad al
d an
ul os
ÃŃ da
or t
ĠL in
ul ta
Ġselec ciÃ³n
Ġau tores
Ġrealiz a
Ġb ene
Ġme tal
Ġfrecu encia
in te
Ġp Ã©r
Ġutiliz ado
Ġ Ã¡n
tor ias
Ġhab la
s en
o t
Ġ ras
Ġper iÃ³
Ġac us
Ġpa z
Ġus u
ĠF re
ĠJ orge
Ġos cu
Ġplan ta
Ġs ÃŃmbol
ĠAn d
Ġpeque Ã±os
Ġobje tos
Ġdist rito
i ores
ist erio
Ġadminist raciÃ³n
Ġher man
ĠC er
ici pios
Ġar que
Ã³ vil
ĠP h
Ġin icia
Ġte atro
Ġm ad
Ġaz ul
Ġej ec
Ġen seÃ±
ĠlÃŃ der
ter ia
ĠpolÃŃ ticas
Ġpla za
am ble
ĠT i
Ġjug adores
Ġraz Ã³n
Ġen ter
Ġb lo
Ġf ase
Ġcre Ã³
Ġvi vi
ĠM en
Ġpro tes
Ġam ar
Ġcele bra
u ta
Ġprovinci as
ing Ã¼
Ġb i
Ġhab itu
Ġofici ales
Ġsu fici
is la
Ġpartici paciÃ³n
ĠDe bido
Ġterri torios
Ġcon tiene
Ã³ pez
vi Ã©tica
Ġdej Ã³
ĠeconÃ³m ico
ĠD ist
us e
Ġdif ÃŃ
Ġver da
Ġsu m
Ġoc cidental
Ġim per
Ġinterna cionales
Ġinici o
Ġa udi
Ġb re
il ares
es ÃŃa
ad Ã¡
am il
ĠH ab
Ġy o
Ġf lu
ÃŃns ula
- -
Ġdeb en
ĠEsc uela
Ġliber tad
Ġb uen
Ġas ist
ti les
Ġpoc os
Ġde ber
Ġper mit
Ġte xto
ran o
c ciÃ³n
Ġnumeros as
Ġform an
Ġam bas
Ġf erro
ĠQ ui
Ġconst ante
Ġmexic ano
ĠAc tualmente
y n
19 4
aliz ado
Ġn ada
Ġun idades
Ġantigu os
lam ento
ĠS en
S A
Ġen ci
ay o
ĠE con
Ġt re
e da
19 3
ĠnÃºm eros
Ġv ie
Ġest im
orm e
ĠL uc
ÃŃ tica
Ġmemor ia
t z
Ġro de
ĠB re
is a
me tro
Ã¡m ica
iz ado
Ġtrabaj os
ĠL Ã³pez
Ġd Ã©
Ġnom bres
Ġb e
ĠnÃºcle o
c am
Ġperten eci
Ġinv as
Ġ !
Ġj uegos
s idad
Ġpublic ado
hi bi
ĠB lan
b la
Ġsi tio
ab el
Ġpas ado
Ġp ilo
pues tas
w ard
Ġpro te
ĠT ele
ĠV ol
ĠFin almente
p ia
Ġna turales
Ġ :
Ġti tul
ran tes
Ġv io
Ġn ucle
Ġpr Ã³
ĠSan to
ic ultura
u Ã±a
ĠN or
Ġsang re
f ica
Ġrecur sos
ic ciÃ³n
Ġ ÃŃn
ĠB at
Ġm ag
Ġ +
uy Ã³
Ġpre cis
t ri
Ġm ens
ĠRo bert
ĠPos teriormente
Ġpeque Ã±as
Ġex terior
ĠS il
ÃŃ col
eg io
z Ã³
par a
ar ÃŃan
ĠA ust
ĠPa ul
am an
Ġconqu ist
ĠI r
Ġnin guna
Ġpa pa
ven es
Ġproduc tor
os as
ĠPro v
Ġsitu ado
ĠH on
ĠJ uegos
ĠDe por
ic ÃŃa
Ã³ venes
ĠB ra
Ġro ck
Ġam ena
d in
rist a
Ġc iencia
Ġbu ena
Ġ198 6
Ġvis it
un o
ĠkilÃ³ metros
2 1
ĠB r
re o
ĠV ie
ĠEst Ã¡
ĠW il
ĠIn dia
en ario
Ġr Ã©gimen
cion almente
Ġval le
Ġre pro
Ġc e
Ġep iso
Ġidi oma
ĠF lor
Ġh ubo
Ġpo dr
Ġes o
Ġar tes
Ġcomien za
Ġpres ente
Ġc Ã¡l
Ġav anz
iz ar
Ġhac en
Ġing les
ter io
ĠMon te
Ġin aug
Ġdirec tamente
u a
Ġmas a
Ġex pedi
ĠJ ames
Ġs or
Ġim pl
Ġaum ento
ne y
Ġv eg
ĠM ur
Ġizquier da
Ġmu riÃ³
Ġsuel en
g ro
ĠF al
b es
2 4
Ġf lo
T A
Ġaquel los
Ġgu ar
ĠL or
g Ã¼
Ġr ÃŃos
Ġedifici os
an da
m ina
o k
Ġlengu aje
p us
ĠG ol
ĠD u
osp ital
Ġart ÃŃculo
Ġal ign
Ġ198 8
Ġpor tugu
ĠA ragÃ³n
Ġinv ers
Ġv ÃŃa
Ġbar rio
Ġg rado
Ġdirig ida
Ġde cre
er e
an e
Ġg ente
ag a
Ġpie dra
i la
ch es
ĠÃ ĵ
Ġdo ble
d icos
Ġg lo
Ġfab ric
Ġc atal
ĠW al
Ġequi val
Ġcos as
Ġvol ver
z an
ĠMun icip
anz as
Ġal terna
ĠI S
ti g
Ġpel ig
Ġpar ece
Ġform ado
Ġelem ento
Ġinc rem
ĠEst udi
ÃŃ do
s iones
Ġma dera
ĠCos ta
it aria
iv amente
Ġutiliz ar
Ġsue lo
Ġal i
ĠmÃ© todo
in ta
Ġ198 5
Ġdef ensa
Ġcon de
Ġfu turo
ĠVir gen
Ġ198 2
ran te
Ġf lor
Ġper u
tar se
iv as
Ġbas tante
Ġe nl
Ġar tistas
ĠL eg
Ġc ru
az Ã³n
eci do
l ia
ĠK a
Ġmar c
ĠIn de
ĠVal le
s mo
Ġdi bu
Ġtermin Ã³
7 0
ĠPor tu
bi ta
endi do
Ġmul ti
Ġestre lla
E s
ĠE duc
Ġfin es
o od
ci llo
ĠfÃŃs ica
Ġp ad
ĠB os
Ġj Ã³venes
ĠcrÃŃ tica
Ġneg a
Ġtu vieron
iz ada
oso fÃŃa
ĠÃģ l
en n
Ġexten siÃ³n
ĠtÃ©cn ica
Ġbene fici
Ġ198 7
un g
d ro
Ġus a
ti dades
Ġvari edad
amble a
ĠaÃ± ad
Ġcan al
Ġt es
ĠAca demia
Ġsol ici
Ġl lu
ĠSu d
oc he
Ġneces ario
Ġban dera
v illa
ĠVal encia
Ġcon cre
Ġproduci r
Ġutiliz an
pol it
ĠAu stral
Ġdere cha
ĠF a
Ġval ores
Ġconoci miento
Ġas ent
cri pciÃ³n
Ġmus ul
ĠB iblio
Ġneg ro
Ġllev ar
Ġinfer ior
er an
e dades
ĠS am
ĠO ro
Ġdis posi
Ġhici eron
ur ado
Ã³r m
Ġ202 1
ici o
Ġinici Ã³
Ġmateri ales
Ġa us
ĠIn f
Ġtom ar
Ã© ticos
Ġo jos
Ġnivel es
ol o
m entos
ĠW ar
ina to
7 8
Ġpre ten
Ġ198 4
Ġf is
Ġf emen
Ã¡ genes
or as
Ġ197 9
Ġex plo
Ġtri un
Ġarquitec tura
ĠmÃ¡ ximo
Ġcu b
Ġocu p
ĠMe dia
Ġtor no
v isiÃ³n
Ġm ÃŃn
Ġfron tera
l ado
Ġres puesta
Ġpas a
Ġconflic to
Ġal can
if orn
ĠF Ãºtbol
Ġdistrib uciÃ³n
ĠJ ul
Ġanun ciÃ³
Ġla bor
Ġcar ga
Ġtra tamiento
Ġres istencia
Ġlle ga
ari amente
it Ã©
Ġfa cil
Ġfen Ã³m
ch as
Ġmun icipios
l Ã¡
Ġley es
ri e
oc ra
Ġre ina
Ġrec om
Ġcu bier
Ġ198 3
Ġcent ros
Ġprogra mas
Ġm Ãºlti
Ġconsigui Ã³
Ġcom pu
Ġo per
Ġpartici par
Ġvuel ta
ĠP ers
Ġminu tos
Ġestre llas
Ġpas ar
ap ones
Ġ17 9
ĠfÃ¡ cil
ĠJe an
Ġsitu ada
ĠE du
ĠF estival
Ġcorri ente
r in
Ġa str
Ġcirc un
Ġabs olu
Ġfue go
m ento
ĠD os
ĠD ar
Ġ7 0
Ġempez Ã³
Ġprofes ional
Ġrecon oc
Ġb ra
Ġindependi ente
in ados
Ġcer e
Ġhum ana
form a
il idades
om bi
Ġnuev amente
Ġ9 0
Ġmanif es
en das
grÃ¡f ica
Ġas o
Ġna ciÃ³
r Ã³n
Ġsal ida
Ġtorn eo
Ġ( "
tedr al
Ġpermi tiÃ³
ĠmÃ¡ qu
on da
ĠPortu gal
Ġpre ci
Ġinf an
Ġan Ã¡lisis
Ġ195 0
b y
st er
s h
Ġex cep
Ġlar ga
le o
ĠT iene
Ã §
Ġal mac
ĠCh rist
ec ÃŃa
Ġconvier te
Ġdomin io
vi dad
ĠÃ¡ m
Ġo x
Ġesf uer
Ġvia j
Ġencontra ba
Ġman tuvo
Ġcon den
Ġcol ores
Ġapro v
Ġmis mos
Ġide as
ÃŃst icos
Ġescri to
tr ar
ĠPar que
ty le
ing ton
ru po
ues tra
Ġem i
Ġesc ala
Ġac ciones
Ã³c ra
Ġal um
an es
ĠM el
ĠOl ÃŃmp
im os
Ġpen ÃŃnsula
ĠrÃ¡pi damente
Ġus ar
ĠA p
Ġden omina
Ġcontr ario
Ã©n do
Ġprue bas
Ġestable ciÃ³
ĠGon zÃ¡
v ol
Ġv in
ad ura
Ġj apones
Ġindustri al
Ġes os
p in
z ada
Ã ¤
ab e
ĠB u
Ġcuar to
Ġap ariciÃ³n
Ġseg uir
Ġderro ta
ĠO tras
ĠseÃ± or
bi to
Ġr um
Ġ198 1
Ġposib ilidad
Ġcom puesto
ĠM os
Ġam eric
Ġdes pla
ter os
ĠGonzÃ¡ lez
Ġconstr uir
om bre
Ġpes o
il le
em as
Ġ202 2
por Ã¡n
Ã³m ica
Ġex ig
ĠDie go
Ġdi pu
ĠC re
Ġclas ificaciÃ³n
Ġcomple to
on omÃŃa
ĠEx isten
F A
Ġde tal
it h
ĠL ima
T he
Ġdi m
Ġpin tor
ĠÃ³r g
Ġo posiciÃ³n
Ġcab all
Ġhab rÃŃa
Ġ197 3
Ġcomer ci
Ġim Ã¡genes
ĠK ar
inas tÃŃa
ec a
2 6
Ġl ic
Ġlleg aron
Ġv illa
Ġconoc er
Ġla go
ci eron
ÃŃg uez
Ġneces idad
um a
ĠE lec
Ġme tro
Ġrepresent aciÃ³n
ÃŃ ti
Ġcontac to
Ġprobable mente
ra ma
Ġconoci dos
ÃŃ b
ĠM ol
ÃŃ es
ĠSal vador
ĠtÃ©cn icas
ĠFern Ã¡ndez
Ġpos teriores
aliz ada
ul tad
Ġop in
Ġs tyle
un tamiento
ĠT ri
Ġh ora
Ġna cimiento
Ġrealiz ado
Ġubic ado
ig ht
dr ÃŃguez
Ġ197 6
an tas
Ġn ie
ĠX V
Ġcier to
ĠT en
Ġam igo
Ġpropie dades
ri da
Ġtom Ã³
ĠS tar
Ġpr om
Ġ197 8
Ġcre a
ui das
Ġab und
de ras
e j
ent as
Ġvol un
Ġdestac an
ven ida
ĠAs ia
Ġp Ã¡g
Ġpar t
ĠP Ã©
Ġpresent Ã³
f re
Ġaten ciÃ³n
ĠRo drÃŃguez
is s
en os
col or
ĠcÃ³ digo
ĠRa fa
uc ciones
Ġcre ado
t ol
Ġexcl us
t almente
Ġmic ro
Ġl l
t adores
Ġma teria
pon Ã©s
Ġestable cer
ĠPo pular
Ġnav eg
am o
Ġag ru
er ra
ĠC Ã³r
unda ciÃ³n
Ġdin ero
Ġclas es
ĠM ed
Ġde tec
Ġcab al
Ġse mana
Ġdi fic
Ġcal les
Ġpro pios
Ġh em
Ġmar ca
tor al
Ġcomp ren
ent ro
Ġca dena
Ġcam pos
Ġen ten
ĠGe orge
Ġri es
bi os
Ġte j
Ġcol um
Ġexpres iÃ³n
Ġgol es
ib ilidad
der os
b il
Ġsen cillo
ĠEdu ardo
ĠO n
Ġmo tor
am ento
Ġdis c
ĠA na
Ġrelig iÃ³n
ĠDi rec
z i
ti endo
Ġvers iones
Ġcampe Ã³n
Ġ *
2 9
iforn ia
Ġs ome
Ġgener ales
ĠC Ã¡
ĠP alacio
gen o
Ġha ciendo
Ġperiodi sta
ĠPla za
Ġpro to
Ġtecn ologÃŃa
Ġtra tado
k u
ĠE gip
ĠG ab
ul l
Ġh el
ad Ã©m
2 8
ĠP in
Ġorient al
it s
Ġbien es
Ġproces os
lo go
rim iento
ĠindÃŃgen as
ĠW in
Ġvo tos
Ġconten ido
Ġprofes or
Ġfon do
ĠdifÃŃ cil
Ġacer ca
Ġmo tivo
Ġestadouniden ses
Ġb ur
ĠS ue
ĠGu a
2 7
Ġcas tell
Ġade cu
Ġh alla
Ġcl ar
l d
Ġcomba te
Ġper fec
in ada
Ġ197 4
Ġfunda ciÃ³n
Ã© ro
Ġrespec tivamente
bi da
Ġa se
h ab
di as
Ġconseg uir
ĠB la
Ġprogra m
t ones
ĠSe villa
ib e
Ġve h
Ġdesem pe
pres iÃ³n
Ġcomple tamente
iv ia
ĠW e
Ġpu di
I n
Ġescri bir
Ġinstitu ciones
ĠP ac
uev a
to dos
Ġa is
Ġesc al
om os
Ġfe der
ĠU ru
Ġb ras
Ġp rac
b ras
Ġescu do
Ġman da
Ġan g
des a
d Ã³
Ġsol amente
Ġ197 5
Ġreci be
o cu
Ġ197 7
Ġde man
Ġpre d
Ġambi ente
ĠEduc aciÃ³n
land Ã©s
Ġsu je
Ġaprov ech
Ġdeclar Ã³
ft ware
ganiz aciÃ³n
Ġpro gres
ĠC ada
ĠD ec
Ġcol ombi
N E
Ġap r
as co
ĠNuev o
ĠR adio
Ġprotec ciÃ³n
f ra
Ġprue ba
Ġcor azÃ³n
Ġhech os
ĠEgip to
Ġopera ciones
olÃ³g icas
Ġesc ul
l ie
ĠC ultura
ĠT ro
Ġs ent
Ġex plic
Ġautor idades
f era
y s
Ġdifer ente
ĠN eg
Ġt ÃŃtulos
Ġa j
Ġap re
p rim
Ġdeb ÃŃa
Ġle van
tr ic
ĠF or
ĠS ar
Ġpr os
ĠRev oluciÃ³n
ĠdÃ©c adas
ol id
tr ÃŃa
Ġv esti
Ġdef ens
estr uc
Ġsu g
ĠbritÃ¡n ica
Ġmec an
ĠR iv
Ġtrabaj ar
ri tu
ĠMay or
ant ino
w e
ĠA ir
Ġja ponÃ©s
le t
ĠDe f
Ġr uso
es s
ĠJ im
ĠRafa el
Ġ3 5
den es
ĠF r
Ġalcanz ar
Ġest ren
ĠJ ulio
Ġco inci
Ã³rm ula
Ġfrances es
Ġc Ã©
ĠAust ria
te xto
Ġten ido
Ġconf irm
p io
on ces
Ġca ÃŃda
u re
Ġem pa
Ġg ana
Ġsim ilares
Ġgener aciÃ³n
istem a
end ario
Ġpar ro
Ġcomun es
Ġcomer ciales
an ia
Ġt um
Ġelec ciÃ³n
Ġa Ã©
Ġr endi
Ġmodi fic
Ġaut om
de a
do ba
ĠRich ard
Ġfamil ias
u laciÃ³n
Ãº r
Ġev oluciÃ³n
er do
terrÃ¡n eo
r eras
Ġgan ar
vi era
Ġac ce
Ġcomenz aron
Ġmedi das
ĠPe ter
Ġ193 0
3 5
Ġof rec
ĠH el
Ġherman os
8 4
an n
ocra cia
ĠA ra
Ġdi pl
Ġreg ular
Ġdist ing
l ÃŃn
ĠAl berto
ĠRam Ã³n
ĠCon st
ĠC ul
Ġal tas
f icaciÃ³n
ĠC ivil
Ġdi Ã¡
Ġrom ana
v aciÃ³n
ĠSo viÃ©tica
Ġdestac a
el os
ĠAlej andro
Ġmov imientos
âĢĿ .
p uso
Ġpie zas
americ ana
ri endo
le x
Ġin teg
it ales
Ġplan eta
Ġaquel la
t res
ar quÃŃa
ĠAlgun as
A r
Ġla tÃŃn
ur ar
ĠmÃ¡ xima
ĠIs abel
Ġre public
9 0
B N
Ġconqu ista
ĠS ierra
Ġde pendi
ĠMe tro
ĠAustral ia
ĠB iografÃŃa
ĠF orm
Ġso ber
dic e
Ġins pir
j eron
Ġf us
ern os
ĠpÃ©r dida
Ġcas as
Ġa quÃŃ
Ġdeci siÃ³n
Ġfra cas
Ġofici almente
Ġcas tillo
Ġcom and
Ġpopular es
Ġextre mo
pon er
d ri
Ġbas ada
Ġpartici pÃ³
ĠlÃŃ mite
Ġcons iste
Ġint ento
un idad
ust a
ĠR ic
di ente
Ġno ti
b us
Ġpro clam
Ġexper iencia
ĠCrist o
Ġa del
Ġesc ena
Ġ194 5
ue ga
ĠGu adal
ri tos
ici dad
ta ban
Ġl u
Ġp iel
Ġpresiden cia
ta Ã±a
Ġagr ÃŃcol
ĠUn o
Ġcent r
im as
it z
Ġreci bir
ĠPa z
Ġesc uelas
Ġpro ven
ĠCal ifornia
or ld
Ġro jo
Ġar ri
Ġ196 8
Ġre inado
Ġt esti
ĠV I
Ġar tista
ĠM ic
Ġo port
ĠGre cia
Ġcom port
Ġ197 2
Ġp uso
ĠS ig
ĠcatÃ³l ica
7 5
il los
Ġexpl or
ĠPla ta
Ġge ogrÃ¡f
tar ia
vi ene
Ġno vel
Ġ194 0
un al
Ġre quier
Ġcar ta
ĠestÃ¡n dar
Ġg rad
ĠTe atro
Ġgra ve
at h
Ġd ando
dem os
te o
em ente
Ġter res
r er
Ġpl ante
ĠPÃ© rez
Ġconsum o
Ġme ta
ĠhistÃ³r ica
Ġesta tu
ĠmÃ© dico
Ġtem plo
Ġale manes
Ġexpan siÃ³n
ĠE v
Ġmuer tos
it ada
ĠP on
Ġestudi antes
Ġcontinu aciÃ³n
Ġc oci
Ġeurope os
ste in
Ġinvi erno
Ã³ f
Ġconstr uido
Ã³ so
do l
t le
Ġale mana
Ġhi dr
ĠmÃºs ico
ib er
ĠE ra
ĠF l
w ay
Ġcon m
Ġg er
Ġver de
ĠAs imismo
ten cia
Ġpr ÃŃncipe
Ġc ay
is e
Ġab og
ĠEspaÃ±ol a
Ġalcanz Ã³
Ġblo que
Ġso vi
ĠS ab
ĠEurope a
Ġque da
e di
tro p
ĠUru guay
aj os
Ġno ta
Ġdescu bier
Ã© ano
duci r
ÃŃc ti
f ord
Ġv on
g ica
Ġv enta
ĠÃ¡ra be
Ġpar al
ĠCÃ³r doba
Ġsol a
Ġinici al
ĠT al
u de
Ġjud ÃŃos
Ġinst ala
9 9
Ġcor rec
que z
ÃŃ l
Ġpron to
Ġcapa z
ci pl
Ã© di
ĠA so
ĠTra tado
icha el
Ġampl ia
Ġdes e
Ġampl i
ĠChar les
Ġadel ante
Ġd inastÃŃa
Ġsobre vi
Ġcier ta
Ġapl icaciÃ³n
oro este
Ġb io
ĠâĢ ĺ
posi ciones
tar ÃŃa
car ril
ĠL en
âĢĶ ,
Ġter ror
ol es
Ġac adÃ©m
Ġcap itÃ¡n
Ġreconoci miento
ĠO tro
Ġde mas
Ġs at
Ġpresent an
ti os
aliz ar
Ġmoder na
Ġgui on
8 8
ĠPrem ios
pe ci
ĠE cu
Ġdenomin ado
Ġtrans m
ĠG as
gu ra
Ġur ban
Ġaut Ã³n
Ġtor re
un ta
Ġbras ile
ci entes
âĢĿ ,
Ġagr icultura
Ġob ispo
Ġ196 9
Ġc Ã¡n
Ġinter ac
Ġl in
ĠT ar
ĠMe j
v io
A l
Ġnuev e
ĠE se
am b
Ġal f
man n
4 5
Ġcul turales
r ero
Ġsimple mente
ĠH i
Ġfor tal
is h
Ġtr ono
Ġcom posiciÃ³n
Ġa seg
Ġref iere
Ġhum an
Ġno table
Ġv iento
Ġin dica
Ġespec ÃŃf
ist er
ÃŃgen es
Ġus ado
Ġmode los
Ġpad res
iz Ã³
Ġmar co
ĠfÃŃs ico
Ġcomien zo
3 3
d Ã³n
Ġmen ores
Ġdenomin aciÃ³n
Ġprote ÃŃn
C A
Ġcal or
Ġev entos
Ġm isiÃ³n
Ġcontinu Ã³
les ias
Ġautor idad
Ġac e
Ġni Ã±o
dad a
Ġdis par
ac er
ĠDomin go
tor a
ĠGu iller
Ġlanz Ã³
6 5
Ġcar a
ĠS ub
Ġaspec to
Ġim puls
ga ciones
ÃŃm ites
Ġtradi cionales
Ġcomple jo
ti fici
ĠVic ente
ĠmÃºlti ples
ent ando
Ġd ura
g ulo
Ġ â
Ġrom anos
Ġcon taba
Ġci elo
ĠTor re
Ġcontem porÃ¡n
Ġpl ano
ĠCampe onato
ĠAndr Ã©s
ach o
Ġw eb
Ġest adio
Ġproyec tos
Ã³m ico
Ġban das
Ġfil Ã³so
ch i
f as
ĠA D
Ġb iblio
Ġ196 7
Ġfac tores
Ġcos tum
Ġal lÃ¡
Ġpu ente
Ġsub s
ist Ã¡n
Ġun iÃ³n
ĠAd minist
Ġho jas
Ġbus c
ĠH asta
ĠGe ografÃŃa
Ġr os
ec ciÃ³n
ust o
ĠS ta
aliz a
ens iones
el la
Ġ19 20
u p
Ġg rÃ¡f
Ġcic lo
Ġl ingÃ¼
Ġdesarroll Ã³
Ġal ber
E n
ces a
Ġ197 1
tion al
at es
Ġlanz amiento
Ġcom arca
t arios
Ġv ar
S S
ĠCu ba
ĠB ill
Ġre lev
ac as
Ġter reno
Ġvol umen
ĠJun ta
ĠCan adÃ¡
Ġfies tas
per tura
Ġh og
der ÃŃa
ĠMin isterio
Ġn ar
Ġpob laciones
Ġcur so
Ġsac erdo
al ismo
p ren
Ġs Ã©
tien de
ĠM ichael
ĠT rib
Ġinte lec
Ġenci ma
tr al
Ġhi dro
el lo
Ġpre gun
Ġsigui Ã³
ĠTo ur
Ġf as
Ġpubl icaciÃ³n
; "
c Ã³n
Ġsol ar
f es
Ġapar ecen
Ġf ol
Ġesc as
or ado
Ġfig uras
ĠG rupo
Ġdest ino
ĠFran k
ĠSe bas
ĠIs rael
Ġpo dÃŃan
ĠGuiller mo
ĠP i
ĠsÃŃmbol o
Ġd ul
ÃŃ tico
Ġor g
Â «
Ġcon ex
b ilidad
Ġfil osofÃŃa
Ġhac ÃŃa
pi raciÃ³n
re mo
Ġprac tic
al ign
ĠJ ack
Ġ193 6
an ti
Ġcer can
Ġap enas
ĠCar ta
ĠAs amblea
8 5
Ġj ard
Ġpr ensa
Ġv isto
c ular
ut h
ĠPac ÃŃfico
Ġra ÃŃz
Ġpro pias
ĠAle x
Ġllam ados
Ġcarre tera
Ġsab e
ur ÃŃ
den cias
Ġfundad a
ĠV an
ĠBol ivia
Ġin con
Ġconsider ada
Ġinm ig
ĠNic ol
Ġpan tal
Ġvide oj
ĠH ern
Ġv ÃŃcti
Ġtempera turas
ĠMartÃŃn ez
Ġcre e
ĠLe on
ĠN orm
Ġcondi ciÃ³n
Ġaspec tos
ĠÃģl var
Ġcolec ciÃ³n
Ġart ÃŃculos
Ġ5 00
Ġde c
Ġactu ales
Ġps ic
am i
ol uc
Ġhistori ador
Ġurb ano
C h
ab ez
ig h
Ġdeb ajo
te les
Ġmus icales
ĠS em
Ġobs erva
qui era
Ġries go
en g
Ġpilo to
ĠEst adio
Ġbas ado
Ġor ques
Ġpa is
Ġcor re
Ġte le
r Ã¡
Ġl lan
Ġre pe
Ġv isiÃ³n
pi ra
Ġde ten
Ġne u
ĠH am
Ġapar eciÃ³
ĠpÃºbl icos
Ġv uelo
di s
ĠF ac
ĠH it
Ġam igos
Ġinvas iÃ³n
Ġav ent
tu ales
ch ez
Ġgan ado
Ã¡n ico
ĠV el
N A
ĠH un
Ġan o
Ġtex tos
Ġencuent ro
Ġdeb ut
Ġto talmente
ĠIS BN
ĠÃºlti mas
Ä ģ
Ġubic ada
ĠÃ¡m bito
Ġnorm almente
Ġcla ve
ĠSoci edad
eg as
Ġte l
ĠV ill
Ġcomun idades
Ġdes car
8 6
Ġn ad
Ġau ton
Ġveci nos
Ġ4 5
Ġpon er
quil ib
Ġest ad
Ġp alacio
ci en
ĠC Ã©s
on s
ĠC O
R A
Ġru ta
Ġen torno
Ġav es
ĠCatal uÃ±a
Ġv ivo
Ġform Ã³
Ġfies ta
Ġcic l
Ġc ui
Ġf rag
Ġdefin iciÃ³n
Ġm ig
ier ÃŃa
Ġac to
Ġs es
ĠSebas ti
Ġre m
Ġcons ist
ĠS ui
ern a
is co
Ġcrist ian
l ing
Ġentre v
ĠC iencias
Ġpoten cia
Ġutiliz ando
if e
qu ista
Ġcomple ta
Ġexpedi ciÃ³n
Ġdi al
7 6
Ġanti guas
Ġdej ar
Ġdu que
ĠX I
Ġprome dio
Ġocu pa
Ġchil eno
ĠH an
Ġse manas
pol e
Ġalim entos
Ġr eno
Ġhu bi
gr ÃŃa
en cial
Ġper diÃ³
Ġunivers idad
ĠmÃ© todos
Ã± ez
di das
ĠF ies
cia ciones
Ġmar cha
Ġre ales
Ġinvesti g
Ġcorrespon de
Ġ( )
Ġfund Ã³
ple ment
Ġcap tur
tem ala
Ġdestac ar
Ġ196 4
ril lo
Ġentren ador
ien se
Ġtrabaj adores
ĠAso ciaciÃ³n
am Ã¡
Ġpol icÃŃa
Ġinte lig
Ġcon vers
Ġres pe
Ġsec tores
Ã³l ica
Ġde trÃ¡s
Ġalmac en
eg os
Ã©r ico
Ġs it
Ġan ual
d y
ĠM ario
Ġbaj as
Ġcom puesta
Ġinterpre taciÃ³n
Ã©c ord
ĠGran de
in ales
Ġlleg ando
Ġref ug
ĠJos ep
ĠÃ¡ cido
ĠO tra
en cio
ĠT im
Ġcomun ic
Ġinstala ciones
Ġv ino
Ġlo g
Ġo peraciÃ³n
Ġes as
ĠR ol
k in
p ida
ĠMuch os
Ġfl ores
ĠS y
Ġle tras
Ġmez cla
Ġso ftware
em ent
Ġrev olucion
w er
ar dia
Ġciudad anos
duc e
gra fo
Ġmol Ã©
ĠS Ã¡n
uri as
Ġcer em
Ġfam oso
ĠPaÃŃs es
ti eron
Ġencontr Ã³
ĠW orld
Ġestruc turas
u ciones
Ġesta ciones
Ġ196 6
tad ura
Ġre mo
Ġac onte
por ta
Ġ196 2
ĠÃºn icamente
Ġdej ando
m y
ĠC r
uc e
Ġdifer encias
Ġ15 0
or io
ĠÃ³r denes
ĠAr te
3 6
Ġhay a
di ll
ĠPres idente
tif icaciÃ³n
Ġingen i
ĠOr ganizaciÃ³n
s as
Ġcandida to
Ġcier tos
aj as
Ġrev oluciÃ³n
en der
Ġprof undi
er vi
Ġim perio
Ġdesarroll ado
Ġmoder no
Ġrela tivamente
Ġal titud
ĠGua temala
Ġabs or
19 0
Ġincl u
ador as
Ġreform a
Ġe cl
ĠA h
Ġmas cul
ĠNa var
ier en
esti on
Ã± ana
ar la
Ġcivil es
Ġdipl om
A n
Ġiden tidad
Ġ3 00
Ġregres o
Ġofre ce
ĠS ha
ĠAm eric
Ġt asa
Ġfundam ental
ri el
Ġaf irma
c ados
Ġin stituciÃ³n
Ġl ÃŃmites
Ġenferme dades
Ġne er
ulta des
ic s
uel ta
Ġin ca
Ġden sidad
ĠcientÃŃf ico
" )
u to
ci ar
Ġreci bi
Ã© ticas
ĠN i
Ġmonta Ã±as
grÃ¡f ico
udi cial
Ġno ble
ĠM Ã¡
uc o
Ġdemas iado
Ġmin er
Ġg estiÃ³n
Ġesc uch
Ġ196 5
ĠAn tes
ĠlÃŃ qui
ĠW a
Ġcrist ianos
ĠSÃ¡n chez
Ġg l
ram ient
ĠNa ciones
Ġex ac
ĠAr tes
Ġm ir
ul ado
lam ent
tr ado
Ġdi ario
Ã £
ru pciÃ³n
Ã ł
Ġpens amiento
ole do
es es
Ġpro l
Ġform ada
ord in
ĠMun do
ĠSec re
Ġata ques
Ġib a
ÃŃn ea
ĠP en
ĠLo u
Ġdesc ribe
Ġpartici p
e k
Ġac tiv
ĠCÃ©s ar
ĠTo dos
ĠG il
Ġfuer tes
Ġprop Ã³s
Ġconsidera ble
ĠT re
Ġtem p
ĠTh omas
Ġinstr umentos
ĠCol egio
Ġreac ciÃ³n
Ġinici almente
ĠA ten
Ã¡ b
at as
aj eros
Ġpermi tir
Ġdo lor
Ġse an
Ġtem pl
Ġinme dia
ĠC las
ĠelÃ©ctr ica
Ãºs que
Ġan teriormente
3 7
Ġman tiene
Ġg ar
Ġconvertir se
Ġcl aro
Ġvuel ve
Ġalcal de
ĠE E
Ġad ul
g ados
Ġsex ual
ĠOlÃŃmp icos
ui cio
Ġcaracter ÃŃstica
Ġre tra
Ġpin tura
n y
Ġsec ciÃ³n
Ġes pi
tro l
Ġcele b
Ġan al
Ġex ter
ech as
Ġbus ca
Ġcor ona
Ġcontra to
Ġleg isla
Ġpred omin
Ġdirec to
Ġm ac
ur g
Ġac tos
3 4
Ġcon texto
Ġcier tas
uer a
ĠEcon omÃŃa
av era
Ã³n icas
Ġn or
lo g
Ġ195 8
Ġescri ta
ti das
Ġforma to
ĠT V
Ġactu aciÃ³n
Ġconver tido
9 5
Ġdirec ta
O S
Ġla b
mi ta
Ġ #
Ġm am
Ġpo esÃŃa
ue los
eci eron
Ġtrad u
Ġev ento
ĠOri ente
Ġres erv
Ãº m
Ġh ues
Ġvi vir
ĠF undaciÃ³n
Ġpro puesta
Ġbas es
Ġeduc a
ĠB ajo
tis f
ĠprÃ¡c ticamente
it Ã³
ez ol
Ġapl icaciones
Ġpre ocu
Ġfac tor
cion ado
Ġsecre tario
Ġv aria
Ġsal v
ros o
Ġ194 8
3 2
Ġestable ce
j i
ĠR ica
Ġenc abez
Ġ196 3
6 4
Ġcompon entes
Ġar gentina
ĠRic ardo
Ġcar ne
or den
Ġreligios a
Ġah ÃŃ
Ġal ma
ĠMar tin
Ġale j
ron ce
Ġcomb ust
Ġmonta Ã±a
ema to
w ood
ĠIs las
Ġmil es
ĠFeder al
ĠH oy
ĠcrÃŃ ticas
Ġran go
Ġsignific ado
ĠBer lÃŃn
ĠGran ada
Ġpo bre
Ġde ja
Ġpre vi
ĠquÃŃm ica
ĠI l
Ġlogr ar
Ġa rist
Ġus ando
Ġcirc ui
B A
un cia
Ġn oroeste
ĠA f
ĠRe d
Ġdesem b
Ġcampe onato
ar as
Ġ202 3
Ġg ig
Ġas ign
Ġdenomin ada
on os
ÃŃ ritu
Ġvis ita
Ãº an
8 9
Ġex puls
ĠclÃ¡s ico
ĠfÃ¡ br
b en
polit ana
Ġentr Ã³
Ġp ec
Ġhab l
Ġabier to
Ġca Ã±
Ġcuer pos
Ġconstruy Ã³
Ġorganiz aciones
Ã¡ ce
ion eros
Ġme t
Ġhi erro
Ġ ul
in Ã³
por tar
Ġinv oluc
ĠT oledo
ĠpÃºbl icas
ĠfenÃ³m eno
Ġf ib
Ġv ice
Ġinc endi
Ġcal endario
Ġrecon str
8 7
Ġli der
Ġsab er
ĠComun idad
Ġre cl
Ġten iendo
un ciÃ³n
Ġhi pÃ³
Ġpas ando
Ġd uraciÃ³n
olog ÃŃas
Ġher mana
Ġher ramient
am arca
Ġarquitec to
Ġb ru
Ġcomport amiento
t ing
Ã© la
ĠP C
Ġter remo
ĠcientÃŃf icos
Ġdescon oci
ĠBre taÃ±a
ang el
Ġmanda to
Ġrealiz ada
Ġcomien zos
Ġdi eron
Ã© is
Ġorden Ã³
Ġpuer ta
Ġa eropuerto
ĠK o
Ġven ezol
Ġdifer enci
ĠT em
us h
us s
4 7
ĠB ajos
h ÃŃa
Ġgen era
Ġen f
Ġb Ãºsque
Ġsuf riÃ³
Ġna ve
Ġtab la
Ġh Ã¡
ĠX X
r adas
Ġ Ãº
Ġconside ran
ĠbritÃ¡n icos
Ġorigin almente
ĠNo tas
vi e
Ġcastell ano
f al
Ġtu rismo
s al
en io
Ã³m ez
Ġcu yos
Ġsu ma
Ġmis mas
ĠSer vi
ĠCom isiÃ³n
a ve
Ġl Ã³g
Ġcolabor aciÃ³n
ĠM y
Ġflo ta
ĠG ro
on y
Ġespeci ales
Ġdocum entos
Ġen tra
ĠAn te
Ġblan ca
as terio
uer dos
g Ã©n
Ġa cum
Ġo cul
Ġmon o
Ġar co
qu in
Ġprem ios
Ġepiso dio
Ġdis cipl
qu ÃŃn
Ġescri tos
Ġfundad or
3 9
Ġt ran
lav os
Ġejempl os
ĠPr inci
ĠÃ³ pera
ĠMunicip al
B C
Ġ193 9
Ġconcent raciÃ³n
I C
ar te
ĠK ing
i taciÃ³n
ĠmÃ¡ r
ac teri
ru p
5 5
ĠV ar
Ġmaes tro
Ġrelacion ados
ec o
Ġespa cios
ĠC D
Ġcons erva
iz an
pie za
n ia
Ġ194 4
Ġri t
v in
Ġreg ional
N o
Ġsufici ente
6 6
ĠM Ãºs
ĠV all
Ġar tifici
Ġproduc en
ĠFe deraciÃ³n
Ġim pos
ra estruc
Ġb arro
ug h
Ġpart ÃŃculas
ĠI b
Ġtrans mi
Ġsol uciÃ³n
m es
ĠMo v
Ġsue Ã±o
ĠL ar
cri to
am or
ĠH or
Ġsen cil
S O
ĠP ra
el as
Ġr Ã©cord
Ġcontin ente
di dos
iel d
ĠÃ¡rbol es
Ġdesc endi
Ġposib les
Ġn aciÃ³n
Ġh os
Ġrefer irse
Ġser es
ĠCastil lo
ĠR ock
Ġdis cos
e val
Ġbar cos
Ġinten ciÃ³n
Ġrespons able
Ġdes pe
Ġ( Â«
ĠG Ã³mez
Ġex cepciÃ³n
Ġreci Ã©n
Ġcor por
Ġam ist
ĠAl to
Ġaus encia
z go
Ġre des
Ġher e
Ġde cor
Ġc Ã¡mara
Ġm ari
ĠDan iel
lan da
Ġllam Ã³
Ġ196 1
g re
a e
ĠIs la
Ġres ol
Ġbal onces
Ġveg e
Å «
ĠZ a
I A
Ġaf ric
4 8
Ġrev el
ĠSo bre
Ġproduci do
Ġre quer
Ġsat Ã©l
ĠG uer
ĠPar lamento
en aje
Ġ195 6
E st
Ġt us
Ġdesempe Ã±
Ġt ard
p t
ĠA par
ĠNavar ra
Ġital iana
Ġre mon
am entos
Ġdo ce
ĠL an
ĠP ri
ĠCom itÃ©
Ġmuer to
h ol
ĠGe org
Ġases inato
uy en
all er
Ġconcier tos
Ġ194 1
7 7
Ġal tos
il os
Ġcomun a
ĠTra b
Ġdesarroll ar
Ġavi Ã³n
ter s
ch er
Ġpo deres
Ġpodr ÃŃan
Ġh isp
ĠAD N
Ġocur re
Ġej e
Ġ195 9
Ġprovoc Ã³
Ġe quilib
ĠS istema
Ã³cra ta
N U
g in
Ġin ci
Ġ194 6
Ġconstituy e
Ġopin iÃ³n
lan tes
3 8
Ġgri ega
Ġmexic ana
Ã£ o
e la
Ġdirig ido
3 1
ĠCor ona
ĠAu gust
ci das
pa ti
ĠAn t
aman ca
Ġdic tadura
Ġle v
Ġocu par
ĠÃģngel es
Ġconv oc
Ġgo bi
Ġfuncion amiento
ĠIn v
Ġpoc as
ĠT es
Ġcor ta
Ġencontr ado
Ġf icciÃ³n
cion ar
v os
Ġreligios o
di at
m al
ĠT ec
Ġcri tic
ĠSebasti Ã¡n
Ġpre cios
w in
ech os
ĠReg iÃ³n
ĠFeder ico
ran a
Ġres ist
Ġmus eo
Ġunivers o
Ġpermit en
ĠbÃºsque da
ĠAt lÃ¡n
z amiento
gra ciÃ³n
Ġlim ita
ĠEcu ador
ĠO fici
Ġavi ones
til l
Ġperteneci ente
k ing
Ġpas ajeros
Ġcor on
id al
ĠPan amÃ¡
Ġs Ã³l
Ġescri tura
Ġpare ja
Ġnorm al
Ġre da
cul as
s in
Ġsos ten
ĠUn idas
Ġm ur
den as
ti tu
ĠB on
6 7
ĠBan co
ĠT res
Ġr onda
Ġform ando
Ġv iene
ĠAl fre
Ġel ig
Ġsal a
ĠDÃŃa z
Ġoc Ã©ano
Ġpublic ada
ĠNicol Ã¡s
ab il
ĠAst urias
amp oco
ĠInde pendencia
Ġt onel
til la
Ġpue da
Ġejec ut
Ġc Ã¡
ĠhistÃ³r icos
a ta
ĠV II
Ġe mo
ĠZ ara
Ġ195 5
Ġcre ada
mit h
Ġestra teg
amil ia
ĠD oc
Ġ1 000
Ã¡ rez
ĠC orte
Ġhabitu al
ĠrÃ¡pi do
Ġesc enario
ĠDe partamento
c at
ĠL im
z ados
el er
Ġ194 7
ĠAn g
Ġch ino
ĠIn cl
Ġcambi Ã³
Ġpro viene
Ġh all
Ġanim al
Ġh uel
Ġtra yec
ĠR en
Ġle tra
Ã¡f ico
Ġp ies
ĠSu pre
ĠD in
ĠDes arro
Ġcul to
ĠPol onia
Ġocas iÃ³n
ĠA gust
Ġimper ial
c ada
Ġl iga
ĠEs co
6 8
Ġconf ig
Ġhor iz
Ãº me
uc a
diat amente
ÃŃ fer
Ġ195 7
vent ud
ĠL una
ĠD r
Ġneces ita
Ġal ter
Ġcu enca
Ġimp acto
ag ue
Ġeurope o
E R
Ġim plement
ĠCas tro
Ġregres Ã³
ĠD entro
ĠV il
Ġpo demos
Ġser ÃŃan
Ġexpl os
Ġraz ones
ĠSeÃ± ora
Ġesc ol
ĠRo berto
ra y
rist as
Ġentr ar
ĠInter net
Ġpres entes
ĠP ie
fic amente
ĠMej or
Ġen orme
om b
ĠclÃ¡s ica
Ġtitul ado
s er
Ġcul tivo
Ġbre ve
pol is
Ġpuer tas
ĠPh il
Ġdecre to
Ġcor onel
ex o
Ġf el
Ġd rama
Ġen tidad
4 4
Ġf irma
ĠE p
ĠJo a
trÃ³ leo
Ġv ÃŃas
uev e
Ġsa tisf
Ġcom puestos
z Ã³n
Ġper der
Ġma Ã±ana
ĠA ma
g n
i um
T V
ĠÃ ļ
Ġ3 2
ĠCar l
g color
ec k
Ġutiliz ada
ĠeconÃ³m icas
Ġguitar ra
Ġe gip
Ġj urÃŃ
Ġ194 9
ĠJ ef
Ġcomand ante
ĠAdminist raciÃ³n
uy endo
ĠSoci al
ĠC Ã¡mara
tin os
Ġ195 2
H z
Ġem ig
ĠG i
r ica
Ġre cep
vi do
Ġconoci das
ĠCam po
Ġan cho
Ġ194 3
Ġpre cio
Ġllam adas
Ġcambi ar
i pi
y e
ĠVic toria
Ġun if
ĠR og
ĠCan al
Ġex posiciÃ³n
Ġreco g
s car
ÃŃ v
o ta
du jeron
Ġbom bar
Ġcor to
Ġdepen de
ĠT rad
ĠProv incia
A R
ĠM ich
ĠB oy
it arios
ĠFran co
Ġ )
al iciÃ³n
ĠS t
Ġcam pes
gÃ¼ edad
C O
i du
on ales
Ġ195 4
Ġdescub rimiento
uc es
Ġatra c
Ġmon e
ash ington
it ados
ĠSa int
ĠhipÃ³ tesis
Ġpreci pi
di entes
ĠF ar
ĠAn dal
ÃŃgen o
Ġm em
Ġreun iÃ³n
ra ciones
ĠS co
ĠH al
Ġ194 2
ĠIr landa
Ġdial ec
Ġen viÃ³
ĠN uestra
ĠCh a
Ġ195 3
Ġresul ta
ÃŃ var
Ġcuar ta
Ġresul tÃ³
Ġindividu os
Ġdesarro lla
Ġla tino
ĠR ub
Ġcas Ã³
Ġocu paciÃ³n
Ġinteres es
Ġreduci r
Ġde porte
Ġpoten cial
Ġarg um
ĠCor tes
ĠAl lÃŃ
id ro
Ġn arra
Ġim plic
Ġrey es
Ġt ub
ĠperiÃ³ dico
ĠfilÃ³so fo
Ġdel eg
Ġextranj eros
Ġ {
Ġlanz ado
on ÃŃa
ba te
Ġasc enso
Ġcol onia
Ġus an
Ġju ris
go za
Ġdirig iÃ³
Ġarri ba
Ġproce di
Ġad mi
Ġver dad
Ġla ter
ĠSue cia
Ġcul tiv
Ġingres os
C on
Ġf ras
ĠHit ler
an der
Ġdef ine
Ġf ar
tr ica
Ġ193 3
u aciÃ³n
Ġh orm
Ġreconoci do
an dia
Ġ193 1
Ġa bre
Ãº car
Ġusu arios
Ã³ geno
Ġeurope a
or ro
ĠB l
Ġfamil iar
ĠJust icia
Ġse l
Ġmunicip ales
I D
Ġcar reras
Ġconoci Ã³
Ġri que
Ġconcier to
ti ciÃ³n
Ġlo gra
Ġbus car
Ġrealiz an
Ġterri torial
tec as
Ġatra ves
Ġes co
us os
ã ĥ
as t
Ġca tedral
Ġobje tivos
Ġbos ques
Ã³n icos
Ġdivi de
Ġhab lar
Ġf res
Ġal co
Ġba u
S an
Ġbos que
g adas
ĠP oco
Ġrec ord
ĠA ut
Ġcar tas
ĠDist rito
Ġte Ã³r
ĠSal amanca
Ġviol encia
en zo
ĠSan tos
Ġperten ece
ĠJa vier
Ġinter venciÃ³n
Ġsu minist
ĠR u
Ã¡st ico
Ġusu ario
Ġte a
Ġtraslad Ã³
ĠAl cal
Ġseg ui
Ġ193 8
ĠcÃ¡n cer
Ġ193 7
Ġrepresent an
Ġso br
Ġes que
Ġn ervi
Ġsal ir
an i
ĠF on
Ġdi eci
ĠIg na
ĠK e
Ġ192 9
Ġemb aj
Ġampl io
Ġe c
Ġsu l
Ġtonel adas
Ġo tom
Ġac og
ĠC in
7 9
el es
Ġmo tivos
Ġmues tran
Ġguer ras
Ġlocal idades
ĠIn dust
j ero
ĠS p
Ġg aran
cis mo
ĠOc cidental
ĠP l
Ġdis curso
Ġe pi
ĠU l
Ġreci bido
Ġorgan ismos
ĠW ashington
ĠRey es
ĠpropÃ³s ito
Ġcon tar
Ġdist ritos
Ġnucle ar
Ġre ca
Ġve inte
ti po
Ġ193 4
ĠT r
ic ana
h al
Ġdios es
Ġsal iÃ³
L os
ĠJo han
Ġto p
ĠOri ental
Ġpre fer
Ġlleg ado
ĠcrÃŃ tico
Ġcarb ono
Ġmejor ar
Ġmagn itud
Ġmar ch
Ġint entÃ³
ÃŃs mo
d um
ag e
Ġejec uciÃ³n
F F
Ġpres tig
Ġdoc tr
Ġpopular idad
Î ±
Ã³ d
Ġparticular mente
ĠmÃ¡qu ina
Ġoc ta
Ġ16 0
f icaciones
Ġconstitu ciÃ³n
ĠÃĵ scar
ĠL es
Ġincl uido
b in
Ġm m
Ġllev ado
Ġdoc tor
ri dos
ĠN in
Ġplan e
Ġtransm isiÃ³n
Ġme dal
Ġat le
Ġflu jo
Ġh Ã©ro
ĠC ro
oc al
Ġderi va
Ġl un
Ġl ine
Ġest ima
Ġpro hibi
ĠAy untamiento
Ġglo bal
Ġley enda
Ġayud ar
Ġjug ar
di z
Ġcompe tencia
ĠS ac
4 9
x i
Ġfund ado
ĠG ui
Ġf usiÃ³n
ĠSen ado
Ġex tin
Ġneg ra
c y
Ġposi ciones
ĠBiblio teca
Ġsuper iores
Ġhom enaje
Ġun e
ĠNa pole
oc as
Ġen v
Ġo fer
Ġelec toral
Ġrepresent antes
ĠlÃŃ deres
Ġ19 18
Ġtro p
ti miento
uer o
Ġtra tar
ĠB atalla
Ġnorm a
Ġferro carril
Ġpa cientes
Ġcaracter iza
ĠP ier
' '
a h
Ġc enso
Ġbar co
Ġespa cial
uc ÃŃa
ĠT ex
ien a
Ġejer ci
ĠgÃ©n eros
Ġcerc ano
V D
til idad
Ġdes eo
gro und
Ġ $
j ado
ĠT ol
Ġpriv ada
x ido
udi o
ĠMÃºs ica
Ġdeman da
M A
8 3
Ġb oca
ÃŃ ci
t Ã©g
Ġmon te
ĠPat rimonio
Ã³vil es
ĠFal le
r icaciÃ³n
ĠD ol
Ġsig uen
Ġaf i
ĠCar men
Ġcu estiÃ³n
Ġa la
Ġconstitu cional
Ġco o
Ġclub es
Ġc rim
Ġper dido
Ġinter me
Ġau stral
Ġrequier e
Ġti tu
Ġnues tra
Ġampli amente
Ġcon tam
d ras
Ġb r
Ġab ajo
S D
Ġsir ve
7 4
f Ã©
ĠCon stitu
Ġfrecu entemente
le ft
Ġpro pa
Ġprotagon ista
2 000
du ras
Ġc ÃŃr
Ã¡ i
Ġintro duci
r eros
s or
Ġpe trÃ³leo
ent ada
g ol
Ġreg las
Ġtrad ucciÃ³n
tu vieron
Ġmor ir
Î ¿
Ġ192 8
Ġpelig ro
Ġtr Ã¡fico
ĠTo do
g ui
Ġ193 2
Ġllev aron
Ġa trÃ¡s
Ġtre inta
ĠAgust ÃŃn
ĠeconÃ³m icos
ĠCar ibe
Ġprim avera
w ell
Ġca za
Ġpar lament
ĠSol o
ĠA eropuerto
ĠR ico
Ġh Ãºme
Ġex cel
Ġcon dado
Ġve in
Ġcu Ã¡n
Ġc Ã³m
ĠNo bel
ez as
Ġcan ales
ĠH ospital
dill era
Ġ4 00
Ġleg al
ĠZara goza
oy a
Ġidi omas
ĠTom Ã¡s
ce dentes
Ġaum entar
cion ados
ĠC el
Ġdem ocr
Ġproteg er
ĠIgna cio
rig ht
ĠAt l
Ġv ÃŃ
Ġau st
9 2
Ġmez cl
uer ta
Ġvic torias
Ġdocum ento
Ġperu ano
Ġv ul
ĠAtlÃ¡n tico
Ġgri egos
j Ã³
Ġp is
Ġv endi
Ġceleb raciÃ³n
Ġreg istro
ĠW est
Ġter c
I B
Ġbas a
Ġpres u
ĠBol ÃŃvar
tu ario
Ġenem igo
Ġcolombi ano
g l
Ġterres tre
ĠJosep h
f or
ent aron
ĠR ena
Ġtrabaj Ã³
ĠDer echo
ĠSui za
Ġinf raestruc
ĠproteÃŃn as
Ġparti d
Ġingles a
Ġconsider ar
Ġutiliz Ã³
Ġcrist al
Ġmusul manes
Ġcon tras
ĠCu enta
Ġp ic
ĠSe gu
Ġdetermin ar
Ġdes n
Ġterremo to
ores te
me j
ist ros
Ġconstr uida
Ġextre m
do ws
Ġorgan ismo
Ġex tiende
4 2
Ġva por
ĠSeÃ± or
Ġre p
ĠRo y
e e
Ġestable cido
o v
u k
Ġv ec
Ġd or
Ġb in
Ġurb ana
. ),
Ġmoder n
Ã³ p
Ġdeci de
Ġcolon ial
Ġde mo
Ġin au
fici ente
Ġe fica
e amente
Ġre clam
ab ora
Ġinstr umento
Ġbar rios
5 3
Ġem pe
Ġhi per
6 9
Ġas cen
ĠC ur
Ġter mina
Ġinici os
Ġunivers al
Ġpose en
ĠOb ras
ĠB ay
ĠG reg
Ġhistor ias
7 2
Ġdis f
e jo
res te
Ġcos a
Ġ195 1
ĠÃ³rg ano
al d
Ġac cidente
Ġgobi ernos
i ares
ug a
Ġle jos
Ġestudi ar
Ġg ala
Ġtriun fo
i y
Ġconflic tos
ĠAn exo
Ġrad iaciÃ³n
E S
ier to
s k
Ġsim ul
Ġconsidera ba
Ġreligios as
Ġ ile
Ġincl uir
aliz ados
tÃ¡n ico
ĠcientÃŃf ica
et h
ĠFr ente
ĠtÃ©cn ico
ciden tales
Ġten dencia
Ġcompar aciÃ³n
ĠIn gen
Ġobl iga
Ġvari able
ĠS ala
Ġb en
ĠCl ar
ĠcomÃºn mente
Ġd ue
ĠM it
Ġreform as
Ġllu via
ĠS or
v ado
Ġcin emato
an ces
Ġ193 5
Ġf ues
ĠJoa quÃŃn
ĠHen ry
ĠTrib unal
Ġcon se
Ġim pi
ĠC ir
Ġre almente
Ġsigui endo
Ġev olucion
Ġde partam
ĠEs p
Ġf rac
ĠM is
Ġig lesias
Ġ192 4
Ġequival ente
Ġpie za
Ġmoder nos
ĠM es
Ġfirm Ã³
Ġesc lavos
c us
ip s
g ue
ĠT ru
on so
Ġabog ado
Ã© st
Ġmedi cina
ci ano
ĠS tu
ĠR osa
Ġperman ente
m Ã¡tica
x o
it ores
Ġcap illa
Ġmedi eval
Ġsepar aciÃ³n
Ġfab ricaciÃ³n
ĠCar acter
Ġs ing
4 3
P A
Ġcons ag
Ġnorm as
ĠÃ© tn
Ġtempor adas
Ġob tiene
ci almente
Ġj uicio
Ġev al
it ando
Ġprim i
Ġconvirti Ã©ndose
Ġab st
Ġcan ad
m m
Ġc ens
Ġpues tos
Ġtr en
Ġprofes ionales
ĠC ine
ĠN ar
Ã¡st ica
Ġfeder al
Ġdis per
Ġresiden cia
Ġedi ciones
Ġex por
Ġmar ÃŃti
ĠBla ck
Ġprogram aciÃ³n
Ġseg uido
Ġlib res
Ġmom entos
Ġag reg
Ġcumpl ir
Ġevi dencia
ĠÃ į
Ġportugu Ã©s
Ġllu vi
z co
Ġd ada
L A
ÂłÂłÂłÂłÂłÂłÂłÂł ÂłÂłÂłÂłÂłÂłÂłÂł
Ġingeni ero
ĠNapole Ã³n
Ġali ados
Ġsuces or
Ġunivers idades
Ġnovel as
m Ã³s
b laciÃ³n
Ġa pertura
Ġreci ente
Ġis rael
vil le
Ġgrab aciÃ³n
Ġnues tro
Ġt ensiÃ³n
Ġfr ÃŃo
Ġ192 2
8 2
Ġg la
Ġj orn
Ġorques ta
4 1
ic ano
Ġinf in
Ġvin cul
orm es
Ġconex iÃ³n
Ġcircun st
Ġ19 17
Ġutiliz ados
ĠL eo
Ġinme diatamente
Ġcre ciente
b ack
Ġten dr
Ġdesemb oc
Ã© f
Ġapr endi
ĠAndal ucÃŃa
Ġmuch a
Ġ192 5
Ġdecl ara
americ anos
Ġ19 19
ĠDi pu
ĠInv esti
ĠV ida
Ġhi elo
ĠsÃŃn t
Ġsit Ãºa
ĠF I
Ġp ier
Ġentre ga
Ġjuris dic
Ġpro ve
Ġf ach
Ġcan tidades
ific ado
Ġpresiden cial
Ġaso ciaciÃ³n
Ġinclu ÃŃa
Ġal ianza
ĠDesarro llo
Ġqui ere
ĠSuper ior
Ġf ir
qu illa
ĠCab all
Ġon da
Ġabandon ar
Ġveh ÃŃculos
ine te
guay o
Ġnad ie
n or
ÃŃ ces
Ġf ich
ĠenseÃ± anza
f ÃŃas
Ġsi erra
Ġ3 6
Ġenem igos
ui z
Ġri v
ĠDem ografÃŃa
Ġr ue
9 6
Ġac tivo
Ġtrans iciÃ³n
Ġdest ruy
ĠMe dio
Ġcar gos
Ġpre v
h ar
Ġdedic ado
Ġanun ci
Ġplan es
ĠcompaÃ± ÃŃas
Ġa un
Ġb acteri
Ġco pias
Ġp ista
dol fo
Ġllev an
Ġte orÃŃas
es i
por tes
Ġcomb inaciÃ³n
Ġquer ÃŃa
Ġtotal idad
ion ado
Ġrecor rido
ĠS mith
Ġreligios os
Ġc iencias
Ġmor al
pres idente
Ġhistori adores
ĠWin dows
am ina
Ġd uda
vi leg
Ġelectr ones
Ġmo tores
Ġcompeti ciÃ³n
ĠConst antino
Ġdi ag
Ġas i
ĠnÃºcle os
ĠZ am
Ġmer idi
lan des
Ġna cido
Ġav ance
Ġprofundi dad
ific ar
% .
. :
ĠAl onso
Ġespec tÃ¡
Ġases inado
us ia
Ġs ag
s ki
ĠHum an
um e
4 6
Ġh ospital
ĠH istÃ³r
ĠT ab
5 6
t ambiÃ©n
Ġp iano
Ġsi tios
Ġpor cent
Ġfam osa
Ġinvesti gaciones
Ġfon dos
Ġv id
Ġm ud
Ġac eler
ll er
Ġver tic
en ia
Ġesfuer zos
ne os
ĠLor enzo
ra to
Ġvol cÃ¡n
Ġ192 7
Ġbom ba
Ġestra tÃ©g
i vi
Ġcu yas
te x
ic es
ĠCom er
Ġcul turas
Ġ19 14
Ġas untos
d s
Ġde biÃ³
Ġcon sta
cri p
Ġan ex
i era
ici os
Ġmens aje
ĠC uer
Ġdescubier to
ĠCor ea
un ciÃ³
Ġb is
h el
Ġadap taciÃ³n
im no
tion s
Ġco di
Ġens ay
ĠR io
ko v
Ã©la go
ren os
Ġa ma
Ġjapones a
Ġbrasile Ã±o
. "
Ġvo to
pÃ³ s
m or
Ġat mÃ³s
ĠGab riel
in er
Ġv Ã¡l
ĠfÃ¡cil mente
ĠA R
Ġes pera
Ġcl ÃŃn
Ġqued ando
7 1
Ġha ci
Ġb ronce
Ġser ies
Ġfrecu ente
Ġprovinci al
Ġbor de
Ġmatem Ã¡tico
ĠC ity
ĠDem ocr
Ġmanif ies
ĠRec ord
Ġpris iÃ³n
ĠCon cepciÃ³n
Ã¡ndo lo
americ ano
ent almente
ĠC e
v ada
Ġre lo
ĠD al
aliz Ã³
Ġpla zo
Ġc ero
Ġsu pone
U n
Ġl anza
Ġesp ÃŃritu
Ġcubier ta
Ġf iel
Ġesc la
Ġvent as
Ġdescub riÃ³
Ġdig ital
Ġcrist iana
Ġcorrespon diente
ĠRos ario
Ġdestr ucciÃ³n
Ġpo ema
Ã©rci tos
200 4
ĠHa cia
ĠAnti gu
ac en
Ġjust icia
Ġt ampoco
Ġcab ec
Ġur u
Ġp las
ĠHu go
Ġparro quia
la ga
Ġest atal
Ġguitar rista
ÃŃfer os
ĠF is
Ġrendi miento
cu laciÃ³n
am ar
ĠcrÃŃ ticos
u ar
Ġmem bran
Ġdefini tivamente
ĠMur cia
Ġde v
un e
Ġin no
ĠÃ© sta
ĠPara guay
ĠTor res
Ġre in
Es paÃ±a
Ġre ducciÃ³n
ĠP el
az z
ĠMa x
ĠPol ÃŃtica
a de
go tÃ¡
ĠAr t
Ġra ma
Ġdipu tados
ĠT an
Ġorigin ales
Ġindividu o
i ados
Ġabandon Ã³
Ġprop uso
Ġescri tores
tr ico
Ġox ÃŃgeno
tn am
ĠAl ianza
ug e
Ġdestac ados
ĠvÃŃcti mas
log ÃŃa
t adora
Ġ192 3
Ġda ta
ĠÃ³r bita
Ã¡ndo le
Ã³lo gos
9 8
ti zar
Ġg a
Ã©l gica
ven ir
Ġencontra ban
Ġdetermin ado
Ġarch ivos
. ).
ul ada
Ġp ed
Ġpresent ar
ĠEstudi os
ĠFuer za
ĠW ol
Ġub icaciÃ³n
Ġmon eda
ĠF erro
Ġdem ocracia
ĠGal icia
Ġer ror
ti ci
fici encia
Ġcr on
ĠP am
Ġnom bra
Ġhab ita
ĠAl l
Ġpe le
Ġacab Ã³
Ġindependi entes
Ġverda dero
y Ã³
Ġextranj ero
Ġemple o
ĠV ega
ĠMon t
Ġhum or
' ,
ĠC Ã³
orn eo
Ġp ira
im ia
Ġor bi
Ġest ric
ĠF un
Ġhubi era
ĠA v
Ġquin to
tu re
Ã©n ez
ĠU E
Ġr ural
5 1
ent ados
ĠJa ime
Ġm ÃŃ
ios o
200 3
p ero
Ġla dos
ĠAl ta
Ġreci entemente
Ġpatr Ã³n
5 8
Ġpri vileg
ces iÃ³n
t to
ach a
Ġneces idades
Ġde uda
Ġj udicial
ĠB lo
Ġpre de
200 1
Ġj er
Ġil ust
Ġsecre to
Ã³st ico
ĠReg ional
Ġsecund aria
Ġvi viÃ³
Ġdim ensiones
ue cos
Ġem erg
Ġoport unidad
5 4
pa ciones
Ġvolun tad
Ġdul ce
Ġg Ã³
Ġverda dera
Ġcon tienen
ĠR ay
Ġpos esiÃ³n
t te
Ã³ bal
Ġan tic
Ġmar gen
Ġtermin ar
Ġexist entes
c lo
Ġinform e
Ġcam p
ĠProv inci
i que
Ġestable cimiento
Ġrefer encias
f in
Ġpa gar
Ġmec Ã¡nica
Ġdis cu
b ul
em po
Ġneu tr
Ġcateg orÃŃas
Ġal ar
ĠDepor tivo
hi te
er te
Ġcan ta
200 2
5 9
fer encias
ĠH om
bur g
ud al
teri os
ed or
ĠJ an
ĠagrÃŃcol a
E C
ĠAu to
Ġn oreste
Ġ19 10
Ġcl im
Ġexcep to
t Ã©s
le za
ĠEs cri
Ġnombr Ã³
Ġsem if
Ġg es
Ġas al
5 2
Ġpes e
Ġperman eciÃ³
ĠQu in
Ġcerc ana
b Ã³n
c Ãº
Ġf antas
7 3
Ã³m icas
Ġabier ta
ĠMedi terrÃ¡neo
Ġre pÃºblica
Ġra ÃŃces
Ġ192 1
ri les
ri as
Ġcas co
ec uen
ĠLa tina
or os
Ġcul min
ome trÃŃa
Ġrelacion adas
Ġcabal lo
Ġsom bra
ke y
Ġor ÃŃgenes
ĠTer esa
Ġdispon ible
em ia
r ador
ivers ario
Ġri val
Ġcay Ã³
h r
Ġesc enas
Ġ192 6
Ġc lan
es is
ĠmÃºs icos
Ġl um
ĠLe e
tiz aciÃ³n
Ġpers pec
Ġsecu encia
200 5
ĠR in
Ġaquel las
ĠmolÃ© culas
T P
Ġcons ul
ĠM ill
j an
s burgo
les c
Ġpin turas
Ġcompr om
us al
Ġmon arca
Ġdescri pciÃ³n
j u
Ġest all
ĠMar cos
Ġcome dia
ĠLou is
Ġcom ida
Ġmencion a
or it
ĠrÃ¡ pida
ĠatmÃ³s fera
Ġ19 00
ĠCh i
Ġar ras
1 00
p ens
Ġn ub
id or
ecuen cias
ĠSan t
Ġfam a
Ġcaus as
l ada
tra ciÃ³n
ĠÃ¡lbum es
tran do
Ġocas ion
Ġdif usiÃ³n
ĠCrist Ã³bal
Ġsex o
Ġre lie
ĠMov imiento
Ġm el
Ġh al
Ã¡n icos
gra ma
Ġpo emas
Ġaj ust
ĠBo gotÃ¡
Ġpi diÃ³
ĠCaracter ÃŃsticas
ÃŃs o
Ġviv en
Ġac ces
on atos
ĠespaÃ±ol as
col o
Ġafirm Ã³
Ġco aliciÃ³n
Ġenten der
i Ã©ndose
Ġdisposi tivos
Ġauton omÃŃa
s an
Ġdeclar ado
Ġjug Ã³
ion ero
Ġocu pÃ³
Ġim puestos
Ġrit mo
Ġda Ã±os
Ġcomenz ado
Ġpobl ado
ĠCh am
ul t
lan os
ĠS un
Ġest Ã©
Ġt ir
Ġdes can
ĠTo k
tim ologÃŃa
Ġh in
8 1
Ġac tiva
ĠGo bern
Ġc Ãº
Ġvia jes
ĠCul tural
e ar
ĠF i
Ġposible mente
p ac
ĠCom paÃ±
g es
ĠA gu
Ġ3 3
Ġesfuer zo
Ġreg ionales
vi v
Ġacer c
Ġf Ã³rmula
Ġim pe
Ġparti da
men es
qu Ã©s
Ġinfan til
uc k
ĠG lo
Ã¡m ico
Ġg rados
Ġcorri entes
ĠV o
Ġp ac
Ġ ido
ĠD om
ĠmÃŃn imo
Ġfalle ciÃ³
ĠAtl Ã©tico
av es
Ġ id
Ġrepresent ar
Ġrebel iÃ³n
tam ento
Ġinicia tiva
Ġse mi
cu enta
Ġexplo taciÃ³n
Ġequilib rio
ĠS ag
Ġrique za
Ġf Ã³s
iz ados
ur t
Ġexpl ica
ĠMar co
Ġcol a
in cesa
Ġsegui dores
Ġt orm
Ġr in
Ġhi po
Ġjun tos
ĠprÃ¡c ticas
Ġalcan ce
Ġpol Ã©m
ril la
Ġna ciones
ol ina
de st
ĠV iena
Ġres oluciÃ³n
Ġeta pas
ĠFac ultad
Ġcontrol ar
h at
ĠA Ã©
Ġefec tu
Ġdisf ru
b all
j unto
ĠC i
ig er
om br
ĠG en
Ġdedic Ã³
hu a
Ġamena za
Ġaf lu
Ġconserv aciÃ³n
ĠS ho
ĠV asco
du la
Ġescritor a
om pe
f el
to Ã±o
Ġd ro
Ġprol ong
m ol
Ġab or
ĠZ el
x a
Ã¡s ico
ÃŃn a
ĠYo u
ĠsÃŃnt omas
Ġhacer se
Ġjust o
ĠB Ã©lgica
un as
Ġsu pon
Ġexclus ivamente
in adas
ĠÃ¡ra bes
ĠT eo
ĠcompaÃ± eros
Ġcristian ismo
ĠE ug
6 2
Ġperson alidad
Ġcuad ro
k es
Ġb udi
Ġcontinu ar
C C
ĠNa v
Ġreci entes
Ġneer landÃ©s
ĠIn te
9 7
200 6
Ġinv ad
ĠPu ente
Ġru tas
ĠEd ward
Ġre ti
R e
ĠAugust o
6 3
Ġlec he
ide ra
ÃŃm enes
Ġado lesc
ĠD VD
Ġmon asterio
Ġrepresent ante
Ġprom ul
Ġpantal la
Ġun iÃ³
Ġub ica
f ield
ich o
ĠTec n
ĠCar rera
Ġintro ducciÃ³n
ec ÃŃan
ĠJ unto
Ġdependi endo
ing er
Ġp Ã¡
ĠA gr
Ġinf ancia
Ġperson ales
Ġcos tas
Ġalcan za
Ġ19 12
ĠC le
vi la
Ġepiso dios
esti ones
Ġpresent aciÃ³n
ĠJ aco
ĠN Ãº
a f
ar re
ĠPres iden
ĠF ab
ĠM ik
Ġcu entan
zo b
Ġsu reste
Ġliber al
Ġtradi ciones
cam bio
d icas
ol as
ĠRe ci
Ġz ar
Ġdestac ado
ĠLib ro
iv er
199 9
Ġf estival
Ġra yos
Ġde ca
Ġp oca
Ï Ĥ
Ġabsolu ta
Ġconcep tos
ĠMil itar
on Ã©s
pu la
Ġsu ro
Ġdefini tiva
Ġmecan ismo
ig as
Ġcompren de
ĠLa tino
Ġinf ec
ĠautÃ³n oma
ĠA venida
Ġform al
ĠMar ina
cion ario
Ġil um
Ġex pon
Ġpas os
ĠPrim er
Ġtrib us
Ġaum enta
ĠR em
us iones
Ġapar ecer
ar c
ĠSoci alista
ÃŃc tor
Ġar ena
Ġsac ri
ĠSegu ridad
de la
ĠlÃŃqui do
Ġdeb ÃŃan
ĠG Ã©n
Ġg ub
Ġau x
ell i
tar a
Ġsu ici
ĠpÃ¡g inas
ĠD en
Ġresol ver
Ġra mas
Ġvie jo
ĠMos cÃº
ĠA con
Ã± ar
Ġinfl uy
Ġfemen ino
Ġcircui to
th er
Ġingles es
m at
Ġobserv ar
omÃ© st
al ia
Ġb gcolor
Ġpat rimonio
Ġmul titud
Ġmatem Ã¡ticas
un dir
Ġlle gan
et s
Ġindustri ales
tor iales
Ã³l ico
Ġqui Ã©n
ĠMo der
Ġcontin ental
ĠComun ista
5 7
Ġmet Ã¡l
Ġimpl ica
Ġsu puso
Ġaz Ãºcar
tor nos
ĠN ie
âĢĶ .
Ġfuer an
ĠRo jo
Ġgol e
Ġvent aja
Ġsurg iÃ³
Ġb its
ĠL is
Ġhog ar
Ġref or
Ġ rig
ur ada
ara gua
Ġretir ada
Ġras gos
Ġt ol
Ġac ord
9 4
Ġig ualmente
Ġfamil iares
Ġmill Ã³n
Ġn ut
ĠFil ip
ĠNeg ro
Ġnego cios
Ġres tr
Ġem is
ĠCon fe
Ġvivi endas
ĠdiÃ¡ metro
den al
r ores
ĠEx iste
Ġconstituy en
Ġnota bles
g io
Ġtitu lar
Ġleg is
Ġim pul
ĠBlan co
ĠÃ³rg anos
Ġlic encia
ĠM ach
Ġcel ular
ĠU s
Ġdesc enso
Ä ĩ
ĠK u
Ġgu ard
Ġdef ender
Ġpla ya
gar o
il as
Ġac or
ĠIn form
ios a
ĠÃ Ĺ
Ã± Ã³n
Ġsuces iÃ³n
Ġmos trÃ³
de ll
Ġreci n
lu la
Ġincluy Ã³
ĠÃ©x itos
Ġtrib u
I S
Ġneces aria
6 1
Ġre gu
ĠseÃ± ales
Ġdific ultades
Ġmon umento
Ġmonta Ã±os
ĠB ea
us ieron
ĠI ra
ur us
Ġpubl ica
Ġn it
ĠAd ri
Ġofer ta
Ġl istas
Ġen fo
ÃŃ ficamente
he im
200 7
o p
ĠMar cel
Ġse mej
Ġh uev
Ġrelacion ado
Ġ za
ĠAten as
Ġgra ves
oso tros
Ġarquitec tÃ³n
ĠE le
Ġn eo
ĠF ron
Ġdedic ada
Ġrealiz aron
Ġj am
Ġcur va
Ġestrateg ia
ĠI z
ĠBa u
Ġpuer tos
ĠMar k
Ġser vir
ide l
Ġol ÃŃmp
Ġentrev ista
us k
Ġmi to
Ġpon e
ĠS tre
ĠV ÃŃctor
Ġconsider Ã³
Ġsil encio
ĠG ir
Ġvari edades
" ),
Ġc og
ĠS pi
ici smo
in cl
ari ta
Ġof ens
Ġestren Ã³
ran da
vi endo
Ġdis posiciÃ³n
Ġc il
x ia
ĠV is
Ġc en
Ġr usa
ĠP ic
Ġpes ca
ĠMus ic
Ġreda c
ĠB il
-- --
ĠmÃ¡qu inas
Ġa ter
on ios
Ġcanad iense
Ġso porte
Ġmon arquÃŃa
Ġro l
Ġcontin Ãºa
Ġcin cuenta
Ġocur riÃ³
9 3
Ġl una
Ġecu aciÃ³n
Ġpudi era
Ġliber ales
Ġaconte cimientos
gr ado
z aje
Ġt rist
dad or
Ġim par
Ġti ro
if a
br al
Ġasum iÃ³
Ġcerem onia
d am
ĠR ad
ĠDef ensa
Ġesper anza
ĠJer usal
Ġrecuper ar
an til
ig na
Ġan illo
Ġcolon ias
Ġtesti mon
qu ina
ĠCÃ¡ diz
ĠFl ores
Ġno c
er amente
Ġfrecu entes
Ġliter aria
Ġdel ante
ĠM uer
Ġar ma
Ġfil os
ĠÃ³ p
Ġmanten imiento
Ġnoti cias
Ġf echas
Ġc Ã³n
Ġex it
pu laciÃ³n
Ġprim aria
Ġsust ancias
5 00
Ġem pieza
ida ciÃ³n
Ġindi os
a k
em in
Ġter renos
ed ores
Ġindividu al
ĠPar k
Ġintro dujo
Ġp le
Ġa er
ĠCh ica
Ġaut omo
t m
Ġper ci
ĠM endo
u str
Ġcl ara
Ġesc ribe
Ï ģ
Ġanti gÃ¼edad
ĠÃģlvar ez
ph y
Ġfracas o
ement erio
Ġa gres
ĠCar acas
ĠRo dri
Ġedi torial
ĠAmeric an
is pan
Ġcabec era
Ġp ene
ĠCam p
Ġblan cos
Ġco bre
Ġac tores
Ġenl ace
Ġalf abe
ie do
Ġcolum na
ĠCompaÃ± ÃŃa
Ġ om
ti di
ut s
Ġindividu ales
20 10
Ġab riÃ³
Ġconsig ue
Ġsa que
Ġbel leza
Ġc m
Ġcon sejo
ĠA k
ĠR ib
y ac
ĠS om
Ġcontinu a
ĠTrans porte
Ġclar amente
Ġinter no
Ġul tra
pl as
Ġplata forma
Ġcere bro
D A
Ġsos p
ĠBlan ca
Ġfun cional
Ġviv e
Ġferro vi
es per
ĠR uiz
aliz adas
able mente
Ġhidr Ã³geno
as te
ĠM ir
tr on
j ada
Ġ1 20
Ġmas as
Ġpriv ado
n al
tom os
Ġlab ora
p Ã©
Ġdeci siones
Ã± ado
ri al
Ġinmig rantes
Ġre per
Ġregres ar
Ġdispu ta
Ġo pon
ĠR um
va ciones
ĠLo ve
z ando
paÃ± as
ba ciones
ĠA Ã±os
Ġpro hi
Ġlec tura
Ġfach ada
Ġbiblio teca
ĠP ad
ĠG usta
ian as
Ġpa go
Ġtar je
Ġint entos
ĠÃī l
Ġen tidades
Ġsal vo
Ġsir viÃ³
ĠpÃ¡g ina
Ġex ca
Ġliber aciÃ³n
Ġpron unci
Ġvig or
Ġejecu tivo
Î ½
Ġcap aces
" |
t ano
v oc
Ã¡ z
ÃŃs ica
Ġab ol
te a
Ġproce dentes
di ales
itu des
ĠPier re
ĠB ul
Ġsuce de
ci r
ĠN Ã¡
Ġlogr aron
Ġir reg
" ).
Ġd om
ĠAl len
Ġporcent aje
Ġc Ã¡r
Ġdes ap
ug os
ĠHun grÃŃa
ĠP ap
Ġdis cur
Ġcelebr Ã³
ĠTele visiÃ³n
Ġace ite
i us
Ġvege taciÃ³n
ĠL og
ĠSal ud
Ġtempor al
Ġacce der
b s
ĠP IB
Ġte cl
h en
Ġelim inar
Ġsuje to
i ti
p ÃŃa
Ġmar cÃ³
Ġfran co
Ġrec uer
Ġme tales
ĠsÃŃmbol os
Ġro cas
tiv e
Ġna ves
Ġ Å
eg r
Ġsegun dos
Ġex am
C ar
ina ciones
a unque
tr onomÃŃa
Ġsimul tÃ¡n
Ġsal e
fec to
ĠGu in
u das
fici o
% ,
Ġde pÃ³s
om or
Ġconci encia
Ġvideoj uegos
ĠF amilia
Ġqued aron
Ġestre cho
Ġm ala
ur ales
Ġc uel
Ġen z
Ġar reg
Ġtra mo
Ġrealiz aciÃ³n
Ġcolum nas
h um
ĠJerusal Ã©n
er ba
Ġex ilio
Ġsim bol
Ġencar gado
Ġma ÃŃz
Ġdeber ÃŃa
te or
Ġoc cidentales
Ġcr omos
Ġtoc ar
en ce
Ġide al
Ġfortal eza
Ġse llo
Ġpu dieron
Ġan t
Ġata car
Ġenvi ado
Ġcon tÃ³
Ġre t
ĠG ram
Ġmo tiv
Ġej Ã©rcitos
ĠArm ada
Ġt era
onal d
Ġ Ð
Ġt Ãº
Ġhacer lo
Ġnoc tur
Ġ19 13
Ġfron teras
Ġc es
ones a
Ġ19 16
o is
ĠBern ardo
ĠT orneo
ĠD ic
Ġameric ano
t ente
gu ar
Ġcons olid
Ġpas aron
ĠMar g
Ġse t
ĠR el
Ġgal le
Ġfues e
Ġacep tÃ³
ĠK ir
200 9
ern am
Ġon ce
ĠB ib
Ġar res
Ġbri ll
Ġencontr aron
ĠsÃ© pti
ĠMendo za
ar y
ol d
Ġd urÃ³
Ġcr Ã©di
Ġh ec
pres a
Ġpri mo
Ġneg ros
Ġinflu encias
Ġhoriz on
200 8
Ġadministra tiva
Ġar re
Ġast ero
g ran
ri ll
Ġre tro
Ġherramient as
Ġpue dan
Ġemple ados
ĠfÃ¡br ica
Ġd orm
Ġsuro este
Ġpun ta
Ġcompr ome
Ġa gra
ĠV ene
ĠZ e
ĠEdi torial
ĠTur quÃŃa
u le
Ġmol ec
ã Ĥ
Ġh ar
ĠU c
Ġmor f
Ã³n ima
Ġamist ad
ĠJ ac
Ġpromo ciÃ³n
r aron
ĠF Ã³rmula
Ġson ora
Ġc iento
Ġca er
ĠC erv
m Ã³
Ġextra ordin
Ġfuerte mente
m ad
Ġarch ipi
ĠL ÃŃnea
Ġv arÃŃa
ec uciÃ³n
Ġhuman idad
Ġh am
ad olid
ĠS um
ĠCol Ã³n
ĠBe at
ĠBat man
Ġdesarro l
ĠA la
Ġconce jo
Ġtar ea
Ġ19 11
Ġinten sidad
Ġinter cambio
ĠNic aragua
rec ciÃ³n
Ġvir us
Ġmer can
ĠacompaÃ± ado
z e
ĠFies tas
Ġre inos
Ġata c
Ġvac ÃŃo
Ġintelig encia
ĠL ista
ac os
ĠZ ona
ĠPa tr
Ġdepor tes
Ġdi Ã³
Ġincl uidos
Ġro ja
Ġpais aje
Ġa eron
es as
Q u
ent re
Ġprevi amente
Ġc ien
Ġsu ble
Ġ17 0
ĠquÃŃm ico
ĠV e
Ġdomin go
Ġaprob Ã³
Ġejempl ares
ĠHern Ã¡ndez
ĠDin amarca
i Ã¡n
Ġh Ãºn
bi endo
ĠV in
Ġre ta
Ġag ente
Ġman ga
Ġten iente
ea e
Ġo toÃ±o
Ġrad ical
Ġeurope as
ĠLi teratura
Ġmetro politana
ĠA Ã±o
na val
Ġ6 4
Ġdescri to
Ġintelec tual
b Ã³
ĠLuc as
h or
Ġin cur
tÃ¡n ica
Ġv it
Ġac a
Ġmo d
Ġasent amiento
Ġalterna tiva
Ġest ilos
ĠP ese
ĠG or
Ġdefin ir
Ġdisposi tivo
C E
ton e
Ġcatal Ã¡n
ĠMe xic
ĠSer ie
Ġju ventud
M S
Ġde bate
Ãº menes
Ġconvirti eron
Ġalber ga
ĠCom pan
Ġper m
Ġexist ÃŃa
9 1
ĠH y
Ġcomp ra
Ġtransform aciÃ³n
ã ģ
Ġc ientos
ĠEste ban
Ġfinaliz ar
ÃŃs imo
um ental
ĠDepor tes
ĠRe ina
Ġar tic
Ġinvers iÃ³n
pi ente
Ġib Ã©rica
Ġgub ernam
ar cas
Ġf lex
Ġneg Ã³
Ġinvestig adores
Ġres pal
Ã¡st icos
ĠA udi
Ġes con
ĠR an
ĠIn di
ĠT anto
ing s
ĠÃ¡ tomos
A S
Ġcas ti
Ġtelev is
ĠÃŃn dice
m ir
Ġf all
j ano
m Ã¡s
ĠEn tonces
ĠÃ¡n gulo
Ġdepor tivo
ĠS el
Ġcab e
Ġcomun icaciones
Ġoblig ado
Ġac ero
Ġdispon ibles
Ġcentr ales
Ġ ic
ĠcÃ© le
Ġba terÃŃa
ĠTer cera
Ġven cer
199 7
Ġrecu peraciÃ³n
ĠS cho
Ġsacerdo te
Ġdesem bar
Ġcons ecuencias
ĠAr turo
Ġincl uida
Ġpie dras
Ġminer ales
Ġres erva
Ġcaracter es
Ġsober anÃŃa
Ġfras e
y er
dr ich
Ġfru to
Ġimpos ible
Ġt aller
Ġdeclar aciÃ³n
ĠindÃŃgen a
st o
ĠFuer zas
Ġesta tus
ĠdiseÃ± ado
Ġprov oca
Ġmit ologÃŃa
um as
Ġres idu
Â» )
ĠSe lec
ĠMÃ¡ laga
Ġrealiz adas
Ġcam inos
Ġcine asta
Ġgal ard
Ġalum nos
Ġdes ierto
ien da
Ġtrayec toria
D e
Ġn ace
ĠF ri
Ġdis pone
Ġchil ena
mi rante
Ġempres ario
199 8
ĠRodri go
ĠI gu
Ġcostum bres
ĠOc cidente
de os
ĠelÃ©ctr ico
iz aciones
Ãº st
Ġingen ierÃŃa
Ġmone das
Ġe uros
ĠA pol
rid ge
C D
ĠL ic
Ġintegr ado
Ġsovi Ã©tico
Î ¹
Ġp ena
Ġher mos
Ġterc ero
es tro
Ġor illas
Ġle er
Ġsitu aciones
ĠÃº til
ĠA re
Ġoscu ro
ĠCol um
Ġcuar tos
ui en
Ġemple a
Ġcin ta
u alidad
ĠM emor
ĠcÃ© lula
Ġcomple jos
v ez
Ġhec tÃ¡
Ġs ho
Ġj uz
Ġch ina
Ġdescendi entes
uer as
Ġamar illo
ĠAm bos
Ġus ada
ĠNa tural
ite d
ĠMuch as
Ġdepartam entos
Ġci fra
Ġdipu tado
f eo
Ġcarre teras
Ġd omÃ©st
g ando
es peci
Ġan iversario
Ġcapa ci
Ġespi ri
Ġf Ã©r
ĠCan arias
Â ¡
ĠâĢ ķ
Ġesca par
ĠRecord s
Ġdeci s
Ġjurisdic ciÃ³n
ĠCa tedral
Ġestu vieron
P ar
Ġdes f
ÃŃm ica
Ġd ram
Ġregist ros
Ġcombust ible
Ġpo p
Ġretir Ã³
Ġ6 00
Ġasoci ado
quis iciÃ³n
Ġpre dic
Ġba hÃŃa
ĠJim Ã©nez
Ġsu erte
ĠT am
ces is
ĠHer man
Ġinter f
Ġb iz
Ġaprob aciÃ³n
Ġtej ido
ĠL y
Ġ( âĢ
gra fÃŃas
ĠG ib
Ġ3 8
Ġlig eramente
Ġa venida
gun o
Ġincrem ento
Ġnie ve
ĠA rist
ĠV ers
Ġor todo
Ġejerci cio
Ġdes pi
ĠcompaÃ± ero
Ġex ces
Ġf om
Ġconf ianza
Ġtar eas
M ar
an Ã¡
Ġconoc en
Ġadul tos
d om
Ġno bles
ĠAl bert
ĠMar y
Ġdiv isiones
Ġelectr Ã³nica
Ġvenezol ano
j eros
Ġ 000
ĠDes ta
ĠJu ana
Ġvari ables
Ġsu ger
ĠP ir
Ġconsider ados
Ġfundam entales
u an
Ġsocial ista
por a
Ġap ren
ĠGu ardia
Ġcom pi
ac ciÃ³n
Ġ7 5
199 5
Ġparro qui
ĠMich el
pl an
Ġn atal
ĠF M
ch en
ĠPe Ã±a
s ul
Ð °
Ġdes per
Ġval les
Ġdivers idad
Ġtra taba
ĠMar ia
Ġo pciÃ³n
Ġ Ï
de ste
ĠL le
Ġag entes
Ã¶ r
Ġ3 7
Ġelec tri
Ġnega tiva
r ich
Ġgan ador
F ran
Ġrela to
Ġrom Ã¡n
t ti
Ġg ras
Ã¡n s
ar le
Ġvi eron
Ġutiliz aciÃ³n
Ġdich os
Ġempez aron
on ado
: #
in ter
Ġesp ada
Ġdivi dido
Ġer rores
ĠS tra
Ġman us
enci ado
Ġap un
Ġalg uien
Ġinstal aciÃ³n
Ġart ÃŃstica
Ġperten ecen
ĠEsco cia
Ġmos trar
Ġperteneci entes
Ġac titud
Ġpa ciente
ÃŃs ima
as o
Ġpar Ã¡
Ġso bres
ĠGu ti
tific ado
C o
oc l
Ġra za
Ġcl iente
Ġecl esi
Ġj ue
Ġcam paÃ±as
Ġdesign ado
Ġcap ÃŃtulo
Ġconj untos
Ġ190 8
Ġv ientos
U U
Ġos ci
Ġrespons abilidad
ĠKar l
ĠChica go
Ã¡ce as
z adas
ti que
ĠMari ano
ĠB ell
Ġestable cieron
199 6
Ġ3 4
Ã³r ica
h ara
er ÃŃas
Ġfa una
ĠS he
Ġins ec
Ġm iedo
Ã¡ ticamente
Ġac re
ome tra
Ġson idos
ent aba
ran ia
Ġcomple ment
ĠBo b
s pan
Ġru p
Ġlar gas
Ġ19 15
oc e
ĠV III
Ġco ord
Ġay untamiento
Ġmanifes taciones
ad ÃŃa
am as
Ġmej ora
Ġa ra
se y
ĠU S
eci endo
Ġdetal les
ÃŃ dos
de as
ĠCal le
Ġ190 5
Ġdocum ental
ĠC y
Ġdescri biÃ³
Ġf la
ĠH ill
Ġparticip antes
es tre
n ie
Ġno tas
Ġna tivos
Ġp eces
Ġus os
ĠPr ÃŃncipe
j ud
c ambi
ĠseÃ± ala
Ġt Ãºn
20 11
Ġdoctr ina
Ġg ris
bi das
til las
Ġten drÃŃa
Ġtor neos
Ġm ente
ĠFu ente
ĠHol ly
pa t
Ġcumpl en
Ġ4 2
ier ro
Ġis l
ĠVall adolid
ĠB us
Ġcircunst ancias
Ġren uncia
Ġp ico
ĠEs pe
ĠMa h
Ġse pul
par te
âĢ ķ
ĠEs cu
Ġinten s
Ġpl eno
Ġre tras
Ġderro tado
ĠAcon te
eci da
ĠG an
Ġpre ce
Ġaudi o
Ġjard ÃŃn
Ġexist ente
Ġfundam entalmente
la o
Ġrela tos
ter no
ĠT rin
Ġlar gos
Ġpen al
Ġs h
ĠCab e
ci les
ĠGra cias
ce ae
Ġlev ant
Ġem isiÃ³n
P E
Ġtradi cionalmente
Ġelev ado
Ġre pu
N T
Ġh ol
Ġpar ecer
ĠG io
Ġelec tro
Ġquin ce
bo a
back ground
al da
ĠAr ch
Ġmam ÃŃferos
Ġv uelos
Ġan uales
Ġcum ple
p ados
Ġint enta
Ġcan to
Ġital ianos
ĠT y
Ġmi x
Ġbra zos
ĠlÃ³g ica
ĠAconte cimientos
re to
ĠPar tici
ĠVal enci
in an
ĠBur gos
Ġpartid arios
t he
Ġsub mar
am ba
dr ome
P S
Ġcos te
Ġelabor aciÃ³n
ens es
Ġe rig
Ġca denas
Ġobten ido
r uecos
Ġcon cur
ent ri
uch o
Ġllam ar
Ġecon om
Ġespec tadores
Ġsigui eron
Ġinaug urÃ³
Ġmar is
ĠCl ima
fon ÃŃa
ĠB ran
ens is
Ġus Ã³
Ġarg umento
Ġdescri bir
ĠgeogrÃ¡f ica
Ġsu puesto
Ġte or
u pe
er ta
ĠF ra
ĠagrÃŃcol as
Ġlluvi as
r ÃŃan
da je
Ġofre ciÃ³
ĠVie tnam
Ġarchipi Ã©lago
in ario
Ġem ble
Ġcr uc
Ġcele bran
ĠmÃ© dicos
Ġpare des
ĠPue de
bi eron
Ġart ÃŃstico
Ġeleg ir
Ġ6 5
u tas
199 4
Ġtermin al
Ġsust ancia
ĠB aja
ern es
Ġab rir
en co
ĠN ik
Ġalrede dores
co pio
ĠM ira
Ġbu ques
Ġju ven
p to
Ġqued an
Ġpelig ros
Ġcol egio
Ġne uro
cam pe
ÃŃ ticas
ĠD or
que te
Ġfun er
istem as
Ġcompon ente
ui dad
ĠCo o
Ġconv ento
Ġse di
ag er
ĠsÃŃn tesis
ĠO f
Ġpol vo
ĠGre en
Ġcandida tura
in to
ĠR i
Ġcuar enta
Ġconserv an
Ġdi agn
ĠGon z
ĠP R
Ġd uro
Ġcicl ista
cu ra
ĠJ ane
Ġna val
ge bra
g ia
ĠS ir
ien en
Ġpri or
co pa
Ġinv ent
Ġnues tros
Ġps ico
ĠS ing
lor ia
Ġindustri as
Ġproporcion a
Ġdisting uir
Ġinfraestruc tura
Ġsu pre
Ġg ust
atro cin
Ġdiscipl ina
ĠsatÃ©l ite
es tado
cor e
ĠHon or
E A
Ġpriv adas
Ġb ro
Ġvol Ãºmenes
d ones
xim os
lo v
Ġreconoc er
st em
ÃŃl ica
Å ¡
gen a
Ã¡z quez
Ġd aba
Ġrecin to
Ġactu ar
Ġmuer e
Ġsue co
uel to
ĠTo das
ĠVie jo
ĠcÃ¡l culo
SO E
Â ¿
Ġar till
Ġcul tivos
ĠW at
Ġcomp ro
z Ã¡s
lan desa
ĠAn des
ĠCat Ã³lica
Ġde cÃŃa
ĠAnd re
ĠBiblio grafÃŃa
ĠT Ã©cn
ĠEs pa
ĠhectÃ¡ reas
Ġsoci edades
Ġa pe
om er
ĠN A
Ã©r icas
Ġconce j
ĠNor uega
Ġbrill ante
v ino
m enta
Ġvari antes
ĠCas tell
Ġtrabaj ando
ĠS tal
ĠL l
Ġal as
Ġinc om
roso ft
Ġpar ed
ĠEst re
Ġcer ro
Ġil ustr
ĠcÃŃr culo
ciden tes
Ġfuncion arios
Ġalg orit
Ġh ard
ton a
Ġpobre za
Ġex terna
Ġr urales
Ġdis cre
Ġcre ando
h l
ĠclÃ¡s icos
ĠDis ney
Ġbenefici os
ab o
Ġmes a
y endo
Ġenfr entÃ³
Ġnoti cia
ĠP ach
Ġ190 6
Ġpris ioneros
ĠIn dias
Ġprecis iÃ³n
Ġperspec tiva
ĠPol icÃŃa
ĠF el
Ġcu entos
Ġra m
Ġhech a
Ġenfo que
Ġpres erv
Ġcap as
ig ui
Ġser Ã¡n
Ġacep tar
aj ara
Ġestudi Ã³
Ġl len
Ġpor ta
ĠPla y
I T
Ġpu ra
Ġpe ticiÃ³n
Ġcom ent
vi ta
Ã©r rez
Ġv ag
uy eron
Ġcontro vers
Ġcoci na
Ġ190 9
ĠRog er
la ba
ur s
Ã¡m aras
os ex
ĠRom ano
Ġnoble za
Ġdis ol
Ġgan ando
ĠAnti gua
ĠhÃ©ro e
un t
ĠPro fes
Ã «
Ġcal ific
Ġatra vi
Ġmos tr
ĠRec on
ĠD ra
ĠN aciÃ³n
Ġdes as
ment aciÃ³n
st ru
Ġt ono
ĠHar ry
ĠtÃŃp ico
Ġsim ples
Ġsuce diÃ³
a Ã±os
ĠRe pres
ĠFin al
ĠEst ad
zob ispo
Ġv ital
ĠNa tional
Ġa port
Ġcual quiera
i i
Ġapar iencia
Ġrela tiva
Ġconstr ucciones
ĠPo der
Ġ( ),
on t
ĠD av
ĠIn s
ĠO este
Ġnego ciaciones
ĠPue blo
Ġap ell
Ġsuper ar
Ã³m icos
Ġgas es
Ġpre h
ĠLi bre
ĠS w
Ġem pu
Ġch inos
th ur
pt entri
Ġhisp ano
Ġro pa
ĠJ on
ĠLe ague
Ġten ga
Ġderro tar
Ġor n
Ġrelie ve
Ġpob res
ĠGuti Ã©rrez
ĠC erro
Ġhom osex
Ġven ce
Ġpresent ado
Ġinte graciÃ³n
Ġhistor ie
Ġvisit antes
Ġcir culaciÃ³n
Ġ4 8
Ġbuen as
Ġdeci dieron
Ġgra tu
Ġelec tor
can es
ĠR A
ac he
vi al
ten do
ĠMic rosoft
ĠB et
Ġactu aciones
Ġavent uras
E E
Ġpr incesa
Ġespec ÃŃfico
Ġ25 0
ĠTer ri
j Ã³n
Ġmedi r
Ġpermit ÃŃa
Ġabsolu to
Ġc able
in idad
Ġac on
ĠDis co
Ġcon curso
Ġdetermin ada
Ġjapones es
Ġl idera
ĠIn ici
cil io
s ar
Ġcre ÃŃa
ach os
grÃ¡f icas
Ã¡ logo
Ġliter ario
Ġvoc es
ĠVene cia
ĠS tor
je d
cion Ã³
ĠDes cripciÃ³n
Ġalco hol
Ġpar cialmente
ĠF ig
i w
t ÃŃ
Ġsig no
Ġconstr uc
ĠPas cu
er es
Ġven der
Ġpens ar
ĠM ul
Ġtra tÃ³
Ġpla ca
ĠFI FA
p ista
Ġci ta
Ġexist ir
Ġint entar
Ġhi p
Ġgener ar
Ġmor tal
Ġreconoc e
ĠU b
Ġvaria ciones
ĠEx tre
ci to
Ġan ar
ĠQ uer
c m
uer tos
ĠMar ruecos
tam ientos
mon d
L o
Ġl Ã¡
Ġn Ã¡
Ġter ra
Ġalgun o
og Ã©n
Ġrepro duc
Ġad or
Ġch o
Ġ190 4
Ġer mita
Ġdis oluciÃ³n
pi ta
ĠEm ilio
Ġvideoj uego
Ġrepresent ado
ĠFlor ida
ĠS ici
Ġsin te
Ġad vers
ĠTu rismo
ĠM all
Ġ8 00
Ġofrec er
ĠConfe deraciÃ³n
Ġd anza
ĠCon de
ĠRa Ãºl
ĠfenÃ³m enos
Ġre pos
Ġre quis
ĠAd am
Ġapl ica
Ġren unci
Ġescu ad
ĠAntigu o
ĠcÃ¡r cel
ĠR ÃŃos
Ġform aron
Ġopera tivo
ĠCh il
Ġvari ante
Ġcam bia
ĠIs a
Ġtum ba
Ġse co
Ġprov is
ĠCab o
Ġdismin uciÃ³n
Ġrev is
Ġtej idos
Ġcor dillera
Ġher idos
Ġt Ã¡c
Ġc aja
Ġp ien
m el
Ġrebel des
Ġinterac ciÃ³n
re za
lan dia
ĠCompan y
ĠEl la
Ġesc rib
ĠCon tin
. -
Ġfoto grafÃŃa
Ġconoci mientos
Ġquin ta
Ġuru guayo
u ci
Ġba ter
Ġpos t
Ġda Ã±o
Ġtur ÃŃstico
Ġta x
Ġacab ar
Ġvir tud
ĠP ala
Ġb Ã³
ĠAr gent
ĠCol onia
Ġsan to
Ġcolon os
Ġinfer iores
ĠS port
Ġpropor ciÃ³n
ab al
at ales
Ġa den
Ġsig nos
Ġminu to
Ġel e
ÃŃ pul
Ġtra ma
Ġartifici al
ĠHa w
ĠC ic
Ġpol ar
ĠJo an
Ġvice presidente
ĠIncl uso
ĠÃļ l
Ġm Ã³d
ti ma
ĠEst aciÃ³n
pr endi
Ġexplic ar
b ina
Ã¡r qu
Ġe uc
Ġdes ac
Ġreg la
Ġmues tras
Ġgrab ado
ĠcatÃ³l ico
f ras
Ġesc ultura
Ġtom ando
ĠWilliam s
Ġfis cal
Ġhues os
Ġest r
v emente
Ġreduci do
Ġinaug urado
Ġais l
Ġproven ientes
Ġas imismo
199 0
ug ar
Ġunif orme
c ara
Ġna zi
ri Ã³n
le m
Ġestatu a
ĠBib lia
Ġl it
ĠT ay
Ġpel o
Ġexten diÃ³
ĠS erg
Ġre Ãºn
Ġval enci
Ġcrist iano
Ġrepresenta ciones
Ġpobl ada
Ġapre ci
ĠFi nl
Ġp atrocin
Ġm inas
Ġprepar aciÃ³n
Ġbacteri as
Ġ zo
Ġsol itario
Ġpubl icaciones
Ġne ur
199 2
ĠRiv era
Ġinmedia to
ĠServi cio
ĠM ora
ĠFilip inas
Ã¡ zar
Ġfil m
199 3
ĠGusta vo
Ġver se
ĠMay o
Ġmembran a
n ar
Ġso f
ĠFran ces
ĠRo bin
Ġorganiz Ã³
Ġdivi dida
ĠL am
ĠCla udio
ĠDoc tor
Ġca fÃ©
Ġsegu ro
Ġbau tiz
Ġfrances as
Ġprecipi taciones
Ġcos tos
Ġbor do
Ġinteg rantes
Ġdi osa
ruc e
a tor
ĠP es
at l
Ġnego cio
tador as
ĠJ ones
Ġpresiden ciales
s ol
ĠE timologÃŃa
Ġcom pati
oc ar
Ġesc oc
Ġinter cambi
Ġlogr ado
Ġrepar to
Ġespiri tual
Ġb ando
ĠB ir
Ġper pe
Ġjam Ã¡s
m Ã³n
Ġrealiz ados
Ġllev aba
Ġcirc ular
Ġposib ilidades
ĠVir gin
ĠAut Ã³n
O R
P C
Ġsemif inales
ĠP s
Ġaum entÃ³
Ġreconoci da
Ġpol aco
l le
Ġj es
viv encia
Ġ ;
ĠF rie
Ġan trop
y m
Ġf lam
Ġsepar a
ĠperiÃ³ dicos
Ġest ancia
Ġhum edad
Ġade lan
Ġcu estiones
ĠhistÃ³r icas
Ġpar es
Ġso cio
ĠDirec ciÃ³n
Ġadqui riÃ³
Ġcabal los
Ġest ando
ĠCor n
Ã¼ r
ĠMer ce
Ġadop tÃ³
ĠAÃ© rea
Ġvis ible
ĠWal ter
20 12
Ġrev istas
ĠGonz alo
ten cias
Ġo jo
ĠSeg undo
Ġalim entaciÃ³n
in c
ĠGu z
Ġproduci da
ĠMag dal
ĠL ive
Ġdej ado
ĠH ip
Ġas istencia
Ġesc en
Ġsim pl
Ġprof undo
s ion
ĠB ien
con tin
Ġcaus Ã³
Ġencontr arse
Ġdispu tÃ³
ĠSim Ã³n
iz e
ĠCar re
un idades
Ġj uega
ĠRe laciones
Ġtecn ologÃŃas
Ġrelo j
ĠAr g
Ġra cional
ĠUc rania
k et
Ġextre mos
Ġderiv ados
Ġaust ri
Ġab arca
Ġmoder nas
ĠcatÃ³l icos
Ġvig il
ĠNin tendo
ĠTex as
Ġro ca
ĠJ ord
ĠLe w
ĠBro wn
ugos la
Ġcre aron
Ġconcre to
Ġastr Ã³n
ĠI v
Ġon das
Ġpromo ver
Ġresiden tes
pa cidad
ĠPer Ã³n
Ġcier re
Ã³n de
Ġcor tes
Ġprof unda
ĠMil Ã¡n
ĠPue bla
an c
Ġpar ques
Ġreac ciones
ta b
str ucciÃ³n
Ġar ran
ĠW hite
ed y
Ġcontras te
ĠComer cio
ĠD ay
ĠCam b
ĠMor eno
Ġvir rey
Ġs ar
T o
Ġin greso
Ġest abilidad
Ġper egr
Ġotor gÃ³
ĠGreg orio
ĠBar tol
tu a
vi deo
Ġdich as
ĠA quÃŃ
Ġcom isiÃ³n
Ġpla yas
Ã©l ix
Ġhere dero
Ġde pos
Ġmu rieron
Ġprecis amente
Ġincendi o
ĠAlfre do
Ġmedi as
Ġdepor tiva
Ġrecha zÃ³
Ġmedal la
il do
Ġtom aron
empl os
ĠIngen ierÃŃa
Ġelim ina
Ġemple ado
Ġnaveg aciÃ³n
Ġbaj os
z aron
Ġ9 78
ĠMedi cina
Ġescul tor
Ġest reno
ĠR y
ĠAn gel
Ġhe bre
Ġimpres ion
ĠD ig
ĠAr quitec
des de
ĠX III
Ġresta uraciÃ³n
Ġgrave dad
Ġm ural
is m
ĠT ener
Ġ8 4
Ġinterpre tado
cion a
ĠH all
Ġhabitu almente
ĠHon duras
lo gos
atal las
Ġpar cial
Ġcerc anos
on i
u dos
Ġo ch
Ġcu estion
lam iento
ĠÃ© ste
Ġig uales
Ġdesc en
ĠEj ecu
Ġarro z
Ġhab ilidades
Ġprof un
j am
Ġter cio
Ġdistin ciÃ³n
Ġrefle ja
Ã©r pre
bus es
ĠvÃŃ deo
Ġcostum bre
ĠhÃ¡ bita
Ġcomprom iso
Ġf an
Ġes encial
ĠD ado
Ġpl ena
Ġ190 3
ĠCatal ina
ĠSem ana
Ġt ib
ĠG am
ĠV a
Ġhab ilidad
Ġmat ar
Ġasoci ados
Ġvide o
ĠAma z
Ġca u
Ġeleg idos
Ġdibu jos
Ġabst rac
C om
Ġa rag
Ġhab iendo
Ġdirig ir
Ġsing ular
Ġcuel lo
r ones
Ġg ab
ac eae
oc ho
Ġmencion ado
Ġcaball erÃŃa
Ġpoten cias
Ġrefle x
Ġarch ivo
pe dia
Ġnin guno
i ologÃŃa
Ġs eno
ĠJ ug
ĠGuadal ajara
ĠHolly wood
b ili
i ri
r ÃŃ
Ġes pon
Ġpar ecen
ĠAl b
Ġcar denal
Ġdici endo
Ġorient aciÃ³n
Ġaudi encia
Ġveg et
Ġparticipar on
Ġcom pone
Ġtom ado
Ġrestr ing
ĠP Ãºblica
ĠdÃ© bil
Ġpresu puesto
ĠMa xim
itor al
ĠBau tista
Ġsug iere
ĠCu atro
199 1
ĠI rÃ¡n
Ġpues ta
Ġba ilar
Ġelev ada
Ġadi cionales
Ġh imno
im al
ĠÃ©p ocas
Ġautomo vil
ĠR uta
ĠPu bl
f ia
Ġmar cado
Ġens ayo
Ġbra zo
ĠN er
Ġviv os
orden adas
Ġnut ri
ĠInde pendi
Ġaseg urar
Ġa pa
cion amiento
Ġf ic
Ġdiv is
Ã¡f rica
ĠGran d
Ġvis itar
Ġ189 0
grÃ¡f icos
Ġemb ara
Ġviaj Ã³
Ġreserv as
Ġmari do
Ġal dea
dad as
Ġcer Ã¡mica
Ġcomun ista
Ġcos to
ĠTer min
w ar
ci mo
ĠW h
ĠCu ar
Ġgrad u
Ġtor res
Ġinterpre tÃ³
ĠbÃ¡s icos
Ġem bal
âĢ ¦
ĠK enn
Ġproduc tores
Ġcorrespon den
Ġ ...
as s
Ġre torno
ĠGer mÃ¡n
Ġre tor
Ã¡n dal
Ġus ados
Ġasent amientos
p p
m ens
Ġcom plic
ĠH ans
ĠV ide
Ġprob abilidad
ĠSco tt
Ġcre encia
ver g
te la
ĠA ward
Ġcomun istas
Ġparticular es
Ġtes is
Ġprocedi miento
ĠT uc
ĠO x
Ġvoc al
Ġdes po
Ġinterpre tar
Ġevi dente
Ġdesap ariciÃ³n
en ciales
Ġa go
Ġin ex
Ġro bo
Ġadi cional
Ġcarb Ã³n
Ġfemen ina
Ġpor tada
j illo
s ch
pl ica
Ġelectri cidad
Ġgen es
Ġhac ÃŃan
Ġ190 7
Ġcivil izaciÃ³n
Ġbalonces to
Ġocu pado
Ġaprendi zaje
ba o
Ġgra bar
Ġac uerdos
Ġedi tor
B M
Ã ¢
Ġencuent ros
Ġdestr uir
Ġdiv or
Ġdieci s
Ġba ile
198 9
Ġmecan ismos
Ġgig ante
g ico
Ġv Ã©r
Ġcor reg
ĠPro yec
Ġpartici pa
Ġfil me
Ġvis igo
Ġapro pi
ol ia
ig g
bi tos
re am
Ġcampes inos
Ġjorn ada
Ġcor rupciÃ³n
id ores
Ġparal elo
uel ve
ĠRoy al
Ġten emos
P or
Ġsal as
m all
gan da
Ġlog rando
C I
Ġtitul ada
er to
ĠE qui
ap ia
Ġsust an
Ġindic an
S e
iz adas
Ġor illa
Ġexter nos
i ciones
ĠAl m
ĠAlex ander
C ol
Ġver des
Ġtu ristas
Ĩ Ĵ
ĠT in
ĠIm per
Ġhaber se
ĠSan cho
fon os
ĠfÃŃs icas
0 1
ie go
Ġreun iÃ³
Ġenfrent amiento
ĠS uc
ĠUn idad
Ġmar ina
Ġorganiz ado
Ġconstruy eron
Ġa uge
in ando
Ġob is
Ġem per
Ġdest inado
ĠHer rera
Ġir re
Ġaut Ã©n
Ġna z
Ġguion ista
P a
Ġcuer das
ĠmÃŃn ima
Ġbur gu
ĠEv angel
Ġpapel es
ĠquÃŃm icos
is on
ĠW ood
% )
iz as
Ã©r icos
Ġrec ol
Ġpier de
Ġsub di
ĠÃģlvar o
ĠGuz mÃ¡n
i riÃ³
Ġme teor
Ġcre encias
Ġher encia
jer as
Ġ190 2
quer a
tric es
Ġcercan as
ĠF ord
ĠJ ard
ĠCon tra
Ġconform an
ĠH isp
Ġ3 000
Ġtemp rana
ĠL Ã©
ec os
Ã¡n icas
Ġ5 5
ĠZel anda
Ġp endi
Ġ190 1
- ,
k en
cion ada
ĠCol le
Ġos t
Ġan dal
pl icaciÃ³n
or ca
Ġh un
Ġib an
Ġabund ante
Ġprestig io
ĠJ r
bo ard
Ġjud ÃŃa
O M
Ġac tivos
Ġjud ÃŃo
Ġsufici entemente
Ġ4 4
M an
Ġdel an
Ã©n dez
t Ã©
Ġ3 9
es iones
Ġvol vieron
cri tos
Ġespec tro
ĠFies ta
k ar
ĠV arios
Ġbas ados
Ġcomenz ar
ic ante
Ġfam osos
ĠMas s
f ort
ci entos
ĠH istor
ĠS pe
Ġentren amiento
it arias
ĠMan cha
as as
ÃŃ rez
Ġp ir
ĠN et
ĠGran des
ĠEdi ciones
Ġrum bo
Ġfus ion
tar o
ed onia
Ġen com
ra ba
ĠB ru
Ġmascul ino
Ġb y
Ġt ÃŃo
ÃŃf ica
Ġdemos trado
Ġg i
ĠPa ulo
Ġs aga
Ġmis iones
tan der
ĠVer de
Ġofrec en
b ara
ĠDer echos
ĠFrie drich
Ġinici ar
Ġneces arios
Ġater riz
ĠGuin ea
Ġpa de
ĠMagdal ena
Ġcom is
ĠB io
Ġid Ã©n
Ġn osotros
ell Ã³n
Ġsepar ado
t ta
Ġa pos
ĠC um
Ġofici nas
Ġespec ÃŃficamente
Ġproce de
ĠP rado
ĠÃ¡n gel
Ġses enta
Ġpla zas
Ġmer cados
Ġelectr Ã³nico
an al
Ġun d
Ġpro pi
Ġapar ato
och es
ĠDec reto
el Ã©ctr
Ġho ja
con oci
Ġinter rum
ĠlingÃ¼ ÃŃstica
ĠJack son
Ġlim itada
A N
Ġse xto
Ġofens iva
Ġsu izo
ie bre
quer o
Ġfron ter
Ġca e
ĠSu Ã¡rez
all y
ĠSi ria
ĠPat ri
Ġdemos trÃ³
c r
Ã³ b
Ã³n imos
ĠEs peci
Ġexperim entos
s ur
Ġsim b
ern as
Ġmencion ar
pe d
Ġmon umentos
dor o
Ġde tener
Qu Ã©
ĠSupre mo
e ja
f Ã³nica
ĠF Ã©lix
it en
Ġtra tados
Ġpes os
th a
Ġorganiz ar
Ġsegu ÃŃa
Ġrelacion ada
Ã©ndo le
Ġpro dujeron
Ġan f
ĠGu ar
ĠaÃ© reo
Ġen ga
ĠM Hz
ti za
ĠB ut
ĠprÃ³ ximo
ĠFo x
e to
Ġin ver
Ġpar ecÃŃa
Ġr ica
Ġso y
Ġpr Ã©st
Ġtempl os
Ġline al
ci enda
in io
Ġarm ada
ĠXV I
Ġ it
or r
Ġexac tamente
Ġla gos
Ġun irse
ĠA qu
Ġvertic al
hi re
ĠIra k
es en
ĠT el
ĠMa uri
ĠFinl andia
Ġin n
Ġsus pendi
Ġres table
ĠCap ital
c usiÃ³n
f l
Ġdestac ando
Ġconce diÃ³
Ġenvi ar
om bar
Ġr osa
Â» ),
xim as
Ġcuad rados
Ġreco pi
Ġfas es
gu en
Ġbel ga
Ġfinaliz Ã³
M ad
ic ado
Ġper diendo
Ġro taciÃ³n
Ġsem illas
Ġveh ÃŃculo
titu des
Ġp iso
ve da
Ġban cos
ik i
0 5
ĠV as
Ġcol eg
Ġvein ti
ĠZam ora
I N
Ġper seg
ĠF antas
an ismo
Ġvers os
ĠO rig
Ã³r ico
Ã ģ
Ġaf ro
ĠMc C
ĠcaÃ± ones
Ġe cos
Ġb atallas
j era
Ġpar o
vi entes
Ġencontra mos
d t
ĠRe ich
Ġencar gÃ³
Ġalim ent
Ġis lam
ĠSud Ã¡frica
ient a
Ġproce dente
Ġcontr ad
cien de
ta in
Ġexten sa
Ġobserv aciÃ³n
ĠM Ã¡r
ĠF lo
ĠPo blaciÃ³n
ĠPal ma
ĠR oc
Ġblan cas
Ã¡ndo la
Ġorganiz a
ĠWar s
Ġre pi
ris a
Ġtrop ical
pti m
Ð ¾
ent amente
is os
Ġtrans cur
Ġextrem adamente
ĠP adre
Ġmin istros
Ġs abor
ĠC ra
pul siÃ³n
Ġcomien zan
g aron
et y
Ġtr enes
Ġnucle ares
Ġbalonces tista
Ġ15 00
Ġsur ge
Ġdomin ante
Ġjes ui
Ġde presiÃ³n
Ġj uez
ĠÃºn icos
se a
Ġar cos
cin g
o f
cu b
Ġconsider arse
Ġpro puesto
Ġesc asa
ĠEj emplos
ĠTru jillo
Ġc Ã¡maras
ĠV iz
ĠTo da
Ġconm emor
Ġdirig entes
ĠOb s
Ġapar te
ĠS ara
Ġj azz
Ġman tienen
Ġreci ben
Ġreconoci Ã³
Ġal tamente
vi da
Ġmar cas
Ġho tel
ches ter
ĠD am
ĠpÃ©r didas
Ġescla vi
Ġal tar
Ġag re
Ġencar cel
Ġsex uales
ĠMar x
ĠEr n
m is
Ġse ptentri
olÃ³g icamente
Ġinstr ucciones
Ġcl ientes
Ġgen Ã©tica
ĠRam ÃŃrez
ĠLiber tad
Ã¨ re
Ġgl uc
s em
Ġf esti
Ġpre fi
Ġma pa
Ã± e
Ġcor e
ĠPhil ip
um o
ÃŃn eas
Ġet n
ĠP Ã¡
Ġgig antes
ci sta
Ġmo ver
Ġanim e
Ġconsiderable mente
Ġile g
Ġm elo
at s
Ġ4 3
ĠM agn
ĠMed alla
Ġdrama tur
ic ul
Ġp istas
on do
Ġt im
pon imia
eci dos
Ġtrans ferencia
Ġins piraciÃ³n
ĠEurope o
ĠperÃŃo dos
Ġdific ultad
ĠCom ple
Ġco tidi
Ġtrans port
Ġsen tir
Ġtri go
Ġgana derÃŃa
Ġoblig Ã³
Ġel og
Ġre duc
Ġdi entes
Ġpro puestas
ĠDomin icana
ĠLeg isla
b ado
Ġdes h
Ġsos tiene
Ġdiagn Ã³stico
Ġin ac
ig u
gu es
Ġcandida tos
ĠPers on
di e
C u
Ġde terior
Ġf le
ĠP Ãºbl
on ial
ĠS to
um er
Ġdirig e
Ġjef es
Ġecu aciones
ĠMonte video
j idad
Ã© ri
ĠO ne
Ġbu que
Ġpers ecuciÃ³n
Ġmeridi onal
Ġper sa
Ġapoy ar
c ro
Ġcon ferencia
g lo
v era
ĠFran Ã§
Ġhum anas
Ġdestac Ã³
Ġrepublic ano
d ÃŃas
Ġen tero
ĠK en
Ġhi jas
ĠU R
ĠAr thur
Ġservi dor
Ġca z
du ra
Ġcorrespon dientes
Ġrecuer da
Ġ189 8
Ġperu ana
ĠUn ited
ĠInterna tional
a vi
Ġrepres iÃ³n
Ġ187 0
Ġllan ura
ĠColle ge
Ġexpres a
Ġalim ento
qui ta
ĠInvesti gaciÃ³n
de lo
Ġs Ãº
Ã³l icos
Ġdefin ido
adÃ¡ ver
Ġdemos trar
Ġconec ta
Ġutiliz adas
Ġ188 0
Ġesper ar
ĠaÃ© rea
Ġp ian
Ġsan gu
Ġni Ã±a
Ġpermi tiendo
' .
Ġpo etas
Ġprotagon izada
Ġremon ta
Ġm uros
ĠG ri
tr icos
at ra
Ġejer cer
Ġensay os
Ġs esiÃ³n
Ġac os
Ġcan tÃ³n
Ġtr on
Ġperman ecer
Ġartill erÃŃa
Ġsencil los
Ġres tantes
Ġcor tos
Ġprotes tas
Ġfol cl
ĠCon ferencia
Ġpas an
Ġde vol
Ġe d
Ġc oche
Ġlim itado
Ġru inas
ĠT w
ĠB ig
k istÃ¡n
ĠSan tander
ific ada
Ġderro tÃ³
ĠMi randa
Ġempa te
Ġros tro
ĠAl icante
Ġpe or
Ġcompeti ciones
Ġla tina
Ġdes en
Ġelectr om
Ġc ementerio
ĠS tone
Ġluch ar
Ġvaria ciÃ³n
Î µ
uc ado
Ġcui dado
em ora
cer es
Ġci fras
Ġmo da
dr os
Ġadqui rir
ĠGio van
ĠIn terior
pi ro
ue ba
tr icas
20 13
Ġin tr
Ġpro xim
Ġca udal
ĠUE FA
ĠSelec ciÃ³n
Ġsal var
Ġinform Ã³
crip ciones
ĠO NU
ea u
Ġcomple tar
val o
Ġrepro ducciÃ³n
Ġrespe to
Ã© p
ĠL ong
ĠAn der
Ġmar x
Ġver te
ĠAp ple
Ġpredomin ante
f ar
Ġv iva
Ġin tes
ĠWil son
ĠLeo pol
o ph
Â ³
ĠG ame
ill ones
Ġint Ã©rpre
Ġposi tivo
Ġes par
Ġal tern
ĠGuadal upe
Ġjard ines
ti ble
Ġrom per
Ġinterpre ta
ĠSerg io
Ġc ro
Ġp echo
Ġcre ador
Ġbol ivi
l im
Ġest er
ul iano
ĠT emplo
ĠLe v
Ġig nor
Ġrup tura
Ġinici ales
Ġcelebr ado
ĠElec ciones
Ġvid rio
Ġdel im
L e
L as
Ġem pla
ub er
Ġdescu bre
ĠP S
ĠF ort
ĠAl ber
ĠBen ito
Ġimpul so
P ro
ar los
Ġre h
men ia
Ġf os
ĠAR N
t rans
is fer
Ġrec uerdo
ĠF C
Ġar mon
Ġgol fo
Ġintelec tuales
o b
gu ardia
Ġsol uciones
ĠRo jas
ĠGal erÃŃa
Ġmagn Ã©tico
ur recciÃ³n
ĠK al
Ġcre ciÃ³
Ġme dic
Ġ4 1
Ġcaracter ÃŃstico
Ġelim inaciÃ³n
ĠLew is
t ang
Ġv ÃŃn
Ġdos is
Ġterres tres
ĠacadÃ©m ico
ĠÃį n
Ġfirm ado
en en
Ġn aran
pl ona
ĠRel ig
Ġsovi Ã©ticos
Ġesco g
ĠT ime
Ġatrib uye
ol ÃŃtico
Ġvo taciÃ³n
Ġnum er
ĠL it
Ġdiplom Ã¡tico
ĠB ruce
Ġcons ol
pi do
cil la
Ġconst antes
Ġpros per
p il
Ġrepresent ada
Ġayud Ã³
Ġlabora torio
Ġt h
ĠD rag
Ġpriv ados
Ġoscu ra
ĠSici lia
ĠA un
la ve
ĠD ur
ici as
Ġimpl an
Ġbenefici o
Ġalfabe to
w w
Ġim pro
Ġcap tura
tif ica
ĠCuer po
ĠLa guna
pi Ã³
Ġdesarroll aron
ĠSte ph
Ġexplos iÃ³n
ĠDemocr Ã¡tica
ĠL oc
20 14
Ġconfig uraciÃ³n
re inato
Ġdej aron
Ġaux ili
Ġs Ã¡b
Ġo v
ĠCarta gena
Ï Ħ
ĠA P
Ġau str
ĠEx teriores
s ell
Ġtien das
Ġcer rado
ĠSal Ã³n
Ġ189 5
Ġrecibi eron
Ġin dio
Ġper ro
Ġco ordenadas
Ġre vela
20 15
Ġindi rec
Ġpose ÃŃa
ĠJac ques
Â» ).
Ġmov il
ĠWol f
ĠTener ife
Ġinform a
Ġdistin to
re f
uc ar
pol es
ĠStre et
g i
Ġpar lamento
se t
Ġpu diendo
Ġsec ciones
B ar
Ġsu prim
ĠUnivers ity
Ġfus il
ĠespectÃ¡ culo
Ġv ib
Ġampl iaciÃ³n
ĠPrim eros
Ġle al
Ġmat riz
ĠS itu
ĠChrist ian
Ġban co
Ġdivi dir
p ton
Ġre duce
00 00
Ġvis ual
ĠAutÃ³n oma
lu es
Ġapar ecieron
Ġsen ador
Ġâ ĨĴ
ĠRe public
ĠFalle cimientos
u tica
Ġsin t
Ġcontinu aron
Ġrelig iones
ĠP P
Ġcal iente
re os
Ġre ele
ĠN an
Ġrecha zo
ĠJ ar
ĠMe tal
Ġgobern ante
Ġembaj ador
Ġde ter
ac tual
Ġplan etas
Ġcomp ens
Ġfalle cimiento
ĠBil bao
ĠPro duc
vier an
Ġproporcion ar
idal go
Ġisrael ÃŃ
ĠA th
ĠMon tes
Ġextin ciÃ³n
0 4
im nas
ĠB erg
ĠI ll
Ġcol ap
Ġcri ol
Ġcom an
ĠFran cesa
ĠRena cimiento
f ran
de re
Ġc adÃ¡ver
Ġsignifica tiva
Ġmatem Ã¡tica
ĠAz ul
ĠRio ja
D E
Ġcuad ros
Ġar bi
Ġim por
Ãºn ich
and ra
Ġminer al
Ġaer ol
x e
ĠP iz
Ġge omÃ©
b is
es to
Ġpar ecido
us as
Ġfuncion a
Ġviv ÃŃan
Ġact Ãºa
Ġcor o
ide z
ĠbÃ¡s ica
ĠTok io
Ġb uenos
Ġcontinu o
Ġconcep ciÃ³n
g ener
Ġestre ch
198 5
I V
ĠA dolfo
Ġv es
ĠFer ia
Ġrespons ables
ĠB all
Ġr ar
Ġqued ar
Ġp ales
ĠV ia
ĠEr nes
Ġconfirm Ã³
Ġcons on
uniden se
Ġsuf rir
ĠB las
Ġfi j
Ã¶ n
ĠB ond
Ġsus p
Ġllam an
ĠMuer te
te d
ĠRe forma
Ġreconstr ucciÃ³n
ĠK on
Ġ189 9
ĠCerv antes
Ġm ental
ĠA C
Ġno ches
M I
c ra
pa z
Ġref uer
in almente
Ã© e
Ġd r
Ġor din
Ġher manas
ĠBar rio
Ġambi ental
Ġprepar a
ri son
ie v
ens or
ĠFu entes
ĠS aj
Ġpre cur
tan ia
ĠHa cienda
A P
Ġ >
et te
Ġqui zÃ¡s
Ġsen ti
198 6
Ġge ometrÃŃa
b ust
Ġa jed
Ġm Ã³vil
Ġcal cul
c ano
i j
Ġidentific ar
Ġalmacen amiento
ĠEn ter
ĠtÃŃp ica
ĠCÃ³ digo
ĠLatino amÃ©rica
Ġ }
ĠSil va
Ġar zobispo
Ġas im
Ġre tom
Ġtri Ã¡n
Ġreun iones
Ġinfan terÃŃa
ĠO bra
ĠAn n
Ġfru tos
ĠCaball ero
Ġque m
ĠU U
Ġdeb il
Ġinst ancia
Ġvivi enda
Ġdisc ÃŃpul
Ġdesarrol lan
ul Ã³
ĠD un
ig ual
ac ruz
ĠAl ma
Ġsecund ario
Ġfic ti
Ġg em
ĠI X
Ġr usos
Ġg ama
ĠCam ino
Î »
tor ce
ir os
ĠEm il
ĠO pera
Ġdif un
Ġb on
Ġda Ã±
Ġindi s
ĠBartol omÃ©
ĠAn th
h ard
Ġcuer da
Ġizquier do
per son
Ġmens ajes
Ġre or
Ġex hibi
Ġ4 6
Ġdepor tivas
ĠC E
Ġfacil itar
l ines
Ġt Ã³
Ġmodi ficaciones
Ġhab lantes
Ġaplic ar
ĠAlfre d
dic es
Ġpublic ados
Ġurb anos
ĠApol o
Ð ¸
ĠC iencia
Ġper fil
cu rio
Ġhab lan
Ġcin tur
Ġlater ales
ĠAl c
Ġestudi ante
ĠW es
pro v
ĠGuer rero
Ġal ine
ĠSecre tarÃŃa
ĠAnt Ã¡r
ĠAr ro
ĠBo e
ĠespecÃŃf ica
ho u
Ġigual dad
Ġexpl ÃŃci
Ġatle ta
M a
e Ã±o
Ġm ara
Ġso viÃ©tica
Ġcur sos
Ġotom ano
Ġcontam inaciÃ³n
ĠNÃ¡ poles
Ġa que
ĠAl g
Ġpres a
Ġco pia
ĠMarg arita
Ġdescub rir
Ġfrag mentos
Ġr ico
Ġen d
Ġocup ada
ĠvÃŃcti ma
Ġlidera zgo
Ġpilo tos
ĠSy stem
Ġ9 5
ĠSa tur
Ġfi ja
ĠPam plona
om un
ĠC lo
Ġcompu tadora
ĠS S
ĠK an
Ġorient ales
Ġfo tos
Ġcelebr ar
en za
Ġestre cha
Ġgas tos
ĠOs car
Ġcam is
Ġpe da
Ġexist ÃŃan
S i
198 8
y l
uch a
Ġtan tos
pen den
Ġinau gu
Ġpec ul
ĠT ony
pren de
ĠP ÃŃo
tu des
ist ÃŃa
Ġex teriores
Ġrev uelta
Ġconcl usiÃ³n
Ġbusc ando
Ġtea tral
Ġt in
ĠCon venciÃ³n
Ġinstal Ã³
ĠHuman idad
ad i
ĠR on
fic ar
ĠMor ales
ĠPr usia
or i
di um
ĠM Ãºnich
ac tos
198 7
Ġvoc ales
Ġobserva ciones
om bres
Ġre iv
Ġan ces
Ġfil as
Ġfir me
Ġo pos
iz os
Ġconseg uido
ĠTim es
ĠProvinci al
Ī Ĵ
rede dor
k h
Ġc ima
ti er
ĠCu enca
Ġalcanz ado
ĠCrist ina
ĠFo ot
ĠP SOE
Ġfran qui
Ġpl en
Ġreno v
b at
Ġform almente
Ġinf lam
ĠNa vidad
Ġ5 2
ĠMu jer
Ġtre ce
ĠEs per
Ġcan tar
Ġtab l
Ġarque olÃ³gicos
Ġdeclar ada
Ġdepor tivos
Ġrecom end
Ġc ria
ĠN ight
Ġmar ino
Ġcri terios
Ġh ero
ĠG ales
para ÃŃso
ĠVar gas
ĠConstantino pla
Ġl Ã¡m
te ga
Ġor to
Ġsin dic
Ġsuf rido
ĠbÃ¡s ico
Ġtol er
ĠcÃ©le bre
Ġveget ales
ĠD C
Ġrevolucion ario
ĠTrab aj
Ġp se
Ġins er
le to
Ġb iÃ³
ĠB ona
Ġdesc rib
Ġadministra tivo
Ġfilos Ã³f
ĠArquitec tura
z aba
Ġg usto
Ġpoder oso
Ġingres Ã³
ti t
ir man
fec tos
Ġejecu tar
ĠS Ã¡
ĠO pen
ĠCh o
Ġide ologÃŃa
198 0
Ġcon dujo
ĠNor th
Ġafi cionados
k ins
Ġfin alidad
ĠCal der
ĠL ad
ĠH idalgo
ĠgÃ³ tico
Ġno ve
Ġconduc ta
ĠDipu tados
Ġlegis laciÃ³n
s el
or ia
di lla
ta h
la va
Ġres pira
Ġ uc
ĠI t
Ã©s imo
ar s
pl icaciones
Ġcontin uidad
Ġleg ado
Ġ189 7
ĠErnes to
ĠT ac
Ġman io
ĠMol ina
ĠValenci ana
ĠDav is
Ġm uro
Ġprim a
pr endiÃ³
it adas
Ġas unto
Ġdistin ta
g aba
ĠAs unciÃ³n
ĠUnivers al
Ġsegu ra
Ġoch enta
f u
Ġ ion
Ġdesc om
ĠJohn son
Ġtrans fer
Ġgrab Ã³
Ġmic ros
Ġobten iendo
ĠSupre ma
Ġmolec ular
Ã ´
ĠG h
Ġvisit Ã³
ĠfÃŃs icos
Ġsignifica tivo
ĠE bro
qu Ã©
Ġres tric
Ġofici na
0 8
ĠDe b
Ġapell ido
M P
s ize
Ġcam pan
ĠÃģ vila
Ġconj un
Ġasum ir
T S
y d
Ã¡ Ã±ez
Ġpas tor
Ġanim aciÃ³n
Ġb ici
Ġpro greso
vie do
ĠO h
ĠAm ar
ĠX II
Ġpobl adores
Ġimpres iÃ³n
ĠÃģ rea
Ġven ciÃ³
Ġir landÃ©s
ĠVen us
Ġreempla zado
Ġcomerci antes
Ġres cat
Ġsi quiera
Ġcan cel
Ġmas iva
Ġsuf rag
Ġcolon izaciÃ³n
Ġl an
Ġcom posiciones
Ġpo dido
Ġch oc
Ġcaball ero
ĠVirgin ia
e urope
l lam
ĠO p
mos f
ĠGu an
fa to
Ġasoci ada
un ales
til los
F C
o z
Ġv endiÃ³
ca te
ĠMin istro
uf ac
Ġlabor al
ĠTrab ajo
Ġg estion
Ġver ti
ĠOri gen
Ġfl ora
Mad rid
Ġf ores
Ġpos tura
rist o
Ġher ed
form as
Ġ188 9
Ġadecu ado
Ġpu entes
ĠMon umento
ĠtÃ©cn icos
ĠVic tor
ĠSud amÃ©rica
ĠH ispan
enci almente
ĠGo d
Ġintegr al
ĠSte ve
Ġinter nas
ĠEjecu tivo
g ara
h em
ĠSam uel
ĠAl ba
Ġproces iÃ³n
Ġteor ema
ĠP arro
ĠAh ora
ĠI P
uev as
if icaciones
Ġya cimientos
Ġtrabaj a
Ġdesarroll ada
ur b
Ġpe dir
ĠHen ri
ĠC Ã¡r
Ġab uelo
Ġpla cas
Ġretir arse
ĠServi cios
Ġve ter
198 2
il d
ĠW eb
ĠScho ol
Ġm ister
ĠN as
Ġdirec ciones
ĠUnivers itario
Ġtri pulaciÃ³n
Ġol vi
ĠAndr Ã©
Ġacus ado
b aj
Ġe ros
Ġdibu j
ĠpolÃ©m ica
Ġperm iso
g ulos
Ġim puesto
Ġpun tu
Ġdise Ã±os
ĠAt lan
Ġconcl uyÃ³
ber tura
ĠespecÃŃf icos
Ġcaus ar
Ġrecep tor
es co
ĠAr gel
Ġdin Ã¡mica
k ÃŃn
Ġb ille
Ġ5 1
Ġsue Ã±os
Ġiden tificaciÃ³n
Ġin sta
Ġmon tes
Ġhom Ã³nima
Ġfor t
Ġespos o
ĠHistÃ³r ico
br ada
ven a
ĠFuer on
ĠsatÃ©l ites
Ġgab inete
ti gu
ĠS A
uc tor
Ġno v
Ġmos tra
Ġabund antes
m un
Ġaprob ado
Ġdim ensiÃ³n
ĠClas ificaciÃ³n
] ,
Ġla d
Ġt am
Ġsuces os
ĠJef f
Ġraz on
Ġd Ã³nde
198 3
Ġsustitu ido
Ġbarro co
g eo
p son
to ci
ĠM eso
Ġor al
ĠJu Ã¡rez
Ġdomin ios
Ġdar le
Ġmaes tros
Ġ4 7
Ġenl aces
gan za
Ġpublic ar
Ġenfrent amientos
Ġman d
ĠbritÃ¡n icas
ĠfÃ³s iles
Ġinsec tos
ĠTrin idad
por ada
Ġsurg ieron
0 3
ro ga
ui t
Ġdes enca
vi enen
Ġex ili
Ġav ances
Ġportugu eses
Ãºm ero
ĠN el
Ġ4 9
Ġintegr ada
Ġp ala
Ġdi arios
Ġdesapar ecido
ĠImper ial
Ġp ist
las h
Ã±o z
un k
ic ar
Ġad h
ĠRo que
Ġneces ariamente
Ġtransmi tir
ur y
Ġplan os
Ġconoc ÃŃa
Ġrespon diÃ³
Ġses iones
ĠJohan n
is c
Ġpres idi
198 4
Ġ186 0
Ġincorpor Ã³
el ia
Ġcomple ja
Ġvia jar
Ġmarc ador
Ġemi tiÃ³
Ġll ena
Ġcon g
and Ã©s
ik o
Ġsecund arios
gun as
Ġat mosf
Ġesper aba
ĠBel las
on ga
Ġen tus
Ġposi tiva
Ġesf era
ometra je
Ġex posiciones
z y
ĠL ab
Ġev angel
Ġun ido
Ġperio dos
Ġsepar ados
Ġmanten iendo
ĠtÃŃp icos
Ġb er
Ġca torce
ĠJo e
Ġcompon en
Ġproto colo
Ġest atales
b ach
Ġo ce
Ġte les
Ġmo dos
Ġmun diales
Ġcorte za
ĠDo ug
Ġt ubo
Ġmar quÃ©s
Ġab aste
gen cias
ĠAm or
Ġdescri p
Ġconvers iÃ³n
ĠB ab
ed ic
Ġdro gas
Ġb at
Ġd ur
Ġan ualmente
Ġim pon
Ġexpl icaciÃ³n
Ġcoo peraciÃ³n
Ġpermi tido
Ġexpres iones
ĠGiovan ni
M e
ÃŃ ticos
ĠP ens
Ġqu iso
Ġpe trol
ĠBar ran
Ġcomba tir
0 6
m s
Ġal oj
198 1
M E
Ġestable cida
ps is
Ġset enta
h oy
di sta
Ġpropi amente
Ġdi eta
lo va
tr ales
ĠV era
Ġleg ales
Ġperman ece
P er
Ã©is bol
ĠS k
Ġfacil idad
Ġdecor aciÃ³n
Ġnervi oso
ac re
ĠO peraciÃ³n
Ġinte gra
Ġlanz ar
Ġcub ano
m adura
Ġv endido
Ġpol in
ĠZ o
Ġconten idos
Ġadecu ada
Ġexper iencias
ĠHo use
Ġtrib unal
Ġasum e
vi dades
ur bios
ĠP ales
ĠD ick
Ġsin dica
20 18
Ġcum bre
te to
lan es
ĠW ay
Ã©c tor
Ġaso ciaciones
Ġman ejo
duci do
Ġest Ã©tica
Ġev olu
Ġviv ÃŃa
ĠCap itÃ¡n
m il
n ing
ĠS ong
Ġvent ana
Ġsens aciÃ³n
ĠfÃ¡br icas
Ã© xico
Ġ188 8
ĠAlej an
Ġatravi esa
Ġdeter mina
g uerra
uir re
Ã¡ culo
ĠV lad
per as
Ġsim il
ĠHab ana
Ġus ualmente
bo x
... ]
ol eta
Ġnacional idad
Ã¡st icas
Ġnega tivo
P o
ÃŃ amos
Ġg eo
Ġor iente
Ġescri tas
h ib
Ġa pres
ĠL ife
pa tÃŃa
por aciÃ³n
Ġmar inos
Ġllev ando
ĠOc ta
Ġrequier en
Ġinmig raciÃ³n
Ġp Ã³st
ta des
so cia
m u
Ġp acto
ĠC ri
Ġsocial istas
Ġde gr
im ar
Ġ189 4
on de
ĠO viedo
Ġllev ada
ĠS Ã£o
Ġcu an
Ġpla tos
Ġjun ta
ĠG un
ĠÃ¡ cidos
Ġsuf re
Ġesque ma
Ä «
ĠC is
ers on
ĠMed ina
Ġ rib
Ġcu bre
Ġad quier
Ġcomple jidad
ible mente
Ġqued ado
bur y
t ana
oc os
Ġen do
ĠAn to
Ġinten sa
polit ano
ĠJ al
ĠEs par
ĠNa ciÃ³
Ġdic tador
Ġm ide
Ġinter nos
Ġapar entemente
Ġmejor as
Ġ189 6
Ġintro ducir
Ġsobres al
Ġin do
it t
ĠEs a
ĠNorte amÃ©rica
ĠAir lines
Ġconsist ÃŃa
uran tes
U S
Ġesc ar
Ġtrans par
Ġafec ta
Ã©ndo lo
ĠD ion
br ado
Ġbom bas
d Ã©s
us ura
ĠF A
ĠVal paraÃŃso
ĠCampe ones
ÃŃ metros
ĠOfici na
ĠIndust rial
T E
Ġcu ento
et t
Ġale manas
Ġpat ria
Ġprovoc ando
Ġpian ista
o x
Ġe tique
Ġh osp
ĠBor bÃ³n
z u
Ġan s
ĠK im
Ġimp uso
ĠAlcal Ã¡
isfer io
Ġl itoral
Ġun ir
Ġb ÃŃ
Ġconten ÃŃa
Ġfar mac
Ġs am
Ġas amblea
ĠsÃŃn drome
Ġa ero
Ġcuad rado
Ġpudi eran
Ġf lan
Ġsu ave
Ġcu ra
ĠK n
Ġ189 1
Ġconden ado
ĠproteÃŃn a
ci ller
Ġsuper vis
Ġast uri
ĠIndependi ente
Ġse ca
ul an
cion ista
aliz an
Ġoport unidades
ĠcuÃ¡n tica
Ġuc ran
e Ã±a
ĠA bra
ĠH ur
Ġreg al
Ġexper tos
ĠG uy
Ġac o
br ar
Ġdenomin ados
Ġglo b
Ġvi das
ĠmÃ© dica
uri os
ĠMu Ã±oz
go via
Ġsol dado
Ġins u
all Ã³n
Ġincorpor aciÃ³n
Ġindic ar
Ġexpor taciÃ³n
ĠH D
ĠAl an
br en
pues tamente
ĠMon ter
ĠJa va
A s
B S
Ġf ren
ĠsÃ©pti mo
Ġcre en
Ġprotes tantes
ĠmolÃ© cula
ĠL lo
ĠT ig
Ã©n dum
ĠMar te
id th
Ġren unciÃ³
ĠH Ã©ctor
Ġpatr ones
Ġexcel ente
ĠdepÃ³s itos
g Ã³n
y ente
Ġl lor
ti pos
Ãº o
ĠPres s
y le
ol i
ru di
Ġcar ro
uel tas
Ġsitu ados
Ġdespla zamiento
ĠcontemporÃ¡n eos
Ġrelev ancia
Ġtendr Ã¡
0 9
ĠB ach
Ġ7 00
ĠVal ent
und amente
reg aciÃ³n
ci no
qu ist
Ġreg ulares
ĠespecÃŃf icas
0 2
que tes
Ġin cidente
Ġelector ales
Ġhab itaciÃ³n
Ġavent ura
ĠXI X
ĠH ard
ĠBern ard
Ġfinanci ero
Ġcontrovers ia
Ġescul turas
Ġhues o
Ġre ll
Ġres al
dr omo
Ġcontrib uyÃ³
Ġesca Ã±os
ĠaÃ±ad ir
Ġsacerdo tes
Ġ á
Ġde vo
ĠM adre
ĠB ang
Ġbiz antino
v ina
br ados
ub io
Ġca pi
Ġmen ciÃ³n
and ÃŃa
ĠIg lesias
Ġcompe tencias
I P
h ÃŃ
st on
Ġmedi terrÃ¡neo
ĠAn na
ĠCar olina
Ġbas adas
Ġefica z
Ġinform es
Ġacep ta
ĠV ÃŃa
Ġman z
Ġsue los
Ġes pl
Ġrealiz ando
ĠCiu dades
ĠMi em
Ġherramient a
ĠD io
Ġconserv adores
v Ã©ase
ida e
Ġam ante
ĠCh ris
.. ..
Ġconvertir ÃŃa
Ġdialec to
Ġde dos
qu ismo
ĠCon go
ĠY u
Ġenfrent arse
t omo
t riz
y r
Ġpos tul
Ġrecur so
in aria
Ġco he
Ġapoy Ã³
Ġproclam Ã³
Ġper if
Ġdist ancias
ĠTu vo
Ġgaran tizar
Ã³ to
di st
Ġper cepciÃ³n
Ġor aciÃ³n
ĠCom enz
Ġinstitu cional
Ġgenera ciones
Ġimpe dir
Ġr uido
Ġcercan ÃŃas
ĠH il
qu im
ĠTi empo
gui la
Ġcampe onatos
Ġase dio
Ġp p
la je
vi de
Ġ18 30
Ġsig las
Ã©l ico
Ġvent anas
Ġpregun ta
Ġf Ã¡r
Ġprofes ores
ĠdifÃŃ ciles
Ä į
ĠK ong
ĠCor tÃ©s
Ġvig ente
ĠRiv er
M L
t anos
Ã³ grafo
con s
ĠTe orÃŃa
Ġprovoc ar
Ġmag ist
Ġinau gura
Ġm Ã³viles
ĠCh an
ier an
ĠL ac
don de
Ġprotes ta
Ġautom Ã³viles
Ġ8 5
ĠBa hÃŃa
Ġ182 1
terrÃ¡n ea
Ġconstante mente
Ġvar ones
b Ãºs
ĠS tan
it ch
ĠPos ee
Ġ187 9
al i
Ġun en
c aya
p ina
Ġest el
Ġdo l
ĠGol d
Ġinspir ado
Ġconm emora
gen os
Ġacep taciÃ³n
ĠRom ero
Ġsent encia
tin as
ĠExtre madura
a x
ik a
Ġprotec tor
Ġinterf az
ĠIn ca
Ġdis fra
ui cios
Ġex pulsiÃ³n
om en
Ġreal istas
Ġabandon ado
Ġpodr Ã¡
Ġar ca
ten s
Ġpre f
Ġcomp uso
Ġcolombi ana
Ġcompren der
Ġrepublic anos
or di
ter apia
dr Ã¡
Ġco pa
Ġexpres idente
Ġpat rio
Ġrad icales
rÃ³ geno
Ġ183 3
Ġprede ces
Ġsolici tÃ³
Ġh ÃŃ
Ġb eb
Ġper f
es ter
Ġpol ic
Ġfran ja
bier to
Ġsac ar
ĠBill board
Ġcanta u
tr ad
ĠLa go
qu en
Ġentre gÃ³
Ġpre via
Ġcomb ates
Ġsuce dido
ĠsÃ³l ido
Ġdesemboc adura
ĠCh ip
Ġrev isiÃ³n
dell ÃŃn
Ð µ
Ġd ama
ig i
ĠN ep
Ġr icos
ĠPa pa
ĠXV III
Ġlater al
s ec
Ġe rudi
ÃŃ das
Ġcon tener
ĠM ara
N e
l ando
Ġe f
ĠE in
ĠI BM
and ar
Ġpubl ici
Ġpartici pado
ĠLim ita
Ġdialec tos
Ġcinemato grÃ¡fica
Ġdramatur go
ĠR as
it ariamente
Ġenter rado
Ġhab lado
Ġreal ista
197 9
ĠRev olucion
Ġp ra
Ġcon greso
ĠE ver
ĠLa w
Ġcar gas
ĠNa cimientos
Ġten dencias
Ġprotagon istas
ĠEv oluciÃ³n
Ġproduc ciones
Ġsepar adas
Ġpro pone
Ġpa tio
Ġman tuvieron
Ġ5 000
erva torio
b on
v y
ĠM et
ĠAs socia
Ġinm un
Ġac Ãºst
ĠV at
Ġcub rir
Ġll eno
A m
gra fos
ci encia
Ġin e
id ar
fon t
jar os
Ġnub es
ĠsimultÃ¡n eamente
y en
Ġorganiz ada
ĠVer acruz
Ġconven cional
Ġotor ga
ĠMerce des
as i
Ġllam aba
Ġextre ma
ĠS ky
Ġfr ÃŃa
Ġorden ador
ĠPr in
Ġadop tado
ĠCalder Ã³n
S ta
20 16
Ġtor os
Ġcompr ar
ĠCap illa
st os
Ġalcanz ando
com un
ĠprÃ³ xima
Ġdue Ã±o
or y
Ġher b
hel m
P R
et ti
Ġcal cular
Ġelig iÃ³
Ġo ptim
Ġblo ques
ĠBr un
Ġc uch
ĠN um
Ġcas ado
Ġarm adas
Ġp idi
ĠS ul
Ġpro pon
Ġreci b
Ġhuev os
v ados
Ġla c
ten imiento
Ġcompu tadoras
Ġirreg ular
Ġmuer tes
c ales
ĠGu ay
Ġbo tÃ¡nico
Ġdisc usiÃ³n
rim a
Ġ184 8
Ġsor presa
Ġsel va
ĠKenn edy
Ġam an
Ġcab ezas
Ġpropie tario
ĠDirec tor
Ġriv ales
Ġsinte tiz
f ag
Ġgra baciones
ĠSoci ety
ĠPresiden cia
Ġin tra
Ġca Ã±a
Ġotor gado
% ),
O r
r ente
x is
ac Ã¡n
Ġpreocu paciÃ³n
ĠdesempeÃ± Ã³
quier da
Ġneces arias
Ġsir ven
on ias
ic ada
ĠAlejan drÃŃa
Ġde pendencia
Ġla bios
ĠM id
Ġsal to
Ġqui zÃ¡
Ġconserv ador
3 00
tos a
ĠColum bia
0 7
ĠSaj onia
Ġest arÃŃa
ĠV iv
ora ciones
ĠY ugosla
ĠEm perador
ĠHe in
es os
am ante
ĠP ur
endi da
Ġad ver
cios o
Ġsub campe
ĠseÃ±al Ã³
F E
ĠPro tec
Ġaband ono
Ġdesconoci do
Ġ ira
ĠB rig
ĠEn erg
ari ciones
Ġpartici pan
Ġpat ri
Ġvie ja
ĠFlor encia
Ġesclavi tud
Ġan at
Ġpun k
Ġguer rill
Ġper dieron
ie dad
ĠArm adas
ti mos
ĠD y
pi ter
Ġpre vio
Ġco bertura
Ġdibu jo
ĠL ang
Ġexten dido
w ork
Ġl ist
ca p
lu encia
Ġmanten ido
Ġinteres ante
Ġelectrom agn
r ales
ĠL iv
Ġhom Ã³nimo
Ġaut Ã³c
Ġextranj era
ĠE ric
ĠG all
Ġregres a
Ġsosp ech
Ġde no
on das
ist iÃ³
Ġac aba
Ġutiliz aba
Ġfinanci era
Ġlevant amiento
ĠA di
Ã³cra tas
u ria
Ġcar n
Ġefec tivo
Ġl ento
is er
ĠAn at
ĠMar s
Ġza pa
Ġcambi ado
ĠJer Ã³nimo
ĠBl ue
Ġcom itÃ©
Ġhech as
Ġvers o
ĠJef e
A C
i tis
or th
Ġauto buses
it ÃŃ
fici entes
Ġfran cos
Ġge ografÃŃa
Ġsober ano
ĠNÃº Ã±ez
Ġanti ci
olu ciones
me d
Ġespe jo
Ġhuel ga
/ /
Ġen can
Ġtras cen
ĠTo p
Ġaustr ÃŃa
rim ientos
Ġcatal og
ĠUR SS
b ec
uev es
Ġdependi ente
p y
Ġse man
Ġseg uida
quer os
ĠL ie
Ġtien den
rib uciÃ³n
Ġcap itales
n s
ĠH as
Ġpubl icidad
Ġdetermin ados
Ġe co
ĠL ara
ĠT oro
et ta
ves tre
Ġanun cia
Ġfundad ores
ĠDec lar
ĠLis boa
Ġconcej ales
Ã ª
Ġtra ge
Ġpu ro
ĠCh Ã¡
Ġrec ta
Ġproduci endo
Ġreco ge
Ġarist Ã³crata
b ri
Ġsu stituciÃ³n
Ġhab rÃŃan
Ġinici aron
Ġmateri as
Ġt asas
Ġ5 4
ĠAc ciÃ³n
ĠBa viera
ĠBro ad
g arse
Ġcon c
Ġ9 8
Ġextra cciÃ³n
fic e
Ġobis pos
S I
Â ´
Ġa por
Ã³ teles
ab ilidades
ĠT ib
ĠMe dellÃŃn
ĠÃģ r
Ġfrecu encias
Ġveloci dades
Ġconstituy Ã³
Ġconduc e
d ares
Ġp ide
Ġdes m
Ġan illos
Ġutiliz aron
Ġ189 2
Ġresta urantes
v ento
ĠG ala
Ġam ino
Ġsol u
Ġastr on
Ġdeten ido
Ġin Ã©di
ig ma
Ġtien de
Ġpas e
Ġmusul mana
Ġnotable mente
ĠTay lor
Ġinaugu raciÃ³n
ĠFranÃ§ ois
Ġv arÃŃan
Ġpr omin
Ġpresent aron
Ġjuven il
el t
Ġte cho
Ġtras lado
Ġsuperfici es
Ġvuel to
ĠAn tio
ros s
ĠtÃ©rm ica
v ich
Ġe uro
ci ta
ĠP unta
ĠBen jam
ĠM anz
Ġcar as
Ġtras pas
Ġtermin ado
ĠXI V
Ġcrim en
Ġ186 8
Ġcintur Ã³n
s ky
Ġcuar tel
Ġren ombr
Ġprocedi mientos
ĠE ri
tr y
Ġ18 12
ĠSe de
ura cÃ¡n
Ġmis iles
Ġefec tiva
Ġger mÃ¡n
ĠIgu almente
Ġcap ÃŃtulos
Ã¡m icas
197 6
Ġagru paciÃ³n
ĠHi jo
ĠcontemporÃ¡n ea
or ros
ĠF la
Ġles iones
ĠMetro politana
Ġf ri
ĠL ug
Ġmayor itariamente
Ġexten so
r arse
en ti
car riles
Ġven de
Ġcompr ensiÃ³n
Ġfru tas
Ġnombra miento
e de
Ġrefer ente
Ġmanifes taciÃ³n
l Ã³g
ĠFer r
Ġguar da
C al
ĠB is
Ġnombr ar
Ġcens ura
i amente
ĠC av
Ġarg umentos
ĠhÃºme do
ĠC A
at Ã¡n
Ġinf ecciÃ³n
Ġllam arse
ĠLu x
Ġmur alla
ĠBoe ing
Ġt os
ĠCam pos
Ġautomovil ismo
Ġl uc
ol ar
ĠA TP
Ġcor reo
Ġproces amiento
Ġconstitu ido
Ġhorizon tal
Ã ī
Ġ188 4
Ġportugu esa
ĠLeopol do
n io
ĠAl f
Ġpin tores
Ġdetermin adas
ĠV ent
Ġgener Ã³
Ġne um
Ġconform e
k g
Ġle j
Ġ5 6
ĠPar te
ĠArist Ã³teles
Ġc itado
vo z
ven ciones
Ġprop ici
ĠPro to
ĠHo tel
ĠcÃ³n sul
ĠMall orca
c ÃŃas
Ġdefin ida
197 3
qui as
Ġman eras
gr os
Ġperten ecÃŃa
Ġatra cciÃ³n
ĠbÃ¡s icas
Ġfoto grafÃŃas
Ġres on
Ġdestac adas
Ġentr adas
Ġfavor able
ĠHisp ano
Ġcon ferencias
Ġpor ciÃ³n
Ġinter n
ĠCent er
Ġrefer Ã©ndum
ĠLiber tadores
Ġpreten dÃŃa
ĠProyec to
ĠRes erva
Ġvul ner
ĠIsa ac
ĠIn c
ĠAr menia
cios a
Ġreconoci dos
Ġdefini tivo
ĠOlÃŃmp ico
Ġcaball eros
b ajo
Ġneces itan
Ġaprob ada
ĠFil osofÃŃa
ĠTi pos
m Ã¡tico
Ġinf laciÃ³n
ven o
Ġcolec ciones
ĠA M
ĠH ero
ĠÂ °
Ġexpres ar
lova quia
Ġal u
Ġdes l
Ġem p
Ġpol ici
Ġinici ado
Ġderiv ado
w ick
Ġman ufac
Ġcor tas
ga ta
ĠIs idro
Ġexperim ento
Ġexit osa
Ġpos esiones
Ġcre cer
Ġtr Ã¡ns
Ġdic en
n iciÃ³n
Ġpre val
Ġop ciones
ĠBan dera
ĠS r
Ġtra jo
Ġinv itado
ĠVal di
Ġdem uestra
ĠhistÃ³r icamente
ĠRos s
Ġvent ajas
Ġmarc ada
ÃŃ tm
Ã©l ica
Ġ um
Ġcar l
Ġconsider adas
ĠDi ario
Ġdan Ã©s
p ales
ĠD icho
Ġob reros
tas io
teri al
ĠCar lo
Ġdenomin an
Ġ[ ...]
ĠHab sburgo
R E
Ġab ar
20 17
Ġ188 5
ĠCarta go
Ġprovis ional
Ġin yec
ĠAl i
Ġneg ras
Ġcorrespon dencia
ĠquÃŃm icas
Ġtel Ã©
Ġmon stru
dad ores
ĠseÃ±al ar
ĠPerson ajes
Ġen cer
ĠE nl
Ġro daje
Ġequi p
pol i
Ġ189 3
Ġregist ra
w en
Ġes encia
Ġb rin
Ġcr Ã³nica
Ġcompos itores
ĠmÃ¡r mol
Ġsenti mientos
Ġbici cle
Ġden unci
Ġcer rada
itor ia
ĠgrÃ¡f icos
Ġescol ar
Ġapren der
di gos
Ġo puesto
tel la
ĠcaÃ± Ã³n
Ġt Ã©
ĠD E
ĠMar sh
Ġpas iÃ³n
ĠDar k
Ġurban as
Ġen de
ĠM aj
Ġconf undir
Ġcomp rÃ³
Ġfib ras
Ġcon cesiÃ³n
ĠB un
og ÃŃa
Ġvi uda
Ġinten so
Ġelectr Ã³nicos
ĠbÃ¡s icamente
ten a
ver de
Ġrepu taciÃ³n
fic ado
Ġev ac
x ias
Ð ½
Ġexperim ental
ĠsÃ¡b ado
Ġcons igo
Â» ;
ĠCor uÃ±a
Ġhay an
ĠQui to
ĠBos ton
ĠMik e
Ġf emin
Ġ6 8
Ġmus eos
Ġde dica
Ġm esti
bi t
ĠMa teo
Ġren acen
Ġdig itales
ĠJul iÃ¡n
Ġseptentri onal
Ġat entado
cÃ³ p
Ġpsic ologÃŃa
Ġproven iente
Ġdescan so
" ;
u za
ib o
Ġaum entando
Ġ188 2
ĠMi ami
Ġsu puestamente
Ġtrop icales
Ġ(âĢ ĺ
ic on
Ġrepe ti
ist ente
Ġelim inado
ĠBu ena
Ġfort una
Ġdesenca den
Ġab ra
Ġleg ÃŃti
ĠLiber al
Ġasist iÃ³
Ġescen arios
Ġin unda
ul ados
Ġincl uidas
Ġfac ultades
B o
Ġcol span
Ġmi la
Ġemple an
Ġlin f
ĠGeorg ia
ĠCh ur
ĠMari e
Est ados
c ulares
Ã¡n eo
Ġab ord
Ġ188 6
Ġdispu tar
Ġelabor ado
Ġexplor aciÃ³n
ĠStal in
tab ria
f an
Ġdescri ta
ĠTa x
Ġrefug io
f ol
Ġg iro
ĠT os
Ġpres i
Ġopin iones
Ġexter no
landes es
Ġcapaci dades
ri le
Ġtras tornos
Ġconsidera ban
Ġfo tÃ³
Ġmedal las
ĠFerro carril
ĠP uerta
Ġper on
ĠCh ap
Ġda tan
R o
a der
g on
Ġeleg ida
Ġ188 1
Ġmural las
Ġnaz is
Ġu tilidad
ĠhÃ¡bita t
Ġ iones
ĠA S
=" #
Ġtur cos
Ġsobr ino
Ġasal to
ĠF ÃŃsica
Ġag ro
Ġpropie tarios
Ġfuncion ar
Ġre po
ĠD icha
Ġter mo
Ġsan ta
Ġ187 6
ĠBan da
Ġase gura
Ġham bre
ĠE ul
ĠK az
Ġpl omo
ĠpÃºbl icamente
Ġapoy ado
Ġfalle cido
po dos
ĠAm er
Ġloc alizaciÃ³n
Ġrecep tores
iw Ã¡n
f uer
u tos
Ġrepresent aba
Ġ188 7
ĠMac edonia
Ġfinanci eros
Ġcoment arios
ĠInici almente
ĠYugosla via
Ġh uir
Ġins cripciÃ³n
Ġenf oc
ell er
Ġexten der
Ġtemp rano
Ñ Ģ
Ġher idas
ril las
ĠOl im
ĠVil lan
Ġemerg encia
Ġresidu os
Ã¡ ter
Ġcul p
Ġtom an
c ab
Ġcom entÃ³
Ġso dio
Ġ18 50
ores c
Ġconst e
Ġecu ator
p ri
ta je
Ġpro bar
Ġcas tel
Ġhum il
197 0
pr enta
Ġrode ado
Ġaustral iano
Ġsol ÃŃa
Ġsol ista
ril los
ĠEsta tu
Ġtur co
Ġveci no
ĠparÃ¡ metros
Ġun idos
Ġfl uido
Ġrelev antes
ĠLeon ardo
un ciaciÃ³n
Ġun ieron
Ġqued aba
Ġprohibi ciÃ³n
Ġsitu adas
Ġabund ancia
Ġretra to
ĠViz caya
Ġl ema
ĠC ala
Ġg lÃ¡n
Ġpol o
Ġactiv ista
ĠcÃº pula
ĠAudi encia
Ġp Ã¡r
ĠEst ruc
ĠB ag
ĠCon f
Ġad yac
s oci
Ġextran jeras
ĠDol ores
Ġexpor taciones
as hi
Ġentre gar
Ġ18 20
Ġmulti plic
Ġdetec tar
Ġmir ada
Ġfib ra
Ġcamp amento
P U
w an
Ġla guna
ĠEl ena
Ġten is
Ġch ar
T C
ig an
ĠH ues
Ġtrans curso
Ġarm ado
ĠWil helm
ĠgrÃ¡f ica
ĠjurÃŃ dica
ĠChÃ¡ vez
to p
ĠâĢ ¢
Ġtras torno
ĠLu z
Ġproyec ciÃ³n
Ġrecuper Ã³
w ig
Ġconstr uidos
Ġgole ador
la h
20 19
ĠCol orado
Ġl entamente
Ġm achos
ĠK ra
rac ciÃ³n
Ġcontem pl
ĠL ec
el le
Ġcomun ica
ĠGu ad
Ġmes eta
Ġmeta bol
Ġreta blo
Ġlar g
Ġrad ic
ĠJun ior
ĠFoot ball
Ġre an
ĠUr b
Ġmercan cÃŃas
y es
Ġcr ÃŃmenes
Ġbas Ã¡ndose
Ġcontrib uciÃ³n
Ġcubier to
Ġmig raciÃ³n
Ġex itos
ĠOx ford
Ġim poner
Ġconex iones
Ġpas eo
Ġadop tar
Ġameric anos
Ġalgorit mo
Ġconduc tor
Ġaso cia
s is
Ġem isiones
pres ente
Ġat Ã³mica
Ġbu eno
l s
Ġing re
Ġencar gada
ĠGol fo
Ġpreten de
P L
Y o
n g
ĠC och
Ġcal cio
Ġtem Ã¡tica
ĠSo to
Ġases in
ĠK er
ĠAr n
Ġher ido
Ġpare jas
te os
ĠIs land
197 5
Ġhe ter
ran g
ĠCas as
Ġencar ga
Ġalterna tivo
ĠacadÃ©m icos
ĠT Ãº
tura ciÃ³n
via ciÃ³n
Ġcompar a
Ġlegisla tivo
Ã©f ono
Ġhard ware
Ġes por
ĠS ÃŃ
Ġr ara
ub e
ĠZ h
Ġsen timiento
ĠUnivers itaria
ĠgrÃ¡f ico
Ġejer ciÃ³
nl ey
Ġsu yo
Ġin oc
ĠB ush
Ġ5 7
ĠPa kistÃ¡n
Ġmag ia
Ġtien da
ĠEspe cial
ĠDoug las
ĠL ocal
um i
Ġj uliano
ĠaÃ± ade
Ġmin orÃŃa
Ġdirig idos
ĠCon cilio
ĠPor t
Ġconden s
tex t
p ur
ĠSe govia
Ġsal Ã³n
Ġcr Ã¡ter
Ġocur rido
ĠMag al
Ġper ros
Ġcu sto
vers iÃ³n
ĠJust o
Ġtorm enta
ĠPiz arro
ĠNel son
in eros
Ġre cepciÃ³n
ĠJos ef
Ġprof undamente
tern idad
Ġajed rez
an ca
Ġt ap
Ġgu ÃŃa
ĠNew ton
Ġcircui tos
ue bles
Ġ18 10
ĠFran z
ula ciones
ĠTh om
ĠChrist oph
ĠastrÃ³n omo
an co
ĠG Ã¼
ĠÃ¡ tomo
Ġalum inio
E x
ĠH ong
ĠAb d
ĠBri an
c ones
Ġla titud
ĠH idro
Ġex ceso
ĠRo ja
Ġpal e
Ġmaris cal
Ġrestric ciones
Ġform aba
tam en
ĠOr tiz
ĠTh or
Ġcru zar
Ġh ue
ĠA ri
Ġinter iores
estiv ales
Ġmodi ficaciÃ³n
h ue
ĠE ast
at han
Ġsol ares
Ġav iaciÃ³n
Ġag l
Ġlogr os
Ġcorpor al
Ġprev isto
Ġfiel es
Ġma ta
ĠPer ten
ĠMen or
Ġescas ez
Ġal mirante
Ãº piter
ĠCh e
ĠT ito
Ġ18 00
Ã©r m
Ġmar g
Ġpob la
ques ta
Ġasist ir
S al
a par
ĠO tto
Ġ187 3
Ġcos tera
Ġvi ernes
Ġacre di
Ġmedic amentos
Ã© jar
Ġre edi
Ġj ura
ĠAs untos
Ġconcre tamente
Ġest abil
Ġpri va
Ġsab ÃŃa
Ġconsigui eron
ĠHispan ia
Ġt ensiones
Ġre dujo
ĠF ol
Ġr enta
Ġesc Ã¡ndal
ĠEr mita
Ġmig ra
ĠE TA
ĠH ora
ĠU N
Ġpopular mente
Ġpresenta ciones
Ġrue das
ĠGobern ador
] .
Ġp ant
ti ro
Ġ186 5
fel d
ul lo
Ġesp ir
Ġ187 1
ĠAb u
Ġclasific ar
Ġprecipi taciÃ³n
ĠL and
ien ses
Ġcompar ten
Ġ Âł
ec on
Ġcelebr ada
Ġcastell ana
G A
ĠCon trol
oci tos
ĠCo p
Ġindependi entemente
Ġabier tos
s son
Å Ĥ
Ġc oches
at ar
Ġcent ra
ĠPer io
Ġdesa f
b oy
Ġes encialmente
Ġconf usiÃ³n
ĠestÃ¡n dares
Ġdu das
Ġescuch ar
ĠOr tega
Ġesp alda
Ġdebut Ã³
cion istas
ion e
Ġenfr entar
Ġnovel ista
Ġeduca tivo
ĠM iss
ĠJ as
ĠMÃ© rida
ĠLit tle
m ado
ĠF und
ques a
Ġsan tuario
Ġpart ÃŃcula
ĠP ompe
Ġhem bras
ĠJard ÃŃn
ĠA pertura
z ca
Ġh arÃŃa
ĠC ora
Ġfu tura
Ġsignifica tivamente
Ġpersonal idades
Ġlengu ajes
Ġsuminist ro
g ente
Ġa x
Ġca ci
pec to
ĠCol l
Ġincon s
Ġp lu
Ġv ener
Ġpar ad
der s
Ġcol abora
Ġpis os
z gos
as ia
og en
Ġ9 9
ĠMa z
van ia
ĠgeogrÃ¡f ico
ĠIl ust
h asta
i ada
z ano
ĠP un
Ġestruc tural
f ri
w al
Ġb all
ĠD ream
ĠO k
Ġdef orm
Ġrela tivo
Ġais lamiento
Ġad mir
ral tar
Ġvege tal
ĠB eck
uy a
ĠAr que
Ġrequis itos
Ġmil las
ĠCons erv
ĠConstitu cional
g aria
Ġmar car
Ġapar ente
Ġpublic aron
Ġastero ides
ĠR oca
Ġdes pre
ĠH ierro
Ġpa g
ple o
Ġpla to
Ġapo der
Ġast ro
Ġfeder ales
Ġdiscipl inas
Ġdeclara ciones
V I
Ġem par
Ġpes cado
cis iÃ³n
Ġrom anas
Ġhem isferio
z en
ĠC rim
Ġso cios
Ġloc aliza
Ġreun ir
ĠelÃ©ctr icos
ĠSac ro
Ġbudi smo
ĠE va
Ġdes p
Ġdes inte
Ġdismin uir
Ġreti ro
ĠT ara
Ġdest inos
ĠmÃºs culo
ĠForm aciÃ³n
a cia
ĠE c
ell y
Ġderiv ada
ĠZe us
ĠE ar
Ġac ent
ĠMonter rey
ĠtrÃ¡ns ito
re ll
us se
us co
Ġam b
Ġpla cer
ĠEx per
Ġrad ia
Ġrevel Ã³
Ġdescen dencia
ĠO ce
ari al
Ġcumpl imiento
Ġtarje tas
ĠH igh
Ġpl ural
Ġmemor ias
Ġreno vaciÃ³n
Ġregu laciÃ³n
ĠtriÃ¡n gulo
Ġman dÃ³
Ġrec tang
ĠSo uth
Ġley endas
ĠGener almente
aca o
ĠbÃŃ bl
ĠD ia
Ġsi ente
Ġaproxim ada
197 8
Ġascen dencia
Ġgubernam entales
ĠM uy
Ġar en
ĠmarÃŃti mo
Ġrue da
Ġver bo
Ġsecu encias
Ġnit rÃ³geno
Ġnacional ista
Ġsocial ismo
Ġnorm ales
Ġa ve
Ġen rique
ri go
Ġ5 3
Ġdes ple
Ġide ales
Ġ188 3
dones ia
Ġcent en
Ġen ormes
ĠO la
udi ciales
Ġembar ca
Ġsim e
Ġproductor a
Ġaf ueras
ĠPo wer
Ġdemos tr
Ġmanifies to
Ġo ÃŃdo
ha us
ĠPla ya
Ġpermi tieron
197 4
197 7
Ġpobl ados
Ġdisting ue
ĠcontemporÃ¡n eo
' t
: //
Ġg reg
Ġma ci
ĠPro grama
Ġbe bida
ut in
ĠCar naval
Ġcorrec ta
Ġex port
gu ÃŃa
pÃ³ st
Ġvas co
Ġsor pren
Ġsencil la
Ġatrac tivo
Ġa mo
Ġdel itos
Ġal iado
lo w
ĠCor pora
Ġacep tado
Ġcompe tir
ĠespectÃ¡ culos
Ġdes igual
Ġbar ra
Ġdocum entaciÃ³n
ĠTa iwÃ¡n
Ġterror ista
Ġilum inaciÃ³n
Ġtestimon io
Ã© i
Ġma quin
Ġgra vita
ws ki
Ġtur ÃŃsticos
ĠdiÃ¡ logo
Ġfranqui cia
Ġespec tac
Ġauto bio
Ġsusp ensiÃ³n
ĠS hi
Ġv istas
Ġcos m
ĠCal lao
Ġdesarroll ados
Ġer rÃ³n
ĠTrad i
Ġg ato
ch t
Ġtra zado
ĠRo os
c ron
te ur
ran e
Ġform ados
Ġ186 7
ĠSim on
Ġimplement aciÃ³n
Ø §
Ġqui ero
Ġtri ple
Ġunivers itaria
C an
om eo
Ġ( ).
ĠJ am
Ġhabitu ales
Ġcon tando
ĠS Ã³lo
tÃ¡n dose
ĠYo ung
Ġgaran tiz
ab ellÃ³n
ug by
Ġciudad anÃŃa
Ġinflu enci
Ġvir tual
Ġmexic anos
Ġmanten ÃŃa
Ġempe zar
ĠdiÃ³ cesis
Ġf ug
Ġg ir
ĠW all
ĠTo ponimia
Ġsan tos
Ġreduci da
Ġrecl ut
I X
Ġlo go
Ġk g
Ġgas tronomÃŃa
Ġocasion almente
Ġentus ias
ig Ã¼
Ġbiblio tecas
ĠCle mente
f un
ĠS tr
uch e
Ġreempla zar
Ġpais ajes
Ġabsor ciÃ³n
ĠmÃ³d ulo
ĠS as
Ġresul tante
i po
ĠL ord
tur almente
Ġtrist e
Ġes quina
ay or
los a
Ġus aba
Ġrec tor
ĠcientÃŃf icas
ĠMer cado
er ia
Ġactu Ã³
Ġocu pan
Ġunivers itario
Ġobten ciÃ³n
Ġaseg ur
Ġpre mi
Ġdivi den
Ġperfec to
Ġcon dena
Ġb il
Ġj oy
ĠRam os
Ġd arse
Ġregist rado
Ġbe bidas
ĠIv Ã¡n
c to
Ġf este
ĠJ Ãºpiter
ĠseÃ± ores
Ġw ith
Ġno via
ĠSe x
ĠCas i
Ġpose er
ĠBul garia
g encia
Ġen vÃŃa
Ãº es
Ġim pre
Ġaf irman
ĠLuc ÃŃa
Ġavanz ada
Ġc ÃŃ
osa urios
Ġdig n
Ġd Ãºo
Ġaf ili
ĠÃºn icas
mar Ã©s
ĠLin ux
ĠJane iro
ĠSteph en
ĠG r
ĠAl as
Ġdis puesto
âĢĻ ,
Ġartifici ales
ĠMexic ana
S o
e jas
Ġe usk
Ġpres iones
ell s
ĠPas o
ĠL yn
iz aron
Ġcas arse
ub le
Ġ! !
Ġp si
Ġv ist
ĠI NE
ur ÃŃa
et ano
Ġc res
ĠI di
ios os
ĠRes ul
Ġin us
Ġconv oca
ĠA dol
Ġban c
Ġale a
Ġterri toriales
Ġcaracter izan
Ġarm ados
Ġvoc alista
Ġdisc rim
Ġcomp il
ĠNe vada
Ġ187 8
Ġsul tÃ¡n
Ġreca ud
ĠhÃºn garo
Ġ ),
es ar
ĠP ul
Ġten gan
Ġad jud
Ġins ign
Ġdenomin Ã³
ĠEscu do
mo grafÃŃa
Ġcl oro
amil ton
ĠÃģl bum
Ġcere bral
Ġsu bir
ĠV es
Ġprim ario
Ġform aban
pi dos
Ġban deras
Ġtrabaj aba
Ġ186 1
Ġcri terio
Ġespon tÃ¡n
Ġinunda ciones
ar Ã¡n
ĠP ilar
eg ro
br ica
ĠPar anÃ¡
ĠInter Ã©s
Ã¡ndo los
ĠNi Ã±o
igg ins
Ġe ch
Ġf iebre
ri das
ĠA str
ĠMon ta
Ġhebre o
D I
t l
Ġen amor
ab eth
Ġg am
ĠAl rededor
ĠGal ile
v Ã¡
Ġcam pus
ĠLe tras
Ġdeci dir
ĠCan tabria
Ġpat as
i tim
Ġcol o
Ġcal cula
Ġve ÃŃa
Ġderro tas
ĠGal le
Ġdeca dencia
ĠV Ã¡zquez
Ġdiv ul
ĠÃ©l ite
Ġpan or
ĠcÃ¡l culos
Ġdefens ores
Ġca tedr
Ġorbi tal
Ġin esta
cion ismo
Ġim pu
aliz aciones
Ġdo bles
Ġmil enio
ĠOl iv
Ġadministra tivas
o ks
Ñ ģ
Ġe ficiente
ĠV ari
Ġus adas
ap ro
Ġproduci dos
Ġsustitu ir
Ġcontac tos
Ġsufici entes
C l
h y
Ġ Ã©n
ĠC ron
ĠP om
at riz
Ġcar dÃŃa
Ġcre ce
Ġad quisiciÃ³n
ific Ã³
tien den
Ġocur rir
Ġalterna tivas
Ġjue ces
Ġpse udo
d omin
Ġin venciÃ³n
Ġtra je
Ġma terna
Ġtaller es
S a
ci ma
Ġtriun f
Ġbienes tar
Ġtel Ã©fono
ĠcrÃ©di to
ĠVillan ueva
ve za
Ġalgo dÃ³n
Ġib n
Ġestren ada
Ġrelev ante
Ġlab ores
n aciÃ³n
v ing
es cri
Ġdel ito
Ġguer reros
Ġdismin uye
Ġdec enas
i ter
ĠB Ã¡r
Ġpr osa
Ġ6 6
ĠRo d
ĠPu blic
fas is
Ġe ficiencia
Ġ7 2
ĠOr le
Ġidentific ado
ĠMaxim il
ĠJ ud
ĠEj emplo
Ġimp rim
Ġexam en
Ġcruc ero
ĠValdi via
m us
in ch
Ġex pec
ĠÃ© stas
Ġles iÃ³n
Ġ ida
ĠCan ciÃ³n
Ġcaracter izado
ĠÃ³p tica
an des
ĠP it
Ġme d
ĠPro pie
Ġespa ciales
Ġprepar ar
Ġasoci adas
ĠGram my
duc to
ĠAc tu
Ġdem ol
Ġtrib unales
ĠDar ÃŃo
Ġcompar tir
ĠArgent ino
di era
Ġconf e
ĠAu re
Ġpl Ã¡stico
Ġgrad ualmente
Ġbusc aba
Ġdeleg aciÃ³n
Ġaflu entes
Ġt all
Ġcu entas
ĠN am
ĠÃģ m
al lo
Ġal m
and ina
... )
Ġbo da
Ġ187 2
Ġfabric antes
ĠestratÃ©g ica
A L
Ġ ).
Ġplan ificaciÃ³n
Ġbaj ista
Ġdesign ar
t ter
Ġ ola
ĠA gua
Ġre hab
ĠMon umentos
Ġ187 5
ĠFre d
ĠcrÃ©di tos
ad uras
ĠS erv
Ġcons enso
Ġnie to
ĠPales tina
ĠO S
Ġmu tu
Ġcontro ver
Ġder rib
e dia
Ã °
oc key
Ġlanz ada
Ġsignific Ã³
ĠRub Ã©n
Ġen tran
Ġ5 8
Ġgol pes
Ġmat rim
Ġevi dencias
Ġciudad ano
Ġtu viera
ĠHo ward
Ġreempla zo
ĠAra bia
! ,
Ġale grÃŃa
Ġluch as
pr inci
Ġtarje ta
= #
g ios
ĠâĢ ł
Ġ6 2
ap ur
ĠOr questa
196 9
ĠLux em
Ġo perador
ĠSig ui
ĠhÃ©ro es
Ġal tera
Ġven ÃŃa
Ġfac to
ĠNav arro
Ġin j
Ġcol inas
Ġprovinci ales
Ġconsigui endo
Ġorn am
Ġa ur
di ciÃ³n
Ġar ra
Ġiden tifica
bla je
Ġsug ieren
ĠFrank lin
Ġclan dest
Î ¼
ĠS at
ĠL ud
ĠDe porte
20 22
ĠOr ÃŃgenes
iel orr
Ġile gal
Ġestrech amente
C am
ci ado
ĠE P
tra to
Ġsol edad
Ġcaus ando
Ġafric anos
ĠLa gos
po t
Ġ18 14
Ġhi er
ine bra
Ġrespon de
s mall
ig en
ĠK at
ÃŃo do
olog y
Ġart ÃŃsticas
Ġrefug iados
i eg
ce d
ĠIn donesia
Ġman i
Ġau tos
el io
ĠN ag
Ġac lar
Ġforma ciones
Ġdecl ive
Ġp ez
ĠAl var
ĠPar is
Ġdirec tores
ĠZa pa
ĠOfici al
G B
T e
ĠMo tor
Ġsuperfici al
Ġdestr uido
Ġdestr uida
Ġparroqui al
Ġnaran ja
ec as
Ġsuper vivencia
cin co
Ġhog ares
Ġegip cio
duc tor
Ġco e
Ġmis a
Ġmad rile
Ġinclu ÃŃan
Ġinmedia ta
E P
v ard
Ï ĥ
ĠMon asterio
Ġlun es
r ico
or um
ĠEn fer
ĠH ubo
Ġcos tar
Ġante pas
Ġ187 4
Ġdenomina ciones
Ġintroduci do
en dor
Ã¡s ica
Ġpresent arse
ĠPol it
Ġgu a
Ġinterpre taciones
ĠAg uirre
ĠSho w
estado unidense
ĠMagal lanes
Ġde vas
ĠV uelta
Ġdo bl
ĠN BA
Ġoc cidente
Ġestudi a
Ġdirig ente
Ġcontrib uciones
Ġde stitu
ĠP ues
ie ta
Ġob tuvieron
ĠGib raltar
Ġc ueva
te z
ri ta
ch el
Ġcan on
ĠCl ara
Ġtal ento
ĠSh in
Ġtab las
Ġdetal le
Ġeconom ista
h is
ur u
qu istas
Ġpel ota
ĠprÃ³ ximos
ĠacadÃ©m ica
ĠEl iz
ĠRo dolfo
Ġconsigui ente
Ġpien sa
ĠÃ©n fasis
l is
te dra
ag en
Ġdestac ada
Ġinstr ucciÃ³n
Ġ184 0
Ġemi tir
. Â»
Ġb lin
Ġdes eos
ĠH em
ĠThe o
in f
Ġmi ra
ĠLond on
ĠA po
Ġloc alizado
ĠCor ri
ĠLen gua
ĠLen guas
ĠC ara
ĠW el
jo te
Ġcor rer
ĠCh ia
Ġcre er
Ġch a
Ġven ganza
Ġconserv ar
ĠelÃ©ctr icas
Ġeval uaciÃ³n
Ġacon se
Ġf ech
Ġin mo
ich i
fec tura
Ġgobern antes
Ġazul es
ĠMunicip io
Ġinvent or
Ã³ dromo
Ġcon tes
Ġpat ente
Ġarro yo
ĠAnth ony
Ġnov enta
G ran
es or
rim as
ari ado
Ġparti Ã³
ĠCom pos
Ġambi entales
Ġsecre ta
Ġefica cia
Ġs ales
ĠG ord
Ġcu rios
tien da
ra tos
Ġpro cl
Ġincl usiÃ³n
ĠUnivers o
Ġtom ada
ĠaÃ±ad iÃ³
Ġsobrevi vir
Ġejecut ado
ĠRen Ã©
ĠC ay
ĠT Ãºn
Ġacu Ã±
Ġsens ibilidad
Ġinvers iones
ĠXV II
Ġtrage dia
Ġt on
ĠS cien
Ġpo Ã©tica
me di
Ġcr uce
ĠPo p
d re
que t
vi ales
Ġcan ciller
esti a
Ġaproxim aciÃ³n
Ġbal ance
Ġcolec tivo
Ġenter os
m illones
Ã ¸
Ġb iografÃŃa
Ġsi er
ĠCon ce
Ġcaus ado
Ġencontr ados
ĠCamb ridge
Ã¡ culos
Ġar men
Ġobten idos
Ġcoloc Ã³
ĠApar te
Î¿ ÏĤ
bl as
Ġlib ras
Ġmad ru
Ã§ a
Ġbloque o
ĠreÃºn e
Ġh ÃŃb
Ġestable cimientos
Ġfer ia
Ġsu d
ĠÃ© stos
Ġ186 3
Ġsecu estr
Ġbrasile Ã±a
b ÃŃ
ĠM am
ĠIn tro
Ġtrans vers
Ġbar rera
Ġconside raciÃ³n
Ġpendi ente
Ġest am
Ã©s ped
tio pÃŃa
Ġp usieron
Ġev ent
lig encia
Ġmortal idad
Ġelev aciÃ³n
Ġano tÃ³
i tivo
Ġno ciÃ³n
Ġem ite
Ġcomple jas
ĠJa Ã©n
Ġacus aciones
ĠPers onas
j aro
um Ã¡n
Ġhab ido
Ġdef ien
ĠTi po
Ġenl az
Ġsug iriÃ³
Ġcol oca
Ġis Ã³to
ev elt
Ġvie jos
Ġ Ä
il andia
ag an
Ġint entaron
Ġfund aron
Ġur be
V al
Ġp ur
Ġelec to
Ġconsist ente
ĠIndust ria
Ġriv alidad
Ġbater ista
Ġrec rea
Ġacep tada
197 2
ĠAg encia
b aciÃ³n
m und
ĠCon tem
je tivo
Ġro ta
Ġllev aban
k an
Ġal ba
ĠEn tr
Ã©n ico
ari dades
Ġad orn
xim adamente
Ġsome ter
Ġma p
ĠDic cionario
ĠtÃºn el
ĠChip re
c adas
ra be
Ġn acer
ĠA ce
ĠIn tel
fi la
Ġrode a
Ġgar ant
Ġhoriz onte
ĠOrle ans
Ġf es
qui en
Ġci to
ust on
Ġdest inados
ĠJu ventud
Ã¡c tico
Ġmono pol
i jo
Ġm ueve
Ġdivi diÃ³
Ġlig ero
Ġ185 7
Ġcasti go
< /
g ido
Ġcons ciente
ĠAm bi
Ġnacional istas
Ġpropor cional
ent amiento
Ġinde penden
ĠLiber aciÃ³n
Ġmod alidad
Ġamino Ã¡
Ġe rupciÃ³n
Ġre ba
ĠMin istros
Ġ182 3
Ġguar dia
Ġdespla z
ĠMauri cio
Ġa ri
ĠH uel
Ġinter net
Ġpes c
erop uertos
Ġrepublic ana
ĠAgr icultura
ĠEin stein
Ġs Ã¡
ĠNa val
Ġinv itados
ĠRo b
Ġmarch Ã³
ĠR ick
Ġdesarroll ando
Ġcirc und
ĠdiseÃ± ada
Ġescoc Ã©s
ĠA pÃ³st
Ġdes pl
ĠN ick
if f
ĠNa zar
Ġprop ul
Ġtri pul
Ġinm or
Ġcelebra ciones
Ġpecul iar
E N
ten se
ug ÃŃa
Ġvuel ven
Ġapl as
Ġtraslad ado
Ar gentina
ĠInform aciÃ³n
Ġp eg
ĠP ron
tu oso
di f
ĠC eci
Ġins ul
Ġestudios os
ĠRoos evelt
ĠD ÃŃas
ib a
ĠPro ducciÃ³n
Ġases or
Ġenvi ados
ĠGÃ©n ero
ol icismo
ĠMar ta
Ġsho w
C H
Ġes qui
ĠAm bas
ĠBr us
Ġexclus iva
Ġcaptur ado
Ġr ÃŃg
Ġcontem pla
din Ã¡mica
Ġg loria
so bre
Ã¡m icos
Ġdisco grÃ¡fica
ĠT la
ĠSal inas
Ġases inados
Ġagr icul
;" |
kes pe
Ġmu Ã±
Ġdest inada
Ġgan aron
ev ales
Ġsex ta
ws pan
Ġexplor ador
u te
Ġl ien
il vania
Ġb las
196 8
ĠLuxem burgo
v ente
ĠS oc
ac al
Ġconf i
Ġqu eso
ĠAle ks
Ġbar ran
Ġol or
Ġplata formas
Ġdepen den
Ġocup ando
Ġdiecis Ã©is
Ġinf ante
Ġresul taron
Ġconside rando
Ġ186 9
ĠRus sell
ĠBos que
Ġfel iz
ĠjurÃŃ dico
ĠFon do
ĠVat icano
Ġfi nl
S u
ĠB ene
Ġrepresent ando
ĠEx posiciÃ³n
Ġfirm ar
p ada
Ġen tera
ĠC aj
Ġrepresent Ã³
Ġ186 6
Ġd uelo
Ġte ologÃŃa
ĠTer cer
Ġsu pera
ĠS ÃŃn
Ġus aban
Ġcon ta
ent adas
Ġre port
iv al
ber es
Ġtem or
Ġcic los
Ġconform ado
ĠCat ar
Ġcristian as
Ġest Ã©n
era to
i laciÃ³n
es c
ĠC Ã¡n
ĠUn esco
Ġrela ta
Ġmin erÃŃa
ĠGo od
ĠCab rera
Ġoblig ados
Ġcolabor Ã³
ĠcÃ¡l ido
Ġgalle go
Fran cia
Ġsime trÃŃa
s us
tiv ismo
Ġ18 15
ud ÃŃ
ĠBo w
ĠPe Ã±
Ġinst ante
Ġconcent ra
Ġsalv aje
ĠU tiliz
no w
Ġins pec
Ġubic ados
Ġautom Ã³vil
ĠCir c
Ġprivileg ios
in dic
ĠD uero
ĠO ut
Ġcomple tÃ³
Ġjug ando
Ġafec tado
Ġmencion ada
Ġsit Ãºan
Ġca udi
ĠtÃŃp icamente
Ġrode ada
ĠPascu al
D on
Ġpa ci
Ġcomenz ando
ĠLo pe
Ġalcanz an
Ġconcent raciones
ĠFl ora
ĠMarcel o
Ġp Ã©
Ġ1 18
Ġv inos
Ġmar inas
Ġexpres Ã³
Ġconsecu tivos
me dia
Ġjun tas
Ġdej an
ĠenseÃ± anzas
ĠArgel ia
ĠC ele
ĠP ep
ing en
ĠmÃºs culos
Ġcrist ales
ĠJul ia
Ġalco h
Ġprofun das
ig ue
Ġdes at
ĠEst u
Ġsobre pas
ĠQui jote
Ġexac ta
Ġinfin ito
P D
f amilia
p ientes
Ġde pre
ĠclÃ¡s icas
Ġbi ologÃŃa
ĠBra vo
ster dam
ĠClar k
Ġcoord inaciÃ³n
Ġf ec
Ġcontro la
Ġdenomin adas
Ġvir gen
an go
Ġm itos
ĠB ase
ĠB oca
Ġentre tenimiento
Ġutiliz aban
Ġ182 4
Ġconquist ar
Ġgala xias
vi Äĩ
ĠH ombre
tur os
gra m
Ġpresiden tes
Ġpele a
ĠEstatu to
p Ã¡
ĠPe kÃŃn
Ġdescon t
Ġpira tas
om an
ent ino
ul k
Ġmedi ciÃ³n
Ġsec os
tÃ¡n do
Ġtempor almente
en timiento
tos ÃŃ
Ġmi el
Ġentr aron
Ġante ces
Ġgi ras
ÃŃ bal
go Ã±a
Ġsuper ado
Ġpreci so
Ġrecibi endo
v adas
tu res
ĠLa ur
ĠAl ar
Ġpas aba
Ġseg mento
ĠCal i
americ anas
Ġmusul mÃ¡n
Ġapre ciar
ĠCorpora tion
Ġeusk era
ti go
ĠEst atal
qu ÃŃm
ĠRe f
ĠQ ues
em an
Ġmodific ar
ĠclÃŃn ica
Ġh eg
Ġ8 8
Ġpoder osa
Ġprecis a
Ġcircun s
Ġ{ |
r Ã©
Ġa ci
oc ol
Ġ9 00
Ġvisit ante
Ġexit oso
Ġal turas
gan istÃ¡n
Ġtal la
ĠSh ang
Ġargent inos
Ġcel este
Ġflu vial
Ġvec tor
Ġex ting
tÃ³ l
Ġconserv ado
ĠRos as
Ġ186 4
Ġhalla ba
d ora
or gan
Ġhab il
Ġutiliz arse
Ġunivers itarios
Ġcompar te
Ġalcanz aron
Ġ186 2
ĠteÃ³r ico
p ra
ĠE tiopÃŃa
197 1
ili taciÃ³n
Ġregist rÃ³
Ġproteg idas
Ġcoloc ar
Ġdesapar eciÃ³
ĠvÃ©r tic
ÃŃ metro
ĠAr ti
20 21
ĠSh er
ĠReg res
Ġescuad ra
Ġfesti vidad
Ã ¯
ol l
Ġmas ivo
Ġdedic ados
Ġdemos traciÃ³n
ĠCÃ¡ ceres
Ġorg Ã¡nica
Ġcan tantes
Ã ²
Ġ q
ĠP tol
ĠG inebra
ĠY uc
Ġorden adores
Ġvis itas
ĠTuc umÃ¡n
ĠD Ã¡
ĠB ust
Ġpres as
Ġang los
un os
Ġcon ces
bi dos
Ġleg itim
Ġliter arias
Ġpul mon
ĠCham pi
ĠBona parte
T O
im entaciÃ³n
ĠH es
Ġtra mos
Ġten ista
ĠNA SA
Ġfr ÃŃos
Ġlanz aron
Ġenfrent aron
Ġcorrec to
ĠdiÃ³ xido
ĠAbra ham
Ġar rib
Ġcre ados
Ġnacional ismo
ĠPre mi
Ġameric ana
Ġtesti go
ĠComenz Ã³
e te
p Ãº
ĠM TV
ĠT s
Ġper i
Ġtra m
ĠSer ies
ĠRom Ã¡n
ĠEcon Ã³mica
Ġinvers a
Ġaustri aco
kespe are
Ġado pciÃ³n
ĠCro acia
D o
Ġest an
fici os
Ġma pas
Ġgas to
Ġamar illa
ĠcÃ¡ pita
Ë Ĳ
Ġrespec tivos
ĠSer bia
seg Ãºn
Ġreda cciÃ³n
ĠcÃŃr culos
Ġastero ide
Ġcoleg ios
B I
s ay
ĠLa ura
ĠN os
Ġcomun as
ĠCan aria
Ġpen ins
ÃŃnci pes
Î º
ĠCon dado
ĠNo va
Ġsen adores
Ġrefle j
Ġpi ernas
Ġoscu ridad
te za
iz ando
ĠEdi ficio
Ġlider ado
d ing
ĠA quel
ĠG NU
Ġper tur
Ġcl or
ĠTes tamento
Ġest il
Ġarquitec tos
nes s
Ġperfec tamente
ĠÃº tiles
f ismo
an ta
Ġcontra jo
Ġapar ecido
Ġconvier ten
ĠseÃ±or ÃŃo
Ġsemej ante
M o
Ġal b
Ġpo tente
Ġcre an
Ġgener ado
ancia ciÃ³n
bo ur
Ġ12 00
Ġconstitu ida
Ġtermin aron
Ġ187 7
ĠOc Ã©ano
ÃŃcol a
Ġdesas tre
ĠY os
Ġcr ÃŃa
Ġol e
Ġmanus crito
ĠMarsh all
j ec
st ed
ĠH at
ĠU so
Ġ185 9
Ġprotes tante
Ġfabric ante
4 00
n ombre
ĠS ÃŃmbol
ĠSe gura
Ġpens aba
Ġtur ÃŃstica
Ġveci na
Ġcubier tas
Ġsuje tos
Ġreper torio
Ġsangu ÃŃn
Ġcamis eta
ĠS iete
dor e
Ġpon iendo
Ġho teles
Ġlig era
NE S
dum bre
f ÃŃsica
Ġ ÂłÂłÂłÂłÂłÂłÂłÂłÂłÂłÂłÂłÂłÂłÂłÂł
Ġ5 9
Ġextra Ã±o
ĠEstudi antes
Ġd arÃŃa
Ġincl inaciÃ³n
che vi
Ġcont ing
Ġdispu tado
Ġ182 5
Ġgubernam ental
ĠDrag on
Ġl uces
ĠT ech
ĠF ir
Ġafec tados
Ġpregun tas
ĠRol ling
Ġrevolucion arios
ĠAf ganistÃ¡n
clo pedia
Ġacor de
tor as
ĠCon str
Ġro jas
Ġrecord ar
ĠIz quierda
Ġbille tes
as is
in ero
ĠG ig
Ġtra to
Ġfran quista
Ġfal lo
Ġorigin ario
Ġsepar ada
Ġfi jo
Ġtoc Ã³
Ġdemocr Ã¡tico
un es
ĠCom pu
Ġol as
Ġproteg ido
Ġexten s
Ġenfer mo
Ġlec tores
ĠNorm almente
Ġocta vo
Ġdescrib en
' )
ĠP et
na v
196 7
Ġpatr ona
Ġingeni eros
ĠHues ca
Ġg imnas
tal ia
cep to
ĠJ en
Ġus arse
Ġtor o
ĠTra yec
Ġemple ar
ĠForm a
Ġmanifies ta
Ġv ienen
ĠM ec
ĠN ilo
orm emente
ch ura
ve y
Ġro b
Ġbom b
ĠDepor tiva
Ġadul to
Ġlun ar
ĠÃ©tn icos
Ġl enta
Ġin hibi
ĠRa cing
ĠBer m
Ġtrib uto
Ġcercan ÃŃa
ĠSha kespeare
Ġgala xia
ic Ã³p
ĠS iendo
Ġhi erba
Ġ6 3
Ġcr Ã³nicas
Ġinstitu to
Ġescas os
Ġsupon ÃŃa
Ġrenunci ar
k Ã©
n eo
ĠB i
ĠN u
Ġsen tidos
ĠQu ÃŃmica
Ġ182 2
Ġmatem Ã¡ticos
ĠSecre tario
Ġmadru gada
ĠL anz
Ġact Ãºan
Ġdedic adas
Ġprogres ivamente
Ġacos tum
u tiliz
Ġcons ola
ĠZ ar
Ġcampe ones
ĠMu riÃ³
Ġlevan tar
Ġcoinci de
Ġcog ni
Ġverti ente
ic he
Ġcor os
à ¤
ad illa
Ġpa ta
Ġpu ri
Ġperson almente
Ġfil ial
ĠJohn ny
ĠRev ista
Ġexpedi ciones
ĠEug enio
Ġn Ã³r
ĠA ran
Ġal quil
Ġcl ero
ĠEx pl
Ġpers as
ĠcÃ³m ics
ĠP le
ĠI ron
Ġlo bo
Ġtra tan
Ġmedi evales
ton ia
ĠcÃ³ digos
ĠNeg ra
ĠGas tronomÃŃa
Ġnecesita ba
ĠBeat les
Ġdel ta
Ġv illas
Ġestel ar
Ġp ig
Ġsu po
Ġsu deste
ĠS Ã©
Ġso portar
qu illo
Ġap ariciones
Ġtrabaj an
ĠLuis a
ĠCap ÃŃtulo
Ġregist rada
ĠEdi ciÃ³n
ĠMas ters
Ġguar niciÃ³n
Ġconvoc Ã³
ĠModer na
ĠK ur
lam o
Ġclas ifica
ues tro
Ġclasific ado
ĠDemocr Ã¡tico
v ill
Ġh ex
ĠD onald
eron a
Ġfran cis
Ġfam osas
Ġatra er
ĠSer rano
196 6
ĠHum anos
ĠDu que
Ġdefens or
ĠAssocia tion
in ista
ĠE S
ĠC IA
Ġpes ados
ĠJo ur
Ġol vido
Ġselec ciones
Ġf estivales
ĠD uran
Ġmin or
ff s
Ġafec tada
Ġllan uras
i ona
ar m
ĠM r
Ġac cidentes
Ġr ÃŃtm
Ġencar go
Ġestatu as
C a
os t
ĠK ent
ip se
Ġinterpre tada
ĠarquitectÃ³n ico
ĠprÃ©st amos
Ġac omo
Ġmar es
Ġet nia
Ġejer ce
Ġisrael ÃŃes
Ġvigil ancia
ĠA rias
ĠB uda
ĠW o
ĠBo h
Ġhabit an
Ġobserv ado
ĠAward s
s im
y u
Ã³ tico
it aron
ĠEst Ã¡n
Ġpol im
20 20
ĠMo ore
Ġtab aco
Ġu til
ÃŃf icos
ff y
Ġanun cio
Ġleal tad
Ġcolap so
ul es
ĠK le
Ġpre venir
ĠEuro copa
Ġrum ores
Ġvalenci ano
Ġla gunas
Ġm uel
at Ã³n
Ġte lec
Ġson da
Ġprofes iÃ³n
Ġdescon oce
Ġjesui tas
ci tos
Ġcon dados
ĠP ho
Ġj urado
Ġconstr uidas
ĠEstruc tura
Ġes enciales
Ġorden a
Ġinform Ã¡tica
Ġcomb ina
com unidad
ĠbÃ³ veda
ĠL et
ĠCo un
th y
Ġ185 4
Ġaseg urÃ³
Ġaerol ÃŃnea
ti empo
ĠP ros
ĠP acto
Ġan ci
Ġas igna
ĠÃ© tica
Ġfr om
Ġapar atos
Ġjer arquÃŃa
Ġenz imas
l Ã³
Ġen tiende
Ġac tivamente
Ġman ej
Ġcr uel
ĠSo fÃŃa
Ġcolabor adores
Ġsom bras
Ġespi ritu
Ġsufrag io
O N
Ġde ton
ĠI ma
Ġcual idades
Ġfirm aron
Ġtop Ã³nimo
Ġhal lan
j Ã¶r
ĠS I
uy o
Ġcol ina
ĠAr ri
Ġsuper vi
ĠintÃ©rpre te
c oc
Ġc oco
ul la
ĠD atos
ĠN adal
pu ra
ĠAs h
ĠEx pres
Ġinvestig ador
Ġto po
ĠY an
ace te
Ġdeber ÃŃan
ĠDisco grafÃŃa
or iano
ut ico
Ġampl itud
ĠOl d
Ġbus cÃ³
Ġafirm aciÃ³n
Ġestablecer se
Ġaterriz aje
Ġdi ver
dor f
ĠPo esÃŃa
196 0
Ġlec tor
ĠvÃ¡l v
ĠpÃ¡ jaros
Ġtera pia
ĠGermÃ¡n ico
Ġrenacen tista
ĠC ru
ĠA er
Ġpor te
ac Ã¡
Ġno do
Ġinter valo
Ġve la
Ġconven cer
Ġpris ionero
Sta tion
ĠTrayec toria
di mens
ĠA ga
Ġpor tÃ¡
ĠG ru
ĠI qui
Ġcam a
ĠPos t
Ġdul ces
v ec
Ġconf un
vir us
Ġinspir Ã³
Ġegip cios
ĠFron tera
Ġn Ã³m
ĠF ru
vi ente
ĠJ oy
Ġcr Ã¡neo
Ġanim ada
ĠacompaÃ± ada
Ġhel io
Ġmud Ã³
ĠRelig iÃ³n
ab ul
Ġoblig aciÃ³n
Ġbel la
Ġadquier e
L E
g icos
ĠV Ã©
ĠHo t
Ġbre vemente
Ġaprovech ando
Ġvenezol ana
ĠEsper anza
Ġres cate
Ġelectr Ã³n
196 4
Ġnega tivos
Ġtum bas
Ġdiag nos
Ġagra de
ĠM iller
la g
Ġb rig
Ġper dida
if orme
Ġaf il
Ġdiplom Ã¡ticas
Ġsag rado
Ġg or
Ġexist iÃ³
Ġins urg
Ġarque olÃ³gico
ĠdÃ© fici
Ġtes oro
ĠTerri torio
C iu
Ġse des
Ġes cl
Ġra yo
Q ui
h in
y entes
da y
Ġd ren
em o
Ġcab ello
Ġata cÃ³
ĠCentro amÃ©rica
Ġtransform Ã³
Ġadqui rido
ĠDesta ca
ĠBrus elas
m isiÃ³n
Ġc ad
ĠA ta
Ġdis puso
Ġro jos
are la
Ġcomb inado
ĠEstre lla
J o
ĠU m
Ġcam ar
ĠVel asco
Ġaconte cimiento
Ġpropa ganda
Ġhuev o
Ġcar naval
Ġad s
Ġdefin iÃ³
Ġop uso
Ġcorrec tamente
Ġalber gar
ĠT as
Ġac lam
ĠK ev
Ġopera tivos
Ġrespal do
Ġre prim
la ves
ĠB ac
ĠO cu
ĠPat ria
Ġquer ÃŃan
Ġdepen der
Ġcho que
Ġest ÃŃm
ĠK am
gra mas
Ã³l icas
Ġinvi ernos
Ġen ca
ĠM Ã¼
ĠB ros
Ġmaes tra
Ġterror istas
ĠPrinci pado
Ġend Ã©m
Ġcantau tor
j un
p istas
w ich
Ġcon ducir
Ġtra tando
Ġej es
ven idas
Ġtrans portar
Ġder rum
Ġ183 5
Ġafirm ar
Ġvesti do
Ġmascul ina
Ġhosp itales
8 00
u res
Ġb lues
Ġcu en
ĠIn st
Ġgran o
ill y
Ġver anos
Ġ7 6
Ġnombr ada
Ġagu jero
Ġperiodi stas
TA N
Ġse da
bi as
Ġna cidos
Ġrom piÃ³
Ġhidr Ã¡
Ġafric ano
uc risto
Ġtra iciÃ³n
ĠCor dillera
Ġpl umas
ĠSig lo
ĠJaco b
Ã©r col
ĠMar c
ton io
Ġsuper ando
Ġlimita ciones
Ġpro du
Ġpres ion
Ġsal en
ĠMa ur
Ġincorpor a
Ġemb ri
ĠPra ga
ĠT ang
ĠAn ÃŃbal
Ġya cimiento
ĠBar b
Ġne ocl
Ġobserv ador
ĠFil m
Ġens am
ĠBoy s
ĠDeclar aciÃ³n
t ÃŃan
cep ti
ĠGener alidad
Ġpens Ã³
Ġescas o
Ġrecol ec
A le
es table
Ġno taciÃ³n
Ġsuper Ã³
Ġrec re
Ġmilit antes
Ġsum erg
Ġcorre dor
B a
Ġf ant
ĠS E
ĠL um
ĠM ix
ch ua
qui la
Ġmo del
Ġsol em
ud Ã³nimo
eci das
Ġdom ici
Ġanglos aj
Ġest oy
Ġb rillo
ĠB rad
ĠB BC
Ġan alizar
Ġpresent aba
ik e
Ġrespon der
Ġafec tar
Ġdescub rimientos
Ġsul f
Ġinfluy entes
Ġarmon ÃŃa
p oca
Ġcon ducciÃ³n
Ġcom puestas
ig Ã³n
du re
Ġ6 7
Ġgri egas
Ġespecial istas
ĠRes ta
Ġhar ina
Ġcostar ric
qui pa
ĠAl pes
ĠSon y
ĠCer ca
ĠCin co
ĠS id
Ġmon jes
ies to
Ġorden ado
ĠDan ubio
Ġavanz ar
Ġfantas ÃŃa
an dr
ĠG ian
Ġcere ales
Ġcom presiÃ³n
ĠH ugh
ĠJ udicial
qui al
ios as
Ġcer do
Ġencu ad
ĠMal ta
Ġdispu tas
especi almente
d ney
ti ra
Ġse min
Ġh ist
Ãºbl icas
Ġmencion ados
ĠFil mografÃŃa
ĠQue en
ĠPie dra
Ġnub e
ĠOrig inalmente
ĠGord on
n an
Ġc Ãºm
Ġpro vienen
et ts
Ġdistin guen
Ġ% .
Ġnarra tiva
ĠTÃ©cn ica
C R
es tas
Ġ( '
Ġloc alizada
Ġestable ciendo
Ġorigin Ã³
ĠBri tÃ¡nica
Ġderiv adas
ĠfilÃ³so fos
ĠProfes ional
" :
ĠV arias
ĠAl ban
Ġclas s
Ġhon gos
vis ion
ĠEd gar
ĠHern Ã¡n
Ġrit mos
ĠProvinci as
b ell
que ta
qu inas
Ġviol ÃŃn
Ġconsecu tivas
Ġsos tienen
Ġexperim entado
Ġcla ves
ĠIS O
Ġviaj eros
in do
in oso
st one
Ġap Ã³st
Ġro j
Ġmos trando
Ġnor uego
ĠautÃ³c ton
ĠN ich
Ġmat Ã³
Ġhubi ese
Ġcomunic ado
em e
qu ÃŃmica
Ġpa v
og a
ĠK id
Ġjug ado
tis h
ĠHab ÃŃa
ĠPeter sburgo
Ġpobla cional
Ġprocl ama
ut her
ant ina
Ġabier tas
195 8
Ġcaptur ar
Ġsupre mo
D es
Â ·
ĠL abor
ĠAle mÃ¡n
Ġservi dores
Ġag encia
Ġantigu amente
Ġsuf rieron
h on
ĠCom and
Ġliber ado
Ġexperim entÃ³
ĠescÃ¡ndal o
H iggins
n is
Ġan gust
per s
he ad
Ġanf it
Ġal mo
Ġgran os
ĠCu ad
ĠPe tro
Ġhos til
ĠChur ch
ine tes
Ġenfr enta
Ġprovoc ado
Ġprotagon izÃ³
Ġtesti gos
Ġacord Ã³
Ġl Ã¡g
ĠC asta
is ion
at re
Ġpublic adas
ĠRes pecto
hu atl
ĠTecn ologÃŃa
ĠAllen de
ĠhidrÃ¡ ul
Ġc ari
ĠH amilton
Ġhab rÃ¡
Ġsal sa
ĠSi empre
ĠMaximil iano
di Ã©ndose
ĠF le
Ġno bel
ĠPar al
ĠpolÃŃ g
Ġneutr ones
Ġprohi biÃ³
Ġen ve
Ġlleg aba
Ġhum o
ĠPo tosÃŃ
Ġries gos
Ġhalla zgos
Ġsent ÃŃa
n Ã³
Ġla va
ĠI N
br Ã³
Ġaf iciÃ³n
Ġfu turos
mac os
Ġclasific Ã³
ĠÃ¡m bitos
Ġbombar deo
Ġin qui
Ġprim os
ĠJes ucristo
Ġrecor re
ĠGeorg es
Ġm isterio
ĠA cu
ĠS av
Ġle ones
ĠCom ien
ĠSi tio
Ġacum ulaciÃ³n
Ġn as
ĠMar vel
Ġproces ador
Ġconstruy e
Ġtelec omun
Ġencu esta
Ġvolun tarios
d ulas
Ġal deas
Ġcer rÃ³
Ġvari ar
Ġtor tu
Ġdomin aciÃ³n
196 2
ĠLen in
Ġembal se
Ġa ba
ĠA BC
Ġac ora
pres iden
Ġcambi ando
ale la
Ġdetec ciÃ³n
Ġencabez ado
j al
es tra
endi endo
ific ados
Ġinfluy ente
f en
ti ga
Ġinf r
Ġra p
Ġmin im
ĠdiseÃ± ador
Ġdesapar ecer
Ġhaci enda
Ġt oca
Ġcer rar
Ġconj unta
ĠSing apur
ĠF landes
Ġcir cul
ĠÃ³ pti
Ġarm amento
ĠDon de
Ġexpuls ado
ĠAgu ilar
ĠAndre w
ĠM S
los o
uev en
dem ias
Ġcos teras
ĠAt las
Ġdeber Ã¡
s um
as en
ra mas
ĠA T
ĠA ur
Ġre ver
ĠCon se
og le
ĠPer e
Ġmos trado
Ġliter almente
ĠIb Ã¡Ã±ez
Ġimpi diÃ³
Ġb uc
Ġpa quete
ĠWar ner
ĠDipu taciÃ³n
ĠAmer ica
Ġcivil izaciones
ĠDem Ã³crata
ĠPue den
ĠRol and
Ġenz ima
Ġmostra ba
Ġt rig
Ġb ril
Ġpro cur
Ġcent enario
Ġdirig idas
Ġproporcion an
D S
o do
p almente
ĠB uc
Ġch i
Ġvol ar
ĠCu zco
ĠPrim ero
ogrÃ¡f ica
Ġdescar ga
Ġintelig ente
Ġtempl ado
Ġcombust iÃ³n
Ġreg ente
Ġreg ul
Ġ4 000
ach us
Ġregular mente
Ġla ure
te co
ri tus
ĠM ana
la ck
ĠT Ã¡
Ġcat olicismo
Ġrelacion a
ÃŃr culo
Ġcub ana
ĠAdam s
ci nas
Ġderro tados
ĠPen ÃŃnsula
ĠEnl aces
s Ã³
u rez
ĠUn os
ÃŃf ero
Ġri tuales
Ġvit amina
di llas
Ġv il
Ġpro li
ĠR ab
ĠN oche
Ġcons piraciÃ³n
fer as
Ġman ual
ĠMa estro
Ã¡c tica
Ġconst ancia
Ġperman entes
Ġdesign aciÃ³n
Ġexcep ciones
Ġinno vaciÃ³n
ĠRib era
O h
g s
Ġman ip
Ġfil ip
Ġ185 6
in da
ĠE pi
ĠB omb
Ġ185 1
ĠVie ja
ĠsÃ³l idos
ĠcÃ³m ic
Ġexpec ta
N ueva
or re
Ġen glo
Ġdes ea
ĠSe a
ĠBar rios
Ġequival e
Ġoper ar
Ġdescendi ente
Ġestrateg ias
Ġsatisf acer
h il
ĠA guas
ĠV egas
Ġob tienen
ĠPtol omeo
k el
Ġal za
Ġsin tiÃ³
Ġgru eso
Ġdefin en
Ġtransform a
Ġrecha zado
Ġi ran
ĠVi ol
ĠBri tÃ¡nico
Ġdesempe Ã±o
ĠYuc atÃ¡n
o va
Ġc ach
ĠAr mas
ĠNa cionales
Ġfal sa
Ġapo do
g icas
i vidad
Ġf uga
ĠA bel
ĠS c
ĠT on
Ġfund ar
Ġsuces ivas
ĠVir reinato
Ġgrab ados
Ġretra tos
ĠGuer ras
Ġconjun tamente
w art
ĠAl ess
Ġle Ã³n
Ġco pi
Ġsuces o
Ġasist ente
Ġtorm entas
Ġc uevas
Ġre en
Ġre le
ĠD im
Ġdesem pleo
Ġambi entes
ĠBel g
Ġretir ado
ĠCla ude
I s
Î ·
Ġe va
par o
Ġpa quetes
Ġaf ron
Ġubic adas
Ã¨ s
Ġhel icÃ³p
ĠB ena
qui to
Ġtor pe
Ġrom ance
ĠÃ³ xido
Ġconven iente
Ġsurg ido
Ġang lo
ĠRad ical
ĠHein rich
ĠChristoph er
n ik
em ann
Ġllam aron
Ġintro duce
an Ã©s
ic us
Ġcon fec
to grafÃŃa
Ġcer veza
Ġviol aciÃ³n
Ġtex til
Ġrectang ular
ĠC ub
is en
Ġedi tado
zar t
Ġfrac ciÃ³n
Ġprohi bido
Ġin tu
ada jo
ib il
Ġdiv ina
Ġins cripciones
Ġampl iar
Ġmantener se
Ġox idaciÃ³n
Ã©ndo la
g uer
p rano
Ġa zo
Ã³ ma
Ġra tific
Ġcompro bar
Î ¯
Ġfac ultad
Ġelev adas
ĠLeon or
incl uyendo
M Ã©xico
w orth
Ġd ÃŃg
vi ar
Ġex c
Ġda to
Ã¡m ide
Ġgu aran
X X
g ers
in ton
te lo
Ġ183 4
ĠAmaz onas
Ġgreg oriano
ĠTÃºn ez
v ÃŃan
Ã© tera
Ġro cos
Ġrec uerdos
Ġmes o
Ġ183 6
Ġprimi tiva
ĠDig ital
Ġre ten
Ġal fa
ui la
ĠH uerta
Ġtrabaj ado
pro ducciÃ³n
ĠseÃ±al ado
Ġrepe tir
t Ãº
ic Ã³
Ġdis ca
ĠCh ac
Ġsal ieron
ĠMo on
Ġsolici tud
Ġagru paciones
ĠAnder son
tr ina
Ġsol ÃŃan
Ġdifer encial
ĠGro up
ĠT ales
Ġper j
Ġcontin entes
Ġmal as
lar ger
196 5
Ġinfraestruc turas
idel idad
Ġrib era
ĠEnerg ÃŃa
L N
L P
or s
ĠA bierto
Ġespeci alizada
Ġ9 6
Ġrecon cil
Ġsurg imiento
ĠÃ¡n imo
Ġequival entes
Ġprogres ivo
Ġconvers aciones
c Ã¡nica
is es
Ġcor al
Ġpen ales
193 9
Ġencabez ada
que Ã±o
ĠT oy
ÃŃst a
Ġ6 1
Ġat Ã³mico
Ġaum entado
Ġauto pista
ĠtÃŃp icas
Ġsacri ficio
Ġeros iÃ³n
ĠU p
pi dez
Ġreal ismo
Ġchil enos
Ġlu jo
Ġespl endor
ĠCar d
Ġch ica
cri ta
Ġlevan tÃ³
Ġocupar on
st ad
Ġh emos
ĠL il
ĠEn d
Ġten go
ĠBa k
Ġbo x
Ġconform ada
Ġvas os
Ġdor ada
ĠErn st
ĠKev in
u tar
z el
Ġcar tag
Ġgener an
pti les
ĠMo ham
Ġ11 0
Ġmal os
Ġcuad rada
Ġadi ciÃ³n
Ġimpro vis
Ä ±
Ġc ajas
uc os
Ġme todo
ĠDar win
Ġalum no
Ġopos itores
Ġo ve
ĠB ad
Ġpa ula
Ġra zas
Ġ7 7
Ġdiv ino
Ġpresent ada
Ġagr ad
Ġpropor ciones
Ġ184 5
Ġferrovi aria
ĠFantas y
Ġen am
to wn
ĠP is
ine os
Ġdeci dido
Ġqu is
Ġdetermin aciÃ³n
Ġheg em
g y
Ġl Ã¡s
or rom
Ġf um
Ġres puestas
uch i
Ġtr Ã¡g
dic amente
ĠÃ¡l gebra
Ġcontrol ada
Ġdetermin Ã³
194 5
Ġdemo grÃ¡fico
Ġcromos omas
adajo z
ĠP N
ĠF ire
ĠJ ama
ĠPor to
ĠLor ca
ĠSuc re
Ġindo europe
Ð º
in osa
ĠC F
Ġr Ã©
Ġcor tar
ĠMar ch
gan ta
ĠFran ce
Ġ7 4
Ġcaus ada
Ġrecom enda
ĠHispano amÃ©rica
aliz as
Ġab arc
Ġ| }
Ġcl Ã©ri
rig er
Ġobserv Ã³
196 3
Ã©ro es
Ġinteg rante
Ġdisfru tar
Ġp ilares
Ġac ciden
qu ÃŃas
Ġqui e
ĠPer man
tem al
Ġ183 7
Ġinaug urada
ĠConstitu yente
ĠAlvar ado
Ġc eb
ĠAu gu
ĠPal e
ĠJe di
Ciu dad
Ġf re
ĠB ronce
ĠF res
Ġpr Ã³logo
Ġinvesti gar
Ġauto bÃºs
Ġcatal ana
Ġvul gar
Ġarbi tr
Ġasesin atos
v ic
ĠH ub
ĠN ombre
aj u
Ġad her
Ġni Ã±as
bier an
Ġparal el
ĠFrances co
Ġ uran
er en
Ġsu ya
Ġtes tamento
Ġestric tamente
ĠT ienen
Ġex al
ĠEst ra
Ġcar ece
Ġnom inaciones
Ġautor izaciÃ³n
ĠMus e
Ġbi olÃ³gica
ĠTax onomÃŃa
an ge
Ġlleg arÃŃa
Ġafec tan
Ġconcl uir
Ġreor ganiz
Ġembarca ciones
ĠC ien
Ġn ec
Ġpar alela
se o
Ġan chura
ĠIn ten
Ġpe dido
Ġfi la
ĠBor goÃ±a
ĠFuer te
Ġastr onomÃŃa
Ġtradu cido
c amiento
ĠL enn
Ġr ub
ÃŃn g
Ġale g
Ġpoder osos
Ġcoo pera
ĠPlay Station
ĠContem porÃ¡n
b iles
l um
Ġest ro
Ġr ena
ĠCon ven
Ġproteg ida
Ġang ular
ĠmarÃŃti ma
tain ment
+ +
ĠS qu
Ġdes er
Ġsur gen
Ġvis u
Ġgen oma
ĠEstudi Ã³
Ġocup aba
Ġemper adores
ĠVÃ© lez
f ÃŃn
Ġde udas
Ġsu aves
ĠA pro
ĠS pr
ĠP icas
Ġex ce
Ġso port
ĠÃ¡ guila
ust ro
Ġ6 9
Ġcul pa
Ġrom pe
ĠMo zart
Ġases ino
ĠGre at
tif icaciones
ĠTen ÃŃa
Ġconste laciÃ³n
Ġl itu
ĠL A
ig ar
ib ol
Ã¡l ica
Ġjug ue
Ġpl ana
Ġgobern Ã³
Ġcoron ado
m ore
se x
Ġob ede
Ġcontra tos
Ġcuer o
Ġampl iÃ³
Ġorbi tales
Ġcro ata
ĠAth le
Ġmaquin aria
Ã Ĺ
Ġa porte
ĠA vi
ĠM isiones
Ġcre ciendo
Ġdist urbios
Ġampl ias
Ġenfer m
Ġ184 2
Ã ¥
Ġen fa
di ta
ĠPar do
ea vy
vel as
ĠÎ ±
Ġinesta bilidad
A c
Ġcap itan
ĠRo ad
Ġref ieren
Ġdepen dencias
Ġosci la
on to
ti cidad
ĠM eg
ĠT rum
Ġ18 13
cul es
ĠeconÃ³m icamente
ĠdiseÃ± Ã³
Ġ180 8
ĠdÃ©fici t
d d
g am
Ġc he
Ġfin anciaciÃ³n
Ġher ida
Ġsub terrÃ¡n
ep pe
Ġcolon iales
gÃ©n ero
Ġsuici dio
Ġtron co
ĠÃģm sterdam
l ados
Ġa tes
Ã³ mo
Ġen vol
ti mo
Ġliter arios
Ġmac ro
rup ciones
Ġform adas
ez ca
Ġint ent
a ter
ĠCon oci
Ġrom an
ĠInter pre
ĠAnd rea
Ġrepro ducir
ĠGas par
Ġtecl ado
Ã³ genos
ti entes
ĠM esa
Ġb ic
ĠB y
Ġr ent
ĠJim my
Ġtele f
Ġfres co
ĠAlas ka
ĠN atal
Ġam e
Ġpre cedentes
br ÃŃa
rec tor
Ġinv is
Ġgra mat
ĠVal dÃ©s
fr adÃŃa
ĠFre e
ĠBos nia
ĠDef in
Ġdeten idos
ci ario
Ġen mar
ĠL abora
Ġal usiÃ³n
ĠD Ã©
Ġj udiciales
Ġtra tamientos
Ġcas ada
Ġsub ord
ĠSch um
pie zan
Ġmur ci
achus etts
v ero
Ġs ill
Ġen ro
ĠP onte
Ġdes gra
Ġap la
Ġmov ilidad
b ablemente
ĠW ind
Ġro d
Ġrealiz aba
Ã³g ica
Ġdu ras
ĠAdol f
oc es
Ġpres os
Ġab ad
Ġ3 50
Ġof ren
Ġri tual
Ġfal so
Ġexca vaciones
A F
g or
Ġh undi
Ġre ce
Ġes quÃŃ
Ġpar ado
Ġmus ic
Ġafec tÃ³
Ġcel ulares
Ġfol k
ro v
ĠS istemas
ĠL itu
Ġpo zo
Ġ18 11
ĠMe dios
ĠMa ta
Ġmor ales
ĠPol o
mit en
Ġetc Ã©tera
Ġaband ona
u is
te pec
Ġprim arias
Ġher Ã¡l
ĠAs i
Ġselec cion
Ġlibre mente
Ġ185 3
Ġ185 8
cla tura
ĠAnti gÃ¼edad
Ġconquist Ã³
Ġinterac ciones
ĠmÃ¡r tir
s che
ĠL ind
to g
Ġo dio
ir ÃŃa
uev o
Ġorganiz ados
ĠOc tubre
Ġtestimon ios
D R
u ve
on na
an ÃŃas
Ã± ada
vi ese
ten siÃ³n
ĠdÃ© cimo
Ġplas ma
Ġaeron aves
ĠAs c
Ġval iÃ³
Ġincluy eron
Ġcir cula
Ġposi tivos
Ġcelebr aron
hat tan
p ta
on tes
ĠR ap
ĠG l
ĠCon tr
Ġsin Ã³nimo
Ġpla tino
Ġrepresent ados
Ġmer ca
ogrÃ¡f ico
N a
O C
Ġto x
ĠCu p
ĠIs landia
Ġsens ible
Ġsome tido
ĠArg umento
V A
ĠG eo
Ġvis ibles
Ġmor tales
ĠHer z
Ġlim pieza
Ġreun ieron
Ġacce de
Ġcui dados
Ġun ida
Ã± ones
ĠN Ãºmero
ide a
tin es
Ġgra cia
Ġbus can
rÃ³ polis
Ġnues tras
Ġingres ar
Ġinca paz
ĠAnte cedentes
ĠCora zÃ³n
I NE
ĠDe v
Ġtan tas
Ġvia ja
Ġ184 4
Ã ¦
di stas
Ġh ind
ta bles
ĠM Ã³n
Ġb Ãºl
ĠB and
Ġmon itor
ĠÃ¡n gulos
ĠLeg iÃ³n
Ġnervi os
Ġdemocr Ã¡tica
d Ã¡n
p adas
s ig
ĠL lam
Ġest andar
ĠG and
Ġcas tillos
ren ce
ĠdepÃ³s ito
Ġaltera ciones
Ġse ver
Ġin al
at lÃ¡n
Ġhici era
Ġpreci p
Ġemig raciÃ³n
Ġdes vent
uc tores
Ġestable cen
ĠSud americana
ĠSpi der
ĠEvangel io
Ġdevol ver
u v
ci ares
di miento
at t
Ġtan ques
ĠCas tel
Ġestable cidos
Ġmus cular
Ġcru za
Ġestad ÃŃsticas
ĠEnter tainment
Ġb eta
Ġman e
ĠAr ena
Ġresul tar
ĠBas ÃŃlica
ÃŃb ano
ĠEspar ta
n ell
Ġexten dida
Ġmanus critos
ĠParro quia
ĠF ila
pos a
Ġcaracter ÃŃsticos
Ġante cedentes
ĠHar ris
Ġproto col
ĠAmeric ana
an im
ras s
so via
Ġrealiz arse
ĠLu cio
Ġestable cidas
ts u
ĠSa k
Ġw idth
cin to
Ġtard ÃŃo
Ġmara vil
Ġcon taban
Ġpermi ti
Ġestre ll
Ġinstal ado
â ĪĴ
ĠD ul
Ġres umen
ĠGu aya
Ġefec tivos
Ġtempor ales
Ġejempl ar
Ġdesconoci da
ĠGi us
Ġcodi fic
ĠPicas so
Ġam iga
Ġcas ta
Ġconf ron
Ġcat Ã¡logo
Ġimpuls Ã³
Ġf ara
ĠA fr
ĠM Ã©ndez
Ġd ona
Ġno dos
Ġj uda
Ġas pira
eci miento
ĠMedi ante
Ġsens or
Ġfres cos
ax aca
Ġab uso
Ġ16 00
Ġmer cen
ola te
ĠPas eo
Ġparlament aria
er al
Ġin esper
ĠT um
Ġcomun ismo
ĠSo und
ĠPla tÃ³n
ĠhÃŃ gado
Ġmaci zo
ĠLud wig
ul d
ĠHar vard
Ġsindica tos
Ġtrans cripciÃ³n
ĠOr ganiz
Ġcir ugÃŃa
Ġtermin ales
Ġfron tal
ĠDo wn
Ġ185 5
Ġurban izaciÃ³n
Ġreflex iÃ³n
Ã©rcol es
la yo
vi erno
Ġna cida
Ġco her
ĠMag no
ĠEliz abeth
Ġofici o
Ġtri logÃŃa
ĠBel lo
Ġcerem onias
Ġasi Ã¡tico
Ġortodo xa
c ana
Ġl echo
an desa
Ã³ fica
Ġcon tienda
tar ra
Ġespeci alizados
Ġrela tividad
Ġdisposi ciones
Ġsier ras
Ġdiagnos tic
Ġsu pl
Ġin Ãº
ĠF Ã¡
pa ci
ĠN ad
ĠO TAN
ens os
Ġ7 3
Ã³g ico
ĠOr g
Ġqued arse
Ġrecor rer
Ġrode an
ĠWa ter
ĠAthle tic
ĠP ia
Ġdi aria
ĠCon vento
Ġmon Ã¡rqu
Ġcomple mento
Ġinici ada
Ġpun tas
Ġgen Ã©tico
Ġ184 9
Ġprepar ado
Ġrecom ienda
Ġobliga torio
ĠRecon oci
ĠCarre tera
ci stas
ÃŃ ritus
ĠL em
ĠH ell
oc eno
ĠAn tÃ³n
Ġcos ech
Ġliber ar
Ġintegr Ã³
ĠVi vi
Ġincur siones
Ġaque llo
Ġuran io
D C
Ġb Ã©isbol
Ġmon umental
Ġescri biendo
Ġ7 8
Ġpes ado
Ġgan ancias
ĠmÃ¡ ximas
Ġ% ,
Ġdescub rieron
Ġpi la
195 9
ĠfÃ¡r macos
ĠBelg rano
I talia
on ada
ic ular
que Ã±a
Ġtan go
Ġimp ac
ĠQue bec
Ġl ana
tor rique
ĠV ig
ens on
Ġ9 7
Ġfal la
Ġdedic arse
Ġocur ren
193 6
Ġcritic ado
ĠolÃŃmp ico
Ġdiscur sos
ĠArch ivo
Ã Ł
ĠH omo
Ġpr ÃŃncipes
za Ã±a
Ġab er
and y
Ġmer curio
Ġfavor ables
Ġdese aba
Ġaman ecer
l ina
Ġl on
lo t
ĠRe la
Ġbas an
Ġconven cionales
b gcolor
el los
vi ra
ĠO cho
ĠK or
Ġsegu ÃŃan
Ġagu da
j ug
ĠCar ol
m ia
m Ã¡ticas
Ġt onos
Ġn ÃŃ
ĠMar is
jer ÃŃa
Ġ13 0
Ġgal erÃŃa
ĠAntÃ¡r tida
ĠSÃŃmbol os
Ġt est
um ent
Ġca uce
Ġcin tas
âĢĻ )
Ġpractic ar
ĠJaco bo
Ġt ig
ĠC ano
Ġre di
Ġser piente
Ġte la
Ġnom inal
Ġgra vemente
ĠPr Ã³
Ġarro yos
m ones
Ġla zos
it ora
Ġform atos
Ġapo ya
Ġpan demia
Ġescu dos
Ġvivi endo
Ġce diÃ³
Ġdram Ã¡tica
ĠPrin ce
i ya
w itz
en ne
st yle
ier ras
Ġpes ada
ĠCampe Ã³n
% ).
p ic
Ġinf i
Ġnatural ista
ĠHa itÃŃ
Ġmonta je
Ġorg Ã¡nicos
Ġaflu ente
Ġsuger ido
ĠdiscÃŃpul o
Ġm osa
Ġh ilo
Ġn erv
ĠR Ã¡
Ġconf luencia
ĠGo ogle
Ġluch ador
ĠHol anda
Ġmicro organ
Ġterror ismo
ĠAlcal de
Ġlum inos
Ġagricul tores
ĠMÃ³n aco
G u
an tÃ¡n
Ġcontinu amente
ĠBill y
ĠEstad ÃŃstica
Ġingre dientes
Ġp ino
Ġg lu
tu la
Ġter cios
ĠÃ ł
Ġaplic ada
Ġestim ada
Ġmanifes tÃ³
Ġdeten ciÃ³n
Ġdesemb oca
ĠFerr ari
f is
Ġref riger
Ġcaracter izÃ³
ĠAre quipa
ĠDesta can
Ġproxim idad
B O
Ġac ento
min as
Ġpas aje
Ġgener ando
ĠDo cum
Ġ184 3
ĠBern a
Ġlegisla tura
Ġcontrad ic
D F
Ġg all
Ġd ucado
Ġmun dos
Ġseg uros
itor io
Ġ184 6
Ġdec ora
Ġcu Ã¡l
ĠMe ta
Ġplan tilla
Ġcomp rim
Ġfabric ar
Ġfrag mento
Ġadolesc ente
Ġc is
ta bl
Ġre vi
to v
car ia
Ġdirec tiva
Ġprovoc aron
Ġvolver ÃŃa
ĠCr ÃŃtica
ĠVar sovia
Ġdeterior o
ĠBroad way
s ecciÃ³n
Ġdes igna
Ġch eco
Ġubic an
Ġveci n
ĠElec toral
way s
ĠÃ¡ngel es
Ġexhibi ciÃ³n
k ers
di g
ĠB abil
ĠEn g
Ġmay a
Ġtr ompe
ĠMan hattan
ĠSo ftware
Ġsignifica tivos
Ġinspir ada
Ġenf ri
Ġpresidi do
Ñ Ĥ
Ã© ticamente
Ġes lo
ĠF lam
Ġci fr
Ġcab les
Ġ8 2
Ġplen amente
c ad
É Ļ
ĠO axaca
ĠSan tuario
Ġllam as
ĠSec tor
ĠPers ia
Ġocta va
c ock
f us
Ġb ea
pi Ã©
ĠCar ter
Ġbas Ã³
ĠJer sey
Ġhabl ando
ĠEstad ÃŃsticas
ĠÃļl timos
Ġe res
ĠB jÃ¶r
Ġex termin
ĠBar ra
Ã¡m enes
Ġ185 2
Ġsustitu yÃ³
ĠAnd y
Ġoper adores
Ġaprovech ar
ĠlÃŃqui dos
Ġinci dencia
Ġdibuj ante
t arias
t Ãºa
Ġsu puesta
Ġv s
Ġal gebra
ĠF emen
Ġpos guerra
ĠY am
Ġsal va
Ġseg mentos
ĠCÃ¡r denas
h id
ĠD J
ĠF uego
ĠN unca
Ġbas ÃŃlica
Ġrespec tivas
Ġsuces ivamente
Ġpron unciaciÃ³n
Ġran king
ĠMÃ¡ ximo
Ġestall ido
ĠVo z
Ġproli fer
6 00
ĠV itoria
tra c
qu io
Ġ9 3
ĠPal mas
Ġta quilla
Ġfinaliz a
Ġhem bra
Ġsubmar inos
idar idad
ĠGius eppe
R C
ĠRe bel
Ġven ido
Ġcur vas
Ġpuntu aciÃ³n
Ġdel iber
ĠP Ã©r
Ġmo toci
ĠK un
ĠCar m
Ġah or
Ġproducir se
Ġrecopi la
ĠF ili
ag le
Ġinm ensa
Ġentrev ist
ĠG im
Ġem piezan
Ġtrans mite
Ġembar c
olu tion
Ġreco ger
Ġinfl uido
Ġfarmac Ã©
ĠtelÃ© fonos
y th
Ġ å
Ĥ ¬
Ġa eropuertos
ti erra
ĠU SA
Ġus aron
tiz ado
Ġvesti gios
Ġdestruy Ã³
u o
ĠC Ã©
ay e
Ġcons ulta
ĠCal vo
Ġgobern ar
Ġinten ciones
ĠLib ros
ĠPos e
Ġimper iales
ĠIb n
ĠSala zar
Ġde ba
Ġl ech
Ġun ificaciÃ³n
Ġv am
Ġconse jero
ĠInvesti gaciones
Ġinfec ciones
p x
t entes
Ġc itar
Ġden s
Ġresul tando
ĠDa ve
Ġreun irse
Ġacom paÃ±a
Ġarag onÃ©s
Ġembara zo
a torial
z ig
Ġel ef
ĠF ul
ĠHer ac
Ġproduci das
Ġconec tar
Ġsedi mentos
Ġestr ena
Ġemper atriz
Ġest ri
Ġno tar
Ġj ueves
Ġcar tu
aliz ando
val os
Ġdeb ilidad
ĠHo uston
Ġcompu taciÃ³n
bili ario
ĠAtlan ta
c c
n ica
Ġp icos
Ġpar ada
Ġd aban
ac ciones
Ġdes cal
lan ca
ĠK iev
Ġespeci alizado
ĠPro f
Ġfer mentaciÃ³n
ĠSud Ã¡n
ĠVill ar
Ġm io
Ġf ina
ol s
Ġal gas
Ġca ÃŃdo
oci dio
Ġmay ormente
Ġtrad ucciones
uf re
Ġprom esa
ĠtÃ³ x
Ġradia c
ĠS tad
tr Ã¡n
ĠIn d
Ġban dos
Ġedi ficaciones
Ġcomple tas
cent r
Ġrefle jo
Ġdefens as
Ġdispar o
Ġentrev istas
Ġadolesc entes
Ġcen izas
ĠLic eo
es pa
ĠCon ci
Ġterri ble
dal e
ĠOl iver
Ġconquist adores
Ġprevi os
Ġlider ada
Ġconse jos
ĠGlo bo
f Ã³n
x os
Ġnom en
pen dic
ka i
Ġhor ario
Ġdeman das
onces to
Ġbombar de
Ġfras es
Ġvendi dos
Ġtelecomun icaciones
U R
pl ano
Ġ183 9
Ġisl Ã¡mica
Ð »
Ġre ptiles
ĠIn quisiciÃ³n
ing a
Ġgra mÃ¡tica
Ġmuer en
ĠPa tag
ĠPer u
Ġqued aban
ĠHer bert
Ġmad urez
a w
ĠT ajo
ing ham
tur ado
Ġdest inadas
Ġher edi
Ġ7 1
ĠMa tem
ĠAu ton
Ġvis uales
ĠseÃ± ora
Ġmas acre
Ġconven ciÃ³n
Ġnego ciar
ĠGobern aciÃ³n
Ġcostarric ense
ci u
ĠE usk
ĠH og
Ġentre gado
ĠIs lam
ĠAc uerdo
Ġarte f
ort un
Ġtabl ero
D P
Ġcon gel
ĠA riz
Ġb ul
pi re
bur n
Ġ184 7
Ġvan guardia
Ġcorpor a
v inas
ci ll
ĠF os
ĠW y
Ġsin cron
Ġenerg ÃŃas
Ġburgu esÃŃa
ĠGuaya quil
u ter
ĠG loria
tin al
Ġsec uela
Ġpes te
ho ven
ĠDo om
ĠPri mo
F S
Ù Ħ
Ġa venidas
ĠA N
Ġg re
ĠSol ar
ĠdiseÃ± ados
ĠdÃ© biles
ĠEstudi o
ig ra
ĠB ry
ĠJ i
ante Ã³n
Ġcompar tido
ĠGra ham
ĠClas e
Ġtrayec to
Ġdisper siÃ³n
ĠsÃ©pti ma
Ġdecis iva
Ġparroqui as
ĠArro yo
ÃŃ tro
di vers
ec erÃŃa
gu in
Ġpo tasio
ĠCl inton
agn er
Ġfuncion an
Ġep ÃŃ
Ġsos tener
Ġoblig aciones
Ġmanif est
Ġlin aje
ĠNorm andÃŃa
Ġdemo grÃ¡fica
Ġimpi de
ĠvÃŃn culos
ĠC N
id urÃŃa
Ġdivor cio
Ġespectac ular
Ġb ach
lo ck
ay as
ĠDe uts
pro ces
ĠÃī poca
Ġdispon er
anti cismo
ĠUl tra
Ġbril lantes
uev ara
Ġapro bar
ry s
ĠRa im
Ġrebel de
ĠDist ribuciÃ³n
Ġemo cional
Ġa zar
or ient
Ġas em
ĠSon ora
Ġestima ciones
Ġgras a
Ġprior idad
ĠO di
ĠQ ing
Ġperman ecen
ĠLib ia
Ġdu plic
ĠMal asia
Ġocta vos
Ġrefuer zos
Ġsal ario
Ġ9 2
Ġperman ecieron
Ġacus Ã³
ĠaÃ© reas
Ã ½
is cos
ana to
dr ico
Ġni ega
val le
ĠMo is
Ġinc re
Ġbo de
Ġestu viera
Ġinstr umental
Ġrendi ciÃ³n
Ġinterme dio
ĠE mi
Ġal berg
at ina
Ġcar ros
ven en
vier te
ĠBen edic
Ġestad ÃŃstica
Ġremon tan
ĠRepres ent
C P
re t
ĠM ez
Ġor quÃŃ
Ġmar ciales
Ġsal do
Ġcent ÃŃmetros
Ġsue ca
ĠRos e
Ġsignific aba
ĠRevolucion ario
Ġc oc
Ġd uros
iz aba
ĠO m
Ġpresent ador
Ġfig uran
Ġincendi os
Ġferrovi ario
in iano
di tos
Ġprim or
Ġmon as
Ġperten ecÃŃan
ĠDem ocracia
Ġfru ta
ĠÃĵ r
ĠVel Ã¡zquez
Ġmostr aron
ĠPascu a
om ag
ĠE g
ol or
ac tor
ĠPa ula
uda ciÃ³n
Ġbor des
ĠInstitu te
Ġinfl uyÃ³
Ġpros titu
ĠGi jÃ³n
y an
Ġp ionero
ĠC enso
Ġv ano
po tam
Ġman to
ĠAn teriormente
Ġanti sem
Ġat entados
196 1
Ġenc aj
195 5
Ġlevan ta
Ġprosper idad
G C
er t
Ġse ll
ĠF ray
vi ado
ĠI ber
ans as
ĠJer ez
Ġcruz ada
Ä ĵ
Ġinflu enciado
ĠPal marÃ©s
Ġinfan tiles
Ġenv ÃŃo
Ġconsol idaciÃ³n
ĠBabil onia
ro e
Ġn u
Ġas iento
Ġabandon aron
ĠSta nley
Ġcrim inal
Ġprimi tivo
Ġmanio bra
Ġun idas
ĠL ÃŃbano
ĠT iro
Ġper for
ĠAle mana
Ġsegu imiento
ĠFer rer
ĠEsp ÃŃritu
Ġvence dor
ent ina
Ġdi mi
Ġdes esper
aj ero
Ġpr us
Ġca fe
lam os
Ġmodific ado
ĠfotÃ³ grafo
Ġm entales
Ġf oco
ti ta
Ġre ab
Ġcom ando
ch ar
Ġinde fin
Ġcicl ismo
Ġestall Ã³
ĠcÃº b
ĠPach eco
g ÃŃa
s ub
ĠM ega
ĠD ich
ĠV igo
Ġcan cha
Ġ8 1
Ġdeclar ar
ĠEm pres
Ġ182 9
ĠInf an
ĠMass achusetts
Ġlad rillo
v ÃŃas
v ora
ĠB ull
us cos
Ġcal ifa
ĠTer ra
195 7
Ġhabla ba
Ġtemp ran
Ġeduca tivos
Ġemble ma
Ï ħ
Ï Į
Ã³ tica
ĠC it
Ġg lor
Ġd orado
Ġtem bl
ĠBar ry
ha i
igui Ã³
Ġbolivi ano
al istas
Ġper d
Ġdist or
dera ciones
Ġdem ues
ĠClub es
ĠmetÃ¡l ico
Ġrepos o
Ġecos istemas
Ġdescont ento
ĠJama ica
Ġin min
Ġplan taciones
Ġgobern adores
ĠSuper copa
Ġapr ueba
ĠTro ya
ĠPrinci pales
Ġgalard onado
ĠHora cio
bour ne
ĠS ap
to x
ĠD iÃ³
den omin
Ġev itando
Ġservi do
Ġempres arios
Ġdispon en
Ġafirm ando
ĠPÃºbl ico
T R
ĠC ientÃŃf
Ġpue do
Ġreci bida
Ġcolec tiva
Ġdesign Ã³
Ġexclus ivo
Ġadh esiÃ³n
ĠResul tados
in k
ĠE th
ĠC ÃŃv
Ġreson ancia
ĠMar quÃ©s
ĠDe le
Ġsal vador
Ġra pidez
Ġ7 9
ĠMon gol
Ġasc endiÃ³
Ġartes anos
ĠMic ro
Ġde fecto
Ġm ina
ĠC risis
ĠS lam
ĠG oya
dos o
ÃŃn ica
str ong
Ġint entando
ĠCampe onatos
Ġtea tros
Ġgratu ita
de Ã±a
ĠB ack
ĠF rÃŃa
Ġdes gas
ĠCom is
Ġdef endiÃ³
ĠSuper man
Ġcompon er
m ales
ĠT oma
ĠEst aba
ĠCom ics
ion ista
Ġlim ÃŃtro
Ġsolici tar
ieg ue
Ġsu mar
ĠH imno
ĠYo ur
ra ft
ĠL P
Ġb ron
ĠR Ã©gimen
ĠCh al
Ġdeci den
Ġefec tivamente
Ġarm adura
Ġbol sa
Ġescal era
Ġaprovech Ã³
Ġhistorie ta
g rupo
p tos
al ta
ri x
Ġest ables
Ġb it
at z
co ta
ĠK i
ĠK as
ĠCo pas
Ġllev ados
ĠBal oncesto
Ġtoc ando
Ġalcal dÃŃa
Ġarist ocracia
ĠPir ineos
U N
Ġm ent
ĠB est
ĠG es
ĠG uevara
ĠEs cal
Ġmin isterio
ĠSoci ales
Ġrem ol
Ġhabl Ã³
Ġpreh isp
ĠBÃ¡r bara
h ad
n ec
ĠF idel
Ġca en
Ġcontra tado
Ġestruc turales
ĠCla usura
ĠmÃºlti ple
Ġotom anos
Ġestr Ã©s
Ġcotidi ana
T I
t ten
ĠC res
Ġb ola
ĠAl fa
acter ia
form e
Ġhidro elÃ©ctr
Ġembaj ada
C or
n eros
Ġe ri
Ġca os
Ġver b
Ġri ego
Ġexten siones
ĠCat Ã³licos
ĠPon ce
Ġtera pÃ©
Ġanar quista
Ġatmosf Ã©rica
w o
Ġcre adas
Ġtermin ando
Ġperfec ta
Ã¡zar o
Ġrean ud
i tiva
la y
Ġsus pen
Ġpresiden ta
gar os
Ġvo tar
Ġsignifica tivas
ĠHar rison
Ġsecund arias
Ġase gu
Ġdoctor ado
ĠSor ia
r adores
Ġs un
ĠA Ãºn
ĠK Ã¶
Ġpon en
ĠDel gado
Ġamena zas
Ġprogres iva
Ġnoctur no
Ġs p
Ġm ales
ti res
Ġin er
ĠP lu
po ol
if ato
cul tura
Ġsim Ã©
Ġcontrol ado
Ã¡ce os
Ġdecis ivo
andes es
h as
os idad
Ġm acho
Ġv oy
ĠN iger
Ġtra er
Ġestudi ado
Ġcos tes
Ġtri ang
Ġviol enta
Ġelabor ar
Ġresta urante
ĠArm ando
Ġbre ves
Ġexplic Ã³
Ġabol iciÃ³n
ĠSatur no
V ID
Ġpol i
ĠCas s
Ġ183 8
Ġferro carriles
ĠIngen i
ĠJord an
Ġgua temal
Ġinfr arro
al to
di ci
Ġper pendic
Ġte tra
Ġcapital ismo
Ġinst antÃ¡n
Ġinm ers
Ġconce de
Ġ182 8
ĠBri tish
Ġbol chevi
Ġavanz ado
Ġplante a
Ġdispar os
Ġremo de
---- ----
Ã³ xido
Ġpor n
Ġar bust
19 30
Ġnom inaciÃ³n
ĠMon tre
Ġne w
Ġtub os
ĠWh it
ĠTradi cionalmente
on iales
ci ble
do este
ĠM inas
Ã¡l tico
Ġba Ã±o
Ġposib il
Ġmagn Ã©tica
Ġfacil ita
Ġexcep cional
Ġexpuls ados
Ġflam enco
ĠLaw rence
ĠaustrÃŃa co
ĠPompe yo
Ġde bida
Ġcons orte
Ġinter venir
Ġedi tÃ³
ĠCre aciÃ³n
Ġproto tipo
ĠIb ero
zco a
ĠBenjam in
a te
z ona
Å Ł
ĠA L
Ġan cha
ĠGener ales
ĠTa k
Ġmec Ã¡nico
Ġadap tado
Ġll ano
ĠautÃ³n omas
ave dra
J os
Ġam antes
Ġna cieron
duci da
Ġtal lo
Ġsepar ar
Ġbr ind
Ġnutri entes
ĠAlm erÃŃa
C as
l f
in aron
ĠT ir
Ġmon arcas
Ġveci nas
ĠUr ban
ĠTro feo
ÃŃv oros
ĠteÃ³r ica
Ġcuen cas
Ġcons ulado
Ġ8 9
ĠSal om
ĠSar miento
Ġmane jar
M on
p ensa
gu laciÃ³n
Ġres e
Ġsur core
Ġgen til
Ġreconoci das
Ġincorpor ado
195 3
Ġnar raciÃ³n
Ġcon cil
Ġh arÃ¡
ĠV oy
ch u
Ġti ra
Ġsim pa
Ġpal m
ĠSa avedra
Ġdin osaurios
Ġperu anos
Ãºr gica
ui to
ĠV ice
s y
is bol
ĠRe par
ĠW alla
ĠDe ath
Ġtan ta
Ġcer tamen
ĠLiber tador
Ġaplic ado
Ġadministra tivos
Ġcria turas
Ġe dades
al les
Ġcon vi
ĠC ueva
Ġex ci
Ġalcal des
er mo
ĠI an
Ġcu ri
pec u
Ġsur re
Ġpal o
Ġcontrib uir
Ġfantas ma
l on
t ancia
ĠE t
Ġd ados
ĠCom par
Ġ8 7
Ġcumpl iÃ³
Ġdefini ciones
poner se
Ġgla ciares
ĠJon athan
ĠMiem bros
Ġemp ÃŃr
Ġpant anos
H e
an dos
Ġre bo
im b
Ġna tivo
Ġfru str
Ġincon ven
Ġprecur sor
f oro
n ico
w ald
ar res
Ġser bio
Ġpre j
Ġenfer mos
ĠrÃ¡pi dos
Ġatrib utos
Ġincrem entar
Ġic on
Ġmelo dÃŃa
ĠÃįn dice
Ġpre venciÃ³n
ag os
ag Ã¼
ĠAr chi
ĠMor elos
Ġ182 6
Ġpul gadas
Ġconcl uye
Ġadolesc encia
ĠEnfer me
ÃŃng uez
d icaciÃ³n
ĠS ign
vi amente
Ġca vidad
ĠEs o
ÂłÂł Âł
ach i
ĠPo kÃ©
Ġayud ante
pren der
Ġinmedia ciones
u ad
ĠO mar
Ġred onde
vent ura
Ġvac aciones
Ġjorn adas
ĠEspeci es
avi ones
om ar
ran ge
ĠT ren
Ġmis ioneros
Ġmin ister
vir tiÃ³
Ġemple ada
Ġintro duc
Ġdistrib uidos
pÃº zcoa
Ġen se
ist entes
ĠT emp
ĠD ir
ĠH ig
Ġac antil
ĠCor onel
Ġconsum idores
Ġsil en
Ġsang ri
ĠArm strong
Ġculmin Ã³
Ġacerc amiento
ĠLle gÃ³
Ġpala cios
us ive
Ġar cilla
Ġha z
ĠSan d
ĠMar ino
Ġinst ancias
Ġpens amientos
Ġesper ando
Ġ183 1
Ġproporcion Ã³
ĠFre ud
ĠBr uno
ĠDu bl
Ã¤ n
Ġproclam ado
Ġvar Ã³n
ĠIncl uye
Ġdiscur re
. Â°
Î ¬
Ġlo cu
Ġinv ern
Ġcos tado
Ġindustri alizaciÃ³n
Ġarro j
ĠApar ece
Ġcompati ble
h ora
Ġla deras
Ġen venen
ĠC ier
ter res
Ġres ide
ga te
Ġmin era
int ana
ĠFu j
Ġemi tido
Ġinteg ridad
re v
ĠV eg
Ġser io
Ġmon je
Ġdirec tos
ĠLu go
Ġperio d
Ġperten eciÃ³
Ġfuncion ario
Ġeduca tiva
Ġantic uer
Ġempla zamiento
Ġucran iano
ocol mo
ĠR eno
Ġresul tan
ĠMo z
Ġmez quita
Ġexig e
ĠProtec ciÃ³n
m undo
Ġla tinos
Ġre li
tr Ã³n
ĠH ome
Ġvari ada
Ġinterpre tando
Ġperman encia
Ġ184 1
Ġsum Ã³
Ã³rm ulas
ĠChia pas
g oles
Ġa porta
on go
in erÃŃa
ĠA man
Ġv ill
Ġma te
tan to
ĠGo do
Ġsepar Ã³
Ġabier tamente
Ġespir al
ĠaminoÃ¡ cidos
Ġc oca
ĠEl ÃŃas
ma to
19 50
ĠK ey
uch es
ach t
Ġat lÃ¡n
Ġsuces ivos
Ġasign ado
Ġfel icidad
ĠMois Ã©s
Ġc ÃŃv
Ġp Ã³l
ci co
Ġh as
ĠF en
ĠI tur
Ġper cusiÃ³n
Ġha ga
Ġcer ros
ĠCam pus
Ġhermos a
Ġgradu Ã³
ist ra
Ġpas ajes
Ġedi fic
Ġatle tismo
ĠvÃŃn culo
m Ã¡ticos
u Ã³
am inas
ĠP las
ĠCor poraciÃ³n
lig a
ĠolÃŃmp ica
Ġretro ce
Ġtoler ancia
Ġh uracÃ¡n
ĠS car
ĠM elo
ĠB M
amo to
Ġdescubier ta
Ġatle tas
Ġprecur s
e u
er Ã³n
es tes
Ġn ic
Ġsub especi
Ġart ÃŃsticos
Ġop tÃ³
Ġselec cionado
ĠAb ril
Ġdific ul
Ġautom Ã¡ticamente
Ġdieci ocho
Ġbater ÃŃas
u ado
v ig
ĠS oy
Ġto que
Ġres urg
uel tos
Ġampl ios
Ġaz ufre
Ġfinanci eras
Ġanex iÃ³n
Ġhin du
Ġrefor zar
ĠPatr ick
F I
à ¦
al ÃŃa
am pe
Ġres tante
ĠIn do
Ġna tiva
ĠK elly
Ġtr ic
Ġdej aba
ĠBe et
Ġmag ne
ĠautÃ³n omo
Ġcil ÃŃn
ĠMÃ¡r quez
) )
c eno
Ġsu ple
em ento
ĠF ro
ĠÃģ lava
ĠBal e
Ġpec ado
ĠÃģlbum es
Ġt ari
ĠMo delo
ĠÃ³ peras
ĠTrad ucciÃ³n
á ¹
Ġno veno
ur ados
Ġllam aban
Ġ8 6
Ġl Ãº
Ġg ase
Ġb eso
ĠSe is
Ġven eci
Ġdirig ÃŃa
ĠCent enario
Ġadop tada
Ġnav ÃŃo
ĠÎ ²
ĠmontaÃ±os a
Ġantepas ados
M i
ĠD ivers
ĠDie z
Ġopon ente
Ġp H
ĠB adajoz
ĠG iro
ĠO z
ĠAr k
Ġestudi an
Ġguitar ras
iber ia
Ġrar amente
ĠlÃ¡s er
Ġque ma
Ġal mas
Ġdes ciende
ĠK y
ĠGran t
Ġbe ber
Ġfuner al
S E
ĠN eo
Ġ17 89
Ġsub con
ĠEuro visiÃ³n
bier ta
Ġgen Ã©rico
ĠGal ia
Ġencar gados
Ġdirector a
Ġlong itudes
195 6
oche t
Ġhistorie tas
ĠLitu ania
ĠIn t
man uel
Ġten or
tic ul
Ġestudi antil
ĠCan del
ĠlÃŃ rica
ĠHo o
ly n
ĠdÃ³l ar
Ġafirm aba
ĠJohan nes
Ġparlament arias
Ġhabita ciones
Ġn acen
Ġb ala
ĠH ue
ĠO st
Ġr icas
Ġr aras
ĠIn Ã©s
Ã©r cules
Ġgener alizada
ĠX a
Ġperten ecer
vers a
ĠprÃ³ ximas
Ġes la
cion arios
ĠEl lo
ĠV erg
ĠIn vierno
Ġexist iendo
Ġcr om
ĠSal ta
Ġcontro les
ĠNe ws
Ġital ianas
Ġfis cales
Ġreconoc en
Ġparlament ario
cl as
Ġfe deraciÃ³n
ĠMunicip alidad
Ġexcel encia
Ġpreserv ar
ĠlÃ¡g rimas
t la
Ġa ver
Ġh ep
ĠS O
ac tualmente
Ġex tienden
Ġmedi terrÃ¡nea
Ġ14 0
ĠMus sol
ĠFeder er
Ġalmacen ar
Ġdescrip ciones
Ġdesinte graciÃ³n
ĠJour nal
ĠNiger ia
ĠC ÃŃrculo
ĠS aba
ĠP elo
ĠB uen
Ġcu anti
Ġconf es
Ġapo geo
ĠHer mann
Ġconfirm ado
ĠsÃ³l ida
Ġemis oras
Ġteles copio
potam ia
z h
Ġest arÃ¡
ĠD ub
Ġcontin Ãºan
ĠEx pedi
Ġases inar
Ġpuer torrique
Ġbe isbol
Ġfracas Ã³
ĠMaur ice
ĠA vel
Ġan Ã¡
pl er
Ġnombr ados
Ġep ic
Ġdispon ÃŃa
sen al
Ġdesf ile
Ġauxili ar
Ġpolici al
ĠglÃ¡n dulas
ĠCorri entes
U A
ĠL Ã¡zaro
Ġdis puestos
ier i
Ġfor tific
ĠTor onto
Ġsem illa
Ġce der
Ġegip cia
Ġterc eros
Ġimpor taciones
Ġpales tinos
Ġc itada
Ġm uebles
ĠE u
Ġsistem Ã¡tica
ĠCu al
mon t
Ġgri to
ĠLin col
Ġneer landesa
Ġacerc arse
Ġregu la
ĠMussol ini
ri era
ĠF ama
ĠV it
Ġsi ti
Ġform ales
Ġactu ando
Ġfavor ito
Ġsimil itudes
Ä ĥ
Ġin cidentes
Ġcom a
Ġd ud
ul ia
Ġtr om
Ġsecre tos
Ġtama Ã±os
Ġdig es
ĠGol den
ĠCaball eros
Ġsubmar ino
ĠNet work
h ay
Ġ ×
Ġa du
Ġin se
ĠH im
ĠU SD
ĠCon c
Ġman ch
Ġmar ro
ĠEx tra
Ġcontinu as
Ġras go
ĠaÃ±ad iendo
ĠMetro politano
Ġsubs idi
Ġtran qu
ĠLy on
Ġincom ple
Ġperpe tu
Ġprofun dos
Ġgluc osa
ĠJal isco
l us
on mano
ĠE je
Ã¡ us
Ġo cio
it arse
Ġcu bren
Ġex pone
tiv ista
ari ana
Ġmuer ta
ach er
ĠLu igi
Ġmic rÃ³
ĠteÃ³r icos
Ġimplan taciÃ³n
Ġdign idad
Ġdiscrim inaciÃ³n
Ġsimpa tiz
Ð ²
in cu
Ġd Ã¡ndole
and re
Ġliber tades
Ġdomin ado
Ġfra ude
ĠNatural eza
Ġsof ist
Ġtam bor
o ides
s ado
im ent
Ġlo gro
ele c
ĠDel ta
ĠGer ardo
Ġsome tidos
Ġparal elos
Ġexter nas
ĠPron to
ĠF itz
ĠN O
Ġsec ular
ho use
Ġconstitu ir
Ġbal Ã³n
Ġincorpor ar
Ġcome di
Ġtum or
Ġnar iz
Ġrevolucion aria
ĠlÃ³g ico
Ġatrac tivos
Ġpura mente
Ġhier bas
p is
Ġen ormemente
Ġcre cido
Ġsuperior idad
que o
Ġt ern
om io
ĠA us
Ġb izan
cion an
Ġpre c
ile a
Ġautor a
Ġnega tivas
rie to
Ġcay eron
Ġcritic Ã³
ĠSp ace
Ġolvi dar
Ġconvoca toria
r erÃŃa
Ġa tre
ĠS ad
ĠT itan
ĠK ara
ĠEqui po
Ġfores tal
divers idad
I M
ci p
ĠL ombar
ve laciÃ³n
Ġden uncia
Ã³r icos
Ġproces adores
Ġbar b
Ġmoder ado
Ġhon ores
Ġacce diÃ³
ĠReci biÃ³
Ġaeron ave
Ġadyac entes
M us
Ġcor t
ros a
Ġapar tado
diÃ³ s
ĠMan comunidad
Ġestable cÃŃa
Ġlig ada
Ġincor rec
don ado
Ġemo ciones
Ġbicicle ta
C ap
Ġ ÃŃ
ĠM ala
Ġcre cen
Ġfu turas
Ġdesarroll adas
Ġdu reza
Ġlabor ales
isco pal
p ino
Ï Ģ
ĠR ang
Ġch ip
Ġentr ado
ĠHar t
ĠBel Ã©n
ĠTol k
aju ato
h istoria
m io
ĠMar gar
ĠSal as
Ġextra er
Ġalim enti
Ġotor gar
ĠÃ¡r bi
Ġinicia tivas
trop ical
Ġvec torial
Ġaceler aciÃ³n
Ġmonas terios
Ġd ragÃ³n
Ġmo dal
Ġcl imas
Ġvari ados
Ġescas as
ĠCoo per
ĠHaw Ã¡i
Ġneur onas
Ġa xi
Ġse mÃ¡n
ĠI bar
Ġdem onio
Ġconj ug
ps ia
ĠRom an
ĠBor ges
Ġasist entes
ĠHam burgo
ĠmontaÃ±os as
k as
z Ã¡n
Ġse quÃŃa
ĠP ed
ĠD um
Ġprim arios
Ġsuf ren
ĠseÃ±al an
ĠDis eÃ±o
ĠgeogrÃ¡f icas
ĠDom ÃŃnguez
ĠEul er
f ig
ĠJ ordi
Ġco ordin
Ġsuper visiÃ³n
Ġrela tivas
ĠSer ra
Ġpi erna
Ġclar os
ĠEp iso
Ġalgorit mos
Ġcalific Ã³
ĠTrabaj adores
Ġmetabol ismo
ti um
Ã± al
ĠF all
ma cia
Ġhom ogÃ©n
ies e
Ġleg almente
Ġasc endido
Ġuru guay
Ġecuator iano
G o
I R
n eg
Ġest amos
ie u
ing rado
Ġmin orÃŃas
ĠMor gan
ĠBer eng
ĠgÃ³ tica
Ġextraordin aria
Ġcaz adores
Ġjuda ÃŃsmo
ĠMongol ia
h Ã¡i
dad ura
Ġcor s
ĠAr ica
ita ble
ĠMun icipios
ĠmÃ¡ ximos
Ġvuel tas
Ġhorm igÃ³n
Ġpropa gaciÃ³n
Ġmodern izaciÃ³n
Ġhomosex uales
ĠMujer es
princi palmente
n istÃŃa
ĠC id
Ġcom arcas
Ġg ros
Ġpre ferencia
ĠCh eca
Ã³r icas
Ġdest ro
Ġconsider aron
Ġdim isiÃ³n
igh ts
Ġempe or
Ġ 00
Ġf ero
me dio
Ġrev ers
ĠQu il
ÃŃl ico
erba iy
Ġdespo bl
Ġdelan tero
P N
Ġf ul
Ġllev arÃŃa
Ġcoinci den
Ġemis ora
P e
n iz
v Ã³
ar me
om ento
Ġpar ecida
Ġdi la
Ġpo table
Ġsus ci
Ġle ve
Ġfal s
Ġconce dido
Ġcay endo
ĠModer n
ĠWat son
ĠOcta vio
V er
Ġp ent
Ġcom eta
ĠIn str
Ġad ulta
ira c
ĠRam iro
ĠOb je
Ġcome tido
ĠcÃ¡ ps
p ha
ti me
Ġh uyÃ³
ĠC ry
im Ã¡n
mo der
por tivo
Ġar ru
ĠK in
ara gÃ¼
man os
tur n
Ġco h
Ġinterme dia
Ġmolec ulares
Ġpreh istÃ³r
Ġpulmon ar
ĠFila del
vi table
Ġ12 5
Ġhabit ada
Ġenc am
194 9
ĠVol ta
Ġconquist ador
ĠHel ena
Ġsel los
ĠFalle ciÃ³
Ġe rÃ³
ĠP ay
Ġas ciende
aliz ador
Ġespeci alizadas
Ġ9 1
Ġvivi do
ĠSil ver
ĠLad y
ĠMeso potamia
Ġc una
Ġsu man
ĠP ico
ĠB es
ÃŃn tesis
Ġvol cÃ¡nica
Ġbal let
Ġdispon ibilidad
Ġcru ci
Ġdesn udo
ĠIndi ana
Ġasturi ano
Ġla dr
Ġpar ientes
pa g
Ġim prenta
Ġcer teza
Ġ6 000
osa urus
Ġlim pi
Ġexplo tar
Ġemi tida
Q ue
ĠL ight
ĠEst able
ĠEst ocolmo
tal os
ĠAr co
Ġlib era
Ġval idez
tivi dades
ĠTer ry
Ã¡st ro
ĠMal vinas
Ġcontrib uye
Ã¨ ne
Ġponer se
ĠAlma gro
ĠCompos tela
Ġenve je
ar en
Ġque chua
ĠT ama
ĠG len
ĠMa de
Ġclasific an
Ġconvers aciÃ³n
Ġelig e
Ġf anes
di ble
qu ino
ĠCar rillo
Ġtrad uce
Ġafec tadas
Ġrum ano
ĠHit ch
Ġtradu cir
ĠTermin al
ĠAdi cionalmente
ĠLug ares
Ġbeisbol ista
el and
Ġres piraciÃ³n
Ġ9 4
Ġorigin aria
cin i
ĠRec o
Ġadap taciones
Ġaten der
ĠÃŃn dices
ĠPremi er
H S
ĠB oc
Ġcu Ã¡
ĠCh ecos
ĠQu inta
Ġlibre to
Ġnego ciaciÃ³n
Ġcromos oma
Ġmorf ologÃŃa
Ġfom entar
ĠmÃ³d ulos
z al
Ġde do
Ġe go
Ã© taro
Ġest Ã³ma
Ġob rero
ĠCh u
Ġcontra tÃ³
ĠCo ok
Ġba iles
Ġagr aria
Ġelim inÃ³
Ġvas o
ĠestratÃ©g ico
Ġsorpren dente
Ġmicroorgan ismos
ĠL ÃŃ
ten iente
Ġcre ÃŃan
Ġlleg aban
ĠMa o
Ġgan adora
194 6
ĠSigui endo
ĠHuel va
Ġb Ã¡r
ĠIn mac
Ġtrans bor
Ġlib ra
Ġempres arial
Ġdisco grÃ¡fico
Ġinteres antes
Ġatrib uido
Ġproclam aciÃ³n
Ã© anos
Ġlo cura
par on
Ġpre fectura
Ġrad i
ĠSon ic
ĠÃĵ pera
Ġnie bla
Ġparal elas
ĠInte ligencia
f ÃŃs
go bern
Ġex acto
Ġem prendiÃ³
Ġinter secciÃ³n
cer ti
ĠPro ble
tiz ada
ĠGra y
Ġtransform aciones
195 2
Ġjue gan
Ġbautiz ado
ti erro
ĠP A
ac ol
Ġale gando
Ġbar ras
Ġ25 00
Ġesp ÃŃritus
Ġtur no
Ġbru to
Ġrep Ãºblicas
ĠHistÃ³r icamente
Ġatac aron
Ġsuble vaciÃ³n
ĠEstu vo
Ġinfi erno
ar ch
ci dium
Ġen m
ÃŃ ble
ĠA ven
ĠM ing
is as
ien s
ĠAl icia
ĠK ant
Ġorig ina
Ġedi ficaciÃ³n
ĠmÃ¡ gico
Ġdoc ente
Ġcolabor ar
enn y
Ġatraves ar
uero a
ĠBeat riz
ĠEspa cial
D O
re e
Ġsu poner
ran d
ĠH Ã©rcules
ĠAl co
ĠpolÃŃ ticamente
Ġfutbol istas
Ġcompr endido
Ġ183 2
Ġreempla zÃ³
Ġparticip ando
ĠGro en
Ġsimb Ã³lico
ĠRepublic ano
Ġhue co
Ġpanor ama
Ġp Ã¡l
or ios
ent in
ĠS iberia
gan g
ĠPor que
Ġgu an
Ġdemos tra
Ġinteres ado
ĠPin ochet
ĠBoh emia
u ke
Ġe terno
in st
ĠL lan
Ġv iz
ĠR id
bre g
ĠW right
udi a
Ġpe ti
ĠCa iro
Ġlig ado
Ġpatr onales
ĠFa ir
Ġconden ados
Ġhuel las
Ġvincul ado
ĠPartici pÃ³
ĠObs ervatorio
A u
Ġp ÃŃ
Ġs Ã³
ĠL ine
ĠB iz
ill erato
Ġint entan
ĠPe ar
Ã³s m
Ġexpan dir
Ġreconstr uir
Ġcumple aÃ±os
Ġfle cha
c anos
Ġde tuvo
an th
di an
uer tas
ĠV ern
Ġpol aca
Ġtermin an
195 1
rÃŃ quez
Ġrena cimiento
P O
ĠL iver
Ġ( ,
ĠAm Ã©ricas
Ġmat ando
ĠReg imiento
Ġorient ada
Ġintegr ados
Ġsalv ajes
Ġalter aciÃ³n
ĠTech n
am po
ĠA rag
Ġv ÃŃs
ĠP ino
ĠN ix
Ġte Ã³logo
li ter
Ġtraslad aron
Ġfis i
ĠlingÃ¼ ÃŃstico
ĠRum ania
Ġisl Ã¡mico
Ġpolic ÃŃas
e i
as tas
Ġs ina
ĠC ayo
ĠG las
Ġj uicios
ĠÃ ĳ
Ġro wspan
Ġpresent ando
Ġmedio dÃŃa
Ġtermin ada
Ġdetermin ante
Ġvig encia
Ġbel lo
ĠPlan eta
Ġeval uar
ĠTecn olÃ³gico
U E
Ġcar ecen
Ġver bal
Ġexist ido
Ġju rista
Ġglo bo
ĠaÃ±ad ido
Ġtub er
Ġnorma tiva
ĠPatri cio
Ġcon gres
Ã© u
ĠG Ã¡l
Ġpara guayo
ĠJ ay
eg al
Ġpre lim
Ġ3 60
br ico
ĠTo wn
Ġpose ÃŃan
ĠEduc a
Ġrendi r
is hi
Ġb ack
ĠD inastÃŃa
se e
ĠO br
Ġab uela
ĠPar ra
Ġrefer ido
Ġesper ado
Ġinstal ar
Ġ180 9
ĠLin k
ĠFre der
Ġhel en
Ġrecog ida
Ġinj ust
Ġsupervi vientes
l lev
Ġdel la
Ġu va
Ġev ang
Ã©l icos
Ġcier ra
ĠHo p
Ġmito con
Ġdegr ada
. ;
am antes
ĠV idal
ion era
Ġbaj ar
ĠkilÃ³ metro
ĠEsco bar
ĠLenn on
G M
Ġf Ã³rmulas
ĠM isis
is ca
ĠD ucado
Ġtra tarse
ĠÂ« Â¡
Ġsuper an
rag ona
Ġguer rero
Ġagu jeros
Ġoper an
Ġastr ona
ĠKir ch
ĠHerman os
ĠGuan ajuato
Ġmani pulaciÃ³n
m aco
ĠA qui
ĠEst onia
Ġnom inado
Ġrepresent aban
Ġconstitu cionales
ĠpropÃ³s itos
Ġele va
Ġen tabl
re d
Ġse d
Ġh ig
ĠP rieto
ion almente
Ġpelig roso
Ġexplor ar
Ġdorm ir
Ġpredominante mente
Ġficti cio
T er
Ġan i
Ġqui r
Ġgobern aciÃ³n
Ġrecur rir
Ġtradu jo
Ġhuel la
ĠPerten ece
ĠExpl or
Ġa tro
Ġre to
Ġb ares
tor y
at her
ĠVal de
ĠHer mos
Ġdif ieren
Ġposi tivas
194 8
Ġconcre ta
Ġtard ÃŃa
ĠOh io
ĠShang hÃ¡i
a Ã±o
Ġpromo viÃ³
Ġclim Ã¡tico
ĠQuer Ã©taro
ĠAlb acete
da to
ac ÃŃa
Ġ8 3
bo ok
ĠPer ÃŃodo
Ġintegr ar
Ġafric ana
Ġcoron aciÃ³n
Ġline ales
Ġdesper tar
ĠMah oma
Ġjuven iles
ĠGalile o
l los
Ġc acao
al do
Ġm uc
Ġm ante
ĠH in
Ġim portar
Ġcal entamiento
Ġmedio ambi
fil os
ĠWal t
Ġtele fonÃŃa
ĠCO VID
Ġdiecis iete
ĠA ero
Ġin tac
Ġdeci mo
ĠCol ecciÃ³n
ĠJo ven
Ġtom adas
Ġadminist rar
Ġproce den
Ġfl uye
Ġconvirti endo
Ġclar idad
Ġsovi Ã©ticas
ĠCr Ã³nica
ĠmÃ¡r genes
Ġacog ida
Col om
Ġchoc olate
Ġentusias mo
ĠWalla ce
Ġ ist
Ġser vÃŃa
car as
Ġsub je
Ġliber alismo
Ġdeleg ados
ĠpÃ¡ jaro
Ġmover se
Ġdevo ciÃ³n
d le
h im
ar to
ĠEn cu
ĠY ang
ĠCab ildo
Ġproteg idos
Ġvec tores
Ġcurva tura
n ado
os ta
Ġcon lle
Ġf idelidad
ĠE van
ĠC PU
il or
Ġcas er
dr en
Ġvol canes
rem io
Ġante ce
ĠQu intana
Ġmencion Ã³
Ġvas ca
ĠSec ciÃ³n
Ġreper cusiÃ³n
Ġarreg los
Ġmarro quÃŃ
Ġh ispan
ĠA x
ĠR ally
um p
ĠV ista
Ġr aro
Ġr osas
ĠPro greso
Ġhu bieran
Ġjoy as
Ġmonopol io
v re
Ġc iego
ur aron
Ġmar rÃ³n
Ġinf il
Ġconf irma
ĠComun icaciones
Ġ182 7
195 4
Ġcomerci alizaciÃ³n
ĠTem porada
Ġtea trales
ĠMexic ano
ĠromÃ¡n tico
Ale mania
s un
Ġm ÃŃa
ĠB ielorr
ĠU sos
Ġca ta
Ġpa gos
ĠacompaÃ± Ã³
ĠMc L
Ġjapones as
ti laciÃ³n
Ġd anzas
ĠW agner
Ġad mite
Ġconsum idor
Ġacab aron
Ġconec tado
Ġinvas ores
ĠReci entemente
Ġaco pl
V en
Ġp enas
re b
Ġdes orden
Ġpres bÃŃ
Ġmar tes
Ġfin anzas
ĠTer uel
ĠCrist ian
ĠPas cal
ĠTur ing
Ġelev ados
Ġpodr Ã¡n
ĠAir bus
ĠromÃ¡n tica
ĠManz an
ĠLincol n
s olo
in aba
Ġm ero
iz adores
Ġvari adas
Ġtecn olÃ³gico
âĢĻ .
Ġultra mar
Ġester eo
Ġlarg ometraje
Ġdemues tran
Ã ®
Ġs illa
ol la
ĠM A
Ã©n ica
Ġsal arios
ĠPar ece
Ġcomb inaciones
Ġcontr arre
Ġnego ci
ĠreÃºn en
Ġine vitable
ciu dad
ic ologÃŃa
ta xis
ec he
ĠH T
ĠH aro
Ġ18 17
Ġ18 16
aliz aron
ĠMon taÃ±a
Ġintro dujeron
Ġrecha za
Ġtir os
Ġde idad
ĠT ul
ĠF ores
19 40
ĠDe ad
Ġfun cionales
ĠNo v
ĠSa hara
Ġpan ame
ĠSte ven
Ġrecha zar
ĠMu ham
ĠJer ry
Ãºr pura
Ġestad ios
Ġocul ta
ĠStor y
Ġvisigo dos
Ġari tm
omag no
l ine
ĠS ena
Ġv iendo
ĠF lash
tr all
ĠMÃ© rito
Ġdistin ciones
ĠTh at
Ġacab ado
Ġsurg ir
Ġfer tilidad
Ġgar ganta
Ġvertic ales
ĠprÃ©st amo
Ġmarx ista
ĠPokÃ© mon
r ino
Ã ĵ
Ġd ual
ĠCol or
ĠOl ym
Ġrad ar
ĠAdminist ra
ĠFig ueroa
h ibe
k os
an Ã¡lisis
Ġg entes
ĠR udo
ÃŃst icamente
Ġtro feo
ĠTa ilandia
ĠAy ala
Ġrecopi laciÃ³n
ĠComand ante
7 00
Ġa val
Ġb endi
Ġem prendi
Ġoc Ã©anos
Ġrad ios
Ġalim entan
ĠBe y
Ġlig as
ĠComun icaciÃ³n
Ġterremo tos
Ġdegr ad
ab lanca
Ġd uc
Ġcel ta
Ġreduci endo
ĠVi ola
ĠmÃŃn imas
Ġvesti r
Ġdisting ui
Ġjura mento
ĠApÃ³st ol
ĠestÃ³ma go
Ġin cas
Ġatra jo
Ġdif undir
Ġreconoci mientos
Ġacu dir
Ġsum amente
L in
Ġun ic
ĠR un
Ġman chas
ĠAr enas
Ġinterna cionalmente
Ġbal ne
tif icia
j ol
Ġf ilo
ĠP ris
Ġpre di
Ġauto vÃŃa
ĠSta te
ĠCarl omagno
ĠComple jo
ĠWay ne
Ġense Ã±a
H er
Ġse udÃ³nimo
Ġsu doeste
ĠG ia
it ter
ĠUn der
ĠSte wart
Ġnav ales
Ġdefens iva
ĠcÃ¡ tedra
Ġinn umer
ĠPues to
Ġinmin ente
Ġsu be
Ġex ager
Ġme x
ĠUn ida
ĠW iki
Ġtor tura
Ġluch Ã³
rÃ¡n c
Ġconven ciÃ³
Ġadop ta
Ġens an
Ġsil vestre
ĠSim pson
Ġesca pe
ĠhÃ¡ bitos
Ġrequer ÃŃa
ĠRobin son
Ġcaudi llo
D H
h uela
ĠB arro
ĠCar ras
ion istas
Ġco pro
Ġrev esti
rio ta
Ġfundam ento
Ġcil in
Ġintes tino
ĠW im
ĠAm pl
Ġluch ando
Ġvoc ablo
Ġcru cial
enn is
Ġestatu to
Ġtecl ados
Ġarre ci
c Ã©
Ã ¬
gu ilas
ĠW ork
ĠCh aco
ĠMan chester
ĠNe u
Ġanterior idad
Ġsust rato
Ġrefle jan
Ġresta urar
ĠFiladel fia
ĠInmac ulada
z or
Ġc Ã³mico
ra x
Ġv elo
ĠM ÃŃ
ĠmÃ¡s cara
Ġj ar
Ġcons entimiento
tec n
Ġmin eros
ĠCor pus
ĠBo u
ĠFer din
Ġpul mÃ³n
Ġacus ados
Ġescal as
Ġsuminist ros
Ġagreg Ã³
conoci do
Ġabaste cimiento
G T
b ando
ĠC ura
Ġor aciones
ens as
Ġmar cial
ĠSeg a
ĠSal to
ĠRes istencia
ĠHay a
ĠMat ÃŃas
Ġdependi entes
Ġcon tex
Ġg r
ĠI U
Ġac ta
Ġ18 19
Ġtras lada
Ġesp esor
Ġinvas iones
Ġauxili ares
ĠCis neros
v or
Ġh Ã©l
Ġal o
ĠJ in
des c
Ġab usos
ĠPro gres
ĠMan s
pen h
Ġrepresenta tivo
Ġapr endiÃ³
ĠnÃ¡ huatl
Ġprotocol os
O H
Ġg it
ĠR h
bi tas
Ġpre ma
Ġcontra cciÃ³n
Ġgol f
Ġcondi ta
ĠLeg end
Ġaustral iana
Ġges to
ĠdomÃ©st ico
Ġacon di
Ġmanz ana
ĠDefin iciÃ³n
rÃ¡nc fort
p ico
Ġen tornos
un dos
Ġcar tel
ĠPar tidos
Ġ10 5
Ġfra y
Ġnav ÃŃos
Ġofrec ÃŃa
Ġpic t
ĠAriz ona
te gra
ĠD ri
Ġseg uidos
tis a
ric k
Ġsuces ores
Ġcel tas
Ġacu diÃ³
ĠHerman dad
Ġrecib ÃŃa
ĠTib erio
ĠIlust raciÃ³n
ĠTolk ien
ĠC aja
Ġdel incu
ĠT ari
Ġinter ino
Ġpas arÃŃa
Ġfr ÃŃas
Ġval e
Ġdefin idos
ĠDi ana
Ġcontr arres
Ġestim ado
ĠOn cidium
Ġhall ado
m ÃŃn
en de
Ġal ti
ĠUn idades
ez o
Ġ10 1
Ġinstal aron
ĠTur ÃŃn
ĠTrans portes
Ġfemen inas
Ġ{ {
Ġrecol ecciÃ³n
ĠChecos lovaquia
e amiento
ĠC leo
Ġpar Ã¡s
it antes
Ġem in
ing e
Ġos cil
Ġpoten ciales
Ġguar di
Ġali anzas
Ġaust ro
Ġrelo jes
Ġtrist eza
ĠEspa cio
Ġetn ias
ĠSÃŃ dney
e tos
Ġp abellÃ³n
ter ona
Ġpre col
Ġescol ares
ĠdiscÃŃpul os
Ġcon o
Ġsu bida
ĠH ud
Ġis lo
Ġpresent adora
ĠMi ja
ĠBan k
Ġenten dimiento
Ġresist ir
Ġobliga toria
Ġaden tro
Ġculp able
abul ario
ĠRepresent antes
ĠT ampoco
Ġcar pin
Ġpres tar
ĠAn ne
Ġproduc tividad
Ġpe tro
Ġrealiz aban
Ġsocial dem
Ġquer er
ĠisÃ³to pos
Colom bia
ĠC az
uc ci
ĠH is
Ġtra jes
Ġmi Ã©rcoles
Ġnorte americana
Ġrecha zada
Ġcoloc ado
Ġras tre
ĠPen al
ti to
Ġprim as
Ġreg lam
Ġproduc ÃŃa
Ġcum bres
ĠSab oya
Ġcaptur ados
ĠdomÃ©st icos
Ġremode laciÃ³n
e Ã±os
Ġman anti
ĠJu vent
Ġrepar aciÃ³n
Ġlog ran
Ġinmor tal
Ġt omo
Ġo ÃŃr
ĠP il
ĠEn gel
ĠI A
tur ados
ĠSer ena
cor dia
Ġvic torios
ĠPal encia
Ġfl uidos
Ġtre gua
Ġais lado
Ġdiplom Ã¡tica
ĠArt ÃŃculo
ĠGuay ana
s hire
ĠT ÃŃtulos
Ġloc omo
cri pt
ĠmÃ© dula
Ġadminist rador
Ġfac ciones
Ġ/ /
ah ora
ĠEscri biÃ³
Ġrepi te
Ġcohe te
Ġhegem onÃŃa
ĠBeet hoven
z be
ĠS pin
ĠL igas
Ġcom entar
tas e
ud ales
Ġespeci fic
Ġve ÃŃan
Ġemple ando
est res
Ġabandon ada
ÃŃr genes
Ġinteg ran
ĠNorm an
Ġef ÃŃm
L O
u ka
ent er
Ġsu fr
ĠEs cor
Ġcos mo
ĠNo ta
Ġhor ror
bor g
Ġmone taria
ĠVide o
Ġjesui ta
k t
o te
Ġm ÃŃo
ri t
Ġre ma
Ġb ara
Ġtrad uctor
ĠBe ach
Ġconsum e
pir ar
Ġprivileg io
Ġrehab ilitaciÃ³n
p pen
os amente
Ġg usta
ĠN aran
se gun
Ġas ientos
ge la
Ġfil ogen
193 1
ĠTem por
Ġepi demia
ĠtÃ¡c ticas
Ġperegr inos
ĠHur tado
Ġla ment
ĠO brero
Ġem er
tin i
ĠLey es
Ġvide ocl
ĠÃ©tn ico
Ġlabora torios
Ġlien zo
r us
Ġla gar
ĠEn car
ing os
Ġdomin ar
ĠSh ar
Ġpen it
ĠArn old
ci so
que tas
bi le
ari ales
ino is
les s
Ġra pero
Ġcaracter izada
Ġpl Ã¡
ĠAc to
Ġ% )
Ġvir tudes
Ġimag inaciÃ³n
Ġdiferencia ciÃ³n
Ġtraslad ar
Ġadqui riendo
Ġlegisla tivas
Ġcinemato grÃ¡fico
ĠÃ©tn ica
Ġdestruy e
ĠautÃ©n tico
ĠPolit Ã©cn
f ano
is io
ĠN BC
ib io
Ġayud an
ĠQue ens
Ġcodi ficaciÃ³n
Ġestric to
Ġcatedr Ã¡tico
ĠAlban ia
g ento
un ya
Ġsu yos
ĠL ore
Ġal ien
ĠD ante
ario tas
ins ki
Ġresiden cial
ĠenseÃ± ar
ĠWal ker
Ġhere deros
ĠSt and
Ġdue Ã±os
NES CO
Ġnerv io
ĠSalom Ã³n
- )
en Ã³n
in am
in arias
Ġconven io
Ġbi olÃ³gico
194 7
Ġá ¼
Ġcohe tes
Ġbil ingÃ¼
S tar
n am
Ġde bieron
an na
ĠC ementerio
Ġv est
ĠG estiÃ³n
go t
iden tes
Ġav ist
ph ia
Ġderi van
Ġvoc aciÃ³n
Ġprotagon ismo
Ġilust res
ĠEdward s
Ġartic ulaciÃ³n
ww w
- ),
d Ã³s
Ġre mi
Ġdi ablo
Ġdi verg
co pios
Ġab rup
ver y
Ġapar eciendo
Ġreco pil
k k
tu osa
ve dra
Ġtrans portes
ĠCent ros
au tor
Ġrespons abilidades
Ġfemen inos
Ġreiv indic
ĠPropie dades
es io
ad ino
Ġpar ciales
ĠI st
ĠBar re
ĠLu ke
ĠMo de
Ġinstal ada
Ġtriun fos
ĠErn est
ĠAure lio
ĠAur ora
ĠS N
Ġin undaciÃ³n
res t
ul adas
ĠB Ã¡ltico
ĠG ust
Ġpa pal
if t
Ġab adÃŃa
Ġfr Ã¡g
ĠIs id
Ġespec tros
ĠGar y
Ġextra Ã±a
Ġpan eles
ĠcÃ©le bres
ĠTac na
ĠMuse um
r ina
ti lo
ĠG ior
ĠLa u
gu la
Ġmec Ã¡nicos
Ġconven cido
ĠClas s
Ġatrac ciones
Ġcoman dos
Ġcon mo
ĠT rist
ĠRe laciÃ³n
Ġarque olÃ³gicas
Ġconmemor aciÃ³n
Ġpredeces or
Ġdesm ante
ĠCandel aria
z er
da z
at on
ĠW u
ĠY e
id ÃŃa
ĠMan n
Ġata ca
ĠPla te
Ġgas tron
Ġexperim entar
ĠChar lie
Ġdesapar ece
ĠDist in
Ġmac ed
ĠGui pÃºzcoa
b ona
y ev
Ġt inta
Ġin dia
ĠG em
Ġres um
Ġfin alizaciÃ³n
Ġsab idurÃŃa
Ġdin Ã¡mico
ĠAdri ano
ĠOce anÃŃa
h m
ĠA B
tu arios
Ġdi min
ĠV ul
Ġparti das
Ġ4 50
Ġpal ma
Ġpredomin an
Ġdefien de
ĠE ta
ĠG om
Ġme tam
ĠCon quista
Ġinter vino
ĠCom mon
Ġtrabaj ador
Ġdivi didos
Ã¡ndo les
Ġrefug i
penh ague
Ġm ueven
Ġman dar
Ġch ico
Ġautor ÃŃa
193 5
Ġclar as
P res
U na
w ik
ent enario
ĠP ira
Ġb if
ia t
ĠGar den
Ġsos tuvo
pir os
Ġcoinci diendo
Ġeclesi Ã¡stica
Ġhomosex ualidad
s ales
ĠM ack
ĠB ron
Ġcent rÃ³
Ġver duras
Ġedi tores
ĠOri entales
ĠVer ano
Ġquer ido
ĠenseÃ± Ã³
amb ul
Ġesque leto
Ġascen der
ĠmetÃ¡l icos
Ġencarcel ado
Ġsubcampe Ã³n
v ana
Ġh il
ĠN oroeste
Ġmedi an
ĠMit ch
Ġincons ciente
Ġconces iones
Ġpenins ular
Ġexpecta tivas
ĠC S
ĠT un
ĠR al
Ġper jud
ĠK ol
Ġaum entan
Ġbo tÃ¡nica
Ġenvi ada
rÃ¡ ficamente
ĠAf ro
Ġbarro ca
Ġinterme di
Ġtendr ÃŃan
Ġama z
Ġincur siÃ³n
ĠLev ante
ĠAntio quia
ĠE use
Ġre estruc
ĠG uido
ĠSh el
Ġemple Ã³
ram ento
ĠLeg ado
Ġaus ente
ĠStu dios
Ġinflam aciÃ³n
ĠScien ce
Ġpesc adores
ĠFili po
f le
es paÃ±ol
ĠD Ã©c
ĠJ azz
ĠAr ts
Ġpes etas
Ġdefin idas
Ġhorm ona
Ġagre gar
Ġmand ÃŃb
Ġsimil itud
ĠE che
ĠC M
ĠAn tillas
Ġanti biÃ³
ĠCol o
Ġgobern ado
Ġtur ca
Ġsuce der
Ġtraslad arse
culos is
Ġsom os
Ġclasific arse
Ġrique zas
ĠRin cÃ³n
Ġabor ÃŃgenes
Ġbudi stas
ĠÏ Ģ
Ġcomedi ante
h uel
am bre
ĠB ud
Ġpara ÃŃso
ĠAn Ã¡lisis
ut su
ĠCam ar
Ġcat Ã¡stro
ĠHe art
Ã©st or
ĠDal las
ĠRay mond
Ġans iedad
ĠMisis ipi
E T
z aban
ue ta
Ġcon cilio
ĠE ran
ĠC un
ĠF rÃ¡ncfort
Â» :
Ġmedi cin
ag as
ĠPro vi
Ġbo xe
Ġind ul
Ġcomba tientes
Ġdescubier tos
Ġhorm onas
u ti
Ġ æ
ĠU ribe
ĠSe ptiembre
Ã³l isis
Ġconqu istas
Ġconcl usiones
ĠLin ares
Ġpregun tÃ³
Ġbombar deos
ĠfilosÃ³f ico
Ġgam ma
ĠBale ares
z zo
Ï ī
ĠE L
Ġre ple
ĠG rim
ĠMan if
Ġint entado
Ġdocum entado
ĠCer deÃ±a
Ġce bol
ĠChurch ill
E M
o fici
ĠA cos
Ġv aca
Ġcom plicaciones
ĠM og
Ġg us
Ġb uro
Ġcer tific
ĠZ aca
Ġenvi aron
Ġmir ar
t rib
Ġex puesto
Ġinter ven
Ġapar ecÃŃa
Ġins cri
Ġir landesa
Ġabs ur
ĠVI H
ĠhÃºme dos
Ġguard ar
Ġextraordin ario
Ġsubdi vi
Ġbeb Ã©
ĠJas on
jec t
G I
T ra
v ag
Ġm Ã¡n
ĠE ras
ĠB aj
Ġpo zos
Ġ18 18
eci ras
Ġsuper h
ĠtÃ©rm ico
Ġmascul inos
Ġpromul gÃ³
ĠMuham mad
C S
u ÃŃa
bi e
ĠV ille
Ġson oras
ĠCam paÃ±a
Ġcambi an
Ġhor no
Ġlic encias
ĠSy l
Ġacog e
Ġretras o
ĠlÃ¡m ina
fag asta
ĠConce jo
g uera
Î ³
Ġd uer
at tle
dos a
tros pec
ĠAn im
Ġcampan as
Ġc aliza
Ġc Ã³sm
ra mos
Ġin dem
Ġpara je
ĠEst rada
Ġtra i
Ġcab ina
Ġcambi aron
ĠFe brero
Ġir ri
Ġconserv adora
Ġayud ado
Ġcompos itora
ĠMat the
Ġdipl oma
Ġmeta b
Ġadmi raciÃ³n
Ġatraves ado
Ġautobio grafÃŃa
ĠLiver pool
p ue
on izaciÃ³n
ĠM ess
par as
Ġci elos
ĠY el
Ġcl Ã¡us
ĠMa dero
ĠPal m
Ġadop taron
estr ÃŃa
Ġsemif inal
ĠNix on
p se
Ġcar ica
Ġcer tificado
Ġequi voc
hi jo
Ġdic cionario
Ġretir aron
ĠacompaÃ± ados
Ġevi ta
Ġejecut ados
ĠCic l
person as
ĠPatag onia
ĠBielorr usia
Ġs Ã¡ns
Ġel ÃŃp
Ġsu puestos
ĠP aco
Ġj abal
ch or
ĠCh in
endi eron
Ġcorrespon dÃŃa
later al
Ġinca pacidad
Ġsosten ido
Ġdesembar co
P ara
al das
Ġun i
da fr
ĠO d
eg el
Ġdem onios
Ġexten sas
ĠCons iste
ĠMen Ã©ndez
Ġtel eno
E D
t ch
ti e
ĠA do
Ġin certi
ĠB in
ĠR onald
ĠG et
lo ven
Ġor ina
Ġna pole
Ġdeb ates
Ġcla ustro
ĠFuer a
Ġsecu estro
ĠÃŃn tegra
Ã¤ r
a za
pa tra
Ġreg imiento
Ġhom ici
Ġrom ances
ĠPe tr
Ġleg end
ĠAd Ã¡n
Ġlit ros
Ġpendi entes
ĠLegisla tivo
ĠAnto ine
Ġinnumer ables
ti la
Ġh ockey
ĠF esti
ĠEn s
pa je
cu ando
Ġso prano
ĠJu ven
Ġah og
ĠHo ff
ĠReg istro
Ġobten ida
ĠSec und
Ġobserva torio
Ġp leg
ĠG ay
ĠEl los
Ġhi to
Ã³l ito
ĠPo demos
Ġren ombre
Ġinno vaciones
ĠCoo peraciÃ³n
ĠJunior s
a i
Ġe timologÃŃa
Ã©s el
ĠCon cer
ĠCh el
Ġcap illas
ĠMon tal
bur os
Ġcome dias
Ġimplement ar
ĠfÃ©r til
ĠsÃº b
ĠExpres s
Ġmodal idades
c ÃŃan
ĠC H
ĠO don
par se
ut amente
ĠDe be
Ġdo blaje
Ġdivers a
Ġpat entes
Ġhistor iografÃŃa
Ġsir vieron
ĠRom eo
ĠAng ola
Ġbin aria
ĠFis cal
Ġpresi dida
Ġdes centr
ĠN ada
ĠAl terna
Ġcor do
Ġpol acos
me t
ĠY ama
Ġprote ge
Ġexces iva
ĠPÃºbl icas
ĠM Ã¡n
Ġbas aba
Ġli qui
Ġba Ã±
Ġgen ocidio
ĠVir g
ĠFo ur
ĠRena ult
> >
? ,
er i
Ġpar to
ĠCh arlo
Ġcan tos
ĠCo aliciÃ³n
Ġmencion an
ĠMil an
Ġelabor ada
Ġclasific ados
Ġcompu ta
ÃŃb et
Ġtran vÃŃa
ĠlÃ¡ minas
Ġsocio econ
Ġanticuer pos
Q L
Ġl Ã¡c
ĠC BS
ĠPr ensa
dis cipl
Ġeduca tivas
Ġpav im
Ġc ac
la bas
ĠG os
ĠN og
ĠU NESCO
Ġsal idas
Ġqu im
Ġconfig ura
Ġaisl ados
Bar celona
ĠDy lan
Ġmercen arios
erbaiy Ã¡n
i bre
en ciÃ³
ĠM om
ib us
Ã³m ulo
Ġloc o
Ġri ber
Ġdenomin ar
ĠfÃŃs icamente
Ġcolec tivos
Ġexperim entales
ĠColom bi
ĠdiseÃ± ar
Ġsignific ados
Ġperfec ciÃ³n
Ġhidro car
ĠHern ando
Ġhabita ban
Ġdisol viÃ³
Ġsegura mente
F M
T h
Ġl lave
Ġen unci
Ã¡ is
ĠL ion
im on
it ares
Ġdes al
ĠN Ã©stor
qu Ã©n
ĠAl ice
tin amente
ĠBo t
Ġexpres ado
Ġsuf rimiento
Ġextra terres
ego vina
ĠVin cent
ĠexplÃŃci tamente
al di
ĠA j
ĠB ec
Ġme trÃ³
ill ado
ĠCam ilo
Ġri tos
Ġestra tos
ĠPic tures
Ġna uf
Ġcer rados
Ġdest er
Ġis o
ĠMon tt
Ġtro pa
Ġsepar an
Ġmencion adas
Ġâ ĪĴ
Ġcen iza
Ġre iter
ĠB og
ĠLa ure
Ġar teria
Ġro ble
Ġfil mes
ĠDi rig
ĠMus eos
ili ar
ĠMal donado
Ġhalla zgo
Ã©la gos
Ġacces ible
ĠcadÃ¡ver es
ĠColl ins
Qui Ã©n
Ġame trall
d us
l Ã©
un i
Ġel enco
ĠA ch
Ġal qu
Ġor a
ĠCan to
Ġve j
Ġubic Ã³
ĠDo Ã±a
Ġ180 6
Ġdecre tÃ³
Ġbin ario
ĠNie ves
Ġarre bat
Ġa gar
do le
Ġpr Ã³s
br adas
tel io
Ġprofes ora
Ġgen io
Ġlig eros
ĠHen ares
Ġlider ados
ĠMemor ia
uber t
ĠXa vier
! !
Ġp Ã³r
ar cal
Ġcon cer
Ġh eavy
ran ÃŃa
ĠAl tos
ĠK iss
ÃŃf icas
Ġabs ol
her e
Ġfl uc
ĠSch war
Ġinfl uir
Ġoscu ras
Ġsobrevi viÃ³
Ġcron ista
Ġreele cciÃ³n
ĠDubl ÃŃn
* *
á ĥ
Ġde fectos
en berg
Ġcon des
le ta
ion ada
Ġinv oc
Ġfr uc
ĠCo penhague
Ġdestac aron
Ġregist rados
ĠVi la
Ġguar dias
Ġprac tica
Ġapre cia
ÃŃfer as
ĠVers alles
Ġpir Ã¡mide
l ib
ĠEs pin
Ġro bar
ele y
Ġinstr um
ĠRec ur
Ġimpuls ado
ĠSport ing
s ia
al s
Ġh uida
Ġsu iza
ist ir
Ġcan tando
ĠCar ran
endi dos
Ġgo ta
Ġinv itÃ³
Ġdeci mal
form aciÃ³n
tim ental
ĠperiÃ³ dica
Ġasist ieron
ĠLar ry
Ġcruc eros
ĠlegÃŃti mo
) ||
ti Ã³n
ĠB az
ĠO range
Ġcar o
Ġincl usive
Ġinv erna
Ġvol viendo
ĠOr lando
Ġmul tina
ĠJun g
Ġadap ta
193 8
Ġtransm isiones
Ġresist ente
Ġfir mas
Ġbat allÃ³n
ĠbÃ¡r bar
R S
b rando
g adores
v ÃŃ
in ia
ti st
Ġcom icios
ac ar
ĠF ile
âĢ ĭ
ĠK han
Ġdo g
Ġch inas
Ġtal los
Ġdenomin arse
ĠPres enta
Ġdesa fi
Ġagu do
Ġherman adas
Ġfara Ã³n
Ġpor tal
Ġpro tones
ĠCon tro
Ġmedi ciones
tal eza
Ġcent rado
ĠSol edad
Ġsuf ijo
su per
Ġimpres cin
Ġexcel entes
Ġdor sal
Ġbudi sta
ĠSÃ¡ enz
Ġrepo blaciÃ³n
ĠIdi oma
ĠIntro ducciÃ³n
Ġensam bl
C N
c ando
Ġla p
Ġpre ven
ĠDes cub
Ġexper to
ĠTe am
Ġvir reinato
Ġmol de
Ġanunci ado
Ġfan Ã¡ticos
Ġinus ual
ro co
iz ante
ĠN ab
Ã¡n d
Ġim porta
ĠQ uir
Ġgan adores
cil los
Ġinc en
Ġdesarroll arse
Ġobserv an
Ġejecu ta
ĠRich ter
ĠclÃŃn ico
Ġapropi ado
ĠintÃ©rpre tes
Ġcusto dia
Ã³ metro
Ġt rem
ra bes
Ġv ient
ĠD S
Ġex pro
orm al
Ġreg alo
ĠLe ip
Ġcab ildo
Ġdesarroll adores
Ġ100 00
Ġconec tan
Ġvie jas
Ġcomerci ante
Ġfortal ezas
Ġresist entes
ĠtÃ¡c tica
Ġreiv ind
Ġespor Ã¡
Ġconta bil
ĠFerdin and
f ix
l al
v ari
v ista
an ales
Ġg ene
ĠG ene
Ġan om
Ġle ales
Ġqui eren
Ġvi vieron
ĠPro ceso
ĠPo tter
Ġleg iones
Ġdomin ada
Ġverda deros
ĠMit re
Ġarres tado
ĠAnto fagasta
Ġv os
ĠN ivel
pi er
ĠMar zo
ĠY un
ĠPar ker
Ġrepresenta tivos
ĠJun io
ind ro
Ġarres to
i pa
Ġe terna
Ġcon je
Ġf ino
ca gua
ce la
Ġab ren
Ġgran ito
Ġdon aciÃ³n
ĠMor rison
ĠgeogrÃ¡f icos
Ġplante Ã³
Ġnar rador
Ġit iner
ĠMargar et
X V
ĠM ina
ĠI den
ĠSe y
Ġpos tre
Ġpu reza
Ġmar ineros
Ġins urrecciÃ³n
aca ibo
Ġdin am
Ġcel da
Ġinstitu tos
ĠMas ter
ĠMur ray
Ġpac ÃŃfica
Ġfilos Ã³fica
ĠEntr en
Ġnomen clatura
om i
ra mo
ĠH os
ĠN y
ĠRe un
ĠK urt
ĠCh ad
Ġus ur
eo ple
Ġmu taciones
Ġav is
pendi endo
Ġrecuper ado
Ġingles as
ĠTar ragona
cien den
Ġclim Ã¡tica
heim er
Ġfesti vidades
ĠLlo yd
G P
g ora
ĠT ÃŃbet
ĠMar ÃŃn
Ġra cial
ĠCu entos
th ers
Ã¡l ico
hu ac
ĠCer da
Ġinvoluc rados
Ġt ensor
ĠA dap
Ġas om
Ġsol os
Ġra cha
Ġcos echa
mon te
ĠMi la
Ġsecre ciÃ³n
Ġretir ar
ĠCatal unya
ĠConst an
s ÃŃn
Ġt ru
ta Ã±o
ĠT ran
ĠCon strucciÃ³n
Ġinter con
ÃŃst as
Ġale gre
Ġtri dimens
Ġconoc emos
Ġconsecu tiva
Ġperiodi smo
193 2
Ġdisc usiones
Ġejerci cios
ometra jes
Ġcapi tu
a tura
Ġp asta
Ġdi ri
Ġdes ci
ĠH ulk
Ġan tagon
Ġle jano
ag i
all en
Ġale da
Ġrec al
ĠBas ilea
Ġexig iÃ³
Ġinvad ir
Ġfores tales
ĠNep t
Ġmuel le
Ġespiritu ales
ĠBjÃ¶r k
A M
H o
Ġh tt
19 18
Ġap as
Ġrev ueltas
ĠOr ch
Ġmejor Ã³
ĠAd vent
Ġorient ado
Ġconven ciones
Ġincrem entÃ³
Ġcircun ferencia
Ġimpuls ar
Ġgla ciar
Ġcastel lanos
Ġbox eo
Ġmitocon dri
Ġprecol omb
ul osa
ĠAn illo
hi la
ĠIs ma
Ġcir u
Ġata cado
Ġvel as
ĠPas tor
Ġameric anas
Ġargum entando
Ġtelevis iva
Ġperon ismo
R O
m ada
Ġe b
Ġn ano
ĠV on
Ġmi xto
Ġig n
Ġba il
ĠPr omo
Ġresol viÃ³
Ġasi Ã¡ticos
ĠacÃºst ica
ĠUrb ano
Ġtransvers al
ĠBenedic to
S er
b acteri
Ġa gencias
do v
Ġd rag
ten stein
ĠMon s
tÃ³n ica
Ġoblig ada
lin io
Ġsens ibles
Ġincom pati
Ã³b ulos
ĠAlg eciras
ĠAnat olia
Ġen te
ĠE y
ĠG el
ĠRe don
dal us
Ġmanten ÃŃan
Ġorg ullo
ips is
j ando
Ġde ro
ĠT ala
Ġinter ro
og lo
Ġtr ÃŃo
ll ar
mar ck
ĠHum berto
fil ia
Ġflu viales
Ġrecom pensa
Re ino
ĠMul ti
Ġtranspar ente
P rim
as iÃ³n
ri ga
iz ador
ĠO ber
ano va
ug g
ĠCon g
Ġcol egas
ĠprÃ¡c tico
Ġviol ento
Ġagu ar
194 1
193 4
ĠcÃ¡l idos
Ġcria tura
rigo yen
ĠIqui que
t d
ab ra
ĠG au
ĠCon tiene
Ġ12 8
sa u
ho p
Ġsat ÃŃr
Ġfich as
Ġple bis
Ġaca demia
Ġindis pens
Ġanci anos
in amiento
Ġdes uso
19 20
tin e
Ġrepresent adas
Ġdistrib uir
ĠaÃ© reos
Ġvincul ados
Ġsosp echa
Ġc emento
ic um
ra ca
ro w
ĠL lanos
Ġcom idas
Ġd adas
ul ando
vi des
Ġtu vieran
ĠMon ten
ĠPro ces
Ġconsum ir
ĠAz erbaiyÃ¡n
Ġcubier tos
Ġvesti menta
Ġcamp ana
l ugar
á ¸
Ġ oso
Ġs oc
Ġo puestos
ĠG la
ten berg
ĠPe te
Ġexten dÃŃa
Ġlim itar
Ġfac ciÃ³n
vis iones
Ġconstruy en
art ney
Ġmad res
Ġbi olÃ³gicos
sh ip
Ġnaveg ador
Ġbur bu
ear ch
Ġefectu ar
on ista
qui vir
ĠSe p
ion Ã³
Ġ17 00
Ġrela tivos
Ġne ol
Ġrespec ta
Ġrad ial
Ġproce der
pus ieron
Ġescla vo
ĠCleo patra
Ġsu presiÃ³n
ĠR Ã³mulo
Ġlo bos
ĠW W
ĠW it
Ġcomp ac
Ġperten encia
ĠTor neos
Ġcombust ibles
Ġpartid ario
ĠConci erto
Ġnic aragÃ¼
d Ã©
Ġ ÃŃdo
Ġs aj
Ġcon duci
Ġre velaciÃ³n
ĠT ron
ĠR ivas
bi de
Ġmon os
Ġescri torio
ĠPe layo
Ġgas olina
Ġon t
Ġfinanci ar
ĠdiÃ¡ logos
Ġalej ado
Ġilust raciones
ĠJeff erson
Ġmonstru o
ĠorquÃŃ deas
ĠmÃ¡n ager
Î ´
Ġs ta
Ġcon ducido
ĠE z
Ġdes in
pa go
Ġan ciano
gu ard
Ġim po
Ġmay as
Ġman siÃ³n
ĠFran cÃ©s
Ġfor zado
Ġaprovech amiento
Ġdoctr inas
ĠRepar to
ĠEuse bio
" >
f ro
ĠA plicaciones
is eo
em i
tra je
za ga
Ġoscu ros
tz al
Ġmarx ismo
ĠMontre al
c ala
Ġam er
Ġreg lamento
gra fi
anz er
Ġvi king
ĠThe atre
Ġanim ados
Ġfavor ecer
Ġprovoc an
ĠMer curio
Ġcelebr adas
ĠOb ispo
ĠAp ocal
ĠXX I
fl ores
Ġpeda go
Ġequip amiento
r Ã³nimo
ĠE N
iz arse
Ġtras era
Ġhabit ado
Ġestim aciÃ³n
ĠTre k
Ġimpresion ante
Ġdescom posiciÃ³n
Ġcastel lan
ĠGroen landia
B ol
n en
Ġpor tero
Ġcar dio
ĠRe in
cer ca
Ġdistrib uidas
Ġescal eras
ĠÃįn dico
Ġconting ente
in z
ĠF as
Ġper didos
ĠH ace
Ġex ha
ur oso
Ġar ren
Ġcent rada
ĠZ or
cas a
ĠHer edia
Ġespecial ista
ĠBur ton
Ġaplic Ã³
Ġavanz Ã³
Ġpier den
Ġapos tÃ³l
ĠinÃº til
ol f
Ġo puesta
ĠK os
ut icas
Ġfran jas
ĠMor ris
Ġespecial idad
Ġevi den
Ġacus aciÃ³n
Ġrelie ves
Ġfla uta
a den
z arse
or cio
ĠP unto
ĠD res
uc as
ch an
Ġmar ea
ĠMar acaibo
Ġch im
Ġbas ura
ĠVer di
ĠdÃ© cima
Ġcrim inales
ĠpÃ© talos
ĠSqu are
y eron
Ġdi ur
Ġr ut
Ġinter cep
ĠRe tiro
Ġna tivas
bol a
oca usto
Ġrev Ã©s
Ġtal entos
ĠHi per
Ġinvoluc rado
Ġensay ista
Ġreti ra
Ġflex ible
ĠNer Ã³n
ĠResta uraciÃ³n
ĠHitch cock
ri k
ĠM isiÃ³n
Ġb ere
ĠH orn
ĠN ÃŃ
ern er
Ġgan ados
ĠmÃ© trica
Ġta ur
Ġcolabor ador
ĠmontaÃ±os o
Ġdeno ta
Ġmatrim onios
ĠdÃŃg itos
ĠMija ÃŃl
S ch
p ones
ue y
ĠF ield
con o
Ġcontin entales
ex iÃ³n
ĠCla udia
Ġconvoc ado
ĠRum anÃŃa
ĠVers iÃ³n
Ġdisol ver
Ġbailar ina
Ġlegitim idad
ĠApro ximadamente
Ġab rieron
Ġcer v
ĠSo ber
Ġinvi taciÃ³n
Ġcarb on
ĠTal ca
Ġpene traciÃ³n
Ġdram Ã¡tico
en go
st ra
ĠP linio
ĠF oro
tro it
ut icos
ĠcompaÃ± era
Ġpron unciÃ³
Ġtex tiles
193 3
ĠSant ÃŃsima
Ġporta aviones
ĠRepublic ana
N O
u des
al th
Ġpar Ã©n
Ġpro hÃŃ
gr ados
Ġap unta
ion ismo
Ġcal ificaciÃ³n
Ġinv ari
Ġenc lave
Ġsom br
Ġ179 2
Ġrum or
Ġhos pe
Ġmotiv Ã³
ĠContr eras
ad ona
ue ble
it Ã©s
Ġr ugby
ĠEs pec
Ġpas tos
Ġcontra ata
end ÃŃan
Ġconstruy endo
Ġautom Ã¡tica
ĠInfan terÃŃa
h Ãºn
z z
Ġp iz
ĠS os
ĠS ri
il ios
den ales
ĠDes car
ĠAm bros
ĠUnivers idades
ph ie
seÃ± or
Ġhuman ista
Ġsemej antes
Ġtib ur
Ġglu ten
E L
m Ã©
ic om
ĠC ris
ĠS D
lo a
ĠSe an
Ġad jetivo
be ta
Ġorigin arios
pro te
Ġfi jÃ³
ĠMag ic
Ġtoma te
S h
ĠG av
ĠI o
ĠH ad
ĠMon e
Ġven cido
Ġmas ivas
Ġvir re
ĠQu Ã©
ĠBor ja
Ġguer rilla
Ġrem at
Ġdespe gue
Ġvendi das
Ġextrem idades
ĠGlo bal
es ÃŃas
ab los
ĠD og
ĠEst ilo
tar co
Ġinter venciones
min ster
ÃŃm ir
Ġrom Ã¡nico
ĠGo th
Ġcontrib uyeron
ĠPue blos
Ġagreg ado
Ġcircunst ancia
ĠHidro grafÃŃa
Ġtuber culosis
as ÃŃ
Ġar teri
Ġjug aba
Ġperman entemente
Ġdistrib uye
Ġdespe dida
Ġsobr ena
ĠBlo od
ĠCarran za
j in
Ġ ÂłÂłÂłÂłÂłÂłÂłÂł
Ġs as
Ġn on
ĠS ay
Ġser pientes
19 29
ĠNa turales
Ġorganiz an
Ġ13 00
Ġgal erÃŃas
abe tes
Ġrecibi dos
Ġhabl ada
Ġimpos ibilidad
Ġecos istema
ĠSara h
ĠPens ilvania
Ġdegrada ciÃ³n
v Ã©
ad y
los sum
19 14
ĠK il
ĠCh ang
Ġcontra posiciÃ³n
bo t
Ġsub terrÃ¡neo
Ġfil tro
Ġba Ã±os
Ġhor t
ĠBro ok
Ġmarc ando
Ġanunci aron
Ġagres iÃ³n
contin ental
Ġintr ÃŃns
ĠMiem bro
ĠCeci lia
Ġf ur
Ġsu biÃ³
ĠO ver
tro po
ĠIn oc
Ġgra m
Ġsen timental
Ġpron uncia
Ġelim inados
Ġconform a
Ġdismin uyÃ³
Ġfer tiliz
Ġflu jos
194 3
ĠSue le
Ġdura mente
Ġnoctur na
Per Ãº
stad t
Ġp Ãºrpura
Ã© in
ĠL lor
Ġpla yo
Ã³lo ga
Ġindi cios
Ġconcep tual
Ġren al
Ġconquist ada
Ġ179 0
Ġ179 3
Ã³cra tes
Un ivers
ĠCÃ³ mo
Ġcompens aciÃ³n
Ġconson antes
Ġinsign ia
Ġbizan tinos
ar k
Ġna taciÃ³n
Ġdist anci
ĠIs l
ĠSal va
Ġgrad ual
Ġpsic olÃ³gico
Ġrecog idos
San ta
Ġjer Ã¡rqu
Ġfuncional idad
Ġconsolid Ã³
Ġdomici lio
ĠWiki pedia
u taciÃ³n
Ġg ang
lo pe
Ġdes o
ĠAl iados
tar lo
Ġllev adas
Ġelem ental
Ġobserv adores
Ġcontam in
Ġdesn uda
Ġprove er
Ġestric ta
pens as
ĠPala cios
wik itable
N G
ien das
Ġar oma
if ormes
br ales
ĠRo w
ĠCan tÃ³n
ĠUr qui
Ġrecl ama
Ġprece dente
Ġpaula tinamente
ĠA ge
gu Ã©
Ġpas tores
ĠNo viembre
Ġmin ia
ht t
Ġecu ador
Ġfues en
ĠNar uto
plas ma
n ea
Ġde t
or no
ro Ã±o
Ġre utiliz
Ġtra taron
duc tores
20 23
Ġder ri
Ġav anza
Ġmat anza
Ġofre ciendo
Ġcruz ados
ĠFa una
ĠgrÃ¡f icas
ĠNicol as
ĠJord ania
p iaciÃ³n
Ġp ioneros
al ias
am pa
Ġdi amantes
at alidad
Ġpa pas
ĠCon junto
Ġcomple tos
ĠMad onna
utbol ista
Ġacep tadas
Ġanun cios
Ġvoc abulario
Ġindic Ã³
Ġdesaf ÃŃo
ĠrÃŃtm ica
ĠPonte vedra
z uela
on ario
ada gas
Ġj inetes
Ġhom bros
Ġrec to
cas ter
Ġelabor ados
Ġlu ter
Ġama teur
Ġcuan tos
o th
un cias
Ġper dÃ³n
Ġfin ca
Ġgener alizado
ĠPar ques
teg ui
ĠAc ta
Ġviol entos
ĠVi Ã±a
Ġ180 3
Ġais lada
Ġmodific ada
Ġcorre dores
ĠCamp bell
Ġsimbol iza
Ġempu je
Ġagro pecu
Ġdisca pacidad
t ÃŃtulo
u ada
Ġc ep
Ġcon llev
Ã¡ utica
Ġin estable
Ġpres ta
Ġat ol
au x
Ġobst Ã¡culos
ĠCons ervatorio
ĠNic ola
Ġtradu cida
Ġinvad iÃ³
ĠGÃ©n ova
ĠAqu iles
ĠAlc Ã¡zar
Ġexili ados
ĠEar th
Ġcoe ficiente
B ras
b orn
m uy
Ġp iro
ĠP ip
ĠG y
um an
Ġparti endo
Ġdesc ender
Ġdic ta
Ġapoy ada
ĠMc K
Ġenter amente
Ġocup ados
Ã³f ilo
Ġvice presiden
Ġpatrio tas
Ġangust ia
Ġde pres
Ãº d
uc aso
ĠV arela
Ġcar ecÃŃa
et ÃŃn
Ã©c do
Ġro les
Ġdif unto
ĠBal canes
ĠMach ado
Ġcarl istas
Ġincerti dumbre
m Ã¡
oc ha
Ġcons isten
Ġform ulaciÃ³n
ĠIn icios
ĠSan z
Ġdist ante
Ġproce dencia
ĠRec ep
Ġdepen dÃŃa
ĠautÃ©n tica
Ġpromin ente
A b
t Ãºan
ĠS P
ĠM oro
Ġpar ten
ul ador
ten ientes
Ġob rera
Ġle e
Ã³m eros
ĠCor Ã¡n
ĠCal atra
Ġleg endario
Ġempez ando
Ġfra gata
âĢĻ ),
Ġbol as
Ãºr ich
ĠSab io
ĠLeon ard
Ġreca udaciÃ³n
Ġafi cionado
Ġsag rada
ĠMcC artney
ĠGust av
ĠMonten egro
- >
k or
at su
Ġto ur
fer ente
Ġcor riÃ³
Ġab an
tal o
Ġma go
Ġequi par
ĠTo tal
Ġguer rillas
Ġescuch a
ĠWolf gang
Ġimpor taciÃ³n
Ġarbust os
Ġindem n
B e
Ġde tiene
in us
Ġen gran
Ġdo Ã±a
Ġand ina
ĠBer k
Ġcont un
Ġil usiÃ³n
Ġdesapar ecidos
Ġcomport amientos
ĠBea to
Ġarreg lo
ĠGru pos
- .
Ġal ban
Ġar om
ina ta
ens ores
Ġcr ÃŃas
ĠÃģ rabe
Ġprof eta
ĠSo ul
ĠÃ³r bitas
ĠMc G
Ġcatal anes
ĠTri un
Ġvesti dos
Ġfas cin
Ġpantal Ã³n
E m
g ru
v ern
ĠC all
Ġn up
ig no
tas a
Ġdos cientos
Ġfi jar
Ġtraslad ados
Ġcontrib uido
cÃ¡n gel
Ã©ro e
Ġdispar ar
ĠSuc esiÃ³n
Ġiran ÃŃ
m Ã©n
ĠD ada
Ġdes ier
ma g
ĠAl ca
rem berg
Ġconserv Ã³
Ġadap tarse
Ġneu tral
Ġhall ar
inter rum
Ġfolcl ore
prov incia
i ega
ti tas
ĠS pen
Ġb asta
ist os
pi la
Ġref iri
Ġrefer entes
Ġaum entaron
Ġrecu pera
Ġmec Ã¡nicas
Ġtransform ar
net t
194 2
194 4
ĠInf raestruc
Ġexig encias
ĠLÃ© rida
Ġparo dia
Ġveter anos
Ġhumil de
c ero
ĠE lo
Ġre af
ĠM iles
Ġpor tu
Ġd omina
ĠEn ero
Ġar terial
Ġtra e
ÃŃs m
ĠNa cido
ĠSin dica
Ġdistrib uyen
Ã¡ndo las
Ġdecre tos
Ġpermitir ÃŃa
Ġbru tal
Ġec olÃ³gico
Ġacord aron
ket ing
Ġguerrill eros
Ġindependen tista
x idos
ic ados
ĠA gosto
Ġpar is
ĠI van
Ġti p
Ġnom inada
Ġsal vaciÃ³n
Ġcr uces
ĠCam bio
ĠHar old
Ġbio diversidad
Ġpantal las
Ġvice versa
ĠRub io
ĠTin tÃŃn
ĠÃ¡rbi tro
en dÃŃa
di ar
Ġre qui
ĠB lues
ĠAl go
ĠRe ed
ut Ã³
ĠsÃŃ laba
ĠBol onia
ĠMat t
Ġkil ogra
ĠHom ero
Ġrescat ar
ra te
ti le
ĠD od
aj istÃ¡n
Ġtra cciÃ³n
Ġden sa
Ġra tÃ³n
Ġcos echas
Ġvis itado
Ġneg aron
Ġdif iere
Ġbor der
Ġexperim enta
Ġpobl adas
Ġadqui rida
Ġcru do
b ÃŃa
ĠL ea
Ã± Ã³
cl es
ĠEs loven
et to
Ġch am
ĠSa ilor
Ġdeclar aron
ulo use
Ġarque olÃ³gica
ĠPin to
Ġafirma ciones
Ġpredomin io
Ġaisl adas
Ġintes tinal
Ġnumer aciÃ³n
r entes
Ġla ber
in arios
Ġsu dafr
ĠR im
Ã¡s quez
ĠU K
Ġmil icias
ĠMon ts
Ġat Ã³micas
Ġcompar ado
Ġcompar tiÃ³
Ġmol inos
Ġmarc ados
ĠHun t
ĠAntio quÃŃa
ĠThom pson
ĠpresbÃŃ tero
ĠLeip zig
ĠCalatra va
c ta
der ÃŃas
ina e
duc tos
man d
ĠLas t
Ġ10 3
Ġfe udal
Ġins ular
Ġorden amiento
ĠInterna cionales
Ġfrag ment
Ġdiferenci ar
ĠComer cial
Ġconsolid ar
Ġveinti cinco
adagas car
M ej
Å ¾
Ġ Ø
Ġe tim
ĠC es
ĠP uc
ĠEn seÃ±
Ġpo pul
ĠY ear
Ġespe jos
Ġvari ado
ĠMon tero
Ġfal los
fi bios
Ġdescon oc
Ġrepe ticiÃ³n
bul osa
Ġele var
ĠRy an
ĠIll inois
Ġquie bra
ĠlimÃŃtro fes
D a
i diÃ³
Ġn ula
ĠA da
ĠF unciÃ³n
Ġper cep
Ġto tales
ĠDe an
ex uales
ĠHu ay
ĠPh ill
Ġadecu adamente
Ġâ ī
Ġinvoluc ra
Ġdiferenci an
Ġcorpor aciÃ³n
Ġcau tiv
Ãģ n
ĠPlu tarco
Ġtriang ular
ĠLore to
P r
f ace
Ġ risa
Ġcon no
ĠS ina
ĠD as
ĠG Ã¶
cu ta
mo uth
ĠW ho
lam a
Ġinf antes
ĠCas o
ĠCor o
ĠBa ker
Ġdismin uyendo
Ġprohibi da
ĠTol osa
ĠhÃºme da
Par ÃŃs
Ġescrib ÃŃa
ĠBarran quilla
ĠprohÃŃ be
Ġa re
Ġg atos
Ġso ciÃ³
na cido
ple x
dor ra
ific adas
Ġefec tividad
Ġmoder ada
Ġsac Ã³
Ġsem icon
ĠNorm a
Ġsacri ficios
Ġjuz gado
Ġvisigo do
Ġrestable cer
ĠC ip
ĠL lu
Ġest ancias
ĠR onda
Ġres uci
Ġcam inar
Ġsal ido
esti ona
Ġven ÃŃan
Ġcaus an
ĠmÃ© dicas
Ġadap tada
ĠPlan ta
ĠÎ ¼
Ġpred omina
FF FF
Ġexpon ente
P ol
Ġde idades
Ġa portes
ĠD ance
ĠB ola
ĠR ue
Ġco ex
ĠAm beres
Ġfor tificaciones
ĠsÃŃ labas
Ġelim inando
Ġincrem enta
Ġcompren dÃŃa
Ġevolucion ado
ĠEle mentos
cra cia
cap ital
Ġc ese
Ġest Ã¡s
ian i
ĠCa uca
Ġviol aciones
her ine
ĠTur ner
Ġirreg ulares
ĠContin ental
Ġelimina toria
ĠHistor y
Ġc Ã©n
an ga
te ado
Ġin tim
ĠF rom
Ġres idente
ĠPe pe
Ã¡r s
bur gu
Ġdocum entales
Ġsex ualidad
ĠCap it
Ġsil icio
ĠMari ana
Ġfle chas
Ġproxim idades
Ġreele gido
Ġinvis ible
jug ador
Ġc itas
es an
ĠE C
ĠO bre
Ġqui tar
Ãºs cula
ĠJa cinto
Ġdestr uidos
Ġfer ias
Ġexpuls ar
oresc encia
e jos
i ja
al is
Ġfue gos
Ġpo tentes
Ġser iamente
ĠCa fÃ©
ĠTri ple
Ġbusc aban
Ġactiv aciÃ³n
Ġprimi tivos
ĠHom bres
Ġperspec tivas
ĠVlad ÃŃmir
Ġetique ta
Ġzapa tos
Ġcaci que
b oro
en ix
un der
ĠS na
Ġin interrum
des puÃ©s
Ġres idi
pi eron
Ġaf uera
Ġofici os
Ġcomenz aba
Ġcapital ista
Ġprome tiÃ³
Ġultra vi
Ġfronter iza
Ġconlle va
an cha
lo c
ĠCh ic
Ġdiv inidad
Ġinici ando
Ġdomin icano
ĠPal ermo
Ġcri pto
ĠPers onal
vol ta
Ã³p ico
Ġmix ta
h os
Ġf atal
Ġre apar
Ġcom pat
Ġres titu
ĠAl man
fer ia
ide ae
Ġgener ada
teg orÃŃa
Ġri to
Ġdistin tivo
Ġviol on
Ġpul s
Ġsom brero
Ġ180 1
Ġargum enta
Ġfinl andÃ©s
ĠMÃ¡n chester
k is
Ġcon vivencia
di smo
Ġse ts
ĠF amil
Ġsec as
cho v
Ġorganiz adas
Ġdirig irse
ĠSte in
ĠPu ig
ĠWe ber
Ġcorrec ciÃ³n
Ġlegisla tiva
Ġtranscur re
Ġartef actos
ĠIsid oro
b ada
Ġe tr
Ã³ polis
ĠL ig
tor e
ĠH ap
ĠN Ã³
Ġna turalmente
ĠW on
ĠNa k
Ġoc ci
ĠPor fi
ĠLe tonia
Ġz inc
ĠCol ec
Ġampl iado
Ġidentific an
Ġgalard Ã³n
Ġpatri arca
Ã©n d
ici ano
ĠUn ix
tic s
Ġmil en
Ġgobern ada
Ġsoci ologÃŃa
Ġol vid
Ġjud ÃŃas
Ġestatu tos
Ġcomunic arse
Ġvient re
M C
z Ãº
Ġam ores
Ġco pas
Ġmis ionero
Ġdestac able
Ġinform al
ĠIm port
Ġhorizon tales
Ġl ente
ic anos
Ġin und
tr ados
ĠH ep
ÃŃn as
Ġinter valos
Ġsitu Ã³
Ġcin es
Ġaum ent
Ġcompeti dores
Ġescal ar
Ġverte brados
Ġaerol ÃŃneas
ĠLocal idades
Ġreli quias
Ġc ena
en c
Ġh ilos
cion adas
Ġpro posiciÃ³n
ada via
Ġme ga
Ġman dos
ton o
Ġinv entÃ³
Ġpon iente
ĠRes earch
Ġhisp ana
l ios
s am
Ġde gener
ol io
ĠS ter
Ġv era
Ġb ios
im ir
Ġna ciente
ion ados
ĠLuis iana
Ġcompar tida
Ġge org
ick s
Ġimpl ÃŃci
ĠPon tificia
Ġpais aj
fal ia
Ġp ilas
Ġel abora
ÃŃ qu
ab ar
ĠG ames
Ã¡s car
ĠAl lan
19 28
Ġciudad ana
udi ta
Ġespec ula
Ġdepor tistas
Ġatrib uyen
Ġexac titud
Ġanat omÃŃa
ĠZapa ta
Ġafron tar
ĠIber ia
Ã³ metros
ĠU NA
Ġhom bro
Ġautor izÃ³
Ġmas ac
ĠGar ci
Ġconec tados
ĠProto colo
s iva
ic to
Ġest rib
la b
Ġpo tes
Ġem iten
ĠCom pe
Ġdeb emos
Ġespec tador
Ġtum ores
Ġremo del
Ġparlament arios
Ġrin diÃ³
ĠpolÃŃg ono
ĠComien za
Ġpeti ciones
de f
Ġl laves
ĠC ross
ĠG ur
Ġpr er
Ġem po
ĠCh ico
Ġsol id
ĠAr tem
ĠRo th
Ġbas al
Ġmejor ado
Ã¡st icamente
ĠAutor idad
Ġconcent ran
Ġapoy an
ĠBos co
ĠMich o
Ġintroduci da
Ġelectromagn Ã©tica
r encia
in ismo
Ġg im
ĠG erona
ari e
Ġma tric
Ġus ual
et he
Ġactu alizaciÃ³n
Ġcomp Ã¡s
ĠCan nes
Ġesp adas
Ġfa tiga
ĠWil d
Ġmulti plicaciÃ³n
Ġdesempe Ã±a
ĠVel oci
ĠPel ÃŃculas
ĠarquitectÃ³n icos
ĠMemor ial
ĠNik ol
Ġcoment ario
ĠTempor adas
Ġpar entes
ĠD ro
ĠLa ke
bl ast
19 25
ĠZ Ãºrich
Ġtrav esÃŃa
Ġorganiz aron
Ġvalor aciÃ³n
ĠBra h
Ġclim Ã¡ticas
Ġs orte
ari us
Ġtermin aciÃ³n
hu acÃ¡n
Ġsa xo
Ġconse jeros
Ġfall ido
Ġgras os
ĠhÃ¡bita ts
Ġhundi miento
. /
Ġin cum
ĠF omento
ĠW is
Ġreg ad
Ġcl on
Ġmon gol
Ġinici an
ific ador
fon so
ĠEm baj
ĠGra u
Ġayud aron
Ġsuce dieron
ĠMat h
Ġpul mones
Ġemb riÃ³n
Ġvac una
ĠQuin to
campe Ã³n
Ġabsol utamente
in Ã©s
ĠC rea
tu rista
Ġdes ech
19 19
Ġro to
Ġ8 000
ĠmÃ© rito
uri er
Ġfuncion Ã³
ĠAb ad
ĠHu a
Ġsustitu ye
Ġrepar tidos
Ġprom ueve
ĠCÃ¡ ucaso
ĠRog ers
Ġmembran as
Ġcil indro
iser ie
haus en
Ġreba u
Bras il
T a
á »
ci ne
ti cias
ĠS tran
Ġd arÃ¡
bi ts
dr ÃŃan
bol dt
Ġsub yac
Ġqued arÃŃa
Ġregres aron
Ġpromo vido
ĠCuar ta
Ġevolu tiva
Ġprolifer aciÃ³n
c ribe
Ġc Ã©sped
re la
Ġcom isiones
Ã± or
ĠB Ã©isbol
Ġso porta
ĠRa in
ĠEsc uelas
Ġenfrent an
ĠGa za
ĠastrÃ³n omos
ĠBereng uer
ĠsÃ¡ns crito
Ġc aba
er ma
Ġt ÃŃa
ĠT imo
ĠG ris
ble don
ĠRo ber
col m
Ġdomin antes
Ġdetermin an
ĠEd die
Ġvan guar
ĠGuadal quivir
Ġanal ÃŃtica
Ġdelan tera
Ġfemin ista
ĠChampi on
ĠCÃŃv ica
D i
M T
f Ã³nico
Ġe rupciones
Ã³ do
Ġdel gado
Ġb estia
ĠR Ã©
ĠG ros
Ġcu Ã¡ndo
Ġac titudes
Ġmon goles
pol o
Ġderro car
Ġrecur rente
ĠGra cia
âĢĻ ).
pal os
Ġindic ando
Ġcoloc aciÃ³n
ĠIr ving
ĠJul es
ĠKaz ajistÃ¡n
Ġneocl Ã¡sico
Ġcilin dros
f fa
ĠF an
ĠV os
Ġcor dill
ĠDe presiÃ³n
ĠCam pan
mer alda
ĠÃŃn dole
Ġaus p
ĠVill al
Ġped anÃŃa
ĠGir l
ĠValent ÃŃn
ĠExper im
S in
w i
Ġm ÃŃtico
ol os
ĠM ap
ul i
im an
Ġdes ag
Ġem anci
ĠEs lovaquia
19 27
ĠK enia
ÃŃst ola
Ġch icas
Ġllev arse
Ġrev al
Ġven ir
Ã©l icas
az ine
Ġcomb inar
Ġdescri tos
ĠOb tuvo
Ġesca pa
Ġpetrol era
Ġperpendic ular
P la
e qui
st ruy
ĠC V
ĠS cor
le a
ĠP ich
vi ano
ones es
Ġas pi
Ġgran ja
Ġfin ito
ĠDe troit
ust e
Ġver bos
fa go
Ġ% ),
Ġalmac enes
Ġnor deste
Ġdom es
Ġhermos o
Ġdesf avor
fri ed
ic en
ĠC en
Ġdi d
Ġdi arias
ĠG P
vi dos
pi to
ve das
eci ente
Ġmu taciÃ³n
Ġreci piente
ĠPa olo
ĠVal verde
Ġtrabaj aban
Ġapo dado
Ġcat ar
Ġexcl usiÃ³n
Ar t
L S
Ġde tona
Ġcon desa
Ġest ir
ul le
ĠU tah
ĠK el
Ġestre chas
Ġderro tando
ĠCab eza
Ġbor ra
Ġsome tida
Ġsobrevi vientes
Ġorto grafÃŃa
ĠsÃºb ditos
o a
t ÃŃas
ĠA randa
ĠO bi
ĠW ell
Ġgas tro
ĠSy m
ĠvÃ¡l ido
ju ana
Ġelimina torias
Ġsindica to
Ġerudi tos
g aban
Ġen trando
ĠA ire
ch igan
ib ar
pl in
Ġparti tura
Ġreg ener
ĠCar tas
ĠPro bablemente
Ġtermin arÃŃa
Ġir se
ĠMor e
Ġsepar arse
Ġreco gen
ĠGa udÃŃ
Ġ180 5
Ãºr ico
Ġpreocu paciones
ĠVil lam
ĠRecon quista
Ġguaran ÃŃ
Ġceb ada
al los
Ġn udo
Ġv Ã©ase
Ġno tor
ĠIn stituciÃ³n
ĠW ord
Ġcer radas
ĠDes ign
Ġpla y
Ġmer c
ines s
Ġextre mas
Ġdistrib uida
Ġregist radas
Ġcla usura
Ġbol s
Ġvie tnam
Ġevolucion Ã³
Ġlegis l
Ġandal uz
Ġmanz anas
ĠBis marck
ĠAleks andr
ĠPrÃ³ ximo
Ġl entes
ĠAl ve
ĠW ang
Ġad ven
all ones
Ġencontr ada
ĠEm pez
Ġabog ados
Ġabre via
ĠWest minster
ĠIgu al
Ġexces ivo
Ġileg ales
ĠsanguÃŃn eo
Ġdesgra cia
ĠAuton omÃŃa
Ġt enta
Ġma tor
Ġro t
Ġcin Ã©tica
Ġvo tantes
Ġarri es
Ġencabez Ã³
Ġmet Ã¡f
Ġdespe dido
Ġadmi tiÃ³
Ġsobr en
ĠDion isio
ĠMars ella
ĠParal el
Î ¸
Ġs able
Ġv emos
Ġb acteria
Ġac usa
ĠCh en
Ġcre adores
Ġher edad
Ġplan ici
Ġexpres an
ĠMer idi
tz sche
ĠBat allÃ³n
Ġfranco tir
Ġprimo gÃ©n
Ġinsu ficiencia
n ol
ĠC I
Ġdi e
oc on
ĠMar tÃŃ
Ġpe at
Ġtu tela
ĠLu tero
Ġextra Ã±os
ĠCrist iano
ĠCla y
Ġarque ologÃŃa
Ġdeleg ado
Ġprove edores
Ġcomplic ado
ĠcÃŃ cl
Ġarmen io
ĠAcos ta
1 20
p f
ĠS z
Ġes feras
ĠD re
ĠR ugby
vi das
ĠI de
ĠK oso
Ġu sted
Ġcal ientes
Ġencuent re
ĠZ u
az ones
aca f
Ġcontrib uyen
ĠHum boldt
ĠRiv adavia
Ġconcej al
Ġembara zada
ox id
Ġerudi to
Ġira quÃŃ
ri ano
Ġin her
ĠP eople
Ġpro poner
at ologÃŃa
Ġr usas
Ġim ple
lan eda
ĠSe attle
Ġtrans por
ĠMe h
Ġelec tos
193 7
ĠCre ta
Ġmodific Ã³
Ġrestr icciÃ³n
Ġencom end
Ġsindic al
u ki
ol eo
ĠA viaciÃ³n
ĠM endi
da via
il y
ĠT it
ĠJ uego
Ġpos turas
Ġro ll
ĠTo ulouse
Ġba ila
Ġlanz amientos
ĠPr incesa
ĠAy ac
ĠQui roga
Ġautom Ã¡tico
Ġresal tar
Ġgir ar
ĠvÃ©rtic es
Ġprimor dial
A A
il s
Ġex ista
ĠCon sta
ton eros
Ġpol ares
Ġcer co
Ġban ca
Ġinform ar
Ġcat as
Ġhumor ista
ĠSag rada
Ġexpon entes
Ġboxe ador
c Ã¡
Ø ±
te llo
ĠC rom
Ġre porta
ĠB ent
ĠR uf
ĠH and
ĠV illas
ca ci
Ġsal iendo
Ġra b
Ġfr entes
ĠCap itan
Ġelabor Ã³
Ġsuje ta
ĠPie tro
ade cu
ĠS ide
Ġcu bo
go bierno
qu ill
Ġpol os
ĠMon arquÃŃa
Ã¼ n
Ġsex os
Ġgal o
Ġprepar ados
ĠLi ter
Ġlider Ã³
Ġdiscu tir
Ġrefiri Ã©ndose
Ġcon fer
Ã± era
Ġb l
ĠV ik
Ġcontinu os
ĠSh Åį
Ġesper mato
Ġlic enciado
Ġescul t
ĠFis cher
Ġeclesi Ã¡stico
ĠRA M
llam ado
mu jer
ĠBrig ada
ĠÃģr bol
Ġenam orado
ĠSpr ing
Ġdens amente
Ġen ana
Ġt ÃŃ
Ġcon tag
ĠL iz
Ġg av
19 23
Ġmon tar
ĠX box
tam os
ĠacompaÃ± amiento
Ġpractic an
Ch ile
Ġasign aciÃ³n
Ġsam ur
ĠnÃ³m adas
ĠWim bledon
g ala
ĠE ch
ĠL arra
ĠM adagascar
ĠG imnas
ambi que
Ġem bos
Ġembar cÃ³
ĠCu rios
Ġrom p
ĠGo tt
Ġpon ÃŃa
Ġcome tidos
ĠAir ways
ĠCin emato
ĠLl ano
ĠTrum an
Ġmanifest antes
ã Ģ
an um
Ġper ÃŃmetro
ĠN ol
mo ur
Ġle uc
ĠK r
ĠMar adona
Ġcre ma
ach as
dor as
Ã³l era
Ġcandida turas
Ġpermit ÃŃan
Ġimplic ados
Ġconsag rÃ³
Ġhipo t
Ġrazon amiento
Ġlinf ocitos
Ġdren aje
ĠStad ium
Ġ ?
Ġc era
ĠE isen
ĠT omo
Ġan Ã©cdo
Ġcan tera
Ġpol if
ĠDe ep
Ġloc almente
tan ol
ĠTh Ã©
ĠAten ea
Ġprev ista
Ġrequis ito
Ġcorreg ir
ĠAmbi ente
ĠLabora torio
p ica
Ġde ficiencia
in ten
ĠD ici
Ġex hi
ras h
Ġ17 76
ĠAm igos
Ġbar ba
Ġ14 92
Ã¼ h
Ġmer ced
Ġint entaba
Ġencontr adas
Ġsan ciÃ³n
Ġenerg Ã©tico
Ġol ig
ines es
ĠHe ad
ĠRol l
ĠPatri cia
Ġpref ieren
Ġgarant ÃŃas
c uer
l ares
w ing
Ġl ombar
on arios
Ġf ide
Ġes lov
ĠN uestro
Ġr on
if as
Ġpol lo
Ġcl ado
Ġch al
Ġrom erÃŃa
Ġespec ÃŃmenes
Ġaplic an
Ġconfirm ar
Ġunif ormes
Ġcompati bles
Ġindirec tamente
Ġbrin da
C Ã³mo
ĠB Ã©jar
us oleo
Ġcu ota
Ġte ch
ĠK h
aliz arse
ĠY as
Ġvol taje
ĠLu ci
val ente
Ġestre chos
Ġproce diÃ³
Ġofre cieron
Ġconduc tores
Ġconde cor
ĠmÃ¡r tires
Ġtendr Ã¡n
Ġpidi endo
ĠConc acaf
ĠKirch ner
ĠHud son
R a
ĠI ren
ĠO sa
Ġni Ã±ez
Ġapro xima
Ġacab arÃŃa
ĠTur ÃŃstico
Ġindic ado
Ġasc ensiÃ³n
ĠNÃº remberg
Ġeclesi Ã¡sticos
Ġarran que
ĠJug adores
ĠPÃ¡ ez
Ġum bral
ĠPerio do
i ji
lo j
ĠH av
Ġem prender
ĠAn dorra
Ġescri bieron
ĠJos e
Ġ10 2
ĠLu ciano
Ġrecon quista
Ġang lic
Ġamist oso
Ġinno vador
Ġove jas
ĠMaris cal
ĠCual quier
ĠÃŃntegra mente
D T
b ulos
h ombre
Ġde cep
Ġc im
Ġla m
Ġcar nes
Ġreg ÃŃmenes
ĠÃ ĸ
Ġgo za
ĠCor re
ĠMan ch
Ġlim itados
Ġexitos os
Ġgarant ÃŃa
an ista
un tamientos
ist ad
ĠI ta
ĠH izo
Ġcre yÃ³
ech tenstein
ĠBo ok
Ġdem Ã³crata
Ġconoc ÃŃan
Ġexpl icaciones
Ġta pa
ĠacompaÃ± ar
Ġdesign ados
Ġ179 7
Ġfas cista
Ġconvoc ar
Ġafi anz
Ġmovil izaciÃ³n
Ġpist ola
hib en
Ġdona ciones
ĠAyac ucho
ent s
ri tis
Ġh uecos
ĠA riel
ĠL iu
ĠT us
pe ta
Ġpres bi
Ġpas ados
et rio
tic u
Ġbo tella
Ġprome te
Ġtop ologÃŃa
ĠvÃ¡l ida
ĠMemor ias
Ġcompi laciÃ³n
ĠConven io
c aron
l iano
w ic
Ġal ude
lo ga
ĠJ ara
Ġar bol
Ġar ticular
Ġma tr
id amente
ĠNo u
Ġpoten cialmente
Ġcontr aria
ĠrÃ¡pi das
ĠSte v
Ġacab aba
Ġsignific ar
Ġarque Ã³logo
Ġequival encia
Ġplane ado
Ġdiag rama
Ġret rans
Ġmelo dÃŃas
Ġasim il
Ġclor uro
M ov
u jo
de x
Ġmun di
Ġden so
Ġ10 9
Ġjug ada
ĠmÃ¡ st
Ġcontrol ados
Ġfundam entos
ĠVi ernes
Ġsosten ible
Ġnove dad
Ġluminos idad
Ġcon gre
ĠA pen
il ia
Ġven ciendo
Ġpartici paciones
Ġpermi ta
Ġvis cos
Ġesp ÃŃn
ĠÃ³ sea
Ã©m ica
ĠRes iden
Ġ180 4
Ġadecu adas
Ġargum entÃ³
Ġvincul ada
Ġhomosex ual
f echa
Ġf icha
ĠE A
ĠI x
Ġan fibios
ut ri
ust er
ĠMal colm
Ġfalle cidos
ĠSil vestre
ĠInf antil
Ġtub Ã©r
Ġbiz antina
ĠSitu ado
Ġlogo tipo
Ġconfe deraciÃ³n
ĠAugu sta
Ġcifr ado
F e
ä ¸
om bra
do c
Ġsu dor
ist es
ĠB ara
oc Ã³
Ġas ienta
ĠCh er
all i
ĠLe ib
ĠMad ison
Ġliber ados
Ġcompar ar
Ġdistrib ui
Ġtecn olÃ³gica
Ġsustitu to
Ġmulti media
ĠJul ie
Ġ179 1
Ġpiel es
Ġfortal ecer
Ġllan to
Ġneer landeses
Ġcultiv ar
Ġrecord ado
ĠÃ³p tico
Ġham br
ĠbÃ³ vedas
ĠAlar cÃ³n
ĠcÃºm ulo
n ada
ti es
Ġest i
Ġcan tones
ÃŃgen as
Ġemple os
mit as
ĠHu Ã¡scar
Ġgrab ada
Ġprepar Ã³
ĠMill Ã¡n
ĠfÃ©r tiles
ĠStra uss
Ġagre ga
ĠHerac les
ĠObre gÃ³n
P P
Ġt rim
ĠM B
ĠG T
Ġrecon quist
Ġsab io
Ġprovoc ada
Ġestim Ã³
rie la
ĠNorm al
Ġesque mas
ĠmetÃ¡l ica
Ġple be
Ġperseg uir
Ġcriol lo
Ġmanio bras
ĠNept uno
e an
h idro
ĠE fectos
ĠA pos
ter es
Ġdes Ã©r
ĠV ela
tre o
Ġap Ã©n
Ġsal tos
Ġ10 6
ĠCan tÃ¡
ĠBo x
ha w
Ġcaus ados
Ġenerg Ã©tica
Ġtecn olÃ³gicos
Ġconform aciÃ³n
Ġcoloc an
Ġbi olÃ³gicas
Ãºr gico
ĠGil bert
urg ia
ĠPC E
ĠSom alia
Ġret Ã³rica
Ġaudio vis
ĠFlo ta
ĠDuran go
ĠContemporÃ¡n ea
ĠRudo lf
1 10
r ÃŃo
Ġa portar
ĠL on
ĠP ilo
ĠG az
ĠH ag
til de
uran do
uel en
Ġcal zada
dic to
Ġinform Ã¡tico
ĠSus an
Ġdistrib uido
Ġtex tura
Ġmens ual
vie w
Ġocul tar
ĠEp ic
Ġsemej anza
ĠcilÃŃn dr
Ġist mo
Ġnauf rag
ĠDici embre
a gua
p ando
Ġh ib
ĠI C
ap an
Ġhum ed
ĠÃģ reas
Ġmol es
ĠfÃ¡ ciles
Ġreac tor
Ġartes anÃŃa
ĠLor ena
Ġ179 4
hua hua
ĠArti gas
ĠFir st
ĠRecur sos
I m
L C
ar de
ĠRe alizÃ³
erv os
Ġ10 7
Ġsub gÃ©nero
hi ro
Ġvolun t
Ġsubs istencia
Ġhere dera
ĠMis uri
ĠMonta Ã±as
f ono
Ġc eg
Ġh emor
ter ÃŃas
ĠF ace
ve d
Ġpas ada
ion s
ĠMus ical
Ġpat rim
Ġtoc aba
Ġmel Ã³
Ġsupon en
ĠparÃ¡ metro
Ġanfit riÃ³n
ĠAvel laneda
Mej or
y ar
ĠL isa
Ġre a
esti as
Ġdirec torio
ĠPro vis
Ġinform ado
ĠCa usa
Ġtur ÃŃsticas
Ġdesconoci das
Ġexplos ivos
Ġpatrocin io
contin ente
Ġost enta
Ġprotector ado
Ġapor taciones
Ġinsurg entes
ĠEsloven ia
p un
Ġl oca
on ados
st an
ab ria
em bra
co pia
Ġcar ibe
inas tÃŃas
ĠSin fonÃŃa
Ġneces itar
Ġtom os
Ġol iva
Ġfinaliz ando
ello w
ĠvÃ©r te
Ġcriol los
Ġluc ro
Ġcolabora ciones
Ġanteces or
ĠPho enix
ĠMÃŃ chigan
Ġparentes co
an or
Ã³ podos
Ġun ÃŃa
Ġcom en
cl ismo
ĠDe la
Ġsin taxis
Ġespe cias
ĠpolÃŃ m
Ġ7 50
Ġcomple tado
rag ma
Ġaut oma
Ġsac a
Ġpens ando
Ġconsig uen
Ġviol inista
Ġsum ado
Ġfabric ado
Ġhel adas
Ġgole ada
Ġconfundir se
ĠBag dad
ĠQues ada
A d
j ados
om y
ti el
ĠS ino
ĠP utin
Ġpro fec
ĠO nl
ĠEst ambul
Ġmu da
Ġdo tado
Ġestudi ando
ĠPo e
minist ra
ĠPin k
Ġajust e
ĠSel va
Ġrobo ts
ĠNum eros
Ġjugue tes
ĠParalel amente
m ic
Ġ ond
Ġen tierro
Ġt itan
ĠS ra
Ġdi abetes
ĠH oras
Ġex Ã¡menes
Ġac tivas
Ġr entas
ib ia
ĠCon cha
Ġpe ores
ĠPa v
ĠNacional ista
Ġfal las
Ġcaus aron
ĠCa dena
Ġgen Ã©ticos
Ġauto pistas
Ġjust ificar
Ġagu ja
Ġfabric ados
Ġdesconoci dos
Ġporta voz
Ġrobo t
Ġcurios idad
dif usiÃ³n
ĠKoso vo
F L
Ġs entado
Ġb Ã¡
ĠH MS
Ġor ejas
Ġdirec tas
Ġvi al
Ġdem Ã³cratas
Ġinaug ural
ĠlingÃ¼ ÃŃsticas
Ġmila gro
Ġplayo ffs
ĠMicho acÃ¡n
v ario
Ã į
Ġs ient
is se
tr ich
19 10
ĠK la
ĠCh im
Ġcan chas
ĠCom mun
tim ore
ĠInf ancia
Ġexplo taciones
Ġcub anos
Ġexig ÃŃa
Ġinfin ita
Ġdesarrol los
ĠtÃºn eles
Ġgem elos
Ġdesigual dad
Ġtripul antes
Ġplebis cito
J a
Ġa per
ci era
re te
eros is
me diatamente
cios os
cios as
ĠAle jo
ĠOr gan
cel lo
cent ri
ĠCrist al
Ġconsecu tivo
tim amente
Ġposterior idad
Ġartes anal
Ġcoinci diÃ³
ĠMic key
landes as
ĠSant ana
ĠRaim undo
ra z
ĠM uro
ĠR is
ĠR ita
ĠF am
Ġcar gado
ĠÂ« Â¿
Ġpre cep
ĠW ith
id an
Ġcul tos
Ġder ram
Ġir landeses
Ġesp uma
ĠAst or
ĠTi juana
Ġenter ra
ĠBat tle
ĠAuto pista
Ġsaque o
Ġdepre dadores
Ġagrad able
ĠMcL aren
A ll
a tern
g ir
w idth
Ġes g
ĠB ic
ĠG ue
ur ce
og rÃ¡ficamente
ĠW en
ĠCar o
ĠCom posiciÃ³n
car ga
Ġtransform ado
Ġali adas
Ġnar co
Ġmet ano
Ġhaci endas
Ġrig or
Ġaliment aria
mil itar
Ġdiri gen
m ig
ad ier
Ġf osa
Ġal iento
Ġpar ar
ia ta
ÃŃs imos
Ã©c tica
id ra
ĠJu z
ĠJu das
Ġelec tores
pr endido
asa ki
Ġregist ran
Ġdeber es
ĠEscu ad
ĠCastell Ã³n
ĠToda vÃŃa
ĠvÃ¡lv ulas
ĠHugh es
Ã³do to
Ġv ern
Ġal udi
Ġdi jeron
ĠT ed
ĠB om
Ġreg encia
Ġdef endÃŃa
Ġexten sos
Ġpin tÃ³
Ġpens ado
Ġapoy aron
erra t
ĠGab inete
Ġger min
Ġsobrevi vido
Ġsatisf acciÃ³n
Ġbau tismo
ĠBea u
Ġperegr inaciÃ³n
Ġconmemor ar
u ba
Ã »
de c
Ġh uyeron
Ġsu bl
ĠM P
il era
ĠT ierras
19 22
ve t
ual pa
pul co
Ġpul so
ĠGab riela
dom en
ĠSport s
Ġdivor ci
Ġbolchevi ques
E di
en ciÃ³n
Ġy uca
tu alidad
ide portivo
ĠDe pendiendo
Ġfr icciÃ³n
Ġdescri tas
ĠJun ÃŃn
Ġali ada
Ġ179 5
Ġadecu ados
Ġlist ado
Ġcenten ar
Ġpsi quia
h ima
al em
ĠM oy
Ġb Ãº
Ã©s ima
ajes tad
ĠTra tamiento
Ġestar ÃŃan
Ġ180 2
we en
Ġrepe tidas
Ġprevi as
Ġemo ciÃ³n
ĠTab la
Ġconcur sos
Ġsustan tivo
Ġvist os
ĠclÃ©ri gos
Ġdesgas te
ĠDÃ©c ada
y i
y ne
Ġc ef
re do
us an
Ġpas aban
ĠY uri
mi le
Ġgan ancia
Ġins a
col ar
ĠCl Ã¡sico
ĠJust iniano
trop ÃŃa
ĠEscri tores
Ġmel an
Ġmicros copio
ĠCharlo tte
Ġhidrocar buros
g h
p ad
p unto
Ġen Ã©r
ĠC Ã³n
Ġb Ã©lico
Ġcar ol
Ġsol idaridad
Ġz orro
ĠCo fradÃŃa
Ġven as
Ġdu quesa
[...]
