{
  "version": "1.0",
  "truncation": null,
  "padding": null,
  "added_tokens": [
    {
      "id": 0,
      "content": "<pad>",
      "single_word": false,
      "lstrip": false,
      "rstrip": false,
      "normalized": false,
      "special": true
    },
    {
      "id": 1,
      "content": "<bos>",
      "single_word": false,
      "lstrip": false,
      "rstrip": false,
      "normalized": false,
      "special": true
    },
    {
      "id": 2,
      "content": "<eos>",
      "single_word": false,
      "lstrip": false,
      "rstrip": false,
      "normalized": false,
      "special": true
    },
    {
      "id": 3,
      "content": "<wiki>",
      "single_word": false,
      "lstrip": false,
      "rstrip": false,
      "normalized": false,
      "special": true
    },
    {
      "id": 4,
      "content": "<poem>",
      "single_word": false,
      "lstrip": false,
      "rstrip": false,
      "normalized": false,
      "special": true
    },
    {
      "id": 5,
      "content": "<sep>",
      "single_word": false,
      "lstrip": false,
      "rstrip": false,
      "normalized": false,
      "special": true
    },
    {
      "id": 6,
      "content": "<nl>",
      "single_word": false,
      "lstrip": false,
      "rstrip": false,
      "normalized": false,
      "special": true
    }
  ],
  "normalizer": null,
  "pre_tokenizer": {
    "type": "ByteLevel",
    "add_prefix_space": true,
    "trim_offsets": true,
    "use_regex": true
  },
  "post_processor": null,
  "decoder": {
    "type": "ByteLevel",
    "add_prefix_space": true,
    "trim_offsets": true,
    "use_regex": true
  },
  "model": {
    "type": "BPE",
    "dropout": null,
    "unk_token": null,
    "continuing_subword_prefix": null,
    "end_of_word_suffix": null,
    "fuse_unk": false,
    "byte_fallback": false,
    "ignore_merges": false,
    "vocab": {
      "<pad>": 0,
      "<bos>": 1,
      "<eos>": 2,
      "<wiki>": 3,
      "<poem>": 4,
      "<sep>": 5,
      "<nl>": 6,
      "!": 7,
      "\"": 8,
      "#": 9,
      "$": 10,
      "%": 11,
      "&": 12,
      "'": 13,
      "(": 14,
      ")": 15,
      "*": 16,
      "+": 17,
      ",": 18,
      "-": 19,
      ".": 20,
      "/": 21,
      "0": 22,
      "1": 23,
      "2": 24,
      "3": 25,
      "4": 26,
      "5": 27,
      "6": 28,
      "7": 29,
      "8": 30,
      "9": 31,
      ":": 32,
      ";": 33,
      "<": 34,
      "=": 35,
      ">": 36,
      "?": 37,
      "@": 38,
      "A": 39,
      "B": 40,
      "C": 41,
      "D": 42,
      "E": 43,
      "F": 44,
      "G": 45,
      "H": 46,
      "I": 47,
      "J": 48,
      "K": 49,
      "L": 50,
      "M": 51,
      "N": 52,
      "O": 53,
      "P": 54,
      "Q": 55,
      "R": 56,
      "S": 57,
      "T": 58,
      "U": 59,
      "V": 60,
      "W": 61,
      "X": 62,
      "Y": 63,
      "Z": 64,
      "[": 65,
      "\\": 66,
      "]": 67,
      "^": 68,
      "_": 69,
      "`": 70,
      "a": 71,
      "b": 72,
      "c": 73,
      "d": 74,
      "e": 75,
      "f": 76,
      "g": 77,
      "h": 78,
      "i": 79,
      "j": 80,
      "k": 81,
      "l": 82,
      "m": 83,
      "n": 84,
      "o": 85,
      "p": 86,
      "q": 87,
      "r": 88,
      "s": 89,
      "t": 90,
      "u": 91,
      "v": 92,
      "w": 93,
      "x": 94,
      "y": 95,
      "z": 96,
      "{": 97,
      "|": 98,
      "}": 99,
      "~": 100,
      "¡": 101,
      "¢": 102,
      "£": 103,
      "¤": 104,
      "¥": 105,
      "¦": 106,
      "§": 107,
      "¨": 108,
      "©": 109,
      "ª": 110,
      "«": 111,
      "¬": 112,
      "®": 113,
      "¯": 114,
      "°": 115,
      "±": 116,
      "²": 117,
      "³": 118,
      "´": 119,
      "µ": 120,
      "¶": 121,
      "·": 122,
      "¸": 123,
      "¹": 124,
      "º": 125,
      "»": 126,
      "¼": 127,
      "½": 128,
      "¾": 129,
      "¿": 130,
      "Â": 131,
      "Ã": 132,
      "Ä": 133,
      "Å": 134,
      "Æ": 135,
      "Ç": 136,
      "È": 137,
      "É": 138,
      "Ê": 139,
      "Ë": 140,
      "Ì": 141,
      "Í": 142,
      "Î": 143,
      "Ï": 144,
      "Ð": 145,
      "Ñ": 146,
      "Ò": 147,
      "Ó": 148,
      "Ô": 149,
      "Õ": 150,
      "Ö": 151,
      "×": 152,
      "Ø": 153,
      "Ù": 154,
      "Ú": 155,
      "Û": 156,
      "Ü": 157,
      "Ý": 158,
      "Þ": 159,
      "à": 160,
      "á": 161,
      "â": 162,
      "ã": 163,
      "ä": 164,
      "å": 165,
      "æ": 166,
      "ç": 167,
      "è": 168,
      "é": 169,
      "ê": 170,
      "ë": 171,
      "ì": 172,
      "í": 173,
      "ï": 174,
      "ð": 175,
      "ô": 176,
      "Ċ": 177,
      "č": 178,
      "Ġ": 179,
      "ġ": 180,
      "Ģ": 181,
      "ģ": 182,
      "Ĥ": 183,
      "ĥ": 184,
      "Ħ": 185,
      "ħ": 186,
      "Ĩ": 187,
      "ĩ": 188,
      "Ī": 189,
      "ī": 190,
      "Ĭ": 191,
      "ĭ": 192,
      "Į": 193,
      "į": 194,
      "İ": 195,
      "ı": 196,
      "Ĳ": 197,
      "ĳ": 198,
      "Ĵ": 199,
      "ĵ": 200,
      "Ķ": 201,
      "ķ": 202,
      "ĸ": 203,
      "Ĺ": 204,
      "ĺ": 205,
      "Ļ": 206,
      "ļ": 207,
      "Ľ": 208,
      "ľ": 209,
      "Ŀ": 210,
      "ŀ": 211,
      "Ł": 212,
      "ł": 213,
      "Ń": 214,
      "de": 215,
      "Ġde": 216,
      "Ġe": 217,
      "Ġl": 218,
      "os": 219,
      "Ġc": 220,
      "er": 221,
      "Ġp": 222,
      "en": 223,
      "Ġa": 224,
      "on": 225,
      "ar": 226,
      "as": 227,
      "es": 228,
      "nl": 229,
      "Ġ<": 230,
      "Ġs": 231,
      "an": 232,
      "ci": 233,
      "or": 234,
      "Ã³": 235,
      "Ġla": 236,
      "ad": 237,
      "al": 238,
      "in": 239,
      "Ġen": 240,
      "ue": 241,
      "un": 242,
      "Ġm": 243,
      "re": 244,
      "st": 245,
      "Ġel": 246,
      "Ġy": 247,
      "te": 248,
      "ÃŃ": 249,
      "ic": 250,
      "que": 251,
      "Ġt": 252,
      "Ã³n": 253,
      "om": 254,
      "Ġcon": 255,
      "ra": 256,
      "Ġun": 257,
      "Ġque": 258,
      "Ġf": 259,
      "ro": 260,
      "di": 261,
      "ĠE": 262,
      "Ã¡": 263,
      "ti": 264,
      "do": 265,
      "Ġse": 266,
      "ent": 267,
      "ri": 268,
      "Ã©": 269,
      "Ġh": 270,
      "ĠC": 271,
      "ciÃ³n": 272,
      "am": 273,
      "Ġdel": 274,
      "ol": 275,
      "Ġn": 276,
      "Ġlos": 277,
      "Ġsu": 278,
      "ĠA": 279,
      "Ġ1": 280,
      "ĠS": 281,
      "ĠL": 282,
      "ta": 283,
      "Ġre": 284,
      "to": 285,
      "Ġo": 286,
      "Ġv": 287,
      "Ġes": 288,
      "le": 289,
      "Ġin": 290,
      "Ġcom": 291,
      "Ġ(": 292,
      "ado": 293,
      "ĠP": 294,
      "ĠM": 295,
      "Ġest": 296,
      "la": 297,
      "Ġpor": 298,
      "Ġal": 299,
      "Ġpar": 300,
      "ab": 301,
      "Ġg": 302,
      "ÃŃa": 303,
      "ente": 304,
      "is": 305,
      "res": 306,
      "da": 307,
      "Ġlas": 308,
      "tu": 309,
      "il": 310,
      "Ã±": 311,
      "Ġb": 312,
      "io": 313,
      "ran": 314,
      "Ġuna": 315,
      "Ġd": 316,
      "ica": 317,
      "ec": 318,
      "ist": 319,
      "Ġdi": 320,
      "ul": 321,
      "im": 322,
      "dad": 323,
      "cion": 324,
      "ter": 325,
      "ia": 326,
      "el": 327,
      "ĠT": 328,
      "ĠD": 329,
      "ig": 330,
      "ĠB": 331,
      "Ġpro": 332,
      "ada": 333,
      "em": 334,
      "Ãº": 335,
      "ĠR": 336,
      "Ġ19": 337,
      "bi": 338,
      "cia": 339,
      "Ġ2": 340,
      "us": 341,
      "ui": 342,
      "Ġcomo": 343,
      "ac": 344,
      "ĠG": 345,
      "Ġpara": 346,
      "ĠF": 347,
      "it": 348,
      "lo": 349,
      "Ã¡s": 350,
      "ales": 351,
      "Ġdes": 352,
      "uer": 353,
      "tr": 354,
      "vi": 355,
      "ĠEl": 356,
      "uc": 357,
      "ĠEn": 358,
      "ĠI": 359,
      "ico": 360,
      "Ġper": 361,
      "aciÃ³n": 362,
      "tor": 363,
      "Ġcu": 364,
      "iz": 365,
      "den": 366,
      "ĠLa": 367,
      "Ġno": 368,
      "bre": 369,
      "00": 370,
      "pa": 371,
      "go": 372,
      "cu": 373,
      "ĠH": 374,
      "ĠN": 375,
      "Ġex": 376,
      "oc": 377,
      "ient": 378,
      "ados": 379,
      "Ã¡n": 380,
      "ĠJ": 381,
      "Ġac": 382,
      "ciones": 383,
      "ras": 384,
      "um": 385,
      "orm": 386,
      "at": 387,
      "ando": 388,
      "se": 389,
      "Ġan": 390,
      "iÃ³n": 391,
      "ĠV": 392,
      "ĠmÃ¡s": 393,
      "tos": 394,
      "dos": 395,
      "era": 396,
      "tes": 397,
      "tiv": 398,
      "ien": 399,
      "Ġj": 400,
      "pe": 401,
      "mo": 402,
      "ay": 403,
      "po": 404,
      "Ã©n": 405,
      "ur": 406,
      "ir": 407,
      "aj": 408,
      "ici": 409,
      "Ġme": 410,
      "ĠU": 411,
      "rim": 412,
      "Ġfue": 413,
      "Ġlo": 414,
      "tre": 415,
      "ch": 416,
      "ero": 417,
      "idad": 418,
      "gu": 419,
      "iv": 420,
      "mente": 421,
      "ĠO": 422,
      "Ġr": 423,
      "por": 424,
      ").": 425,
      "per": 426,
      "des": 427,
      "ador": 428,
      "Ã©s": 429,
      "Âł": 430,
      "ano": 431,
      "ib": 432,
      "qui": 433,
      "ĠEst": 434,
      "tra": 435,
      "ari": 436,
      "Ġpo": 437,
      "Ġso": 438,
      "co": 439,
      "Ġar": 440,
      "Ġser": 441,
      "eg": 442,
      "),": 443,
      "ten": 444,
      "Ġsus": 445,
      "ĠaÃ±": 446,
      "ambi": 447,
      "amente": 448,
      "ca": 449,
      "Ġte": 450,
      "qu": 451,
      "Ġpr": 452,
      "pu": 453,
      "der": 454,
      "ce": 455,
      "Ġto": 456,
      "ante": 457,
      "par": 458,
      "ina": 459,
      "bl": 460,
      "Ġor": 461,
      "Ġres": 462,
      "iento": 463,
      "Ġem": 464,
      "za": 465,
      "ones": 466,
      "Ġhab": 467,
      "Ġca": 468,
      "ie": 469,
      "Ġprim": 470,
      "tro": 471,
      "Ġentre": 472,
      "ino": 473,
      "adas": 474,
      "ma": 475,
      "ĠUn": 476,
      "Ġas": 477,
      "ambiÃ©n": 478,
      "aron": 479,
      "Ġim": 480,
      "ru": 481,
      "ana": 482,
      "encia": 483,
      "ers": 484,
      "pl": 485,
      "ĠAl": 486,
      "almente": 487,
      "ida": 488,
      "icos": 489,
      "con": 490,
      "paÃ±": 491,
      "Ġsi": 492,
      "cl": 493,
      "Ġcar": 494,
      "Ġob": 495,
      "tas": 496,
      "ÃŃn": 497,
      "Ġtra": 498,
      "ces": 499,
      "Ġ\"": 500,
      "gun": 501,
      "Ġle": 502,
      "Ġci": 503,
      "Ġcons": 504,
      "Ġpa": 505,
      "icas": 506,
      "las": 507,
      "Ġ20": 508,
      "ista": 509,
      "lan": 510,
      "Ġson": 511,
      "ern": 512,
      "âĢ": 513,
      "ĠÂ": 514,
      "Ãºn": 515,
      "pos": 516,
      "Ġpres": 517,
      "Ġha": 518,
      "Ġform": 519,
      "Ġpue": 520,
      "ĠEs": 521,
      "fer": 522,
      "ĠIn": 523,
      "ug": 524,
      "Ġesc": 525,
      "Ġti": 526,
      "das": 527,
      "entes": 528,
      "Ġ200": 529,
      "Ġ18": 530,
      "pi": 531,
      "tar": 532,
      "los": 533,
      "uev": 534,
      "ĠtambiÃ©n": 535,
      "ez": 536,
      "ĠCon": 537,
      "tura": 538,
      "ĠSan": 539,
      "oci": 540,
      "uy": 541,
      "les": 542,
      "Â»": 543,
      "Ġmo": 544,
      "ĠLos": 545,
      "Ġinter": 546,
      "du": 547,
      "19": 548,
      "Ġam": 549,
      "ismo": 550,
      "ÃŃs": 551,
      "duc": 552,
      "ores": 553,
      "og": 554,
      "aba": 555,
      "ĠÂ«": 556,
      "iden": 557,
      "ĠRe": 558,
      "Ã©r": 559,
      "Ġna": 560,
      "na": 561,
      "ento": 562,
      "cional": 563,
      "ĠK": 564,
      "pres": 565,
      "Ġmay": 566,
      "Ġpre": 567,
      "if": 568,
      "Ġfuer": 569,
      "ba": 570,
      "ĠW": 571,
      "ens": 572,
      "Ġcas": 573,
      "til": 574,
      "Ġman": 575,
      "inci": 576,
      "ĠSe": 577,
      "jo": 578,
      "aliz": 579,
      "Ġmedi": 580,
      "Ġpos": 581,
      "eron": 582,
      "ara": 583,
      "Ġcor": 584,
      "Ġsobre": 585,
      "ener": 586,
      "Ġdis": 587,
      "asta": 588,
      "tros": 589,
      "Ġpu": 590,
      "Ġeste": 591,
      "ĠAn": 592,
      "Ġmar": 593,
      "Ġsig": 594,
      "Ġab": 595,
      "uran": 596,
      "Ġgran": 597,
      "ĠCh": 598,
      "ag": 599,
      "Ġter": 600,
      "Ġsol": 601,
      "Ġlle": 602,
      "son": 603,
      "uch": 604,
      "ario": 605,
      "Ġfin": 606,
      "Ġciu": 607,
      "Ġdos": 608,
      "Ġ3": 609,
      "tica": 610,
      "br": 611,
      "ĠaÃ±os": 612,
      "antes": 613,
      "ing": 614,
      "Ġcol": 615,
      "ÃŃan": 616,
      "itu": 617,
      "tal": 618,
      "teri": 619,
      "Ġcan": 620,
      "urante": 621,
      "ĠMar": 622,
      "fici": 623,
      "Ġparti": 624,
      "man": 625,
      "ido": 626,
      "ton": 627,
      "eros": 628,
      "Ġesta": 629,
      "ub": 630,
      "min": 631,
      "lam": 632,
      "he": 633,
      "Ġparte": 634,
      "enta": 635,
      "Ġpero": 636,
      "Ġreg": 637,
      "str": 638,
      "Ġpol": 639,
      "Ġcre": 640,
      "cio": 641,
      "Ġhasta": 642,
      "pon": 643,
      "ga": 644,
      "Ġ|": 645,
      "Ġcam": 646,
      "ut": 647,
      "ĠÃ©": 648,
      "ular": 649,
      "ona": 650,
      "ve": 651,
      "ple": 652,
      "Ġciudad": 653,
      "Ġmun": 654,
      "Ġprinci": 655,
      "Ġ201": 656,
      "ide": 657,
      "Ġ199": 658,
      "Ġdon": 659,
      "ĠAr": 660,
      "ĠDe": 661,
      "laciÃ³n": 662,
      "Ġdesde": 663,
      "Ġnuev": 664,
      "Ġej": 665,
      "ios": 666,
      "Ġfun": 667,
      "Ġnom": 668,
      "Ġtien": 669,
      "endo": 670,
      "vo": 671,
      "Ġinf": 672,
      "udi": 673,
      "tivo": 674,
      "Ġsin": 675,
      "tico": 676,
      "me": 677,
      "ĠÃ¡": 678,
      "ech": 679,
      "Ġmayor": 680,
      "Ġdonde": 681,
      "ill": 682,
      "port": 683,
      "cul": 684,
      "able": 685,
      "ĠaÃ±o": 686,
      "arios": 687,
      "cias": 688,
      "ÃŃo": 689,
      "tur": 690,
      "ĠLas": 691,
      "ĠCar": 692,
      "unto": 693,
      "ble": 694,
      "Ġera": 695,
      "gos": 696,
      "ven": 697,
      "Ġpas": 698,
      "je": 699,
      "ÃŃas": 700,
      "ajo": 701,
      "gra": 702,
      "gr": 703,
      "Ġma": 704,
      "iones": 705,
      "uel": 706,
      "bar": 707,
      "ich": 708,
      "embre": 709,
      "Ġus": 710,
      "Ġperson": 711,
      "eo": 712,
      "Ã±o": 713,
      "cial": 714,
      "Ġ-": 715,
      "dem": 716,
      "anos": 717,
      "ĠCom": 718,
      "Ġprincip": 719,
      "dr": 720,
      "Ġdurante": 721,
      "ĠSu": 722,
      "puÃ©s": 723,
      "Ġhi": 724,
      "zo": 725,
      "rec": 726,
      "stitu": 727,
      "Ġmen": 728,
      "Ġap": 729,
      "gen": 730,
      "va": 731,
      "ora": 732,
      "Ġ4": 733,
      "mas": 734,
      "ber": 735,
      "ĠY": 736,
      "ion": 737,
      "Ġya": 738,
      "istor": 739,
      "Ġgener": 740,
      "amiento": 741,
      "Ġu": 742,
      "et": 743,
      "ĠNa": 744,
      "entos": 745,
      "mi": 746,
      "bol": 747,
      "Ġincl": 748,
      "Ġcual": 749,
      "paÃ±ol": 750,
      "Ġestado": 751,
      "endi": 752,
      "arro": 753,
      "rans": 754,
      "no": 755,
      "idos": 756,
      "arse": 757,
      "ver": 758,
      "rib": 759,
      "ĠâĢ": 760,
      "gan": 761,
      "Ġdist": 762,
      "adores": 763,
      "Ġcl": 764,
      "tado": 765,
      "Ġau": 766,
      "Ġ198": 767,
      "tin": 768,
      "ares": 769,
      "Ġespe": 770,
      "ĠÃ": 771,
      "iciÃ³n": 772,
      "Ġforma": 773,
      "ena": 774,
      "Ġden": 775,
      "Ġtan": 776,
      "Ġllam": 777,
      "ĠestÃ¡": 778,
      "Ġsal": 779,
      "Ġgo": 780,
      "Ġ5": 781,
      "Ġalgun": 782,
      "so": 783,
      "Ã³r": 784,
      "pec": 785,
      "uro": 786,
      "ĠpaÃŃs": 787,
      "Ġten": 788,
      "tras": 789,
      "Ã©c": 790,
      "Ġpuede": 791,
      "ud": 792,
      "Ġprimer": 793,
      "Ġtr": 794,
      "Ġcontra": 795,
      "Ġoc": 796,
      "Ãºl": 797,
      "Ġcer": 798,
      "Ġmuch": 799,
      "Ġmon": 800,
      "car": 801,
      "rist": 802,
      "Ġad": 803,
      "Ġhac": 804,
      "gua": 805,
      "Ġcal": 806,
      "ĠPar": 807,
      "Ġotros": 808,
      "ed": 809,
      "ll": 810,
      "emp": 811,
      "ĠpolÃŃ": 812,
      "Ġproduc": 813,
      "ura": 814,
      "isiÃ³n": 815,
      "Ġcuando": 816,
      "ier": 817,
      "ust": 818,
      "ja": 819,
      "omin": 820,
      "ĠPor": 821,
      "dades": 822,
      "mos": 823,
      "tiva": 824,
      "ĠFran": 825,
      "Ġro": 826,
      "esti": 827,
      "Ġtem": 828,
      "erno": 829,
      "Ġqui": 830,
      "ĠhabÃŃa": 831,
      "ĠespaÃ±ol": 832,
      "ros": 833,
      "ea": 834,
      "iendo": 835,
      "all": 836,
      "anz": 837,
      "Ãºbl": 838,
      "ala": 839,
      "ĠLe": 840,
      "Ġcent": 841,
      "unque": 842,
      "Ġver": 843,
      "ital": 844,
      "istem": 845,
      "miento": 846,
      "ivers": 847,
      "Ãºlti": 848,
      "Ġco": 849,
      "icaciÃ³n": 850,
      "and": 851,
      "Ġprimera": 852,
      "Ġ197": 853,
      "Ã³m": 854,
      "pues": 855,
      "Ġpe": 856,
      "ase": 857,
      "ÃŃst": 858,
      "aban": 859,
      "ĠDes": 860,
      "eci": 861,
      "Ġimport": 862,
      "ĠdespuÃ©s": 863,
      "Ã±a": 864,
      "Ġtras": 865,
      "tiliz": 866,
      "uerra": 867,
      "Ġmuy": 868,
      "Ġencu": 869,
      "Ġ6": 870,
      "Ġtrans": 871,
      "Ġfueron": 872,
      "Ġlug": 873,
      "Ġprov": 874,
      "eces": 875,
      "Ġmismo": 876,
      "Ġprop": 877,
      "Ġmu": 878,
      "Ġactu": 879,
      "Ġmi": 880,
      "Ġra": 881,
      "tic": 882,
      "paÃ±a": 883,
      "ap": 884,
      "Ġlib": 885,
      "Ġescri": 886,
      "Ġinv": 887,
      "Ġcap": 888,
      "Ġvez": 889,
      "Ġdo": 890,
      "Ġgru": 891,
      "Ġrealiz": 892,
      "Ġconoci": 893,
      "Ġutiliz": 894,
      "Ġtu": 895,
      "Ġtiem": 896,
      "Ġtiene": 897,
      "Ġsuper": 898,
      "fec": 899,
      "Ġz": 900,
      "čĊ": 901,
      "Ġuno": 902,
      "istoria": 903,
      "ard": 904,
      "tÃ³": 905,
      "demÃ¡s": 906,
      "Ġlleg": 907,
      "Ġnombre": 908,
      "Ġencuent": 909,
      "alidad": 910,
      "bierno": 911,
      "ĠRo": 912,
      "id": 913,
      "ine": 914,
      "Ġreci": 915,
      "Ġtrab": 916,
      "ĠasÃŃ": 917,
      "Ġmil": 918,
      "20": 919,
      "Ãºs": 920,
      "Ġanti": 921,
      "ĠÃºlti": 922,
      "Ġ15": 923,
      "taciÃ³n": 924,
      "Ġdest": 925,
      "ĠZ": 926,
      "ĠnÃº": 927,
      "orte": 928,
      "idades": 929,
      "Ġdifer": 930,
      "aria": 931,
      "Ġsistem": 932,
      "Ġcul": 933,
      "Ġdesarro": 934,
      "Ġtres": 935,
      "iÃ³": 936,
      "Ġespeci": 937,
      "Ġdeci": 938,
      "tores": 939,
      "olog": 940,
      "Ġher": 941,
      "Ġembar": 942,
      "Ġtodo": 943,
      "uego": 944,
      "oca": 945,
      "Ġdef": 946,
      "be": 947,
      "Ġconf": 948,
      "lu": 949,
      "illa": 950,
      "Ġ17": 951,
      "cur": 952,
      "uso": 953,
      "Ġorig": 954,
      "ris": 955,
      "ientos": 956,
      "Ġestudi": 957,
      "ren": 958,
      "Ġcab": 959,
      "Ġhan": 960,
      "Ġch": 961,
      "ĠAs": 962,
      "istas": 963,
      "Ġcomun": 964,
      "Ġ7": 965,
      "Ġcos": 966,
      "Ġ196": 967,
      "rig": 968,
      "Ġlugar": 969,
      "ĠJu": 970,
      "Ġsegun": 971,
      "ĠMe": 972,
      "ĠNo": 973,
      "Ġvari": 974,
      "Ġpob": 975,
      "Ġsec": 976,
      "Ġfran": 977,
      "Ġdirec": 978,
      "Ġexist": 979,
      "oma": 980,
      "Ġsigui": 981,
      "Ġsolo": 982,
      "Ġfam": 983,
      "ĠAm": 984,
      "000": 985,
      "dia": 986,
      "Ġgra": 987,
      "Ġembargo": 988,
      "Ġequi": 989,
      "atro": 990,
      "Ġof": 991,
      "Ġmis": 992,
      "Ġtiempo": 993,
      "tivos": 994,
      "ias": 995,
      "ancia": 996,
      "Ġseg": 997,
      "ÂłÂł": 998,
      "Ġdiv": 999,
      "Ġda": 1000,
      "Ġrepres": 1001,
      "dic": 1002,
      "ÃŃm": 1003,
      "Ġloc": 1004,
      "cos": 1005,
      "Ġ8": 1006,
      "uciÃ³n": 1007,
      "bido": 1008,
      "Ġelec": 1009,
      "Ġban": 1010,
      "ge": 1011,
      "ima": 1012,
      "Ġsim": 1013,
      "Ġplan": 1014,
      "Ġvol": 1015,
      "ito": 1016,
      "ene": 1017,
      "ril": 1018,
      "erv": 1019,
      "atal": 1020,
      "ĠCas": 1021,
      "raciÃ³n": 1022,
      "ĠCu": 1023,
      "Ġquien": 1024,
      "Ġpel": 1025,
      "Ġfr": 1026,
      "aje": 1027,
      "Ã³g": 1028,
      "Ġapar": 1029,
      "ĠCo": 1030,
      "Ġedi": 1031,
      "Ġpes": 1032,
      "Ġcada": 1033,
      "Ġhom": 1034,
      "Ġis": 1035,
      "Ã±os": 1036,
      "cer": 1037,
      "Ġsido": 1038,
      "ientras": 1039,
      "ip": 1040,
      "..": 1041,
      "inas": 1042,
      "Ġsur": 1043,
      "Ġrela": 1044,
      "Ġmuer": 1045,
      "tido": 1046,
      "Ġref": 1047,
      "Ġvi": 1048,
      "Ġval": 1049,
      "Ġpla": 1050,
      "Ġaunque": 1051,
      "tir": 1052,
      "ĠEspaÃ±a": 1053,
      "ual": 1054,
      "fÃŃa": 1055,
      "ord": 1056,
      "itar": 1057,
      "Ġtanto": 1058,
      "ĠSin": 1059,
      "Ġcr": 1060,
      "Ġ9": 1061,
      "ĠMa": 1062,
      "sta": 1063,
      "ologÃŃa": 1064,
      "ĠMon": 1065,
      "th": 1066,
      "Ġpresiden": 1067,
      "ĠnÃºm": 1068,
      "oy": 1069,
      "Ġk": 1070,
      "cep": 1071,
      "ne": 1072,
      "tÃ¡n": 1073,
      "ĠCol": 1074,
      "ĠGu": 1075,
      "Ġpubl": 1076,
      "uniden": 1077,
      "Ġotras": 1078,
      "Ġ16": 1079,
      "Ġale": 1080,
      "Ġ194": 1081,
      "cios": 1082,
      "ĠPa": 1083,
      "pera": 1084,
      "fic": 1085,
      "ĠQ": 1086,
      "ior": 1087,
      "icip": 1088,
      "tec": 1089,
      "eno": 1090,
      "Ġtodos": 1091,
      "ciÃ³": 1092,
      "ele": 1093,
      "ita": 1094,
      "jos": 1095,
      "tural": 1096,
      "Ġev": 1097,
      "Ġmej": 1098,
      "ĠBar": 1099,
      "cho": 1100,
      "omo": 1101,
      "Ġ195": 1102,
      "cri": 1103,
      "ang": 1104,
      "Ġig": 1105,
      "18": 1106,
      "Ġaf": 1107,
      "Ġmin": 1108,
      "llo": 1109,
      "Ġvida": 1110,
      "Ġrec": 1111,
      "Ġbajo": 1112,
      "ĠJos": 1113,
      "cha": 1114,
      "Ġbas": 1115,
      "ĠpoblaciÃ³n": 1116,
      "Ġpueden": 1117,
      "II": 1118,
      "ĠCor": 1119,
      "Ġgobierno": 1120,
      "ĠEstados": 1121,
      "Ġestadouniden": 1122,
      "Â».": 1123,
      "duci": 1124,
      "Ġcontin": 1125,
      "ach": 1126,
      "av": 1127,
      "Ġhum": 1128,
      "Ġhacia": 1129,
      "ile": 1130,
      "Ġcomple": 1131,
      "Ġconstr": 1132,
      "Ġli": 1133,
      "ĠPro": 1134,
      "diÃ³": 1135,
      "Ġ193": 1136,
      "ible": 1137,
      "ÃŃtu": 1138,
      "Ġni": 1139,
      "dor": 1140,
      "bo": 1141,
      "Ġllev": 1142,
      "osa": 1143,
      "Ġgeneral": 1144,
      "Ġsistema": 1145,
      "Ġtrad": 1146,
      "Ġ10": 1147,
      "uir": 1148,
      "ticas": 1149,
      "torio": 1150,
      "ĠX": 1151,
      "vir": 1152,
      "Ġlar": 1153,
      "Ã³l": 1154,
      "Ġinici": 1155,
      "ĠEste": 1156,
      "Ġcomp": 1157,
      "Ġmundo": 1158,
      "Ġqu": 1159,
      "ĠUnidos": 1160,
      "ĠJuan": 1161,
      "oso": 1162,
      "ticos": 1163,
      "Ġencon": 1164,
      "ĠLu": 1165,
      "ganiz": 1166,
      "Ġsub": 1167,
      "ĠThe": 1168,
      "ilo": 1169,
      "enz": 1170,
      "cis": 1171,
      "pti": 1172,
      "Ġecon": 1173,
      "ĠMan": 1174,
      "oco": 1175,
      "ban": 1176,
      "Ã¡f": 1177,
      "gres": 1178,
      "Ġpues": 1179,
      "gent": 1180,
      "Ġfe": 1181,
      "ria": 1182,
      "ĠÃģ": 1183,
      "Ġhay": 1184,
      "yo": 1185,
      "Ġne": 1186,
      "quier": 1187,
      "Ġese": 1188,
      "dose": 1189,
      "ell": 1190,
      "Ġmientras": 1191,
      "Ġrev": 1192,
      "Ġ,": 1193,
      "ĠestÃ¡n": 1194,
      "ÃŃcul": 1195,
      "Ġresul": 1196,
      "ĠJo": 1197,
      "Ġestable": 1198,
      "iano": 1199,
      "olÃ³g": 1200,
      "Ġtor": 1201,
      "eta": 1202,
      "Ġgrupo": 1203,
      "xim": 1204,
      "ĠPer": 1205,
      "tan": 1206,
      "ies": 1207,
      "pen": 1208,
      "Ġsiendo": 1209,
      "Ġalgunos": 1210,
      "\".": 1211,
      "ÃŃf": 1212,
      "\",": 1213,
      "tera": 1214,
      "Ã¡c": 1215,
      "can": 1216,
      "pre": 1217,
      "Ġapro": 1218,
      "emplo": 1219,
      "Ġprof": 1220,
      "val": 1221,
      "ĠnÃºmero": 1222,
      "Ġbien": 1223,
      "terior": 1224,
      "Ġsen": 1225,
      "ific": 1226,
      "ĠTambiÃ©n": 1227,
      "Ġsitu": 1228,
      "Ġestos": 1229,
      "tonces": 1230,
      "acter": 1231,
      "Ġnuevo": 1232,
      "cas": 1233,
      "bres": 1234,
      "ian": 1235,
      "Ġrey": 1236,
      "ques": 1237,
      "ĠUnivers": 1238,
      "cula": 1239,
      "Ãºblica": 1240,
      "ĠSeg": 1241,
      "Ġmunicip": 1242,
      "ama": 1243,
      "Ġhech": 1244,
      "inos": 1245,
      "ĠTo": 1246,
      "arÃŃa": 1247,
      "adre": 1248,
      "tiÃ³": 1249,
      "Ġfamil": 1250,
      "ya": 1251,
      "yec": 1252,
      "ĠdÃŃa": 1253,
      "Ġrom": 1254,
      "Ġestadounidense": 1255,
      "Ġproces": 1256,
      "Ġpoder": 1257,
      "ial": 1258,
      "ĠAle": 1259,
      "ilidad": 1260,
      "tam": 1261,
      "hi": 1262,
      "Ġven": 1263,
      "Ġofici": 1264,
      "ep": 1265,
      "ĠOr": 1266,
      "ĠEuro": 1267,
      "ĠMun": 1268,
      "cel": 1269,
      "Ġhistoria": 1270,
      "zas": 1271,
      "Ġpal": 1272,
      "Ġantes": 1273,
      "ome": 1274,
      "Ġgan": 1275,
      "cil": 1276,
      "ĠCam": 1277,
      "ĠGran": 1278,
      "Ġterri": 1279,
      "ulio": 1280,
      "teg": 1281,
      "Ġjun": 1282,
      "Ġbar": 1283,
      "ĠVal": 1284,
      "ĠPara": 1285,
      "Ġjunto": 1286,
      "Ã¡l": 1287,
      "Ġguerra": 1288,
      "cionales": 1289,
      "biÃ³": 1290,
      "edad": 1291,
      "Ġotro": 1292,
      "Ġpeque": 1293,
      "ĠIs": 1294,
      "imiento": 1295,
      "lig": 1296,
      "Ġcin": 1297,
      "ĠGo": 1298,
      "pol": 1299,
      "dencia": 1300,
      "lec": 1301,
      "fr": 1302,
      "und": 1303,
      "uela": 1304,
      "cimiento": 1305,
      "ex": 1306,
      "ĠPo": 1307,
      "ĠÃ©l": 1308,
      "Ġrecon": 1309,
      "Ġclas": 1310,
      "incia": 1311,
      "ĠCan": 1312,
      "tivi": 1313,
      "Ġentonces": 1314,
      "Ġdestac": 1315,
      "ues": 1316,
      "bra": 1317,
      "jer": 1318,
      "ign": 1319,
      "Ġtar": 1320,
      "pas": 1321,
      "Ġobje": 1322,
      "ĠJosÃ©": 1323,
      "Ġ12": 1324,
      "Ġdebido": 1325,
      "Ã¡m": 1326,
      "pan": 1327,
      "Ġejemplo": 1328,
      "Ġins": 1329,
      "Ġlen": 1330,
      "Ġnorte": 1331,
      "ĠEsta": 1332,
      "tados": 1333,
      "Ã©rica": 1334,
      "Ġtrabaj": 1335,
      "ĠSal": 1336,
      "Ġri": 1337,
      "Ġmus": 1338,
      "ĠAu": 1339,
      "pular": 1340,
      "ĠÃºn": 1341,
      "dial": 1342,
      "ece": 1343,
      "ĠNacional": 1344,
      "dio": 1345,
      "tem": 1346,
      "uen": 1347,
      "pios": 1348,
      "ucciÃ³n": 1349,
      "Ġencuentra": 1350,
      "ĠmÃºs": 1351,
      "ÃŃtulo": 1352,
      "Ġincluy": 1353,
      "Ġvarios": 1354,
      "Ġ14": 1355,
      "turas": 1356,
      "Ġfinal": 1357,
      "Ġneces": 1358,
      "riÃ³": 1359,
      "ĠÃ©p": 1360,
      "Ġcomenz": 1361,
      "gar": 1362,
      "Ġdeb": 1363,
      "Ġentr": 1364,
      "rea": 1365,
      "bas": 1366,
      "Ġtrav": 1367,
      "Ġrepresent": 1368,
      "rem": 1369,
      "ivel": 1370,
      "ĠMÃ©": 1371,
      "nos": 1372,
      "Ġfil": 1373,
      "ĠademÃ¡s": 1374,
      "Ġtoda": 1375,
      "Ġmes": 1376,
      "Ġestaba": 1377,
      "ider": 1378,
      "Ġjug": 1379,
      "Ġcomer": 1380,
      "erg": 1381,
      "Ġcaracter": 1382,
      "tamente": 1383,
      "Ġmejor": 1384,
      "ĠMo": 1385,
      "Ġpresidente": 1386,
      "ĠEx": 1387,
      "terna": 1388,
      "Ġzona": 1389,
      "Ġdere": 1390,
      "tis": 1391,
      "Ġpartici": 1392,
      "Ġpersonas": 1393,
      "ĠrÃŃo": 1394,
      "Ġobra": 1395,
      "Ã¼": 1396,
      "minist": 1397,
      "Ġpresent": 1398,
      "lor": 1399,
      "Â»,": 1400,
      "ula": 1401,
      "aciones": 1402,
      "ental": 1403,
      "este": 1404,
      "Ġnacional": 1405,
      "rid": 1406,
      "Ġorganiz": 1407,
      "Ġorden": 1408,
      "Ġpublic": 1409,
      "Ġgrandes": 1410,
      "Ġmill": 1411,
      "Ġpl": 1412,
      "ĠtravÃ©s": 1413,
      "ĠtÃ©r": 1414,
      "Ġfal": 1415,
      "Ġ192": 1416,
      "fo": 1417,
      "Ġat": 1418,
      "Ġpermi": 1419,
      "Ġservi": 1420,
      "ral": 1421,
      "Ġmenos": 1422,
      "Ġserie": 1423,
      "Ġtipo": 1424,
      "tad": 1425,
      "cent": 1426,
      "Ġnivel": 1427,
      "Ġinc": 1428,
      "ong": 1429,
      "200": 1430,
      "Ġdici": 1431,
      "Ġvis": 1432,
      "Ġcuatro": 1433,
      "Ġapo": 1434,
      "ciden": 1435,
      "izo": 1436,
      "Ġcontro": 1437,
      "Ġmuerte": 1438,
      "Ġmom": 1439,
      "Ġder": 1440,
      "cal": 1441,
      "Ġante": 1442,
      "Ġcuenta": 1443,
      "Ġpartir": 1444,
      "Ġimportante": 1445,
      "Ġfu": 1446,
      "Ġav": 1447,
      "ÃŃcula": 1448,
      "tion": 1449,
      "ĠDurante": 1450,
      "Ġeran": 1451,
      "tubre": 1452,
      "Ġprovincia": 1453,
      "ice": 1454,
      "ĠmayorÃŃa": 1455,
      "Ġinform": 1456,
      "col": 1457,
      "ptiembre": 1458,
      "Ġdirig": 1459,
      "Ġneg": 1460,
      "Ã©rci": 1461,
      "ĠCl": 1462,
      "ĠLo": 1463,
      "Ġtom": 1464,
      "tivas": 1465,
      "uido": 1466,
      "Ġcuer": 1467,
      "Ġ13": 1468,
      "Ġautor": 1469,
      "encias": 1470,
      "ira": 1471,
      "Ġconsider": 1472,
      "Ã©l": 1473,
      "rio": 1474,
      "rado": 1475,
      "ĠÃ©poca": 1476,
      "Ġmiem": 1477,
      "Ġmayo": 1478,
      "Ġtuvo": 1479,
      "Ġprincipal": 1480,
      "xico": 1481,
      "ĠBo": 1482,
      "ĠCal": 1483,
      "ĠmÃ¡": 1484,
      "Ġdivers": 1485,
      "ciales": 1486,
      "Ġorigin": 1487,
      "dida": 1488,
      "adio": 1489,
      "Ġsue": 1490,
      "quel": 1491,
      "bio": 1492,
      "sa": 1493,
      "ĠMad": 1494,
      "ha": 1495,
      "Ġefec": 1496,
      "Ã³lo": 1497,
      "dust": 1498,
      "Ġmuchos": 1499,
      "ĠSo": 1500,
      "Ġequipo": 1501,
      "ĠsegÃºn": 1502,
      "Ġvers": 1503,
      "Ġmer": 1504,
      "Ġseptiembre": 1505,
      "irm": 1506,
      "Ġtempor": 1507,
      "Ġcaso": 1508,
      "Ġellos": 1509,
      "Ġoctubre": 1510,
      "Ġ.": 1511,
      "bier": 1512,
      "Ġ11": 1513,
      "guas": 1514,
      "Ġjulio": 1515,
      "ĠâĢĶ": 1516,
      "Ġotra": 1517,
      "rag": 1518,
      "ĠseÃ±": 1519,
      "form": 1520,
      "uerto": 1521,
      "Ġconside": 1522,
      "Ġbri": 1523,
      "omÃŃa": 1524,
      "ĠNuev": 1525,
      "ĠEstado": 1526,
      "Ġdej": 1527,
      "Ġgol": 1528,
      "Ġcaus": 1529,
      "Ġmedio": 1530,
      "Ġtienen": 1531,
      "az": 1532,
      "ĠSi": 1533,
      "Ġing": 1534,
      "Ġenero": 1535,
      "Ġcentro": 1536,
      "Ġide": 1537,
      "gosto": 1538,
      "riz": 1539,
      "ormente": 1540,
      "Ġdiciembre": 1541,
      "Ġdentro": 1542,
      "Ġunos": 1543,
      "ruc": 1544,
      "dera": 1545,
      "tante": 1546,
      "Ġjunio": 1547,
      "bos": 1548,
      "ĠregiÃ³n": 1549,
      "ho": 1550,
      "Ġuso": 1551,
      "Ġagua": 1552,
      "ĠUna": 1553,
      "Ġqued": 1554,
      "eza": 1555,
      "Ġint": 1556,
      "ĠPe": 1557,
      "Ġsign": 1558,
      "orÃŃa": 1559,
      "eric": 1560,
      "Ġinterna": 1561,
      "jas": 1562,
      "Ġencontr": 1563,
      "una": 1564,
      "mÃ¡n": 1565,
      "Ġcontinu": 1566,
      "siÃ³n": 1567,
      "Ġhace": 1568,
      "lesia": 1569,
      "Ġmarzo": 1570,
      "Ġay": 1571,
      "pul": 1572,
      "Ġestas": 1573,
      "Ġley": 1574,
      "ĠpolÃŃtica": 1575,
      "brero": 1576,
      "uda": 1577,
      "Ġmillones": 1578,
      "ĠlÃŃn": 1579,
      "Ġve": 1580,
      "Ġagosto": 1581,
      "ĠUniversidad": 1582,
      "elo": 1583,
      "Ġocu": 1584,
      "Ġprogra": 1585,
      "Ġba": 1586,
      "ĠCent": 1587,
      "Ġhacer": 1588,
      "Ġmov": 1589,
      "toria": 1590,
      "Ġmanera": 1591,
      "ecu": 1592,
      "Ġdistin": 1593,
      "Ġmas": 1594,
      "ĠpÃºbl": 1595,
      "Ġhabit": 1596,
      "var": 1597,
      "ĠSanta": 1598,
      "istÃ³r": 1599,
      "teriormente": 1600,
      "dÃŃa": 1601,
      "viembre": 1602,
      "ĠmÃ©": 1603,
      "Ġag": 1604,
      "Ġtier": 1605,
      "Ġet": 1606,
      "Ġconstitu": 1607,
      "Ġcele": 1608,
      "Ġcapital": 1609,
      "Ġinde": 1610,
      "ĠAdemÃ¡s": 1611,
      "plic": 1612,
      "pro": 1613,
      "ĠMÃ©xico": 1614,
      "Ġliber": 1615,
      "ĠeconÃ³m": 1616,
      "Ã©rcito": 1617,
      "Ġvo": 1618,
      "ĠFue": 1619,
      "posiciÃ³n": 1620,
      "Ġdefin": 1621,
      "Ġdiferentes": 1622,
      "ik": 1623,
      "Ġproyec": 1624,
      "Ġlargo": 1625,
      "Ġpopular": 1626,
      "unda": 1627,
      "ĠAc": 1628,
      "Ġabril": 1629,
      "oluciÃ³n": 1630,
      "Ġempres": 1631,
      "Ġpie": 1632,
      "Ġmujer": 1633,
      "Ġhecho": 1634,
      "Ġdem": 1635,
      "pÃºblica": 1636,
      "Ġmomento": 1637,
      "ef": 1638,
      "blo": 1639,
      "ĠFrancia": 1640,
      "Ġcier": 1641,
      "ĠGuerra": 1642,
      "Ġconvir": 1643,
      "Ġinte": 1644,
      "Ġtal": 1645,
      "ĠdÃ©c": 1646,
      "idi": 1647,
      "Ġpartido": 1648,
      "Ġtotal": 1649,
      "Ġnoviembre": 1650,
      "Ġpun": 1651,
      "ĠlÃŃ": 1652,
      "ĠpelÃŃcula": 1653,
      "Ġindi": 1654,
      "Ġrefer": 1655,
      "tidad": 1656,
      "Ġpunto": 1657,
      "ĠIm": 1658,
      "Ġconj": 1659,
      "ron": 1660,
      "Ġcapa": 1661,
      "199": 1662,
      "Ġluego": 1663,
      "Ġdich": 1664,
      "uz": 1665,
      "erÃŃa": 1666,
      "viÃ³": 1667,
      "icamente": 1668,
      "Ġsegundo": 1669,
      "lev": 1670,
      "ĠCa": 1671,
      "bum": 1672,
      "ĠII": 1673,
      "zar": 1674,
      "Ġespa": 1675,
      "Ġespec": 1676,
      "Ġleg": 1677,
      "Ġampl": 1678,
      "Ġdecl": 1679,
      "ts": 1680,
      "Ġnatural": 1681,
      "ĠbritÃ¡n": 1682,
      "ĠpaÃŃses": 1683,
      "Ġvarias": 1684,
      "10": 1685,
      "Ġalgunas": 1686,
      "Ġdenomin": 1687,
      "Ġfund": 1688,
      "Ġconst": 1689,
      "Ġdesarroll": 1690,
      "onia": 1691,
      "rera": 1692,
      "Ġdesarrollo": 1693,
      "Ġtodas": 1694,
      "Ġmisma": 1695,
      "ĠSa": 1696,
      "iga": 1697,
      "Ã¡r": 1698,
      "Ġveces": 1699,
      "arias": 1700,
      "ono": 1701,
      "Ġur": 1702,
      "Ġexten": 1703,
      "pel": 1704,
      "âĢĿ": 1705,
      "Ġpoco": 1706,
      "tÃŃn": 1707,
      "bern": 1708,
      "Ġcir": 1709,
      "ivil": 1710,
      "Ġsiguiente": 1711,
      "cido": 1712,
      "Ġub": 1713,
      "che": 1714,
      "Ġactivi": 1715,
      "Ġsegunda": 1716,
      "Ġata": 1717,
      "Ġfebrero": 1718,
      "Ġrelig": 1719,
      "pendi": 1720,
      "Ã±as": 1721,
      "icia": 1722,
      "cum": 1723,
      "Ġcambi": 1724,
      "Ġhizo": 1725,
      "ves": 1726,
      "reg": 1727,
      "Ġtrabajo": 1728,
      "Ġfamilia": 1729,
      "Ġperio": 1730,
      "ĠÃ¡l": 1731,
      "Ġaquel": 1732,
      "Ġbanda": 1733,
      "iel": 1734,
      "Ġindust": 1735,
      "tener": 1736,
      "tada": 1737,
      "ĠtenÃŃa": 1738,
      "Ġlanz": 1739,
      "ck": 1740,
      "âĢĶ": 1741,
      "icaciones": 1742,
      "idas": 1743,
      "ĠMarÃŃa": 1744,
      "Ġorigen": 1745,
      "ĠCarlos": 1746,
      "ĠÃºltimo": 1747,
      "Ġmor": 1748,
      "Ġnueva": 1749,
      "17": 1750,
      "abor": 1751,
      "ĠpolÃŃtico": 1752,
      "Ġhaber": 1753,
      "ĠNe": 1754,
      "Ġtermin": 1755,
      "Ġles": 1756,
      "Ġtri": 1757,
      "ĠâĢľ": 1758,
      "onas": 1759,
      "Ġmediante": 1760,
      "Ġ0": 1761,
      "Ġfor": 1762,
      "ĠMadrid": 1763,
      "ĠEuropa": 1764,
      "tran": 1765,
      "Ġestre": 1766,
      "Ġtarde": 1767,
      "ĠEntre": 1768,
      "Ã¡tica": 1769,
      "ĠTras": 1770,
      "Ġprincipales": 1771,
      "Ġobras": 1772,
      "ĠLuis": 1773,
      "Ġelem": 1774,
      "ical": 1775,
      "Ġantigu": 1776,
      "15": 1777,
      "Ġinst": 1778,
      "Ġcontrol": 1779,
      "Ġpin": 1780,
      "olu": 1781,
      "bros": 1782,
      "Ã©cn": 1783,
      "grafÃŃa": 1784,
      "Ġtro": 1785,
      "Ġsocial": 1786,
      "Ã©ase": 1787,
      "ĠPol": 1788,
      "uerdo": 1789,
      "Ġanim": 1790,
      "pÃ³": 1791,
      "Ġmunicipio": 1792,
      "quer": 1793,
      "ajes": 1794,
      "ĠtÃ©rm": 1795,
      "Ġ||": 1796,
      "Ġdomin": 1797,
      "Ġesto": 1798,
      "Ã¡ndose": 1799,
      "ĠdÃŃas": 1800,
      "gentina": 1801,
      "Ġexper": 1802,
      "ÂłÂłÂłÂł": 1803,
      "Ġproble": 1804,
      "Ġlogr": 1805,
      "cÃ©s": 1806,
      "oro": 1807,
      "mon": 1808,
      "Ġpalab": 1809,
      "tivamente": 1810,
      "utbol": 1811,
      "Ġprimeros": 1812,
      "orn": 1813,
      "ĠIg": 1814,
      "eras": 1815,
      "Ġmoder": 1816,
      "ĠRepÃºblica": 1817,
      "hn": 1818,
      "porte": 1819,
      "ant": 1820,
      "Ġpri": 1821,
      "Ġaum": 1822,
      "ivo": 1823,
      "del": 1824,
      "Ġbaj": 1825,
      "Ġsino": 1826,
      "ric": 1827,
      "ruz": 1828,
      "ĠPla": 1829,
      "ĠÃ¡lbum": 1830,
      "Ġcasi": 1831,
      "imo": 1832,
      "Ġ25": 1833,
      "tel": 1834,
      "Ġunivers": 1835,
      "gas": 1836,
      "dido": 1837,
      "Ġconoc": 1838,
      "ĠFe": 1839,
      "Ġcuales": 1840,
      "via": 1841,
      "ola": 1842,
      "mientos": 1843,
      "Ġnum": 1844,
      "perio": 1845,
      "ire": 1846,
      "ĠDesde": 1847,
      "bia": 1848,
      "Ġmilitar": 1849,
      "Ġella": 1850,
      "ĠGar": 1851,
      "anza": 1852,
      "ry": 1853,
      "ĠhistÃ³r": 1854,
      "16": 1855,
      "Ġhabitantes": 1856,
      "Ã¡tico": 1857,
      "recu": 1858,
      "iva": 1859,
      "fa": 1860,
      "anas": 1861,
      "Ġfutbol": 1862,
      "Ġprofes": 1863,
      "Ã©tica": 1864,
      "Ġdise": 1865,
      "ĠFrancis": 1866,
      "ĠComo": 1867,
      "izaciÃ³n": 1868,
      "Ġmat": 1869,
      "ĠHistoria": 1870,
      "ÃŃos": 1871,
      "Ġllamado": 1872,
      "Ġderro": 1873,
      "Ġtener": 1874,
      "Ġconocido": 1875,
      "Ġgen": 1876,
      "gel": 1877,
      "Ġart": 1878,
      "Ġestruc": 1879,
      "Ġgri": 1880,
      "dal": 1881,
      "Ġfrente": 1882,
      "termin": 1883,
      "Ġ190": 1884,
      "puesta": 1885,
      "Âº": 1886,
      "ĠmÃºsica": 1887,
      "ĠTer": 1888,
      "Ġdescu": 1889,
      "empre": 1890,
      "Ġobs": 1891,
      "Ġexpres": 1892,
      "mar": 1893,
      "rede": 1894,
      "ka": 1895,
      "ĠGe": 1896,
      "Ġproceso": 1897,
      "ke": 1898,
      "Ġcrist": 1899,
      "Ġinvesti": 1900,
      "Ġrespec": 1901,
      "ĠTe": 1902,
      "cre": 1903,
      "Ġalc": 1904,
      "cidad": 1905,
      "Ġadminist": 1906,
      "cado": 1907,
      "puesto": 1908,
      "Ġthe": 1909,
      "pez": 1910,
      "Ġterritorio": 1911,
      "ĠPrim": 1912,
      "Ġdesc": 1913,
      "Ġisla": 1914,
      "Ġporque": 1915,
      "ĠfrancÃ©s": 1916,
      "ĠhabÃŃan": 1917,
      "Ġvia": 1918,
      "iso": 1919,
      "ĠRa": 1920,
      "ĠDi": 1921,
      "ĠÃ©x": 1922,
      "12": 1923,
      "ĠproducciÃ³n": 1924,
      "ional": 1925,
      "erro": 1926,
      "ĠFern": 1927,
      "itos": 1928,
      "bro": 1929,
      "Ġhor": 1930,
      "ĠHer": 1931,
      "ilar": 1932,
      "Ġsan": 1933,
      "Ġ=": 1934,
      "Ġconsidera": 1935,
      "usiÃ³n": 1936,
      "ÃŃsticas": 1937,
      "ĠBa": 1938,
      "ifica": 1939,
      "Ġimportantes": 1940,
      "tud": 1941,
      "Ġdecir": 1942,
      "ĠMus": 1943,
      "ph": 1944,
      "Ġhijo": 1945,
      "ĠVÃ©ase": 1946,
      "adamente": 1947,
      "zos": 1948,
      "edro": 1949,
      "Ġfrecu": 1950,
      "Ġpesar": 1951,
      "tbol": 1952,
      "tiene": 1953,
      "Ġir": 1954,
      "igo": 1955,
      "ĠTra": 1956,
      "Ġmode": 1957,
      "ĠAnton": 1958,
      "Ġpueblo": 1959,
      "ĠMundial": 1960,
      "omas": 1961,
      "ĠSol": 1962,
      "Ġ30": 1963,
      "ĠMor": 1964,
      "Ġnorm": 1965,
      "...": 1966,
      "Ġesp": 1967,
      "Ġtradi": 1968,
      "Ġgu": 1969,
      "Ġbase": 1970,
      "Ġreal": 1971,
      "ĠNueva": 1972,
      "14": 1973,
      "fon": 1974,
      "Ġaut": 1975,
      "Ġcuar": 1976,
      "Ġcompar": 1977,
      "illo": 1978,
      "Ġincluso": 1979,
      "bir": 1980,
      "Ġfutbolista": 1981,
      "tia": 1982,
      "onio": 1983,
      "iu": 1984,
      "ensa": 1985,
      "Ġmateri": 1986,
      "Ġalcanz": 1987,
      "mana": 1988,
      "Ġigual": 1989,
      "Ãºtbol": 1990,
      "ĠsÃŃ": 1991,
      "Ġdebe": 1992,
      "Ġlim": 1993,
      "ev": 1994,
      "ĠtÃ©rmino": 1995,
      "Ġah": 1996,
      "Ġperten": 1997,
      "ardo": 1998,
      "inado": 1999,
      "udo": 2000,
      "ĠSh": 2001,
      "ÃŃgen": 2002,
      "ĠHa": 2003,
      "Ġgobern": 2004,
      "ĠdÃ©cada": 2005,
      "ĠcompaÃ±": 2006,
      "Ġital": 2007,
      "Ġemple": 2008,
      "Ġesa": 2009,
      "Ġinterpre": 2010,
      "Ġblan": 2011,
      "ables": 2012,
      "ĠcomÃºn": 2013,
      "Ġtemporada": 2014,
      "Ġmal": 2015,
      "Ġsiempre": 2016,
      "Ġcomien": 2017,
      "bel": 2018,
      "agn": 2019,
      "Ġocas": 2020,
      "bur": 2021,
      "tag": 2022,
      "uegos": 2023,
      "ĠPr": 2024,
      "ĠChile": 2025,
      "uri": 2026,
      "iana": 2027,
      "bles": 2028,
      "eas": 2029,
      "atalla": 2030,
      "rez": 2031,
      "Ġactual": 2032,
      "=\"": 2033,
      "ĠOl": 2034,
      "Ġcinco": 2035,
      "ĠFrancisco": 2036,
      "vil": 2037,
      "nas": 2038,
      "ĠPedro": 2039,
      "ĠtÃ©cn": 2040,
      "Ġfinales": 2041,
      "vieron": 2042,
      "Ġcondi": 2043,
      "ĠTh": 2044,
      "stas": 2045,
      "Ġpapel": 2046,
      "teriores": 2047,
      "Ġatra": 2048,
      "ĠcrÃŃ": 2049,
      "Ġacuerdo": 2050,
      "Ġsab": 2051,
      "ĠconstrucciÃ³n": 2052,
      "Ġgrupos": 2053,
      "ĠDa": 2054,
      "end": 2055,
      "iente": 2056,
      "bal": 2057,
      "Ġ202": 2058,
      "ĠPrem": 2059,
      "198": 2060,
      "tuvo": 2061,
      "Ġmiembros": 2062,
      "vers": 2063,
      "ĠSegÃºn": 2064,
      "Ġdif": 2065,
      "Ġalrede": 2066,
      "Ġreconoci": 2067,
      "Ġmucho": 2068,
      "Ġposible": 2069,
      "pciÃ³n": 2070,
      "tÃ³n": 2071,
      "ĠSer": 2072,
      "aco": 2073,
      "Ġbo": 2074,
      "Ġbus": 2075,
      "Ġinflu": 2076,
      "respon": 2077,
      "adora": 2078,
      "Ġlado": 2079,
      "Ġpadre": 2080,
      "ki": 2081,
      "enci": 2082,
      "Ġsuperfici": 2083,
      "Ġdeclar": 2084,
      "Ġcerca": 2085,
      "seg": 2086,
      "drÃŃa": 2087,
      "Ã³s": 2088,
      "Ġfuera": 2089,
      "ĠGal": 2090,
      "ment": 2091,
      "ĠEm": 2092,
      "ĠCuando": 2093,
      "lÃ©s": 2094,
      "ierra": 2095,
      "Ġpose": 2096,
      "Ġpropie": 2097,
      "iencia": 2098,
      "ĠrelaciÃ³n": 2099,
      "Ġ189": 2100,
      "Ġproduci": 2101,
      "Ġexpl": 2102,
      "ĠlÃŃnea": 2103,
      "Ġcasa": 2104,
      "ÃŃstica": 2105,
      "urope": 2106,
      "Ġcivil": 2107,
      "Ġcualquier": 2108,
      "Ġdetermin": 2109,
      "tista": 2110,
      "quitec": 2111,
      "Ġmuchas": 2112,
      "Ġcambio": 2113,
      "ĠHo": 2114,
      "13": 2115,
      "Ġfac": 2116,
      "aran": 2117,
      "taba": 2118,
      "inaciÃ³n": 2119,
      "Ġsuf": 2120,
      "rac": 2121,
      "avor": 2122,
      "Ġcolor": 2123,
      "ond": 2124,
      "pla": 2125,
      "Ġsepar": 2126,
      "ĠAd": 2127,
      "mania": 2128,
      "Ġclub": 2129,
      "taciones": 2130,
      "are": 2131,
      "ieron": 2132,
      "Ġenerg": 2133,
      "sos": 2134,
      "arca": 2135,
      "Ġcuerpo": 2136,
      "Ġact": 2137,
      "ĠcomenzÃ³": 2138,
      "paciÃ³n": 2139,
      "enas": 2140,
      "ĠDespuÃ©s": 2141,
      "Ġpat": 2142,
      "Ġos": 2143,
      "):": 2144,
      "Â°": 2145,
      "partam": 2146,
      "Ġperman": 2147,
      "Ġestu": 2148,
      "entemente": 2149,
      "dica": 2150,
      "ft": 2151,
      "ĠJohn": 2152,
      "ĠAmÃ©rica": 2153,
      "ĠReg": 2154,
      "Ġnumeros": 2155,
      "Ġpropio": 2156,
      "Ġencuentran": 2157,
      "xto": 2158,
      "ff": 2159,
      "Ġciudades": 2160,
      "Ġconjunto": 2161,
      "Ġcorrespon": 2162,
      "ĠespaÃ±ola": 2163,
      "Ġconver": 2164,
      "Ġcat": 2165,
      "ĠEsto": 2166,
      "Ġ2000": 2167,
      "Ġge": 2168,
      "Ġubic": 2169,
      "ram": 2170,
      "Ġmovimiento": 2171,
      "Ġedifici": 2172,
      "xic": 2173,
      "ulo": 2174,
      "Ġw": 2175,
      "vier": 2176,
      "Ġand": 2177,
      "tien": 2178,
      "ko": 2179,
      "ificaciÃ³n": 2180,
      "ĠprÃ¡c": 2181,
      "Ġ%": 2182,
      "ĠtÃŃtulo": 2183,
      "Ġases": 2184,
      "cin": 2185,
      "men": 2186,
      "greso": 2187,
      "tio": 2188,
      "ĠTor": 2189,
      "ĠconvirtiÃ³": 2190,
      "tiz": 2191,
      "itor": 2192,
      "Ġdio": 2193,
      "ĠllegÃ³": 2194,
      "ĠInterna": 2195,
      "ĠcÃ³": 2196,
      "ema": 2197,
      "Ġeleg": 2198,
      "tando": 2199,
      "Ġcum": 2200,
      "ĠAntonio": 2201,
      "Ġprincipalmente": 2202,
      "Ġello": 2203,
      "Ġcomb": 2204,
      "ĠÃ©xito": 2205,
      "Ġnombr": 2206,
      "Ġenfer": 2207,
      "erva": 2208,
      "emor": 2209,
      "ĠejÃ©rcito": 2210,
      "Ġsegu": 2211,
      "ĠfÃŃs": 2212,
      "Ġdisco": 2213,
      "Ġescritor": 2214,
      "esa": 2215,
      "Ġextra": 2216,
      "Ġfavor": 2217,
      "Ġencar": 2218,
      "Ġsoci": 2219,
      "Ġestudio": 2220,
      "ticular": 2221,
      "istro": 2222,
      "Ġlocal": 2223,
      "Ġconserv": 2224,
      "Ġmues": 2225,
      "ĠinglÃ©s": 2226,
      "lar": 2227,
      "Ġgui": 2228,
      "ite": 2229,
      "mit": 2230,
      "Ġfrances": 2231,
      "ĠgÃ©n": 2232,
      "Ġespecies": 2233,
      "Ġsac": 2234,
      "ĠaÃºn": 2235,
      "Ġol": 2236,
      "ĠArgentina": 2237,
      "van": 2238,
      "Ġhon": 2239,
      "entÃ³": 2240,
      "Ġhistor": 2241,
      "Ġluch": 2242,
      "lio": 2243,
      "ĠversiÃ³n": 2244,
      "Ġcampo": 2245,
      "ĠserÃŃa": 2246,
      "ĠReal": 2247,
      "Ġfig": 2248,
      "Ġgas": 2249,
      "Ġinten": 2250,
      "Ġiden": 2251,
      "est": 2252,
      "Ġ24": 2253,
      "Ġpan": 2254,
      "Ġsignifica": 2255,
      "lla": 2256,
      "land": 2257,
      "ĠLib": 2258,
      "lÃŃ": 2259,
      "Ġprincipios": 2260,
      "echa": 2261,
      "Ġregres": 2262,
      "Ġrad": 2263,
      "Ġdu": 2264,
      "Ġetc": 2265,
      "ĠJa": 2266,
      "vÃŃa": 2267,
      "Ġllamada": 2268,
      "ĠAunque": 2269,
      "ogra": 2270,
      "itud": 2271,
      "ĠAlgun": 2272,
      "Ġvuel": 2273,
      "Ġestilo": 2274,
      "ĠGener": 2275,
      "Ġ188": 2276,
      "cle": 2277,
      "ĠSoci": 2278,
      "ĠImperio": 2279,
      "ace": 2280,
      "Ġeduc": 2281,
      "Ġobl": 2282,
      "ork": 2283,
      "Ġdivi": 2284,
      "Ġdescri": 2285,
      "Ġalrededor": 2286,
      "ultura": 2287,
      "Ġva": 2288,
      "stituciÃ³n": 2289,
      "Ġeurope": 2290,
      "Ġambos": 2291,
      "tales": 2292,
      "arÃ¡": 2293,
      "Ġpen": 2294,
      "bor": 2295,
      "Ġpuesto": 2296,
      "dez": 2297,
      "cÃŃa": 2298,
      "Ġmodo": 2299,
      "50": 2300,
      "ĠUniÃ³n": 2301,
      "ĠperÃŃo": 2302,
      "Ġacep": 2303,
      "Ġvalor": 2304,
      "cor": 2305,
      "Ġsea": 2306,
      "Ġpon": 2307,
      "Ġrespon": 2308,
      "rad": 2309,
      "rimonio": 2310,
      "Ġvic": 2311,
      "Ġlibro": 2312,
      "ĠBer": 2313,
      "Ġactor": 2314,
      "rito": 2315,
      "Ġaband": 2316,
      "uida": 2317,
      "11": 2318,
      "Ġaproxim": 2319,
      "ĠMin": 2320,
      "Ġmit": 2321,
      "ega": 2322,
      "Ġcompe": 2323,
      "Ġvir": 2324,
      "Ġhombres": 2325,
      "ĠÃºltima": 2326,
      "ĠÃ¡rea": 2327,
      "grÃ¡f": 2328,
      "ĠPos": 2329,
      "turales": 2330,
      "Ġenfr": 2331,
      "tific": 2332,
      "Ġtierra": 2333,
      "Ġreligios": 2334,
      "Ġop": 2335,
      "Ġdedic": 2336,
      "Ġespecialmente": 2337,
      "Ġarquitec": 2338,
      "ĠCab": 2339,
      "com": 2340,
      "Ġbal": 2341,
      "Ġluz": 2342,
      "rÃ³": 2343,
      "Ġcirc": 2344,
      "Ġcargo": 2345,
      "dico": 2346,
      "Ġresto": 2347,
      "ĠReino": 2348,
      "tero": 2349,
      "Ġrelacion": 2350,
      "Ġagr": 2351,
      "ĠPartido": 2352,
      "ĠPal": 2353,
      "Ġtelev": 2354,
      "ĠEj": 2355,
      "ix": 2356,
      "Ġvel": 2357,
      "Ġ'": 2358,
      "ĠCiu": 2359,
      "Ġbu": 2360,
      "Ġru": 2361,
      "Ġado": 2362,
      "ĠpÃºblico": 2363,
      "ĠSur": 2364,
      "Ġestudios": 2365,
      "anto": 2366,
      "Ġsiguientes": 2367,
      "ĠrÃ¡": 2368,
      "enso": 2369,
      "Ġparticular": 2370,
      "Ġpens": 2371,
      "Ġanterior": 2372,
      "ĠCopa": 2373,
      "Ġaz": 2374,
      "ĠAlemania": 2375,
      "Ġcur": 2376,
      "ĠIglesia": 2377,
      "Ġdocum": 2378,
      "ĠCastil": 2379,
      "entar": 2380,
      "Ã©tico": 2381,
      "Ġhoy": 2382,
      "Ġoficial": 2383,
      "Ġ2007": 2384,
      "vela": 2385,
      "ĠalemÃ¡n": 2386,
      "Ġalta": 2387,
      "dra": 2388,
      "Ġinm": 2389,
      "ĠTa": 2390,
      "gado": 2391,
      "dujo": 2392,
      "Ġ2010": 2393,
      "ĠAt": 2394,
      "ĠÃ³r": 2395,
      "ÃŃculas": 2396,
      "pendencia": 2397,
      "ulas": 2398,
      "ĠPres": 2399,
      "Ġjuego": 2400,
      "Ġtempera": 2401,
      "Ġalim": 2402,
      "aro": 2403,
      "Ġbatalla": 2404,
      "Ġ2006": 2405,
      "Ġdesem": 2406,
      "Ġcantidad": 2407,
      "Ġmol": 2408,
      "Ġproce": 2409,
      "tamiento": 2410,
      "Ġtur": 2411,
      "Ġ2005": 2412,
      "Ġelecciones": 2413,
      "ĠItal": 2414,
      "ack": 2415,
      "ĠVen": 2416,
      "Ġkm": 2417,
      "ty": 2418,
      "Ġdatos": 2419,
      "Ġimag": 2420,
      "Ġconsig": 2421,
      "Ġreun": 2422,
      "alizaciÃ³n": 2423,
      "Ġconcep": 2424,
      "ĠSus": 2425,
      "gaciÃ³n": 2426,
      "ientÃŃf": 2427,
      "ĠenergÃŃa": 2428,
      "Ġ187": 2429,
      "od": 2430,
      "tÃ¡": 2431,
      "Ġfuncion": 2432,
      "ĠRam": 2433,
      "rÃ¡f": 2434,
      "reas": 2435,
      "ĠPerÃº": 2436,
      "Ġ|-": 2437,
      "Ġmenor": 2438,
      "ĠFin": 2439,
      "bert": 2440,
      "ĠRos": 2441,
      "Ġmeses": 2442,
      "Ġespecial": 2443,
      "Ġzonas": 2444,
      "ĠGobierno": 2445,
      "aca": 2446,
      "Ġsuperficie": 2447,
      "Ġauto": 2448,
      "lic": 2449,
      "ridad": 2450,
      "unca": 2451,
      "Ġespacio": 2452,
      "Ġ22": 2453,
      "Ġdirector": 2454,
      "illas": 2455,
      "La": 2456,
      "Ġcentral": 2457,
      "197": 2458,
      "Ġ23": 2459,
      "Ġcarrera": 2460,
      ".,": 2461,
      "Ġpuntos": 2462,
      "Ġelementos": 2463,
      "rÃ¡n": 2464,
      "dados": 2465,
      "ĠBe": 2466,
      "ruy": 2467,
      "Ġselec": 2468,
      "plo": 2469,
      "ines": 2470,
      "chos": 2471,
      "orge": 2472,
      "Ġprimero": 2473,
      "perador": 2474,
      "alla": 2475,
      "Ġproyecto": 2476,
      "Ġmos": 2477,
      "ducciÃ³n": 2478,
      "Ġcabo": 2479,
      "ecer": 2480,
      "Ġintro": 2481,
      "Ġestar": 2482,
      "Ġfuerzas": 2483,
      "Ġon": 2484,
      "ste": 2485,
      ");": 2486,
      "ĠCrist": 2487,
      "ĠÃ³": 2488,
      "Ã©m": 2489,
      "iro": 2490,
      "Ġresultado": 2491,
      "Ġ2008": 2492,
      "ĠfunciÃ³n": 2493,
      "ĠAb": 2494,
      "ĠRes": 2495,
      "Ġprob": 2496,
      "Ġhombre": 2497,
      "ĠPas": 2498,
      "culo": 2499,
      "vidu": 2500,
      "Ġpropor": 2501,
      "iles": 2502,
      "Ġinstr": 2503,
      "Ġ/": 2504,
      "quÃŃ": 2505,
      "ick": 2506,
      "guay": 2507,
      "Ġarte": 2508,
      "Ġapl": 2509,
      "table": 2510,
      "Ġfuerte": 2511,
      "Ã³nica": 2512,
      "ĠBol": 2513,
      "Ġfron": 2514,
      "Ã©ndose": 2515,
      "Ġantiguo": 2516,
      "lad": 2517,
      "ĠQu": 2518,
      "ĠNorte": 2519,
      "Ġinternacional": 2520,
      "Ġextre": 2521,
      "dir": 2522,
      "Ġconocida": 2523,
      "posi": 2524,
      "Ġren": 2525,
      "Ġcampe": 2526,
      "eb": 2527,
      "tario": 2528,
      "Ġsuces": 2529,
      "Ġmonta": 2530,
      "Ġ186": 2531,
      "Ġactriz": 2532,
      "Ġanun": 2533,
      "ili": 2534,
      "ĠManuel": 2535,
      "ĠInternacional": 2536,
      "Ġ2004": 2537,
      "Ġorient": 2538,
      "tiago": 2539,
      "Ġambi": 2540,
      "ĠPero": 2541,
      "ĠÃºnico": 2542,
      "Ã¡st": 2543,
      "Ġcine": 2544,
      "dero": 2545,
      "Ġsuperior": 2546,
      "ĠperÃŃodo": 2547,
      "ecen": 2548,
      "Ġviol": 2549,
      "ĠMig": 2550,
      "Ġcompr": 2551,
      "Ġconce": 2552,
      "Ġconqu": 2553,
      "Ġmul": 2554,
      "Ġdistrib": 2555,
      "ĠposiciÃ³n": 2556,
      "Ġcri": 2557,
      "torios": 2558,
      "ĠcientÃŃf": 2559,
      "trÃ³": 2560,
      "hu": 2561,
      "ĠsÃ³lo": 2562,
      "eciÃ³": 2563,
      "Ġocur": 2564,
      "Ġfinalmente": 2565,
      "Ġabs": 2566,
      "Ġsex": 2567,
      "Ġmujeres": 2568,
      "ĠAsÃŃ": 2569,
      "Ġposib": 2570,
      "Ġfa": 2571,
      "El": 2572,
      "uras": 2573,
      "cen": 2574,
      "ĠMi": 2575,
      "Ġalto": 2576,
      "Ġfo": 2577,
      "Ġindividu": 2578,
      "ger": 2579,
      "vel": 2580,
      "Ġlengua": 2581,
      "Ġalg": 2582,
      "Ġraz": 2583,
      "Ġsecre": 2584,
      "titud": 2585,
      "celona": 2586,
      "Ġ2009": 2587,
      "ĠCiudad": 2588,
      "Ġmexic": 2589,
      "Ġelectr": 2590,
      "americ": 2591,
      "ÃŃstico": 2592,
      "ĠHar": 2593,
      "Ġred": 2594,
      "Ġrepresenta": 2595,
      "Ġsa": 2596,
      "Ġesper": 2597,
      "Ġ[": 2598,
      "Ġviv": 2599,
      "Ġ2011": 2600,
      "Ġedad": 2601,
      "Ġcuad": 2602,
      "Ġcultura": 2603,
      "Ġmetros": 2604,
      "Ġprograma": 2605,
      "Ġindustri": 2606,
      "ĠsituaciÃ³n": 2607,
      "Ġep": 2608,
      "Ġseis": 2609,
      "Ġcasos": 2610,
      "Ġ100": 2611,
      "Ġderi": 2612,
      "Ġellas": 2613,
      "Ġprem": 2614,
      "Ġinterior": 2615,
      "Ġcolon": 2616,
      "Ġrecu": 2617,
      "Ġcont": 2618,
      "Ġpartidos": 2619,
      "rir": 2620,
      "Ġestaban": 2621,
      "Ġho": 2622,
      "erio": 2623,
      "Ġobserv": 2624,
      "pone": 2625,
      "ografÃŃa": 2626,
      "Ġcantante": 2627,
      "ĠMartÃŃn": 2628,
      "Ġfon": 2629,
      "ĠSantiago": 2630,
      "ĠItalia": 2631,
      "pr": 2632,
      "partamento": 2633,
      "rique": 2634,
      "uenos": 2635,
      "Ġconten": 2636,
      "Ġunas": 2637,
      "Ġpoten": 2638,
      "ĠVir": 2639,
      "amos": 2640,
      "cÃ³": 2641,
      "Ġoriginal": 2642,
      "Ġlibre": 2643,
      "Ġsiglo": 2644,
      "Ġcontr": 2645,
      "Ġrecur": 2646,
      "ĠVic": 2647,
      "Ġfuerza": 2648,
      "Ġproblemas": 2649,
      "Ġargent": 2650,
      "her": 2651,
      "ht": 2652,
      "ĠInter": 2653,
      "Ġdar": 2654,
      "Ã©g": 2655,
      "ĠBan": 2656,
      "ĠSon": 2657,
      "torial": 2658,
      "ĠinformaciÃ³n": 2659,
      "Ã¡g": 2660,
      "iste": 2661,
      "cimientos": 2662,
      "Ġafec": 2663,
      "Ġactividad": 2664,
      "au": 2665,
      "sejo": 2666,
      "Ġ28": 2667,
      "30": 2668,
      "Ġabandon": 2669,
      "ĠOri": 2670,
      "Ġfi": 2671,
      "Ġgal": 2672,
      "dado": 2673,
      "ĠBal": 2674,
      "Ġvent": 2675,
      "Ġdic": 2676,
      "ĠMiguel": 2677,
      "ĠClub": 2678,
      "Ġservicio": 2679,
      "Ġderecho": 2680,
      "Ġdin": 2681,
      "enda": 2682,
      "ĠPremio": 2683,
      "Ġpresencia": 2684,
      "Ġmencion": 2685,
      "tac": 2686,
      "Ġnunca": 2687,
      "Ġmodelo": 2688,
      "Ġdepor": 2689,
      "Ġ27": 2690,
      "Ġfl": 2691,
      "tual": 2692,
      "ĠIng": 2693,
      "ĠteorÃŃa": 2694,
      "Ġconsecu": 2695,
      "ĠBarcelona": 2696,
      "Ġpaso": 2697,
      "metros": 2698,
      "ĠFernando": 2699,
      "Ġamor": 2700,
      "Ġ26": 2701,
      "ĠDo": 2702,
      "Ġ21": 2703,
      "later": 2704,
      "Ġenferme": 2705,
      "ĠMay": 2706,
      "iza": 2707,
      "ler": 2708,
      "ĠMal": 2709,
      "pes": 2710,
      "Ġmedida": 2711,
      "ires": 2712,
      "onal": 2713,
      "Ġalgo": 2714,
      "cidental": 2715,
      "Ġlocalidad": 2716,
      "istencia": 2717,
      "Ġprovoc": 2718,
      "Ġpron": 2719,
      "cera": 2720,
      "Ġdiferencia": 2721,
      "tagon": 2722,
      "ĠfÃºtbol": 2723,
      "Ġib": 2724,
      "Ġestructura": 2725,
      "ĠYork": 2726,
      "taron": 2727,
      "entales": 2728,
      "ulares": 2729,
      "uelo": 2730,
      "ĠtelevisiÃ³n": 2731,
      "Ġpropia": 2732,
      "ps": 2733,
      "Ġlig": 2734,
      "Ġsos": 2735,
      "Ġer": 2736,
      "Ġ2003": 2737,
      "ĠDem": 2738,
      "Ã©ctr": 2739,
      "ins": 2740,
      "Ġelim": 2741,
      "ĠParÃŃs": 2742,
      "berto": 2743,
      "Ġtec": 2744,
      "ĠSegunda": 2745,
      "ĠIII": 2746,
      "Ġoeste": 2747,
      "todo": 2748,
      "asa": 2749,
      "ĠVer": 2750,
      "Ġprovinci": 2751,
      "atos": 2752,
      "Ġprue": 2753,
      "ĠBen": 2754,
      "peraciÃ³n": 2755,
      "Ġcel": 2756,
      "ĠcreaciÃ³n": 2757,
      "Ġsistemas": 2758,
      "ĠRec": 2759,
      "ĠbritÃ¡nico": 2760,
      "ĠChina": 2761,
      "Ġdesa": 2762,
      "Ġcapacidad": 2763,
      "Ġtropas": 2764,
      "Ġtrib": 2765,
      "ÃŃculo": 2766,
      "Ġperiodo": 2767,
      "jar": 2768,
      "km": 2769,
      "Ġbor": 2770,
      "ĠLeÃ³n": 2771,
      "Ġcolec": 2772,
      "dar": 2773,
      "Ġexperim": 2774,
      "Ġapoyo": 2775,
      "ĠOc": 2776,
      "ĠEstos": 2777,
      "tino": 2778,
      "Ġmec": 2779,
      "Ġservicios": 2780,
      "Ġprimeras": 2781,
      "tina": 2782,
      "aja": 2783,
      "Ġpuer": 2784,
      "ĠSch": 2785,
      "Ġinfluencia": 2786,
      "uales": 2787,
      "Ġexisten": 2788,
      "Ã¡ndo": 2789,
      "Ġprincipio": 2790,
      "Ġsede": 2791,
      "dieron": 2792,
      "Ġpartes": 2793,
      "Ġju": 2794,
      "umento": 2795,
      "ĠBel": 2796,
      "fe": 2797,
      "iete": 2798,
      "mano": 2799,
      "Ġposteriormente": 2800,
      "Ġmilit": 2801,
      "Ġmadre": 2802,
      "ĠCentro": 2803,
      "Ġdescub": 2804,
      "Ġdispu": 2805,
      "Ġconci": 2806,
      "ciaciÃ³n": 2807,
      "Ãºa": 2808,
      "Ġconsum": 2809,
      "ĠCap": 2810,
      "Ġmedia": 2811,
      "Ġindependi": 2812,
      "Ġpersona": 2813,
      "ham": 2814,
      "ĠfÃ¡": 2815,
      "iblio": 2816,
      "ĠgÃ©nero": 2817,
      "onato": 2818,
      "tom": 2819,
      "ceso": 2820,
      "Ġexiste": 2821,
      "ĠÃºltimos": 2822,
      "rados": 2823,
      "Ġtama": 2824,
      "ĠseÃ±al": 2825,
      "ĠHe": 2826,
      "Ġgrande": 2827,
      "Ġ1990": 2828,
      "ciendo": 2829,
      "Ġcausa": 2830,
      "Ġ2012": 2831,
      "Ġllegar": 2832,
      "Ġarm": 2833,
      "Ġfundam": 2834,
      "ĠMer": 2835,
      "Ġcateg": 2836,
      "ĠclÃ¡s": 2837,
      "Ġveloci": 2838,
      "gÃ³": 2839,
      "ĠrÃ¡pi": 2840,
      "amientos": 2841,
      "rido": 2842,
      "Ġil": 2843,
      "olÃ³gico": 2844,
      "Ġdiversos": 2845,
      "rÃŃa": 2846,
      "mac": 2847,
      "han": 2848,
      "Ġposi": 2849,
      "ĠInstitu": 2850,
      "ner": 2851,
      "rada": 2852,
      "ÃŃp": 2853,
      "ĠHu": 2854,
      "Ġnoche": 2855,
      "Ġregist": 2856,
      "Ġantigua": 2857,
      "eli": 2858,
      "bu": 2859,
      "tus": 2860,
      "Ġsem": 2861,
      "Ã¶": 2862,
      "Ġsir": 2863,
      "ĠâĢĵ": 2864,
      "puestos": 2865,
      "196": 2866,
      "ĠrecibiÃ³": 2867,
      "Ġnuevos": 2868,
      "ĠdirecciÃ³n": 2869,
      "ĠDios": 2870,
      "abilidad": 2871,
      "Ġ50": 2872,
      "Ġpermite": 2873,
      "Ġpoc": 2874,
      "ĠHay": 2875,
      "guna": 2876,
      "Ġopera": 2877,
      "ĠSuper": 2878,
      "Ġfecha": 2879,
      "âĢĵ": 2880,
      "uez": 2881,
      "Ġpalabra": 2882,
      "ĠGre": 2883,
      "ĠJun": 2884,
      "Ġimportancia": 2885,
      "ĠAutor": 2886,
      "Ġoblig": 2887,
      "ĠDel": 2888,
      "gal": 2889,
      "Ġencontra": 2890,
      "Ġespos": 2891,
      "Ġind": 2892,
      "ini": 2893,
      "ror": 2894,
      "Ġincor": 2895,
      "Ġfundad": 2896,
      "Ġconven": 2897,
      "Ġnuevas": 2898,
      "Ġreac": 2899,
      "ĠRoma": 2900,
      "Ġempresa": 2901,
      "ĠEdi": 2902,
      "ĠRus": 2903,
      "ĠTierra": 2904,
      "laciones": 2905,
      "Ġacer": 2906,
      "Ġcic": 2907,
      "ĠDiv": 2908,
      "Ġsociedad": 2909,
      "ĠPan": 2910,
      "emos": 2911,
      "Ġ2002": 2912,
      "Ġcuyo": 2913,
      "Ġsust": 2914,
      "Ġeta": 2915,
      "Ġtrata": 2916,
      "iam": 2917,
      "nes": 2918,
      "tistas": 2919,
      "Ġaparece": 2920,
      "anci": 2921,
      "ĠGeneral": 2922,
      "iene": 2923,
      "ĠComun": 2924,
      "Ġaire": 2925,
      "Ġ2001": 2926,
      "ĠpasÃ³": 2927,
      "isis": 2928,
      "Ġgrab": 2929,
      "estiv": 2930,
      "ego": 2931,
      "ĠGra": 2932,
      "Ġempez": 2933,
      "ianos": 2934,
      "Ġejer": 2935,
      "blos": 2936,
      "Ġfab": 2937,
      "ĠWill": 2938,
      "ĠEsc": 2939,
      "Ġreform": 2940,
      "Ġ1999": 2941,
      "ĠRey": 2942,
      "Ġhijos": 2943,
      "Ã¡ticas": 2944,
      "Ġcorri": 2945,
      "ĠColom": 2946,
      "Ġestuvo": 2947,
      "fi": 2948,
      "dente": 2949,
      "ĠediciÃ³n": 2950,
      "Ġjef": 2951,
      "Ġgracias": 2952,
      "Ġ184": 2953,
      "entado": 2954,
      "Ġprepar": 2955,
      "Ġacom": 2956,
      "Ġpriv": 2957,
      "tul": 2958,
      "alacio": 2959,
      "ĠformaciÃ³n": 2960,
      "ĠDis": 2961,
      "Ġpers": 2962,
      "ĠPrimera": 2963,
      "ĠCos": 2964,
      "Ġidi": 2965,
      "cepciÃ³n": 2966,
      "Ġjo": 2967,
      "dap": 2968,
      "ĠRom": 2969,
      "gust": 2970,
      "Ġargentino": 2971,
      "Ġaproximadamente": 2972,
      "ĠAires": 2973,
      "vas": 2974,
      "Ġsentido": 2975,
      "Ġformas": 2976,
      "ĠMag": 2977,
      "ubo": 2978,
      "Ġtecn": 2979,
      "uros": 2980,
      "Ġenc": 2981,
      "ĠMil": 2982,
      "Ã¡cter": 2983,
      "Ġcelebr": 2984,
      "idente": 2985,
      "Ġmundial": 2986,
      "laterra": 2987,
      "Ġitaliano": 2988,
      "ĠcanciÃ³n": 2989,
      "Ġinstitu": 2990,
      "ĠJap": 2991,
      "Ġretir": 2992,
      "tim": 2993,
      "enes": 2994,
      "Ġta": 2995,
      "Ġfirm": 2996,
      "Ġahora": 2997,
      "inar": 2998,
      "Ġvoc": 2999,
      "ĠtamaÃ±o": 3000,
      "Ġconsigui": 3001,
      "Ġfra": 3002,
      "ley": 3003,
      "Ġintegr": 3004,
      "Ġhonor": 3005,
      "Ġemperador": 3006,
      "Ġreco": 3007,
      "vis": 3008,
      "Ġcumpl": 3009,
      "stral": 3010,
      "Ġpresenta": 3011,
      "Ġconstituy": 3012,
      "Ġdiversas": 3013,
      "Ġiglesia": 3014,
      "Ġcuya": 3015,
      "Ġconv": 3016,
      "ĠcarÃ¡cter": 3017,
      "Ġprotagon": 3018,
      "ey": 3019,
      "Ġcosta": 3020,
      "âĢĻ": 3021,
      "Ġabier": 3022,
      "Ġproductos": 3023,
      "ĠquÃŃm": 3024,
      "Ġmitad": 3025,
      "Ġobst": 3026,
      "Ġnovela": 3027,
      "Ġdoc": 3028,
      "Ġayud": 3029,
      "empl": 3030,
      "teratura": 3031,
      "Ġobjetivo": 3032,
      "Ġ29": 3033,
      "Ġpromo": 3034,
      "Ġoro": 3035,
      "yos": 3036,
      "ĠPat": 3037,
      "Ġrespecto": 3038,
      "ancias": 3039,
      "ĠSte": 3040,
      "dores": 3041,
      "ĠJes": 3042,
      "ses": 3043,
      "'s": 3044,
      "ĠorganizaciÃ³n": 3045,
      "ĠcaracterÃŃsticas": 3046,
      "Ġimagen": 3047,
      "uraciÃ³n": 3048,
      "ĠMuseo": 3049,
      "Ġmanif": 3050,
      "ance": 3051,
      "Ġdestr": 3052,
      "center": 3053,
      "uidos": 3054,
      "don": 3055,
      "Ġsector": 3056,
      "ĠInglaterra": 3057,
      "Ġmagn": 3058,
      "ĠÃī": 3059,
      "ĠnÃºcle": 3060,
      "rando": 3061,
      "Ġdicho": 3062,
      "Ġcrecimiento": 3063,
      "ĠBuenos": 3064,
      "ĠpodrÃŃa": 3065,
      "Ġmanten": 3066,
      "irse": 3067,
      "Ġderechos": 3068,
      "Ġjust": 3069,
      "Ġpersonaje": 3070,
      "tif": 3071,
      "ĠllevÃ³": 3072,
      "ĠCruz": 3073,
      "Ġbom": 3074,
      "tt": 3075,
      "Ġdice": 3076,
      "ĠinterÃ©s": 3077,
      "Ġactualidad": 3078,
      "Ġnego": 3079,
      "Ġislas": 3080,
      "Ġconcent": 3081,
      "ĠMas": 3082,
      "quÃŃa": 3083,
      "Ġcondiciones": 3084,
      "Ġpersonal": 3085,
      "Ġnin": 3086,
      "Ã¡ticos": 3087,
      "ientes": 3088,
      "ĠEr": 3089,
      "Ġcompon": 3090,
      "Ġtipos": 3091,
      "Ġmenudo": 3092,
      "Ġimp": 3093,
      "Ġsimple": 3094,
      "Ġtransform": 3095,
      "Ġactividades": 3096,
      "Ġrealizar": 3097,
      "ablo": 3098,
      "Ġcompos": 3099,
      "ĠRev": 3100,
      "Ġpobl": 3101,
      "ĠOb": 3102,
      "Ġ1980": 3103,
      "Ġconflic": 3104,
      "ly": 3105,
      "tida": 3106,
      "Ġcla": 3107,
      "ximo": 3108,
      "tadas": 3109,
      "ĠBras": 3110,
      "tÃŃa": 3111,
      "Ġiz": 3112,
      "ĠeconomÃŃa": 3113,
      "Ġincorpor": 3114,
      "Ġenvi": 3115,
      "Ġmanos": 3116,
      "Ġcandida": 3117,
      "ĠÃºnica": 3118,
      "ole": 3119,
      "estiÃ³n": 3120,
      "Ġmaterial": 3121,
      "Ġurb": 3122,
      "si": 3123,
      "ĠcatÃ³l": 3124,
      "Ġ182": 3125,
      "Â²": 3126,
      "jes": 3127,
      "Ġlong": 3128,
      "Ġ2013": 3129,
      "Ġconform": 3130,
      "Ġquin": 3131,
      "olucion": 3132,
      "ÃŃg": 3133,
      "ker": 3134,
      "Ġ1998": 3135,
      "ĠCons": 3136,
      "Ġtierras": 3137,
      "ualmente": 3138,
      "Ġpalabras": 3139,
      "li": 3140,
      "Ġnues": 3141,
      "Ġacab": 3142,
      "tum": 3143,
      "ws": 3144,
      "Ġdispon": 3145,
      "ĠCastilla": 3146,
      "Ġadap": 3147,
      "ĠacciÃ³n": 3148,
      "Ġaten": 3149,
      "Ġescu": 3150,
      "ĠBor": 3151,
      "Ġsimilar": 3152,
      "ind": 3153,
      "ĠAlgunos": 3154,
      "ĠTÃŃtulo": 3155,
      "Ġofre": 3156,
      "berg": 3157,
      "Ġ185": 3158,
      "Ġdemos": 3159,
      "Ġmemor": 3160,
      "ĠGon": 3161,
      "Ġutiliza": 3162,
      "ĠUnido": 3163,
      "Ġ2014": 3164,
      "vent": 3165,
      "Ġtales": 3166,
      "ĠCongreso": 3167,
      "Ġesf": 3168,
      "iere": 3169,
      "Ġvelocidad": 3170,
      "turo": 3171,
      "ticamente": 3172,
      "Ġradio": 3173,
      "eos": 3174,
      "ĠallÃŃ": 3175,
      "puls": 3176,
      "ivos": 3177,
      "Ġmic": 3178,
      "Ġtema": 3179,
      "Ġjud": 3180,
      "pal": 3181,
      "vid": 3182,
      "Ġactualmente": 3183,
      "Ġaspec": 3184,
      "ĠÃģn": 3185,
      "pir": 3186,
      "Ġmez": 3187,
      "Ġreferencia": 3188,
      "Ġmercado": 3189,
      "ĠNic": 3190,
      "Ġsuce": 3191,
      "ĠacompaÃ±": 3192,
      "ÃŃculos": 3193,
      "ianza": 3194,
      "Ġocasiones": 3195,
      "ese": 3196,
      "ĠEd": 3197,
      "Ġministro": 3198,
      "ĠJapÃ³n": 3199,
      "Ġadop": 3200,
      "Ġapoy": 3201,
      "Ġrelaciones": 3202,
      "Ġcomunidad": 3203,
      "Ġextran": 3204,
      "Ġtab": 3205,
      "Ġvig": 3206,
      "Ġobten": 3207,
      "iencias": 3208,
      "onte": 3209,
      "Ġinstal": 3210,
      "arlo": 3211,
      "gip": 3212,
      "wa": 3213,
      "iaciÃ³n": 3214,
      "ĠDie": 3215,
      "Ġ2015": 3216,
      "ĠFer": 3217,
      "Ġmusical": 3218,
      "ÃŃr": 3219,
      "acto": 3220,
      "ĠLey": 3221,
      "ime": 3222,
      "tell": 3223,
      "Ġdescon": 3224,
      "Ġmiembro": 3225,
      "Ġjoven": 3226,
      "Ġrealidad": 3227,
      "Ġ&": 3228,
      "ĠelÃ©ctr": 3229,
      "Ġfunda": 3230,
      "diendo": 3231,
      "ans": 3232,
      "Ġedificio": 3233,
      "Ġfies": 3234,
      "Ġcanciones": 3235,
      "itas": 3236,
      "zado": 3237,
      "clam": 3238,
      "Ġmano": 3239,
      "ites": 3240,
      "Ġacu": 3241,
      "Ġ183": 3242,
      "Ġpueblos": 3243,
      "Ġaprob": 3244,
      "Ġtraslad": 3245,
      "Ġ40": 3246,
      "ĠConsejo": 3247,
      "ensiÃ³n": 3248,
      "Ġrecha": 3249,
      "estival": 3250,
      "ĠPre": 3251,
      "ĠFuer": 3252,
      "Ġindustria": 3253,
      "zÃ¡": 3254,
      "Ġcuanto": 3255,
      "Ġcolabor": 3256,
      "ĠFeder": 3257,
      "Ġtemperatura": 3258,
      "itario": 3259,
      "Ġrecor": 3260,
      "ĠMÃ¡s": 3261,
      "ĠLond": 3262,
      "umentos": 3263,
      "Ġnos": 3264,
      "Ġizquier": 3265,
      "ĠLi": 3266,
      "etas": 3267,
      "seÃ±": 3268,
      "irma": 3269,
      "Ġefecto": 3270,
      "ĠFil": 3271,
      "ĠYo": 3272,
      "pado": 3273,
      "ĠGarcÃŃa": 3274,
      ".)": 3275,
      "Ġcomba": 3276,
      "Ġinteres": 3277,
      "Ġestra": 3278,
      "ĠTur": 3279,
      "ciente": 3280,
      "Ġentren": 3281,
      "usa": 3282,
      "arra": 3283,
      "ĠpequeÃ±o": 3284,
      "ĠespaÃ±oles": 3285,
      "Ġmodi": 3286,
      "ÃŃmp": 3287,
      "quil": 3288,
      "teca": 3289,
      "Ġhermano": 3290,
      "Ġdado": 3291,
      "Ġelev": 3292,
      "Ġlec": 3293,
      "ni": 3294,
      "ĠDon": 3295,
      "terÃŃa": 3296,
      "ame": 3297,
      "Ġproduce": 3298,
      "Ġasoci": 3299,
      "demia": 3300,
      "dios": 3301,
      "ĠColombia": 3302,
      "Ġmuestra": 3303,
      "Ġidea": 3304,
      "Ġavi": 3305,
      "ĠpublicÃ³": 3306,
      "Ġcalle": 3307,
      "lÃ¡n": 3308,
      "Ġvan": 3309,
      "Ġquienes": 3310,
      "Ġlenguas": 3311,
      "torno": 3312,
      "Ġmayores": 3313,
      "olÃ³gica": 3314,
      "Ġincluyendo": 3315,
      "Ġaltura": 3316,
      "igos": 3317,
      "dena": 3318,
      "ĠBur": 3319,
      "40": 3320,
      "ĠdiseÃ±": 3321,
      "Ġrefle": 3322,
      "och": 3323,
      "Ġvas": 3324,
      "Ġveci": 3325,
      "Ġnav": 3326,
      "Ġanimales": 3327,
      "Ġvictoria": 3328,
      "culos": 3329,
      "Ġinfer": 3330,
      "ĠrealizÃ³": 3331,
      "ĠRÃŃo": 3332,
      "pedi": 3333,
      "onel": 3334,
      "ĠlogrÃ³": 3335,
      "Ġreduci": 3336,
      "Ġmilitares": 3337,
      "Ġayuda": 3338,
      "ÃŃfico": 3339,
      "ĠescribiÃ³": 3340,
      "Ġ1996": 3341,
      "Ġlugares": 3342,
      "ĠVilla": 3343,
      "manas": 3344,
      "Ġgeneralmente": 3345,
      "ĠJe": 3346,
      "cidente": 3347,
      "ĠDomin": 3348,
      "Ġ1997": 3349,
      "len": 3350,
      "Ġclase": 3351,
      "ĠEstas": 3352,
      "ĠganÃ³": 3353,
      "Ġespecie": 3354,
      "ĠMu": 3355,
      "itan": 3356,
      "Ġguer": 3357,
      "ks": 3358,
      "Ġpersonajes": 3359,
      "Ġsignific": 3360,
      "Ġrespons": 3361,
      "Ġotor": 3362,
      "quia": 3363,
      "ĠOtros": 3364,
      "ĠTom": 3365,
      "Ġpudo": 3366,
      "Ġsiete": 3367,
      "blic": 3368,
      "tismo": 3369,
      "int": 3370,
      "Ġincluye": 3371,
      "icales": 3372,
      "ĠPu": 3373,
      "aya": 3374,
      "Ã¡nica": 3375,
      "ĠAlfon": 3376,
      "isto": 3377,
      "uye": 3378,
      "Ġcontrib": 3379,
      "ismos": 3380,
      "Ġminu": 3381,
      "ĠBrasil": 3382,
      "Åį": 3383,
      "rios": 3384,
      "teras": 3385,
      "manes": 3386,
      "ĠTrans": 3387,
      "ribe": 3388,
      "ĠCat": 3389,
      "Ġdig": 3390,
      "tualmente": 3391,
      "pias": 3392,
      "ĠÃ¡r": 3393,
      "ĠVenez": 3394,
      "ĠcompaÃ±ÃŃa": 3395,
      "ĠeducaciÃ³n": 3396,
      "ĠinvestigaciÃ³n": 3397,
      "ĠeconÃ³mica": 3398,
      "Ġmatem": 3399,
      "Ġbel": 3400,
      "ĠQue": 3401,
      "ĠdecidiÃ³": 3402,
      "Ġenfrent": 3403,
      "ÂłÂłÂłÂłÂłÂłÂłÂł": 3404,
      "Ġexistencia": 3405,
      "ÃŃc": 3406,
      "Ġconstruy": 3407,
      "ucle": 3408,
      "Ġhoras": 3409,
      "ĠMat": 3410,
      "Ġarch": 3411,
      "Ġbaja": 3412,
      "Ġproporcion": 3413,
      "ĠcampaÃ±a": 3414,
      "Ġhija": 3415,
      "ĠFo": 3416,
      "ĠAy": 3417,
      "Ġkil": 3418,
      "Ġ1970": 3419,
      "ĠdiseÃ±o": 3420,
      "ĠCatal": 3421,
      "ÃŃnci": 3422,
      "Ġmedios": 3423,
      "ferencia": 3424,
      "Ġfru": 3425,
      "Ġplata": 3426,
      "ibles": 3427,
      "tador": 3428,
      "ĠInstituto": 3429,
      "Ġi": 3430,
      "Ġchil": 3431,
      "Ġliter": 3432,
      "ĠHum": 3433,
      "erop": 3434,
      "Ġexpan": 3435,
      "Ġexcl": 3436,
      "tidos": 3437,
      "ÃŃmbol": 3438,
      "Ġsurg": 3439,
      "burgo": 3440,
      "ĠquedÃ³": 3441,
      "ĠEnrique": 3442,
      "ĠDan": 3443,
      "ĠPue": 3444,
      "ĠDivisiÃ³n": 3445,
      "ĠLiber": 3446,
      "Ġprobable": 3447,
      "Ġhu": 3448,
      "urÃ³": 3449,
      "Ġpi": 3450,
      "Ġcalidad": 3451,
      "ĠOs": 3452,
      "osp": 3453,
      "ĠLiga": 3454,
      "Ġconduc": 3455,
      "Ġhumanos": 3456,
      "dÃŃan": 3457,
      "Ġobjeto": 3458,
      "undo": 3459,
      "ĠbÃ¡s": 3460,
      "inal": 3461,
      "ĠdÃ³l": 3462,
      "Ġvista": 3463,
      "Ġsiglos": 3464,
      "risis": 3465,
      "Ġevi": 3466,
      "imen": 3467,
      "Ġfalle": 3468,
      "Ġequipos": 3469,
      "ĠpequeÃ±a": 3470,
      "Ġmunicipal": 3471,
      "su": 3472,
      "Ġcerc": 3473,
      "ĠChar": 3474,
      "ĠcÃ©l": 3475,
      "Ġplantas": 3476,
      "Ġdiez": 3477,
      "Ġsuel": 3478,
      "Ġcomercial": 3479,
      "ĠniÃ±os": 3480,
      "Ġ1992": 3481,
      "Ġvide": 3482,
      "Ġmando": 3483,
      "Ġfigura": 3484,
      "ĠFeli": 3485,
      "Ġpatr": 3486,
      "ames": 3487,
      "Ġbos": 3488,
      "mite": 3489,
      "ore": 3490,
      "rismo": 3491,
      "ĠSec": 3492,
      "ĠBas": 3493,
      "Ġpuerto": 3494,
      "icha": 3495,
      "Ġlongitud": 3496,
      "ĠÃģngel": 3497,
      "oj": 3498,
      "ĠCampe": 3499,
      "Ġsociales": 3500,
      "Ġens": 3501,
      "ĠTu": 3502,
      "Ġcabeza": 3503,
      "Ġesposa": 3504,
      "itado": 3505,
      "Ġfunciones": 3506,
      "ĠtenÃŃan": 3507,
      "Ġingen": 3508,
      "Ġcultural": 3509,
      "Ġreino": 3510,
      "ock": 3511,
      "estr": 3512,
      "Ġ2019": 3513,
      "ĠÂ¿": 3514,
      "terrÃ¡n": 3515,
      "esiÃ³n": 3516,
      "Ġ1994": 3517,
      "Ġtradicional": 3518,
      "entaciÃ³n": 3519,
      "Ġarmas": 3520,
      "Ġevitar": 3521,
      "ural": 3522,
      "Ġade": 3523,
      "Ġtercer": 3524,
      "Ġindependencia": 3525,
      "Ġhe": 3526,
      "ĠVi": 3527,
      "iado": 3528,
      "Ġposee": 3529,
      "damente": 3530,
      "llas": 3531,
      "Ġconvertir": 3532,
      "isiones": 3533,
      "Ġvoz": 3534,
      "venciÃ³n": 3535,
      "genes": 3536,
      "cla": 3537,
      "Ġregiones": 3538,
      "ĠFelipe": 3539,
      "ĠAg": 3540,
      "ĠJer": 3541,
      "Ġdefini": 3542,
      "Ã¡ndez": 3543,
      "Ġdicha": 3544,
      "Ġnombrado": 3545,
      "ĠpelÃŃculas": 3546,
      "III": 3547,
      "ariciÃ³n": 3548,
      "amp": 3549,
      "Ġfen": 3550,
      "Ġdepartamento": 3551,
      "Ġencontrar": 3552,
      "Ġconsiderado": 3553,
      "Ġtercera": 3554,
      "Ġsil": 3555,
      "iales": 3556,
      "quis": 3557,
      "ĠDÃŃa": 3558,
      "Ġmantener": 3559,
      "isten": 3560,
      "Ġconoce": 3561,
      "Ġ1995": 3562,
      "Ã³nimo": 3563,
      "ĠNew": 3564,
      "ĠUr": 3565,
      "ingÃºn": 3566,
      "ĠEdad": 3567,
      "25": 3568,
      "Ġ2016": 3569,
      "tesis": 3570,
      "rael": 3571,
      "digo": 3572,
      "Ġaplic": 3573,
      "iar": 3574,
      "cida": 3575,
      "cina": 3576,
      "Ġindic": 3577,
      "ĠWilliam": 3578,
      "Ġ2018": 3579,
      "deres": 3580,
      "Ġlleva": 3581,
      "Ġcamino": 3582,
      "Ã¡lisis": 3583,
      "ĠBern": 3584,
      "Ġproteg": 3585,
      "reno": 3586,
      "Ġobtuvo": 3587,
      "Ġpul": 3588,
      "Ġtemas": 3589,
      "ĠVenezuela": 3590,
      "untos": 3591,
      "Ġsigue": 3592,
      "Ġobstante": 3593,
      "trÃ¡s": 3594,
      "Ġatrib": 3595,
      "ĠAlfonso": 3596,
      "Ġarg": 3597,
      "bran": 3598,
      "Ġdios": 3599,
      "Âª": 3600,
      "Ġtiempos": 3601,
      "ĠcÃ©lulas": 3602,
      "195": 3603,
      "ĠSim": 3604,
      "ity": 3605,
      "amÃ©rica": 3606,
      "Ġverano": 3607,
      "80": 3608,
      "Ġjugador": 3609,
      "ĠtradiciÃ³n": 3610,
      "emen": 3611,
      "Ġsuele": 3612,
      "omÃ©": 3613,
      "Ġps": 3614,
      "Ġconcl": 3615,
      "ĠestaciÃ³n": 3616,
      "tividad": 3617,
      "||": 3618,
      "Ġtex": 3619,
      "ragÃ³n": 3620,
      "Ġmediados": 3621,
      "esta": 3622,
      "ĠYa": 3623,
      "Ġfuente": 3624,
      "Ġhistori": 3625,
      "Ġobtener": 3626,
      "deo": 3627,
      "ĠdivisiÃ³n": 3628,
      "Ã¨": 3629,
      "ÃŃns": 3630,
      "Ġ1991": 3631,
      "Ġconec": 3632,
      "rum": 3633,
      "Ġgolpe": 3634,
      "Ġafirm": 3635,
      "rar": 3636,
      "Ġhici": 3637,
      "ĠquÃ©": 3638,
      "Ġjefe": 3639,
      "ĠFu": 3640,
      "Ġcambios": 3641,
      "Ġquer": 3642,
      "ÃŃtulos": 3643,
      "mer": 3644,
      "Ġnaturaleza": 3645,
      "Ã¡mara": 3646,
      "Ġcome": 3647,
      "ĠvolviÃ³": 3648,
      "ĠMedi": 3649,
      "anÃŃa": 3650,
      "ionales": 3651,
      "lav": 3652,
      "ware": 3653,
      "Ġsang": 3654,
      "Ġempresas": 3655,
      "Ġposterior": 3656,
      "Ġingres": 3657,
      "Ġasum": 3658,
      "ĠcomunicaciÃ³n": 3659,
      "curso": 3660,
      "Ġprotec": 3661,
      "ĠindÃŃgen": 3662,
      "ĠGa": 3663,
      "gada": 3664,
      "Ġfrancesa": 3665,
      "Ġnumerosos": 3666,
      "ples": 3667,
      "ĠEjÃ©rcito": 3668,
      "Ġcontem": 3669,
      "ĠCasa": 3670,
      "ĠEurope": 3671,
      "Ġextranj": 3672,
      "Ġemb": 3673,
      "ĠLondres": 3674,
      "Ġelabor": 3675,
      "Ġmatrimonio": 3676,
      "ocr": 3677,
      "Ġlengu": 3678,
      "Ġvac": 3679,
      "Ġdepen": 3680,
      "ĠAca": 3681,
      "ispo": 3682,
      "Ġsustitu": 3683,
      "Ġparque": 3684,
      "Ġresta": 3685,
      "Ġtoc": 3686,
      "cidos": 3687,
      "Ġaguas": 3688,
      "ĠtodavÃŃa": 3689,
      "empla": 3690,
      "Ġelegido": 3691,
      "ÃŃz": 3692,
      "ides": 3693,
      "ĠningÃºn": 3694,
      "Ġrepar": 3695,
      "Ġguitar": 3696,
      "Ġinvi": 3697,
      "Ġetapa": 3698,
      "Ġcontac": 3699,
      "tern": 3700,
      "Ġagu": 3701,
      "Ã³c": 3702,
      "Ġlista": 3703,
      "ĠPuerto": 3704,
      "tn": 3705,
      "pie": 3706,
      "como": 3707,
      "ale": 3708,
      "Ġunidad": 3709,
      "Ġsom": 3710,
      "lez": 3711,
      "Ġmejores": 3712,
      "Ġdistancia": 3713,
      "Ġlocales": 3714,
      "ogrÃ¡f": 3715,
      "ĠDavid": 3716,
      "Ġescuela": 3717,
      "ĠDer": 3718,
      "ĠcÃ³mo": 3719,
      "echo": 3720,
      "uelas": 3721,
      "Ġesca": 3722,
      "vador": 3723,
      "Ġasc": 3724,
      "Ġ2017": 3725,
      "ĠAst": 3726,
      "Ġx": 3727,
      "osos": 3728,
      "Ġinme": 3729,
      "Ġcorte": 3730,
      "Ġadqui": 3731,
      "ĠprÃ¡ctica": 3732,
      "undi": 3733,
      "Ġadministra": 3734,
      "ĠCentral": 3735,
      "ĠMac": 3736,
      "Ġentrada": 3737,
      "22": 3738,
      "Ġlibros": 3739,
      "Ġdistintos": 3740,
      "ĠÃ¡reas": 3741,
      "Ġdijo": 3742,
      "Ġfinaliz": 3743,
      "omina": 3744,
      "ĠlÃŃneas": 3745,
      "Ġrevista": 3746,
      "Ġpoeta": 3747,
      "xima": 3748,
      "Ġincluyen": 3749,
      "eso": 3750,
      "Ġclima": 3751,
      "uf": 3752,
      "frica": 3753,
      "alista": 3754,
      "Ġarro": 3755,
      "Ġllama": 3756,
      "alo": 3757,
      "Ġconseg": 3758,
      "Ġtransporte": 3759,
      "ĠÃ¡ra": 3760,
      "deraciÃ³n": 3761,
      "ĠdemÃ¡s": 3762,
      "Ġromano": 3763,
      "ĠAnti": 3764,
      "ky": 3765,
      "ĠHol": 3766,
      "Ġproducto": 3767,
      "Ġgobernador": 3768,
      "Ġdesign": 3769,
      "lin": 3770,
      "ĠSeÃ±": 3771,
      "one": 3772,
      "Ġfalta": 3773,
      "orÃŃas": 3774,
      "Ġenem": 3775,
      "Ġejempl": 3776,
      "Ġ31": 3777,
      "ense": 3778,
      "Ġefectos": 3779,
      "ĠCla": 3780,
      "Ġcruz": 3781,
      "Ġpare": 3782,
      "wn": 3783,
      "Ġ1993": 3784,
      "ĠpodÃŃa": 3785,
      "ĠsÃŃn": 3786,
      "net": 3787,
      "Ġanteriores": 3788,
      "ĠGer": 3789,
      "dentes": 3790,
      "tillo": 3791,
      "isp": 3792,
      "Ġprodujo": 3793,
      "ĠtÃŃp": 3794,
      "ĠpÃºblica": 3795,
      "ĠpresiÃ³n": 3796,
      "ĠpolÃŃticos": 3797,
      "Ġseguridad": 3798,
      "ĠcategorÃŃa": 3799,
      "ĠÂ¡": 3800,
      "Ġalcal": 3801,
      "Ġperiodi": 3802,
      "Ġcrear": 3803,
      "Ã©gimen": 3804,
      "Ġadi": 3805,
      "tantes": 3806,
      "ĠBro": 3807,
      "Ġreempla": 3808,
      "Ġecu": 3809,
      "ĠBri": 3810,
      "ive": 3811,
      "Ġsens": 3812,
      "Ġrestos": 3813,
      "Ġcoloc": 3814,
      "Ġprome": 3815,
      "Ġmaes": 3816,
      "Ġimpres": 3817,
      "Ġ1960": 3818,
      "Ġdesapar": 3819,
      "org": 3820,
      "Ġconcepto": 3821,
      "ĠMuch": 3822,
      "rey": 3823,
      "Ġpropiedad": 3824,
      "ĠConstituciÃ³n": 3825,
      "Ġgira": 3826,
      "Ġhumano": 3827,
      "Ġderiv": 3828,
      "Ġcarre": 3829,
      "aug": 3830,
      "ĠJesÃºs": 3831,
      "enca": 3832,
      "Ġorgan": 3833,
      "aces": 3834,
      "Ġformar": 3835,
      "endiÃ³": 3836,
      "Ġ2020": 3837,
      "ĠMientras": 3838,
      "60": 3839,
      "Ġfinanci": 3840,
      "Ġconsecuencia": 3841,
      "Ġlucha": 3842,
      "Ġblanco": 3843,
      "Ġconvirti": 3844,
      "ÃŃncipe": 3845,
      "Ġinfl": 3846,
      "Ġejecu": 3847,
      "ĠPlan": 3848,
      "Ġast": 3849,
      "Ġataque": 3850,
      "public": 3851,
      "ĠdÃ³lares": 3852,
      "Ġdismin": 3853,
      "ĠÃ¡rbol": 3854,
      "ĠalgÃºn": 3855,
      "entan": 3856,
      "ĠkilÃ³": 3857,
      "Ġenfermedad": 3858,
      "ĠMc": 3859,
      "Ġgriego": 3860,
      "ux": 3861,
      "ato": 3862,
      "Ġpris": 3863,
      "Ġproblema": 3864,
      "Ã³st": 3865,
      "ĠhistÃ³rico": 3866,
      "rom": 3867,
      "Ġbol": 3868,
      "minos": 3869,
      "Ġliteratura": 3870,
      "Ġalguna": 3871,
      "Ã³nico": 3872,
      "Ġconvier": 3873,
      "Ġocho": 3874,
      "unci": 3875,
      "Ã³logo": 3876,
      "fil": 3877,
      "ĠEspaÃ±ol": 3878,
      "Ġran": 3879,
      "Ġsalud": 3880,
      "Ġcrisis": 3881,
      "Ġsecu": 3882,
      "tugu": 3883,
      "itÃ¡n": 3884,
      "umen": 3885,
      "tedr": 3886,
      "Ġacceso": 3887,
      "Ġrecuper": 3888,
      "Ġpremio": 3889,
      "ĠAz": 3890,
      "iller": 3891,
      "ĠÎ": 3892,
      "Ġcompositor": 3893,
      "Ġsecund": 3894,
      "ĠArm": 3895,
      "Ġcarb": 3896,
      "Ġ60": 3897,
      "Ġestados": 3898,
      "23": 3899,
      "eropuerto": 3900,
      "ĠÃģfrica": 3901,
      "Ġdistintas": 3902,
      "Ġtorn": 3903,
      "ĠOrden": 3904,
      "ĠHen": 3905,
      "imientos": 3906,
      "yas": 3907,
      "ĠAndr": 3908,
      "ĠPablo": 3909,
      "Ġclasific": 3910,
      "Ġja": 3911,
      "Ġcomercio": 3912,
      "andro": 3913,
      "ĠRusia": 3914,
      "Ġresiden": 3915,
      "ĠPaÃŃs": 3916,
      "art": 3917,
      "Ġtoma": 3918,
      "Ġconcier": 3919,
      "ĠLuego": 3920,
      "Ġfer": 3921,
      "Ġresultados": 3922,
      "fos": 3923,
      "ĠJust": 3924,
      "ash": 3925,
      "tienen": 3926,
      "Ġrebel": 3927,
      "imismo": 3928,
      "cÃ¡n": 3929,
      "leg": 3930,
      "ĠAlej": 3931,
      "ĠMari": 3932,
      "Ġsonido": 3933,
      "ilio": 3934,
      "ĠserÃ¡": 3935,
      "iografÃŃa": 3936,
      "Ġidentific": 3937,
      "Ġ1989": 3938,
      "Ġfoto": 3939,
      "olÃ³gicos": 3940,
      "Ġ180": 3941,
      "Ġfuentes": 3942,
      "Ġcompeti": 3943,
      "ĠIV": 3944,
      "Ġsoldados": 3945,
      "Ġdan": 3946,
      "Ġviaje": 3947,
      "rieron": 3948,
      "Ġnacionales": 3949,
      "Ġllegada": 3950,
      "ĠRich": 3951,
      "ĠtÃ©rminos": 3952,
      "Ġ80": 3953,
      "adal": 3954,
      "dan": 3955,
      "ulos": 3956,
      "ÃŃda": 3957,
      "ort": 3958,
      "ĠLin": 3959,
      "ulta": 3960,
      "ĠselecciÃ³n": 3961,
      "Ġautores": 3962,
      "Ġrealiza": 3963,
      "Ġbene": 3964,
      "Ġmetal": 3965,
      "Ġfrecuencia": 3966,
      "inte": 3967,
      "ĠpÃ©r": 3968,
      "Ġutilizado": 3969,
      "ĠÃ¡n": 3970,
      "torias": 3971,
      "Ġhabla": 3972,
      "sen": 3973,
      "ot": 3974,
      "Ġras": 3975,
      "ĠperiÃ³": 3976,
      "Ġacus": 3977,
      "Ġpaz": 3978,
      "Ġusu": 3979,
      "ĠFre": 3980,
      "ĠJorge": 3981,
      "Ġoscu": 3982,
      "Ġplanta": 3983,
      "ĠsÃŃmbol": 3984,
      "ĠAnd": 3985,
      "ĠpequeÃ±os": 3986,
      "Ġobjetos": 3987,
      "Ġdistrito": 3988,
      "iores": 3989,
      "isterio": 3990,
      "ĠadministraciÃ³n": 3991,
      "Ġherman": 3992,
      "ĠCer": 3993,
      "icipios": 3994,
      "Ġarque": 3995,
      "Ã³vil": 3996,
      "ĠPh": 3997,
      "Ġinicia": 3998,
      "Ġteatro": 3999,
      "Ġmad": 4000,
      "Ġazul": 4001,
      "Ġejec": 4002,
      "ĠenseÃ±": 4003,
      "ĠlÃŃder": 4004,
      "teria": 4005,
      "ĠpolÃŃticas": 4006,
      "Ġplaza": 4007,
      "amble": 4008,
      "ĠTi": 4009,
      "Ġjugadores": 4010,
      "ĠrazÃ³n": 4011,
      "Ġenter": 4012,
      "Ġblo": 4013,
      "Ġfase": 4014,
      "ĠcreÃ³": 4015,
      "Ġvivi": 4016,
      "ĠMen": 4017,
      "Ġprotes": 4018,
      "Ġamar": 4019,
      "Ġcelebra": 4020,
      "uta": 4021,
      "Ġprovincias": 4022,
      "ingÃ¼": 4023,
      "Ġbi": 4024,
      "Ġhabitu": 4025,
      "Ġoficiales": 4026,
      "Ġsufici": 4027,
      "isla": 4028,
      "ĠparticipaciÃ³n": 4029,
      "ĠDebido": 4030,
      "Ġterritorios": 4031,
      "Ġcontiene": 4032,
      "Ã³pez": 4033,
      "viÃ©tica": 4034,
      "ĠdejÃ³": 4035,
      "ĠeconÃ³mico": 4036,
      "ĠDist": 4037,
      "use": 4038,
      "ĠdifÃŃ": 4039,
      "Ġverda": 4040,
      "Ġsum": 4041,
      "Ġoccidental": 4042,
      "Ġimper": 4043,
      "Ġinternacionales": 4044,
      "Ġinicio": 4045,
      "Ġaudi": 4046,
      "Ġbre": 4047,
      "ilares": 4048,
      "esÃŃa": 4049,
      "adÃ¡": 4050,
      "amil": 4051,
      "ĠHab": 4052,
      "Ġyo": 4053,
      "Ġflu": 4054,
      "ÃŃnsula": 4055,
      "--": 4056,
      "Ġdeben": 4057,
      "ĠEscuela": 4058,
      "Ġlibertad": 4059,
      "Ġbuen": 4060,
      "Ġasist": 4061,
      "tiles": 4062,
      "Ġpocos": 4063,
      "Ġdeber": 4064,
      "Ġpermit": 4065,
      "Ġtexto": 4066,
      "rano": 4067,
      "cciÃ³n": 4068,
      "Ġnumerosas": 4069,
      "Ġforman": 4070,
      "Ġambas": 4071,
      "Ġferro": 4072,
      "ĠQui": 4073,
      "Ġconstante": 4074,
      "Ġmexicano": 4075,
      "ĠActualmente": 4076,
      "yn": 4077,
      "194": 4078,
      "alizado": 4079,
      "Ġnada": 4080,
      "Ġunidades": 4081,
      "Ġantiguos": 4082,
      "lamento": 4083,
      "ĠSen": 4084,
      "SA": 4085,
      "Ġenci": 4086,
      "ayo": 4087,
      "ĠEcon": 4088,
      "Ġtre": 4089,
      "eda": 4090,
      "193": 4091,
      "ĠnÃºmeros": 4092,
      "Ġvie": 4093,
      "Ġestim": 4094,
      "orme": 4095,
      "ĠLuc": 4096,
      "ÃŃtica": 4097,
      "Ġmemoria": 4098,
      "tz": 4099,
      "Ġrode": 4100,
      "ĠBre": 4101,
      "isa": 4102,
      "metro": 4103,
      "Ã¡mica": 4104,
      "izado": 4105,
      "Ġtrabajos": 4106,
      "ĠLÃ³pez": 4107,
      "ĠdÃ©": 4108,
      "Ġnombres": 4109,
      "Ġbe": 4110,
      "ĠnÃºcleo": 4111,
      "cam": 4112,
      "Ġperteneci": 4113,
      "Ġinvas": 4114,
      "Ġ!": 4115,
      "Ġjuegos": 4116,
      "sidad": 4117,
      "Ġpublicado": 4118,
      "hibi": 4119,
      "ĠBlan": 4120,
      "bla": 4121,
      "Ġsitio": 4122,
      "abel": 4123,
      "Ġpasado": 4124,
      "Ġpilo": 4125,
      "puestas": 4126,
      "ward": 4127,
      "Ġprote": 4128,
      "ĠTele": 4129,
      "ĠVol": 4130,
      "ĠFinalmente": 4131,
      "pia": 4132,
      "Ġnaturales": 4133,
      "Ġ:": 4134,
      "Ġtitul": 4135,
      "rantes": 4136,
      "Ġvio": 4137,
      "Ġnucle": 4138,
      "ĠprÃ³": 4139,
      "ĠSanto": 4140,
      "icultura": 4141,
      "uÃ±a": 4142,
      "ĠNor": 4143,
      "Ġsangre": 4144,
      "fica": 4145,
      "Ġrecursos": 4146,
      "icciÃ³n": 4147,
      "ĠÃŃn": 4148,
      "ĠBat": 4149,
      "Ġmag": 4150,
      "Ġ+": 4151,
      "uyÃ³": 4152,
      "Ġprecis": 4153,
      "tri": 4154,
      "Ġmens": 4155,
      "ĠRobert": 4156,
      "ĠPosteriormente": 4157,
      "ĠpequeÃ±as": 4158,
      "Ġexterior": 4159,
      "ĠSil": 4160,
      "ÃŃcol": 4161,
      "egio": 4162,
      "zÃ³": 4163,
      "para": 4164,
      "arÃŃan": 4165,
      "ĠAust": 4166,
      "ĠPaul": 4167,
      "aman": 4168,
      "Ġconquist": 4169,
      "ĠIr": 4170,
      "Ġninguna": 4171,
      "Ġpapa": 4172,
      "venes": 4173,
      "Ġproductor": 4174,
      "osas": 4175,
      "ĠProv": 4176,
      "Ġsituado": 4177,
      "ĠHon": 4178,
      "ĠJuegos": 4179,
      "ĠDepor": 4180,
      "icÃŃa": 4181,
      "Ã³venes": 4182,
      "ĠBra": 4183,
      "Ġrock": 4184,
      "Ġamena": 4185,
      "din": 4186,
      "rista": 4187,
      "Ġciencia": 4188,
      "Ġbuena": 4189,
      "Ġ1986": 4190,
      "Ġvisit": 4191,
      "uno": 4192,
      "ĠkilÃ³metros": 4193,
      "21": 4194,
      "ĠBr": 4195,
      "reo": 4196,
      "ĠVie": 4197,
      "ĠEstÃ¡": 4198,
      "ĠWil": 4199,
      "ĠIndia": 4200,
      "enario": 4201,
      "ĠrÃ©gimen": 4202,
      "cionalmente": 4203,
      "Ġvalle": 4204,
      "Ġrepro": 4205,
      "Ġce": 4206,
      "Ġepiso": 4207,
      "Ġidioma": 4208,
      "ĠFlor": 4209,
      "Ġhubo": 4210,
      "Ġpodr": 4211,
      "Ġeso": 4212,
      "Ġartes": 4213,
      "Ġcomienza": 4214,
      "Ġpresente": 4215,
      "ĠcÃ¡l": 4216,
      "Ġavanz": 4217,
      "izar": 4218,
      "Ġhacen": 4219,
      "Ġingles": 4220,
      "terio": 4221,
      "ĠMonte": 4222,
      "Ġinaug": 4223,
      "Ġdirectamente": 4224,
      "ua": 4225,
      "Ġmasa": 4226,
      "Ġexpedi": 4227,
      "ĠJames": 4228,
      "Ġsor": 4229,
      "Ġimpl": 4230,
      "Ġaumento": 4231,
      "ney": 4232,
      "Ġveg": 4233,
      "ĠMur": 4234,
      "Ġizquierda": 4235,
      "ĠmuriÃ³": 4236,
      "Ġsuelen": 4237,
      "gro": 4238,
      "ĠFal": 4239,
      "bes": 4240,
      "24": 4241,
      "Ġflo": 4242,
      "TA": 4243,
      "Ġaquellos": 4244,
      "Ġguar": 4245,
      "ĠLor": 4246,
      "gÃ¼": 4247,
      "ĠrÃŃos": 4248,
      "Ġedificios": 4249,
      "anda": 4250,
      "mina": 4251,
      "ok": 4252,
      "Ġlenguaje": 4253,
      "pus": 4254,
      "ĠGol": 4255,
      "ĠDu": 4256,
      "ospital": 4257,
      "ĠartÃŃculo": 4258,
      "Ġalign": 4259,
      "Ġ1988": 4260,
      "Ġportugu": 4261,
      "ĠAragÃ³n": 4262,
      "Ġinvers": 4263,
      "ĠvÃŃa": 4264,
      "Ġbarrio": 4265,
      "Ġgrado": 4266,
      "Ġdirigida": 4267,
      "Ġdecre": 4268,
      "ere": 4269,
      "ane": 4270,
      "Ġgente": 4271,
      "aga": 4272,
      "Ġpiedra": 4273,
      "ila": 4274,
      "ches": 4275,
      "ĠÃĵ": 4276,
      "Ġdoble": 4277,
      "dicos": 4278,
      "Ġglo": 4279,
      "Ġfabric": 4280,
      "Ġcatal": 4281,
      "ĠWal": 4282,
      "Ġequival": 4283,
      "Ġcosas": 4284,
      "Ġvolver": 4285,
      "zan": 4286,
      "ĠMunicip": 4287,
      "anzas": 4288,
      "Ġalterna": 4289,
      "ĠIS": 4290,
      "tig": 4291,
      "Ġpelig": 4292,
      "Ġparece": 4293,
      "Ġformado": 4294,
      "Ġelemento": 4295,
      "Ġincrem": 4296,
      "ĠEstudi": 4297,
      "ÃŃdo": 4298,
      "siones": 4299,
      "Ġmadera": 4300,
      "ĠCosta": 4301,
      "itaria": 4302,
      "ivamente": 4303,
      "Ġutilizar": 4304,
      "Ġsuelo": 4305,
      "Ġali": 4306,
      "ĠmÃ©todo": 4307,
      "inta": 4308,
      "Ġ1985": 4309,
      "Ġdefensa": 4310,
      "Ġconde": 4311,
      "Ġfuturo": 4312,
      "ĠVirgen": 4313,
      "Ġ1982": 4314,
      "rante": 4315,
      "Ġflor": 4316,
      "Ġperu": 4317,
      "tarse": 4318,
      "ivas": 4319,
      "Ġbastante": 4320,
      "Ġenl": 4321,
      "Ġartistas": 4322,
      "ĠLeg": 4323,
      "Ġcru": 4324,
      "azÃ³n": 4325,
      "ecido": 4326,
      "lia": 4327,
      "ĠKa": 4328,
      "Ġmarc": 4329,
      "ĠInde": 4330,
      "ĠValle": 4331,
      "smo": 4332,
      "Ġdibu": 4333,
      "ĠterminÃ³": 4334,
      "70": 4335,
      "ĠPortu": 4336,
      "bita": 4337,
      "endido": 4338,
      "Ġmulti": 4339,
      "Ġestrella": 4340,
      "Es": 4341,
      "ĠEduc": 4342,
      "Ġfines": 4343,
      "ood": 4344,
      "cillo": 4345,
      "ĠfÃŃsica": 4346,
      "Ġpad": 4347,
      "ĠBos": 4348,
      "ĠjÃ³venes": 4349,
      "ĠcrÃŃtica": 4350,
      "Ġnega": 4351,
      "Ġtuvieron": 4352,
      "izada": 4353,
      "osofÃŃa": 4354,
      "ĠÃģl": 4355,
      "enn": 4356,
      "ĠextensiÃ³n": 4357,
      "ĠtÃ©cnica": 4358,
      "Ġbenefici": 4359,
      "Ġ1987": 4360,
      "ung": 4361,
      "dro": 4362,
      "Ġusa": 4363,
      "tidades": 4364,
      "Ġvariedad": 4365,
      "amblea": 4366,
      "ĠaÃ±ad": 4367,
      "Ġcanal": 4368,
      "Ġtes": 4369,
      "ĠAcademia": 4370,
      "Ġsolici": 4371,
      "Ġllu": 4372,
      "ĠSud": 4373,
      "oche": 4374,
      "Ġnecesario": 4375,
      "Ġbandera": 4376,
      "villa": 4377,
      "ĠValencia": 4378,
      "Ġconcre": 4379,
      "Ġproducir": 4380,
      "Ġutilizan": 4381,
      "polit": 4382,
      "ĠAustral": 4383,
      "Ġderecha": 4384,
      "ĠFa": 4385,
      "Ġvalores": 4386,
      "Ġconocimiento": 4387,
      "Ġasent": 4388,
      "cripciÃ³n": 4389,
      "Ġmusul": 4390,
      "ĠBiblio": 4391,
      "Ġnegro": 4392,
      "Ġllevar": 4393,
      "Ġinferior": 4394,
      "eran": 4395,
      "edades": 4396,
      "ĠSam": 4397,
      "ĠOro": 4398,
      "Ġdisposi": 4399,
      "Ġhicieron": 4400,
      "urado": 4401,
      "Ã³rm": 4402,
      "Ġ2021": 4403,
      "icio": 4404,
      "ĠiniciÃ³": 4405,
      "Ġmateriales": 4406,
      "Ġaus": 4407,
      "ĠInf": 4408,
      "Ġtomar": 4409,
      "Ã©ticos": 4410,
      "Ġojos": 4411,
      "Ġniveles": 4412,
      "olo": 4413,
      "mentos": 4414,
      "ĠWar": 4415,
      "inato": 4416,
      "78": 4417,
      "Ġpreten": 4418,
      "Ġ1984": 4419,
      "Ġfis": 4420,
      "Ġfemen": 4421,
      "Ã¡genes": 4422,
      "oras": 4423,
      "Ġ1979": 4424,
      "Ġexplo": 4425,
      "Ġtriun": 4426,
      "Ġarquitectura": 4427,
      "ĠmÃ¡ximo": 4428,
      "Ġcub": 4429,
      "Ġocup": 4430,
      "ĠMedia": 4431,
      "Ġtorno": 4432,
      "visiÃ³n": 4433,
      "ĠmÃŃn": 4434,
      "Ġfrontera": 4435,
      "lado": 4436,
      "Ġrespuesta": 4437,
      "Ġpasa": 4438,
      "Ġconflicto": 4439,
      "Ġalcan": 4440,
      "iforn": 4441,
      "ĠFÃºtbol": 4442,
      "ĠdistribuciÃ³n": 4443,
      "ĠJul": 4444,
      "ĠanunciÃ³": 4445,
      "Ġlabor": 4446,
      "Ġcarga": 4447,
      "Ġtratamiento": 4448,
      "Ġresistencia": 4449,
      "Ġllega": 4450,
      "ariamente": 4451,
      "itÃ©": 4452,
      "Ġfacil": 4453,
      "ĠfenÃ³m": 4454,
      "chas": 4455,
      "Ġmunicipios": 4456,
      "lÃ¡": 4457,
      "Ġleyes": 4458,
      "rie": 4459,
      "ocra": 4460,
      "Ġreina": 4461,
      "Ġrecom": 4462,
      "Ġcubier": 4463,
      "Ġ1983": 4464,
      "Ġcentros": 4465,
      "Ġprogramas": 4466,
      "ĠmÃºlti": 4467,
      "ĠconsiguiÃ³": 4468,
      "Ġcompu": 4469,
      "Ġoper": 4470,
      "Ġparticipar": 4471,
      "Ġvuelta": 4472,
      "ĠPers": 4473,
      "Ġminutos": 4474,
      "Ġestrellas": 4475,
      "Ġpasar": 4476,
      "apones": 4477,
      "Ġ179": 4478,
      "ĠfÃ¡cil": 4479,
      "ĠJean": 4480,
      "Ġsituada": 4481,
      "ĠEdu": 4482,
      "ĠFestival": 4483,
      "Ġcorriente": 4484,
      "rin": 4485,
      "Ġastr": 4486,
      "Ġcircun": 4487,
      "Ġabsolu": 4488,
      "Ġfuego": 4489,
      "mento": 4490,
      "ĠDos": 4491,
      "ĠDar": 4492,
      "Ġ70": 4493,
      "ĠempezÃ³": 4494,
      "Ġprofesional": 4495,
      "Ġreconoc": 4496,
      "Ġbra": 4497,
      "Ġindependiente": 4498,
      "inados": 4499,
      "Ġcere": 4500,
      "Ġhumana": 4501,
      "forma": 4502,
      "ilidades": 4503,
      "ombi": 4504,
      "Ġnuevamente": 4505,
      "Ġ90": 4506,
      "Ġmanifes": 4507,
      "endas": 4508,
      "grÃ¡fica": 4509,
      "Ġaso": 4510,
      "ĠnaciÃ³": 4511,
      "rÃ³n": 4512,
      "Ġsalida": 4513,
      "Ġtorneo": 4514,
      "Ġ(\"": 4515,
      "tedral": 4516,
      "ĠpermitiÃ³": 4517,
      "ĠmÃ¡qu": 4518,
      "onda": 4519,
      "ĠPortugal": 4520,
      "Ġpreci": 4521,
      "Ġinfan": 4522,
      "ĠanÃ¡lisis": 4523,
      "Ġ1950": 4524,
      "by": 4525,
      "ster": 4526,
      "sh": 4527,
      "Ġexcep": 4528,
      "Ġlarga": 4529,
      "leo": 4530,
      "ĠTiene": 4531,
      "Ã§": 4532,
      "Ġalmac": 4533,
      "ĠChrist": 4534,
      "ecÃŃa": 4535,
      "Ġconvierte": 4536,
      "Ġdominio": 4537,
      "vidad": 4538,
      "ĠÃ¡m": 4539,
      "Ġox": 4540,
      "Ġesfuer": 4541,
      "Ġviaj": 4542,
      "Ġencontraba": 4543,
      "Ġmantuvo": 4544,
      "Ġconden": 4545,
      "Ġcolores": 4546,
      "Ġaprov": 4547,
      "Ġmismos": 4548,
      "Ġideas": 4549,
      "ÃŃsticos": 4550,
      "Ġescrito": 4551,
      "trar": 4552,
      "ĠParque": 4553,
      "tyle": 4554,
      "ington": 4555,
      "rupo": 4556,
      "uestra": 4557,
      "Ġemi": 4558,
      "Ġescala": 4559,
      "Ġacciones": 4560,
      "Ã³cra": 4561,
      "Ġalum": 4562,
      "anes": 4563,
      "ĠMel": 4564,
      "ĠOlÃŃmp": 4565,
      "imos": 4566,
      "ĠpenÃŃnsula": 4567,
      "ĠrÃ¡pidamente": 4568,
      "Ġusar": 4569,
      "ĠAp": 4570,
      "Ġdenomina": 4571,
      "Ġcontrario": 4572,
      "Ã©ndo": 4573,
      "Ġpruebas": 4574,
      "ĠestableciÃ³": 4575,
      "ĠGonzÃ¡": 4576,
      "vol": 4577,
      "Ġvin": 4578,
      "adura": 4579,
      "Ġjapones": 4580,
      "Ġindustrial": 4581,
      "Ġesos": 4582,
      "pin": 4583,
      "zada": 4584,
      "Ã¤": 4585,
      "abe": 4586,
      "ĠBu": 4587,
      "Ġcuarto": 4588,
      "ĠapariciÃ³n": 4589,
      "Ġseguir": 4590,
      "Ġderrota": 4591,
      "ĠOtras": 4592,
      "ĠseÃ±or": 4593,
      "bito": 4594,
      "Ġrum": 4595,
      "Ġ1981": 4596,
      "Ġposibilidad": 4597,
      "Ġcompuesto": 4598,
      "ĠMos": 4599,
      "Ġameric": 4600,
      "Ġdespla": 4601,
      "teros": 4602,
      "ĠGonzÃ¡lez": 4603,
      "Ġconstruir": 4604,
      "ombre": 4605,
      "Ġpeso": 4606,
      "ille": 4607,
      "emas": 4608,
      "Ġ2022": 4609,
      "porÃ¡n": 4610,
      "Ã³mica": 4611,
      "Ġexig": 4612,
      "ĠDiego": 4613,
      "Ġdipu": 4614,
      "ĠCre": 4615,
      "ĠclasificaciÃ³n": 4616,
      "Ġcompleto": 4617,
      "onomÃŃa": 4618,
      "ĠExisten": 4619,
      "FA": 4620,
      "Ġdetal": 4621,
      "ith": 4622,
      "ĠLima": 4623,
      "The": 4624,
      "Ġdim": 4625,
      "Ġpintor": 4626,
      "ĠÃ³rg": 4627,
      "ĠoposiciÃ³n": 4628,
      "Ġcaball": 4629,
      "ĠhabrÃŃa": 4630,
      "Ġ1973": 4631,
      "Ġcomerci": 4632,
      "ĠimÃ¡genes": 4633,
      "ĠKar": 4634,
      "inastÃŃa": 4635,
      "eca": 4636,
      "26": 4637,
      "Ġlic": 4638,
      "Ġllegaron": 4639,
      "Ġvilla": 4640,
      "Ġconocer": 4641,
      "Ġlago": 4642,
      "cieron": 4643,
      "ÃŃguez": 4644,
      "Ġnecesidad": 4645,
      "uma": 4646,
      "ĠElec": 4647,
      "Ġmetro": 4648,
      "ĠrepresentaciÃ³n": 4649,
      "ÃŃti": 4650,
      "Ġcontacto": 4651,
      "Ġprobablemente": 4652,
      "rama": 4653,
      "Ġconocidos": 4654,
      "ÃŃb": 4655,
      "ĠMol": 4656,
      "ÃŃes": 4657,
      "ĠSalvador": 4658,
      "ĠtÃ©cnicas": 4659,
      "ĠFernÃ¡ndez": 4660,
      "Ġposteriores": 4661,
      "alizada": 4662,
      "ultad": 4663,
      "Ġopin": 4664,
      "Ġstyle": 4665,
      "untamiento": 4666,
      "ĠTri": 4667,
      "Ġhora": 4668,
      "Ġnacimiento": 4669,
      "Ġrealizado": 4670,
      "Ġubicado": 4671,
      "ight": 4672,
      "drÃŃguez": 4673,
      "Ġ1976": 4674,
      "antas": 4675,
      "Ġnie": 4676,
      "ĠXV": 4677,
      "Ġcierto": 4678,
      "ĠTen": 4679,
      "Ġamigo": 4680,
      "Ġpropiedades": 4681,
      "rida": 4682,
      "ĠtomÃ³": 4683,
      "ĠStar": 4684,
      "Ġprom": 4685,
      "Ġ1978": 4686,
      "Ġcrea": 4687,
      "uidas": 4688,
      "Ġabund": 4689,
      "deras": 4690,
      "ej": 4691,
      "entas": 4692,
      "Ġvolun": 4693,
      "Ġdestacan": 4694,
      "venida": 4695,
      "ĠAsia": 4696,
      "ĠpÃ¡g": 4697,
      "Ġpart": 4698,
      "ĠPÃ©": 4699,
      "ĠpresentÃ³": 4700,
      "fre": 4701,
      "ĠatenciÃ³n": 4702,
      "ĠRodrÃŃguez": 4703,
      "iss": 4704,
      "enos": 4705,
      "color": 4706,
      "ĠcÃ³digo": 4707,
      "ĠRafa": 4708,
      "ucciones": 4709,
      "Ġcreado": 4710,
      "tol": 4711,
      "Ġexclus": 4712,
      "talmente": 4713,
      "Ġmicro": 4714,
      "Ġll": 4715,
      "tadores": 4716,
      "Ġmateria": 4717,
      "ponÃ©s": 4718,
      "Ġestablecer": 4719,
      "ĠPopular": 4720,
      "Ġnaveg": 4721,
      "amo": 4722,
      "Ġagru": 4723,
      "erra": 4724,
      "ĠCÃ³r": 4725,
      "undaciÃ³n": 4726,
      "Ġdinero": 4727,
      "Ġclases": 4728,
      "ĠMed": 4729,
      "Ġdetec": 4730,
      "Ġcabal": 4731,
      "Ġsemana": 4732,
      "Ġdific": 4733,
      "Ġcalles": 4734,
      "Ġpropios": 4735,
      "Ġhem": 4736,
      "Ġmarca": 4737,
      "toral": 4738,
      "Ġcompren": 4739,
      "entro": 4740,
      "Ġcadena": 4741,
      "Ġcampos": 4742,
      "Ġenten": 4743,
      "ĠGeorge": 4744,
      "Ġries": 4745,
      "bios": 4746,
      "Ġtej": 4747,
      "Ġcolum": 4748,
      "ĠexpresiÃ³n": 4749,
      "Ġgoles": 4750,
      "ibilidad": 4751,
      "deros": 4752,
      "bil": 4753,
      "Ġsencillo": 4754,
      "ĠEduardo": 4755,
      "ĠOn": 4756,
      "Ġmotor": 4757,
      "amento": 4758,
      "Ġdisc": 4759,
      "ĠAna": 4760,
      "ĠreligiÃ³n": 4761,
      "ĠDirec": 4762,
      "zi": 4763,
      "tiendo": 4764,
      "Ġversiones": 4765,
      "ĠcampeÃ³n": 4766,
      "Ġ*": 4767,
      "29": 4768,
      "ifornia": 4769,
      "Ġsome": 4770,
      "Ġgenerales": 4771,
      "ĠCÃ¡": 4772,
      "ĠPalacio": 4773,
      "geno": 4774,
      "Ġhaciendo": 4775,
      "Ġperiodista": 4776,
      "ĠPlaza": 4777,
      "Ġproto": 4778,
      "ĠtecnologÃŃa": 4779,
      "Ġtratado": 4780,
      "ku": 4781,
      "ĠEgip": 4782,
      "ĠGab": 4783,
      "ull": 4784,
      "Ġhel": 4785,
      "adÃ©m": 4786,
      "28": 4787,
      "ĠPin": 4788,
      "Ġoriental": 4789,
      "its": 4790,
      "Ġbienes": 4791,
      "Ġprocesos": 4792,
      "logo": 4793,
      "rimiento": 4794,
      "ĠindÃŃgenas": 4795,
      "ĠWin": 4796,
      "Ġvotos": 4797,
      "Ġcontenido": 4798,
      "Ġprofesor": 4799,
      "Ġfondo": 4800,
      "ĠdifÃŃcil": 4801,
      "Ġacerca": 4802,
      "Ġmotivo": 4803,
      "Ġestadounidenses": 4804,
      "Ġbur": 4805,
      "ĠSue": 4806,
      "ĠGua": 4807,
      "27": 4808,
      "Ġcastell": 4809,
      "Ġadecu": 4810,
      "Ġhalla": 4811,
      "Ġclar": 4812,
      "ld": 4813,
      "Ġcombate": 4814,
      "Ġperfec": 4815,
      "inada": 4816,
      "Ġ1974": 4817,
      "ĠfundaciÃ³n": 4818,
      "Ã©ro": 4819,
      "Ġrespectivamente": 4820,
      "bida": 4821,
      "Ġase": 4822,
      "hab": 4823,
      "dias": 4824,
      "Ġconseguir": 4825,
      "ĠBla": 4826,
      "Ġprogram": 4827,
      "tones": 4828,
      "ĠSevilla": 4829,
      "ibe": 4830,
      "Ġveh": 4831,
      "Ġdesempe": 4832,
      "presiÃ³n": 4833,
      "Ġcompletamente": 4834,
      "ivia": 4835,
      "ĠWe": 4836,
      "Ġpudi": 4837,
      "In": 4838,
      "Ġescribir": 4839,
      "Ġinstituciones": 4840,
      "ĠPac": 4841,
      "ueva": 4842,
      "todos": 4843,
      "Ġais": 4844,
      "Ġescal": 4845,
      "omos": 4846,
      "Ġfeder": 4847,
      "ĠUru": 4848,
      "Ġbras": 4849,
      "Ġprac": 4850,
      "bras": 4851,
      "Ġescudo": 4852,
      "Ġmanda": 4853,
      "Ġang": 4854,
      "desa": 4855,
      "dÃ³": 4856,
      "Ġsolamente": 4857,
      "Ġ1975": 4858,
      "Ġrecibe": 4859,
      "ocu": 4860,
      "Ġ1977": 4861,
      "Ġdeman": 4862,
      "Ġpred": 4863,
      "Ġambiente": 4864,
      "ĠEducaciÃ³n": 4865,
      "landÃ©s": 4866,
      "Ġsuje": 4867,
      "Ġaprovech": 4868,
      "ĠdeclarÃ³": 4869,
      "ftware": 4870,
      "ganizaciÃ³n": 4871,
      "Ġprogres": 4872,
      "ĠCada": 4873,
      "ĠDec": 4874,
      "Ġcolombi": 4875,
      "NE": 4876,
      "Ġapr": 4877,
      "asco": 4878,
      "ĠNuevo": 4879,
      "ĠRadio": 4880,
      "ĠprotecciÃ³n": 4881,
      "fra": 4882,
      "Ġprueba": 4883,
      "ĠcorazÃ³n": 4884,
      "Ġhechos": 4885,
      "ĠEgipto": 4886,
      "Ġoperaciones": 4887,
      "olÃ³gicas": 4888,
      "Ġescul": 4889,
      "lie": 4890,
      "ĠCultura": 4891,
      "ĠTro": 4892,
      "Ġsent": 4893,
      "Ġexplic": 4894,
      "Ġautoridades": 4895,
      "fera": 4896,
      "ys": 4897,
      "Ġdiferente": 4898,
      "ĠNeg": 4899,
      "ĠtÃŃtulos": 4900,
      "Ġaj": 4901,
      "Ġapre": 4902,
      "prim": 4903,
      "ĠdebÃŃa": 4904,
      "Ġlevan": 4905,
      "tric": 4906,
      "ĠFor": 4907,
      "ĠSar": 4908,
      "Ġpros": 4909,
      "ĠRevoluciÃ³n": 4910,
      "ĠdÃ©cadas": 4911,
      "olid": 4912,
      "trÃŃa": 4913,
      "Ġvesti": 4914,
      "Ġdefens": 4915,
      "estruc": 4916,
      "Ġsug": 4917,
      "ĠbritÃ¡nica": 4918,
      "Ġmecan": 4919,
      "ĠRiv": 4920,
      "Ġtrabajar": 4921,
      "ritu": 4922,
      "ĠMayor": 4923,
      "antino": 4924,
      "we": 4925,
      "ĠAir": 4926,
      "ĠjaponÃ©s": 4927,
      "let": 4928,
      "ĠDef": 4929,
      "Ġruso": 4930,
      "ess": 4931,
      "ĠJim": 4932,
      "ĠRafael": 4933,
      "Ġ35": 4934,
      "denes": 4935,
      "ĠFr": 4936,
      "Ġalcanzar": 4937,
      "Ġestren": 4938,
      "ĠJulio": 4939,
      "Ġcoinci": 4940,
      "Ã³rmula": 4941,
      "Ġfranceses": 4942,
      "ĠcÃ©": 4943,
      "ĠAustria": 4944,
      "texto": 4945,
      "Ġtenido": 4946,
      "Ġconfirm": 4947,
      "pio": 4948,
      "onces": 4949,
      "ĠcaÃŃda": 4950,
      "ure": 4951,
      "Ġempa": 4952,
      "Ġgana": 4953,
      "Ġsimilares": 4954,
      "ĠgeneraciÃ³n": 4955,
      "istema": 4956,
      "endario": 4957,
      "Ġparro": 4958,
      "Ġcomunes": 4959,
      "Ġcomerciales": 4960,
      "ania": 4961,
      "Ġtum": 4962,
      "ĠelecciÃ³n": 4963,
      "ĠaÃ©": 4964,
      "Ġrendi": 4965,
      "Ġmodific": 4966,
      "Ġautom": 4967,
      "dea": 4968,
      "doba": 4969,
      "ĠRichard": 4970,
      "Ġfamilias": 4971,
      "ulaciÃ³n": 4972,
      "Ãºr": 4973,
      "ĠevoluciÃ³n": 4974,
      "erdo": 4975,
      "terrÃ¡neo": 4976,
      "reras": 4977,
      "Ġganar": 4978,
      "viera": 4979,
      "Ġacce": 4980,
      "Ġcomenzaron": 4981,
      "Ġmedidas": 4982,
      "ĠPeter": 4983,
      "Ġ1930": 4984,
      "35": 4985,
      "Ġofrec": 4986,
      "ĠHel": 4987,
      "Ġhermanos": 4988,
      "84": 4989,
      "ann": 4990,
      "ocracia": 4991,
      "ĠAra": 4992,
      "Ġdipl": 4993,
      "Ġregular": 4994,
      "Ġdisting": 4995,
      "lÃŃn": 4996,
      "ĠAlberto": 4997,
      "ĠRamÃ³n": 4998,
      "ĠConst": 4999,
      "ĠCul": 5000,
      "Ġaltas": 5001,
      "ficaciÃ³n": 5002,
      "ĠCivil": 5003,
      "ĠdiÃ¡": 5004,
      "Ġromana": 5005,
      "vaciÃ³n": 5006,
      "ĠSoviÃ©tica": 5007,
      "Ġdestaca": 5008,
      "elos": 5009,
      "ĠAlejandro": 5010,
      "Ġmovimientos": 5011,
      "âĢĿ.": 5012,
      "puso": 5013,
      "Ġpiezas": 5014,
      "americana": 5015,
      "riendo": 5016,
      "lex": 5017,
      "Ġinteg": 5018,
      "itales": 5019,
      "Ġplaneta": 5020,
      "Ġaquella": 5021,
      "tres": 5022,
      "arquÃŃa": 5023,
      "ĠAlgunas": 5024,
      "Ar": 5025,
      "ĠlatÃŃn": 5026,
      "urar": 5027,
      "ĠmÃ¡xima": 5028,
      "ĠIsabel": 5029,
      "Ġrepublic": 5030,
      "90": 5031,
      "BN": 5032,
      "Ġconquista": 5033,
      "ĠSierra": 5034,
      "Ġdependi": 5035,
      "ĠMetro": 5036,
      "ĠAustralia": 5037,
      "ĠBiografÃŃa": 5038,
      "ĠForm": 5039,
      "Ġsober": 5040,
      "dice": 5041,
      "Ġinspir": 5042,
      "jeron": 5043,
      "Ġfus": 5044,
      "ernos": 5045,
      "ĠpÃ©rdida": 5046,
      "Ġcasas": 5047,
      "ĠaquÃŃ": 5048,
      "ĠdecisiÃ³n": 5049,
      "Ġfracas": 5050,
      "Ġoficialmente": 5051,
      "Ġcastillo": 5052,
      "Ġcomand": 5053,
      "Ġpopulares": 5054,
      "Ġextremo": 5055,
      "poner": 5056,
      "dri": 5057,
      "Ġbasada": 5058,
      "ĠparticipÃ³": 5059,
      "ĠlÃŃmite": 5060,
      "Ġconsiste": 5061,
      "Ġintento": 5062,
      "unidad": 5063,
      "usta": 5064,
      "ĠRic": 5065,
      "diente": 5066,
      "Ġnoti": 5067,
      "bus": 5068,
      "Ġproclam": 5069,
      "Ġexperiencia": 5070,
      "ĠCristo": 5071,
      "Ġadel": 5072,
      "Ġescena": 5073,
      "Ġ1945": 5074,
      "uega": 5075,
      "ĠGuadal": 5076,
      "ritos": 5077,
      "icidad": 5078,
      "taban": 5079,
      "Ġlu": 5080,
      "Ġpiel": 5081,
      "Ġpresidencia": 5082,
      "taÃ±a": 5083,
      "ĠagrÃŃcol": 5084,
      "ĠUno": 5085,
      "Ġcentr": 5086,
      "imas": 5087,
      "itz": 5088,
      "Ġrecibir": 5089,
      "ĠPaz": 5090,
      "Ġescuelas": 5091,
      "Ġproven": 5092,
      "ĠCalifornia": 5093,
      "orld": 5094,
      "Ġrojo": 5095,
      "Ġarri": 5096,
      "Ġ1968": 5097,
      "Ġreinado": 5098,
      "Ġtesti": 5099,
      "ĠVI": 5100,
      "Ġartista": 5101,
      "ĠMic": 5102,
      "Ġoport": 5103,
      "ĠGrecia": 5104,
      "Ġcomport": 5105,
      "Ġ1972": 5106,
      "Ġpuso": 5107,
      "ĠSig": 5108,
      "ĠcatÃ³lica": 5109,
      "75": 5110,
      "illos": 5111,
      "Ġexplor": 5112,
      "ĠPlata": 5113,
      "ĠgeogrÃ¡f": 5114,
      "taria": 5115,
      "viene": 5116,
      "Ġnovel": 5117,
      "Ġ1940": 5118,
      "unal": 5119,
      "Ġrequier": 5120,
      "Ġcarta": 5121,
      "ĠestÃ¡ndar": 5122,
      "Ġgrad": 5123,
      "ĠTeatro": 5124,
      "Ġgrave": 5125,
      "ath": 5126,
      "Ġdando": 5127,
      "demos": 5128,
      "teo": 5129,
      "emente": 5130,
      "Ġterres": 5131,
      "rer": 5132,
      "Ġplante": 5133,
      "ĠPÃ©rez": 5134,
      "Ġconsumo": 5135,
      "Ġmeta": 5136,
      "ĠhistÃ³rica": 5137,
      "Ġestatu": 5138,
      "ĠmÃ©dico": 5139,
      "Ġtemplo": 5140,
      "Ġalemanes": 5141,
      "ĠexpansiÃ³n": 5142,
      "ĠEv": 5143,
      "Ġmuertos": 5144,
      "itada": 5145,
      "ĠPon": 5146,
      "Ġestudiantes": 5147,
      "ĠcontinuaciÃ³n": 5148,
      "Ġcoci": 5149,
      "Ġeuropeos": 5150,
      "stein": 5151,
      "Ġinvierno": 5152,
      "Ã³f": 5153,
      "Ġconstruido": 5154,
      "Ã³so": 5155,
      "dol": 5156,
      "tle": 5157,
      "Ġalemana": 5158,
      "Ġhidr": 5159,
      "ĠmÃºsico": 5160,
      "iber": 5161,
      "ĠEra": 5162,
      "ĠFl": 5163,
      "way": 5164,
      "Ġconm": 5165,
      "Ġger": 5166,
      "Ġverde": 5167,
      "ĠAsimismo": 5168,
      "tencia": 5169,
      "ĠprÃŃncipe": 5170,
      "Ġcay": 5171,
      "ise": 5172,
      "Ġabog": 5173,
      "ĠEspaÃ±ola": 5174,
      "ĠalcanzÃ³": 5175,
      "Ġbloque": 5176,
      "Ġsovi": 5177,
      "ĠSab": 5178,
      "ĠEuropea": 5179,
      "Ġqueda": 5180,
      "edi": 5181,
      "trop": 5182,
      "ĠUruguay": 5183,
      "ajos": 5184,
      "Ġnota": 5185,
      "Ġdescubier": 5186,
      "Ã©ano": 5187,
      "ducir": 5188,
      "ÃŃcti": 5189,
      "ford": 5190,
      "Ġvon": 5191,
      "gica": 5192,
      "Ġventa": 5193,
      "ĠÃ¡rabe": 5194,
      "Ġparal": 5195,
      "ĠCÃ³rdoba": 5196,
      "Ġsola": 5197,
      "Ġinicial": 5198,
      "ĠTal": 5199,
      "ude": 5200,
      "ĠjudÃŃos": 5201,
      "Ġinstala": 5202,
      "99": 5203,
      "Ġcorrec": 5204,
      "quez": 5205,
      "ÃŃl": 5206,
      "Ġpronto": 5207,
      "Ġcapaz": 5208,
      "cipl": 5209,
      "Ã©di": 5210,
      "ĠAso": 5211,
      "ĠTratado": 5212,
      "ichael": 5213,
      "Ġamplia": 5214,
      "Ġdese": 5215,
      "Ġampli": 5216,
      "ĠCharles": 5217,
      "Ġadelante": 5218,
      "ĠdinastÃŃa": 5219,
      "Ġsobrevi": 5220,
      "Ġcierta": 5221,
      "ĠaplicaciÃ³n": 5222,
      "oroeste": 5223,
      "Ġbio": 5224,
      "ĠâĢĺ": 5225,
      "posiciones": 5226,
      "tarÃŃa": 5227,
      "carril": 5228,
      "ĠLen": 5229,
      "âĢĶ,": 5230,
      "Ġterror": 5231,
      "oles": 5232,
      "ĠacadÃ©m": 5233,
      "ĠcapitÃ¡n": 5234,
      "Ġreconocimiento": 5235,
      "ĠOtro": 5236,
      "Ġdemas": 5237,
      "Ġsat": 5238,
      "Ġpresentan": 5239,
      "tios": 5240,
      "alizar": 5241,
      "Ġmoderna": 5242,
      "Ġguion": 5243,
      "88": 5244,
      "ĠPremios": 5245,
      "peci": 5246,
      "ĠEcu": 5247,
      "Ġdenominado": 5248,
      "Ġtransm": 5249,
      "ĠGas": 5250,
      "gura": 5251,
      "Ġurban": 5252,
      "ĠautÃ³n": 5253,
      "Ġtorre": 5254,
      "unta": 5255,
      "Ġbrasile": 5256,
      "cientes": 5257,
      "âĢĿ,": 5258,
      "Ġagricultura": 5259,
      "Ġobispo": 5260,
      "Ġ1969": 5261,
      "ĠcÃ¡n": 5262,
      "Ġinterac": 5263,
      "Ġlin": 5264,
      "ĠTar": 5265,
      "ĠMej": 5266,
      "vio": 5267,
      "Al": 5268,
      "Ġnueve": 5269,
      "ĠEse": 5270,
      "amb": 5271,
      "Ġalf": 5272,
      "mann": 5273,
      "45": 5274,
      "Ġculturales": 5275,
      "rero": 5276,
      "Ġsimplemente": 5277,
      "ĠHi": 5278,
      "Ġfortal": 5279,
      "ish": 5280,
      "Ġtrono": 5281,
      "ĠcomposiciÃ³n": 5282,
      "Ġaseg": 5283,
      "Ġrefiere": 5284,
      "Ġhuman": 5285,
      "Ġnotable": 5286,
      "Ġviento": 5287,
      "Ġindica": 5288,
      "ĠespecÃŃf": 5289,
      "ister": 5290,
      "ÃŃgenes": 5291,
      "Ġusado": 5292,
      "Ġmodelos": 5293,
      "Ġpadres": 5294,
      "izÃ³": 5295,
      "Ġmarco": 5296,
      "ĠfÃŃsico": 5297,
      "Ġcomienzo": 5298,
      "33": 5299,
      "dÃ³n": 5300,
      "Ġmenores": 5301,
      "ĠdenominaciÃ³n": 5302,
      "ĠproteÃŃn": 5303,
      "CA": 5304,
      "Ġcalor": 5305,
      "Ġeventos": 5306,
      "ĠmisiÃ³n": 5307,
      "ĠcontinuÃ³": 5308,
      "lesias": 5309,
      "Ġautoridad": 5310,
      "Ġace": 5311,
      "ĠniÃ±o": 5312,
      "dada": 5313,
      "Ġdispar": 5314,
      "acer": 5315,
      "ĠDomingo": 5316,
      "tora": 5317,
      "ĠGuiller": 5318,
      "ĠlanzÃ³": 5319,
      "65": 5320,
      "Ġcara": 5321,
      "ĠSub": 5322,
      "Ġaspecto": 5323,
      "Ġimpuls": 5324,
      "gaciones": 5325,
      "ÃŃmites": 5326,
      "Ġtradicionales": 5327,
      "Ġcomplejo": 5328,
      "tifici": 5329,
      "ĠVicente": 5330,
      "ĠmÃºltiples": 5331,
      "entando": 5332,
      "Ġdura": 5333,
      "gulo": 5334,
      "Ġâ": 5335,
      "Ġromanos": 5336,
      "Ġcontaba": 5337,
      "Ġcielo": 5338,
      "ĠTorre": 5339,
      "ĠcontemporÃ¡n": 5340,
      "Ġplano": 5341,
      "ĠCampeonato": 5342,
      "ĠAndrÃ©s": 5343,
      "acho": 5344,
      "Ġweb": 5345,
      "Ġestadio": 5346,
      "Ġproyectos": 5347,
      "Ã³mico": 5348,
      "Ġbandas": 5349,
      "ĠfilÃ³so": 5350,
      "chi": 5351,
      "fas": 5352,
      "ĠAD": 5353,
      "Ġbiblio": 5354,
      "Ġ1967": 5355,
      "Ġfactores": 5356,
      "Ġcostum": 5357,
      "ĠallÃ¡": 5358,
      "Ġpuente": 5359,
      "Ġsubs": 5360,
      "istÃ¡n": 5361,
      "ĠuniÃ³n": 5362,
      "ĠAdminist": 5363,
      "Ġhojas": 5364,
      "Ġbusc": 5365,
      "ĠHasta": 5366,
      "ĠGeografÃŃa": 5367,
      "Ġros": 5368,
      "ecciÃ³n": 5369,
      "usto": 5370,
      "ĠSta": 5371,
      "aliza": 5372,
      "ensiones": 5373,
      "ella": 5374,
      "Ġ1920": 5375,
      "up": 5376,
      "ĠgrÃ¡f": 5377,
      "Ġciclo": 5378,
      "ĠlingÃ¼": 5379,
      "ĠdesarrollÃ³": 5380,
      "Ġalber": 5381,
      "En": 5382,
      "cesa": 5383,
      "Ġ1971": 5384,
      "tional": 5385,
      "ates": 5386,
      "Ġlanzamiento": 5387,
      "Ġcomarca": 5388,
      "tarios": 5389,
      "Ġvar": 5390,
      "SS": 5391,
      "ĠCuba": 5392,
      "ĠBill": 5393,
      "Ġrelev": 5394,
      "acas": 5395,
      "Ġterreno": 5396,
      "Ġvolumen": 5397,
      "ĠJunta": 5398,
      "ĠCanadÃ¡": 5399,
      "Ġfiestas": 5400,
      "pertura": 5401,
      "Ġhog": 5402,
      "derÃŃa": 5403,
      "ĠMinisterio": 5404,
      "Ġnar": 5405,
      "Ġpoblaciones": 5406,
      "Ġcurso": 5407,
      "Ġsacerdo": 5408,
      "alismo": 5409,
      "pren": 5410,
      "ĠsÃ©": 5411,
      "tiende": 5412,
      "ĠMichael": 5413,
      "ĠTrib": 5414,
      "Ġintelec": 5415,
      "Ġencima": 5416,
      "tral": 5417,
      "Ġhidro": 5418,
      "ello": 5419,
      "Ġpregun": 5420,
      "ĠsiguiÃ³": 5421,
      "ĠTour": 5422,
      "Ġfas": 5423,
      "ĠpublicaciÃ³n": 5424,
      ";\"": 5425,
      "cÃ³n": 5426,
      "Ġsolar": 5427,
      "fes": 5428,
      "Ġaparecen": 5429,
      "Ġfol": 5430,
      "Ġescas": 5431,
      "orado": 5432,
      "Ġfiguras": 5433,
      "ĠGrupo": 5434,
      "Ġdestino": 5435,
      "ĠFrank": 5436,
      "ĠSebas": 5437,
      "ĠIsrael": 5438,
      "ĠpodÃŃan": 5439,
      "ĠGuillermo": 5440,
      "ĠPi": 5441,
      "ĠsÃŃmbolo": 5442,
      "Ġdul": 5443,
      "ÃŃtico": 5444,
      "Ġorg": 5445,
      "Â«": 5446,
      "Ġconex": 5447,
      "bilidad": 5448,
      "ĠfilosofÃŃa": 5449,
      "ĠhacÃŃa": 5450,
      "piraciÃ³n": 5451,
      "remo": 5452,
      "Ġpractic": 5453,
      "align": 5454,
      "ĠJack": 5455,
      "Ġ1936": 5456,
      "anti": 5457,
      "Ġcercan": 5458,
      "Ġapenas": 5459,
      "ĠCarta": 5460,
      "ĠAsamblea": 5461,
      "85": 5462,
      "Ġjard": 5463,
      "Ġprensa": 5464,
      "Ġvisto": 5465,
      "cular": 5466,
      "uth": 5467,
      "ĠPacÃŃfico": 5468,
      "ĠraÃŃz": 5469,
      "Ġpropias": 5470,
      "ĠAlex": 5471,
      "Ġllamados": 5472,
      "Ġcarretera": 5473,
      "Ġsabe": 5474,
      "urÃŃ": 5475,
      "dencias": 5476,
      "Ġfundada": 5477,
      "ĠVan": 5478,
      "ĠBolivia": 5479,
      "Ġincon": 5480,
      "Ġconsiderada": 5481,
      "Ġinmig": 5482,
      "ĠNicol": 5483,
      "Ġpantal": 5484,
      "Ġvideoj": 5485,
      "ĠHern": 5486,
      "ĠvÃŃcti": 5487,
      "Ġtemperaturas": 5488,
      "ĠMartÃŃnez": 5489,
      "Ġcree": 5490,
      "ĠLeon": 5491,
      "ĠNorm": 5492,
      "ĠcondiciÃ³n": 5493,
      "Ġaspectos": 5494,
      "ĠÃģlvar": 5495,
      "ĠcolecciÃ³n": 5496,
      "ĠartÃŃculos": 5497,
      "Ġ500": 5498,
      "Ġdec": 5499,
      "Ġactuales": 5500,
      "Ġpsic": 5501,
      "ami": 5502,
      "oluc": 5503,
      "Ġhistoriador": 5504,
      "Ġurbano": 5505,
      "Ch": 5506,
      "abez": 5507,
      "igh": 5508,
      "Ġdebajo": 5509,
      "teles": 5510,
      "Ġmusicales": 5511,
      "ĠSem": 5512,
      "Ġobserva": 5513,
      "quiera": 5514,
      "Ġriesgo": 5515,
      "eng": 5516,
      "Ġpiloto": 5517,
      "ĠEstadio": 5518,
      "Ġbasado": 5519,
      "Ġorques": 5520,
      "Ġpais": 5521,
      "Ġcorre": 5522,
      "Ġtele": 5523,
      "rÃ¡": 5524,
      "Ġllan": 5525,
      "Ġrepe": 5526,
      "ĠvisiÃ³n": 5527,
      "pira": 5528,
      "Ġdeten": 5529,
      "Ġneu": 5530,
      "ĠHam": 5531,
      "ĠapareciÃ³": 5532,
      "ĠpÃºblicos": 5533,
      "Ġvuelo": 5534,
      "dis": 5535,
      "ĠFac": 5536,
      "ĠHit": 5537,
      "Ġamigos": 5538,
      "ĠinvasiÃ³n": 5539,
      "Ġavent": 5540,
      "tuales": 5541,
      "chez": 5542,
      "Ġganado": 5543,
      "Ã¡nico": 5544,
      "ĠVel": 5545,
      "NA": 5546,
      "ĠHun": 5547,
      "Ġano": 5548,
      "Ġtextos": 5549,
      "Ġencuentro": 5550,
      "Ġdebut": 5551,
      "Ġtotalmente": 5552,
      "ĠISBN": 5553,
      "ĠÃºltimas": 5554,
      "Äģ": 5555,
      "Ġubicada": 5556,
      "ĠÃ¡mbito": 5557,
      "Ġnormalmente": 5558,
      "Ġclave": 5559,
      "ĠSociedad": 5560,
      "egas": 5561,
      "Ġtel": 5562,
      "ĠVill": 5563,
      "Ġcomunidades": 5564,
      "Ġdescar": 5565,
      "86": 5566,
      "Ġnad": 5567,
      "Ġauton": 5568,
      "Ġvecinos": 5569,
      "Ġ45": 5570,
      "Ġponer": 5571,
      "quilib": 5572,
      "Ġestad": 5573,
      "Ġpalacio": 5574,
      "cien": 5575,
      "ĠCÃ©s": 5576,
      "ons": 5577,
      "ĠCO": 5578,
      "RA": 5579,
      "Ġruta": 5580,
      "Ġentorno": 5581,
      "Ġaves": 5582,
      "ĠCataluÃ±a": 5583,
      "Ġvivo": 5584,
      "ĠformÃ³": 5585,
      "Ġfiesta": 5586,
      "Ġcicl": 5587,
      "Ġcui": 5588,
      "Ġfrag": 5589,
      "ĠdefiniciÃ³n": 5590,
      "Ġmig": 5591,
      "ierÃŃa": 5592,
      "Ġacto": 5593,
      "Ġses": 5594,
      "ĠSebasti": 5595,
      "Ġrem": 5596,
      "Ġconsist": 5597,
      "ĠSui": 5598,
      "erna": 5599,
      "isco": 5600,
      "Ġcristian": 5601,
      "ling": 5602,
      "Ġentrev": 5603,
      "ĠCiencias": 5604,
      "Ġpotencia": 5605,
      "Ġutilizando": 5606,
      "ife": 5607,
      "quista": 5608,
      "Ġcompleta": 5609,
      "ĠexpediciÃ³n": 5610,
      "Ġdial": 5611,
      "76": 5612,
      "Ġantiguas": 5613,
      "Ġdejar": 5614,
      "Ġduque": 5615,
      "ĠXI": 5616,
      "Ġpromedio": 5617,
      "Ġocupa": 5618,
      "Ġchileno": 5619,
      "ĠHan": 5620,
      "Ġsemanas": 5621,
      "pole": 5622,
      "Ġalimentos": 5623,
      "Ġreno": 5624,
      "Ġhubi": 5625,
      "grÃŃa": 5626,
      "encial": 5627,
      "ĠperdiÃ³": 5628,
      "Ġuniversidad": 5629,
      "ĠmÃ©todos": 5630,
      "Ã±ez": 5631,
      "didas": 5632,
      "ĠFies": 5633,
      "ciaciones": 5634,
      "Ġmarcha": 5635,
      "Ġreales": 5636,
      "Ġinvestig": 5637,
      "Ġcorresponde": 5638,
      "Ġ()": 5639,
      "ĠfundÃ³": 5640,
      "plement": 5641,
      "Ġcaptur": 5642,
      "temala": 5643,
      "Ġdestacar": 5644,
      "Ġ1964": 5645,
      "rillo": 5646,
      "Ġentrenador": 5647,
      "iense": 5648,
      "Ġtrabajadores": 5649,
      "ĠAsociaciÃ³n": 5650,
      "amÃ¡": 5651,
      "ĠpolicÃŃa": 5652,
      "Ġintelig": 5653,
      "Ġconvers": 5654,
      "Ġrespe": 5655,
      "Ġsectores": 5656,
      "Ã³lica": 5657,
      "ĠdetrÃ¡s": 5658,
      "Ġalmacen": 5659,
      "egos": 5660,
      "Ã©rico": 5661,
      "Ġsit": 5662,
      "Ġanual": 5663,
      "dy": 5664,
      "ĠMario": 5665,
      "Ġbajas": 5666,
      "Ġcompuesta": 5667,
      "ĠinterpretaciÃ³n": 5668,
      "Ã©cord": 5669,
      "ĠGrande": 5670,
      "inales": 5671,
      "Ġllegando": 5672,
      "Ġrefug": 5673,
      "ĠJosep": 5674,
      "ĠÃ¡cido": 5675,
      "ĠOtra": 5676,
      "encio": 5677,
      "ĠTim": 5678,
      "Ġcomunic": 5679,
      "Ġinstalaciones": 5680,
      "Ġvino": 5681,
      "Ġlog": 5682,
      "ĠoperaciÃ³n": 5683,
      "Ġesas": 5684,
      "ĠRol": 5685,
      "kin": 5686,
      "pida": 5687,
      "ĠMuchos": 5688,
      "Ġflores": 5689,
      "ĠSy": 5690,
      "Ġletras": 5691,
      "Ġmezcla": 5692,
      "Ġsoftware": 5693,
      "ement": 5694,
      "Ġrevolucion": 5695,
      "wer": 5696,
      "ardia": 5697,
      "Ġciudadanos": 5698,
      "duce": 5699,
      "grafo": 5700,
      "ĠmolÃ©": 5701,
      "ĠSÃ¡n": 5702,
      "urias": 5703,
      "Ġcerem": 5704,
      "Ġfamoso": 5705,
      "ĠPaÃŃses": 5706,
      "tieron": 5707,
      "ĠencontrÃ³": 5708,
      "ĠWorld": 5709,
      "Ġestructuras": 5710,
      "uciones": 5711,
      "Ġestaciones": 5712,
      "Ġ1966": 5713,
      "tadura": 5714,
      "Ġremo": 5715,
      "Ġaconte": 5716,
      "porta": 5717,
      "Ġ1962": 5718,
      "ĠÃºnicamente": 5719,
      "Ġdejando": 5720,
      "my": 5721,
      "ĠCr": 5722,
      "uce": 5723,
      "Ġdiferencias": 5724,
      "Ġ150": 5725,
      "orio": 5726,
      "ĠÃ³rdenes": 5727,
      "ĠArte": 5728,
      "36": 5729,
      "Ġhaya": 5730,
      "dill": 5731,
      "ĠPresidente": 5732,
      "tificaciÃ³n": 5733,
      "Ġingeni": 5734,
      "ĠOrganizaciÃ³n": 5735,
      "sas": 5736,
      "Ġcandidato": 5737,
      "Ġciertos": 5738,
      "ajas": 5739,
      "ĠrevoluciÃ³n": 5740,
      "ender": 5741,
      "Ġprofundi": 5742,
      "ervi": 5743,
      "Ġimperio": 5744,
      "Ġdesarrollado": 5745,
      "Ġmoderno": 5746,
      "Ġrelativamente": 5747,
      "Ġaltitud": 5748,
      "ĠGuatemala": 5749,
      "Ġabsor": 5750,
      "190": 5751,
      "Ġinclu": 5752,
      "adoras": 5753,
      "Ġreforma": 5754,
      "Ġecl": 5755,
      "ĠAh": 5756,
      "Ġmascul": 5757,
      "ĠNavar": 5758,
      "ieren": 5759,
      "estion": 5760,
      "Ã±ana": 5761,
      "arla": 5762,
      "Ġciviles": 5763,
      "Ġdiplom": 5764,
      "An": 5765,
      "Ġidentidad": 5766,
      "Ġ300": 5767,
      "Ġregreso": 5768,
      "Ġofrece": 5769,
      "ĠSha": 5770,
      "ĠAmeric": 5771,
      "Ġtasa": 5772,
      "Ġfundamental": 5773,
      "riel": 5774,
      "Ġafirma": 5775,
      "cados": 5776,
      "ĠinstituciÃ³n": 5777,
      "ĠlÃŃmites": 5778,
      "Ġenfermedades": 5779,
      "Ġneer": 5780,
      "ultades": 5781,
      "ics": 5782,
      "uelta": 5783,
      "Ġinca": 5784,
      "Ġdensidad": 5785,
      "ĠcientÃŃfico": 5786,
      "\")": 5787,
      "uto": 5788,
      "ciar": 5789,
      "Ġrecibi": 5790,
      "Ã©ticas": 5791,
      "ĠNi": 5792,
      "ĠmontaÃ±as": 5793,
      "grÃ¡fico": 5794,
      "udicial": 5795,
      "Ġnoble": 5796,
      "ĠMÃ¡": 5797,
      "uco": 5798,
      "Ġdemasiado": 5799,
      "Ġminer": 5800,
      "ĠgestiÃ³n": 5801,
      "Ġescuch": 5802,
      "Ġ1965": 5803,
      "ĠAntes": 5804,
      "ĠlÃŃqui": 5805,
      "ĠWa": 5806,
      "Ġcristianos": 5807,
      "ĠSÃ¡nchez": 5808,
      "Ġgl": 5809,
      "ramient": 5810,
      "ĠNaciones": 5811,
      "Ġexac": 5812,
      "ĠArtes": 5813,
      "Ġmir": 5814,
      "ulado": 5815,
      "lament": 5816,
      "trado": 5817,
      "Ġdiario": 5818,
      "Ã£": 5819,
      "rupciÃ³n": 5820,
      "Ãł": 5821,
      "Ġpensamiento": 5822,
      "oledo": 5823,
      "eses": 5824,
      "Ġprol": 5825,
      "Ġformada": 5826,
      "ordin": 5827,
      "ĠMundo": 5828,
      "ĠSecre": 5829,
      "Ġataques": 5830,
      "Ġiba": 5831,
      "ÃŃnea": 5832,
      "ĠPen": 5833,
      "ĠLou": 5834,
      "Ġdescribe": 5835,
      "Ġparticip": 5836,
      "ek": 5837,
      "Ġactiv": 5838,
      "ĠCÃ©sar": 5839,
      "ĠTodos": 5840,
      "ĠGil": 5841,
      "Ġfuertes": 5842,
      "ĠpropÃ³s": 5843,
      "Ġconsiderable": 5844,
      "ĠTre": 5845,
      "Ġtemp": 5846,
      "ĠThomas": 5847,
      "Ġinstrumentos": 5848,
      "ĠColegio": 5849,
      "ĠreacciÃ³n": 5850,
      "Ġinicialmente": 5851,
      "ĠAten": 5852,
      "Ã¡b": 5853,
      "atas": 5854,
      "ajeros": 5855,
      "Ġpermitir": 5856,
      "Ġdolor": 5857,
      "Ġsean": 5858,
      "Ġtempl": 5859,
      "Ġinmedia": 5860,
      "ĠClas": 5861,
      "ĠelÃ©ctrica": 5862,
      "Ãºsque": 5863,
      "Ġanteriormente": 5864,
      "37": 5865,
      "Ġmantiene": 5866,
      "Ġgar": 5867,
      "Ġconvertirse": 5868,
      "Ġclaro": 5869,
      "Ġvuelve": 5870,
      "Ġalcalde": 5871,
      "ĠEE": 5872,
      "Ġadul": 5873,
      "gados": 5874,
      "Ġsexual": 5875,
      "ĠOlÃŃmpicos": 5876,
      "uicio": 5877,
      "ĠcaracterÃŃstica": 5878,
      "Ġretra": 5879,
      "Ġpintura": 5880,
      "ny": 5881,
      "ĠsecciÃ³n": 5882,
      "Ġespi": 5883,
      "trol": 5884,
      "Ġceleb": 5885,
      "Ġanal": 5886,
      "Ġexter": 5887,
      "echas": 5888,
      "Ġbusca": 5889,
      "Ġcorona": 5890,
      "Ġcontrato": 5891,
      "Ġlegisla": 5892,
      "Ġpredomin": 5893,
      "Ġdirecto": 5894,
      "Ġmac": 5895,
      "urg": 5896,
      "Ġactos": 5897,
      "34": 5898,
      "Ġcontexto": 5899,
      "Ġciertas": 5900,
      "uera": 5901,
      "ĠEconomÃŃa": 5902,
      "avera": 5903,
      "Ã³nicas": 5904,
      "Ġnor": 5905,
      "log": 5906,
      "Ġ1958": 5907,
      "Ġescrita": 5908,
      "tidas": 5909,
      "Ġformato": 5910,
      "ĠTV": 5911,
      "ĠactuaciÃ³n": 5912,
      "Ġconvertido": 5913,
      "95": 5914,
      "Ġdirecta": 5915,
      "OS": 5916,
      "Ġlab": 5917,
      "mita": 5918,
      "Ġ#": 5919,
      "Ġmam": 5920,
      "ĠpoesÃŃa": 5921,
      "uelos": 5922,
      "ecieron": 5923,
      "Ġtradu": 5924,
      "Ġevento": 5925,
      "ĠOriente": 5926,
      "Ġreserv": 5927,
      "Ãºm": 5928,
      "Ġhues": 5929,
      "Ġvivir": 5930,
      "ĠFundaciÃ³n": 5931,
      "Ġpropuesta": 5932,
      "Ġbases": 5933,
      "Ġeduca": 5934,
      "ĠBajo": 5935,
      "tisf": 5936,
      "ĠprÃ¡cticamente": 5937,
      "itÃ³": 5938,
      "ezol": 5939,
      "Ġaplicaciones": 5940,
      "Ġpreocu": 5941,
      "Ġfactor": 5942,
      "cionado": 5943,
      "Ġsecretario": 5944,
      "Ġvaria": 5945,
      "Ġsalv": 5946,
      "roso": 5947,
      "Ġ1948": 5948,
      "32": 5949,
      "Ġestablece": 5950,
      "ji": 5951,
      "ĠRica": 5952,
      "Ġencabez": 5953,
      "Ġ1963": 5954,
      "64": 5955,
      "Ġcomponentes": 5956,
      "Ġargentina": 5957,
      "ĠRicardo": 5958,
      "Ġcarne": 5959,
      "orden": 5960,
      "Ġreligiosa": 5961,
      "ĠahÃŃ": 5962,
      "Ġalma": 5963,
      "ĠMartin": 5964,
      "Ġalej": 5965,
      "ronce": 5966,
      "Ġcombust": 5967,
      "ĠmontaÃ±a": 5968,
      "emato": 5969,
      "wood": 5970,
      "ĠIslas": 5971,
      "Ġmiles": 5972,
      "ĠFederal": 5973,
      "ĠHoy": 5974,
      "ĠcrÃŃticas": 5975,
      "Ġrango": 5976,
      "Ġsignificado": 5977,
      "ĠBerlÃŃn": 5978,
      "ĠGranada": 5979,
      "Ġpobre": 5980,
      "Ġdeja": 5981,
      "Ġprevi": 5982,
      "ĠquÃŃmica": 5983,
      "ĠIl": 5984,
      "Ġlograr": 5985,
      "Ġarist": 5986,
      "Ġusando": 5987,
      "Ġcircui": 5988,
      "BA": 5989,
      "uncia": 5990,
      "Ġnoroeste": 5991,
      "ĠAf": 5992,
      "ĠRed": 5993,
      "Ġdesemb": 5994,
      "Ġcampeonato": 5995,
      "aras": 5996,
      "Ġ2023": 5997,
      "Ġgig": 5998,
      "Ġasign": 5999,
      "Ġdenominada": 6000,
      "onos": 6001,
      "ÃŃritu": 6002,
      "Ġvisita": 6003,
      "Ãºan": 6004,
      "89": 6005,
      "Ġexpuls": 6006,
      "ĠclÃ¡sico": 6007,
      "ĠfÃ¡br": 6008,
      "ben": 6009,
      "politana": 6010,
      "ĠentrÃ³": 6011,
      "Ġpec": 6012,
      "Ġhabl": 6013,
      "Ġabierto": 6014,
      "ĠcaÃ±": 6015,
      "Ġcuerpos": 6016,
      "ĠconstruyÃ³": 6017,
      "Ġorganizaciones": 6018,
      "Ã¡ce": 6019,
      "ioneros": 6020,
      "Ġmet": 6021,
      "Ġhierro": 6022,
      "Ġul": 6023,
      "inÃ³": 6024,
      "portar": 6025,
      "Ġinvoluc": 6026,
      "ĠToledo": 6027,
      "ĠpÃºblicas": 6028,
      "ĠfenÃ³meno": 6029,
      "Ġfib": 6030,
      "Ġvice": 6031,
      "Ġincendi": 6032,
      "Ġcalendario": 6033,
      "Ġreconstr": 6034,
      "87": 6035,
      "Ġlider": 6036,
      "Ġsaber": 6037,
      "ĠComunidad": 6038,
      "Ġrecl": 6039,
      "Ġteniendo": 6040,
      "unciÃ³n": 6041,
      "ĠhipÃ³": 6042,
      "Ġpasando": 6043,
      "ĠduraciÃ³n": 6044,
      "ologÃŃas": 6045,
      "Ġhermana": 6046,
      "Ġherramient": 6047,
      "amarca": 6048,
      "Ġarquitecto": 6049,
      "Ġbru": 6050,
      "Ġcomportamiento": 6051,
      "ting": 6052,
      "Ã©la": 6053,
      "ĠPC": 6054,
      "Ġterremo": 6055,
      "ĠcientÃŃficos": 6056,
      "Ġdesconoci": 6057,
      "ĠBretaÃ±a": 6058,
      "angel": 6059,
      "Ġmandato": 6060,
      "Ġrealizada": 6061,
      "Ġcomienzos": 6062,
      "Ġdieron": 6063,
      "Ã©is": 6064,
      "ĠordenÃ³": 6065,
      "Ġpuerta": 6066,
      "Ġaeropuerto": 6067,
      "ĠKo": 6068,
      "Ġvenezol": 6069,
      "Ġdiferenci": 6070,
      "ĠTem": 6071,
      "ush": 6072,
      "uss": 6073,
      "47": 6074,
      "ĠBajos": 6075,
      "hÃŃa": 6076,
      "Ġgenera": 6077,
      "Ġenf": 6078,
      "ĠbÃºsque": 6079,
      "ĠsufriÃ³": 6080,
      "Ġnave": 6081,
      "Ġtabla": 6082,
      "ĠhÃ¡": 6083,
      "ĠXX": 6084,
      "radas": 6085,
      "ĠÃº": 6086,
      "Ġconsideran": 6087,
      "ĠbritÃ¡nicos": 6088,
      "Ġoriginalmente": 6089,
      "ĠNotas": 6090,
      "vie": 6091,
      "Ġcastellano": 6092,
      "fal": 6093,
      "Ġturismo": 6094,
      "sal": 6095,
      "enio": 6096,
      "Ã³mez": 6097,
      "Ġcuyos": 6098,
      "Ġsuma": 6099,
      "Ġmismas": 6100,
      "ĠServi": 6101,
      "ĠComisiÃ³n": 6102,
      "ave": 6103,
      "ĠlÃ³g": 6104,
      "ĠcolaboraciÃ³n": 6105,
      "ĠMy": 6106,
      "Ġflota": 6107,
      "ĠGro": 6108,
      "ony": 6109,
      "Ġespeciales": 6110,
      "Ġdocumentos": 6111,
      "Ġentra": 6112,
      "ĠAnte": 6113,
      "Ġblanca": 6114,
      "asterio": 6115,
      "uerdos": 6116,
      "gÃ©n": 6117,
      "Ġacum": 6118,
      "Ġocul": 6119,
      "Ġmono": 6120,
      "Ġarco": 6121,
      "quin": 6122,
      "Ġpremios": 6123,
      "Ġepisodio": 6124,
      "Ġdiscipl": 6125,
      "quÃŃn": 6126,
      "Ġescritos": 6127,
      "Ġfundador": 6128,
      "39": 6129,
      "Ġtran": 6130,
      "lavos": 6131,
      "Ġejemplos": 6132,
      "ĠPrinci": 6133,
      "ĠÃ³pera": 6134,
      "ĠMunicipal": 6135,
      "BC": 6136,
      "Ġ1939": 6137,
      "ĠconcentraciÃ³n": 6138,
      "IC": 6139,
      "arte": 6140,
      "ĠKing": 6141,
      "itaciÃ³n": 6142,
      "ĠmÃ¡r": 6143,
      "acteri": 6144,
      "rup": 6145,
      "55": 6146,
      "ĠVar": 6147,
      "Ġmaestro": 6148,
      "Ġrelacionados": 6149,
      "eco": 6150,
      "Ġespacios": 6151,
      "ĠCD": 6152,
      "Ġconserva": 6153,
      "izan": 6154,
      "pieza": 6155,
      "nia": 6156,
      "Ġ1944": 6157,
      "Ġrit": 6158,
      "vin": 6159,
      "Ġregional": 6160,
      "No": 6161,
      "Ġsuficiente": 6162,
      "66": 6163,
      "ĠMÃºs": 6164,
      "ĠVall": 6165,
      "Ġartifici": 6166,
      "Ġproducen": 6167,
      "ĠFederaciÃ³n": 6168,
      "Ġimpos": 6169,
      "raestruc": 6170,
      "Ġbarro": 6171,
      "ugh": 6172,
      "ĠpartÃŃculas": 6173,
      "ĠIb": 6174,
      "Ġtransmi": 6175,
      "ĠsoluciÃ³n": 6176,
      "mes": 6177,
      "ĠMov": 6178,
      "ĠsueÃ±o": 6179,
      "ĠLar": 6180,
      "crito": 6181,
      "amor": 6182,
      "ĠHor": 6183,
      "Ġsencil": 6184,
      "SO": 6185,
      "ĠPra": 6186,
      "elas": 6187,
      "ĠrÃ©cord": 6188,
      "Ġcontinente": 6189,
      "didos": 6190,
      "ield": 6191,
      "ĠÃ¡rboles": 6192,
      "Ġdescendi": 6193,
      "Ġposibles": 6194,
      "ĠnaciÃ³n": 6195,
      "Ġhos": 6196,
      "Ġreferirse": 6197,
      "Ġseres": 6198,
      "ĠCastillo": 6199,
      "ĠRock": 6200,
      "Ġdiscos": 6201,
      "eval": 6202,
      "Ġbarcos": 6203,
      "ĠintenciÃ³n": 6204,
      "Ġresponsable": 6205,
      "Ġdespe": 6206,
      "Ġ(Â«": 6207,
      "ĠGÃ³mez": 6208,
      "ĠexcepciÃ³n": 6209,
      "ĠreciÃ©n": 6210,
      "Ġcorpor": 6211,
      "Ġamist": 6212,
      "ĠAlto": 6213,
      "Ġausencia": 6214,
      "zgo": 6215,
      "Ġredes": 6216,
      "Ġhere": 6217,
      "Ġdecor": 6218,
      "ĠcÃ¡mara": 6219,
      "Ġmari": 6220,
      "ĠDaniel": 6221,
      "landa": 6222,
      "ĠllamÃ³": 6223,
      "Ġ1961": 6224,
      "gre": 6225,
      "ae": 6226,
      "ĠIsla": 6227,
      "Ġresol": 6228,
      "Ġbalonces": 6229,
      "Ġvege": 6230,
      "Å«": 6231,
      "ĠZa": 6232,
      "IA": 6233,
      "Ġafric": 6234,
      "48": 6235,
      "Ġrevel": 6236,
      "ĠSobre": 6237,
      "Ġproducido": 6238,
      "Ġrequer": 6239,
      "ĠsatÃ©l": 6240,
      "ĠGuer": 6241,
      "ĠParlamento": 6242,
      "enaje": 6243,
      "Ġ1956": 6244,
      "Est": 6245,
      "Ġtus": 6246,
      "ĠdesempeÃ±": 6247,
      "Ġtard": 6248,
      "pt": 6249,
      "ĠApar": 6250,
      "ĠNavarra": 6251,
      "Ġitaliana": 6252,
      "Ġremon": 6253,
      "amentos": 6254,
      "Ġdoce": 6255,
      "ĠLan": 6256,
      "ĠPri": 6257,
      "ĠComitÃ©": 6258,
      "Ġmuerto": 6259,
      "hol": 6260,
      "ĠGeorg": 6261,
      "Ġasesinato": 6262,
      "uyen": 6263,
      "aller": 6264,
      "Ġconciertos": 6265,
      "Ġ1941": 6266,
      "77": 6267,
      "Ġaltos": 6268,
      "ilos": 6269,
      "Ġcomuna": 6270,
      "ĠTrab": 6271,
      "Ġdesarrollar": 6272,
      "ĠaviÃ³n": 6273,
      "ters": 6274,
      "cher": 6275,
      "Ġpoderes": 6276,
      "ĠpodrÃŃan": 6277,
      "Ġhisp": 6278,
      "ĠADN": 6279,
      "Ġocurre": 6280,
      "Ġeje": 6281,
      "Ġ1959": 6282,
      "ĠprovocÃ³": 6283,
      "Ġequilib": 6284,
      "ĠSistema": 6285,
      "Ã³crata": 6286,
      "NU": 6287,
      "gin": 6288,
      "Ġinci": 6289,
      "Ġ1946": 6290,
      "Ġconstituye": 6291,
      "ĠopiniÃ³n": 6292,
      "lantes": 6293,
      "38": 6294,
      "Ġgriega": 6295,
      "Ġmexicana": 6296,
      "Ã£o": 6297,
      "ela": 6298,
      "Ġdirigido": 6299,
      "31": 6300,
      "ĠCorona": 6301,
      "ĠAugust": 6302,
      "cidas": 6303,
      "pati": 6304,
      "ĠAnt": 6305,
      "amanca": 6306,
      "Ġdictadura": 6307,
      "Ġlev": 6308,
      "Ġocupar": 6309,
      "ĠÃģngeles": 6310,
      "Ġconvoc": 6311,
      "Ġgobi": 6312,
      "Ġfuncionamiento": 6313,
      "ĠInv": 6314,
      "Ġpocas": 6315,
      "ĠTes": 6316,
      "Ġcorta": 6317,
      "Ġencontrado": 6318,
      "ĠficciÃ³n": 6319,
      "cionar": 6320,
      "vos": 6321,
      "Ġreligioso": 6322,
      "diat": 6323,
      "mal": 6324,
      "ĠTec": 6325,
      "Ġcritic": 6326,
      "ĠSebastiÃ¡n": 6327,
      "Ġprecios": 6328,
      "win": 6329,
      "echos": 6330,
      "ĠRegiÃ³n": 6331,
      "ĠFederico": 6332,
      "rana": 6333,
      "Ġresist": 6334,
      "Ġmuseo": 6335,
      "Ġuniverso": 6336,
      "Ġpermiten": 6337,
      "ĠbÃºsqueda": 6338,
      "ĠAtlÃ¡n": 6339,
      "zamiento": 6340,
      "graciÃ³n": 6341,
      "Ġlimita": 6342,
      "ĠEcuador": 6343,
      "ĠOfici": 6344,
      "Ġaviones": 6345,
      "till": 6346,
      "Ġperteneciente": 6347,
      "king": 6348,
      "Ġpasajeros": 6349,
      "Ġcoron": 6350,
      "idal": 6351,
      "ĠPanamÃ¡": 6352,
      "ĠsÃ³l": 6353,
      "Ġescritura": 6354,
      "Ġpareja": 6355,
      "Ġnormal": 6356,
      "Ġreda": 6357,
      "culas": 6358,
      "sin": 6359,
      "Ġsosten": 6360,
      "ĠUnidas": 6361,
      "Ġmur": 6362,
      "denas": 6363,
      "titu": 6364,
      "ĠBon": 6365,
      "67": 6366,
      "ĠBanco": 6367,
      "ĠTres": 6368,
      "Ġronda": 6369,
      "Ġformando": 6370,
      "Ġviene": 6371,
      "ĠAlfre": 6372,
      "Ġelig": 6373,
      "Ġsala": 6374,
      "ĠDÃŃaz": 6375,
      "ĠocÃ©ano": 6376,
      "Ġpublicada": 6377,
      "ĠNicolÃ¡s": 6378,
      "abil": 6379,
      "ĠAsturias": 6380,
      "ampoco": 6381,
      "ĠIndependencia": 6382,
      "Ġtonel": 6383,
      "tilla": 6384,
      "Ġpueda": 6385,
      "Ġejecut": 6386,
      "ĠcÃ¡": 6387,
      "ĠhistÃ³ricos": 6388,
      "ata": 6389,
      "ĠVII": 6390,
      "Ġemo": 6391,
      "ĠZara": 6392,
      "Ġ1955": 6393,
      "Ġcreada": 6394,
      "mith": 6395,
      "Ġestrateg": 6396,
      "amilia": 6397,
      "ĠDoc": 6398,
      "Ġ1000": 6399,
      "Ã¡rez": 6400,
      "ĠCorte": 6401,
      "Ġhabitual": 6402,
      "ĠrÃ¡pido": 6403,
      "Ġescenario": 6404,
      "ĠDepartamento": 6405,
      "cat": 6406,
      "ĠLim": 6407,
      "zados": 6408,
      "eler": 6409,
      "Ġ1947": 6410,
      "ĠAng": 6411,
      "Ġchino": 6412,
      "ĠIncl": 6413,
      "ĠcambiÃ³": 6414,
      "Ġproviene": 6415,
      "Ġhall": 6416,
      "Ġanimal": 6417,
      "Ġhuel": 6418,
      "Ġtrayec": 6419,
      "ĠRen": 6420,
      "Ġletra": 6421,
      "Ã¡fico": 6422,
      "Ġpies": 6423,
      "ĠSupre": 6424,
      "ĠDin": 6425,
      "ĠDesarro": 6426,
      "Ġculto": 6427,
      "ĠPolonia": 6428,
      "ĠocasiÃ³n": 6429,
      "ĠAgust": 6430,
      "Ġimperial": 6431,
      "cada": 6432,
      "Ġliga": 6433,
      "ĠEsco": 6434,
      "68": 6435,
      "Ġconfig": 6436,
      "Ġhoriz": 6437,
      "Ãºme": 6438,
      "uca": 6439,
      "diatamente": 6440,
      "ÃŃfer": 6441,
      "Ġ1957": 6442,
      "ventud": 6443,
      "ĠLuna": 6444,
      "ĠDr": 6445,
      "Ġnecesita": 6446,
      "Ġalter": 6447,
      "Ġcuenca": 6448,
      "Ġimpacto": 6449,
      "ague": 6450,
      "Ġeuropeo": 6451,
      "ER": 6452,
      "Ġimplement": 6453,
      "ĠCastro": 6454,
      "ĠregresÃ³": 6455,
      "ĠDentro": 6456,
      "ĠVil": 6457,
      "Ġpodemos": 6458,
      "ĠserÃŃan": 6459,
      "Ġexplos": 6460,
      "Ġrazones": 6461,
      "ĠSeÃ±ora": 6462,
      "Ġescol": 6463,
      "ĠRoberto": 6464,
      "ray": 6465,
      "ristas": 6466,
      "Ġentrar": 6467,
      "ĠInternet": 6468,
      "Ġpresentes": 6469,
      "ĠPie": 6470,
      "ficamente": 6471,
      "ĠMejor": 6472,
      "Ġenorme": 6473,
      "omb": 6474,
      "ĠclÃ¡sica": 6475,
      "Ġtitulado": 6476,
      "ser": 6477,
      "Ġcultivo": 6478,
      "Ġbreve": 6479,
      "polis": 6480,
      "Ġpuertas": 6481,
      "ĠPhil": 6482,
      "Ġdecreto": 6483,
      "Ġcoronel": 6484,
      "exo": 6485,
      "Ġfel": 6486,
      "Ġdrama": 6487,
      "Ġentidad": 6488,
      "44": 6489,
      "Ġfirma": 6490,
      "ĠEp": 6491,
      "ĠJoa": 6492,
      "trÃ³leo": 6493,
      "ĠvÃŃas": 6494,
      "ueve": 6495,
      "Ġsatisf": 6496,
      "Ġcompuestos": 6497,
      "zÃ³n": 6498,
      "Ġperder": 6499,
      "ĠmaÃ±ana": 6500,
      "ĠAma": 6501,
      "gn": 6502,
      "ium": 6503,
      "TV": 6504,
      "ĠÃļ": 6505,
      "Ġ32": 6506,
      "ĠCarl": 6507,
      "gcolor": 6508,
      "eck": 6509,
      "Ġutilizada": 6510,
      "ĠeconÃ³micas": 6511,
      "Ġguitarra": 6512,
      "Ġegip": 6513,
      "ĠjurÃŃ": 6514,
      "Ġ1949": 6515,
      "ĠJef": 6516,
      "Ġcomandante": 6517,
      "ĠAdministraciÃ³n": 6518,
      "uyendo": 6519,
      "ĠSocial": 6520,
      "ĠCÃ¡mara": 6521,
      "tinos": 6522,
      "Ġ1952": 6523,
      "Hz": 6524,
      "Ġemig": 6525,
      "ĠGi": 6526,
      "rica": 6527,
      "Ġrecep": 6528,
      "vido": 6529,
      "Ġconocidas": 6530,
      "ĠCampo": 6531,
      "Ġancho": 6532,
      "Ġ1943": 6533,
      "Ġprecio": 6534,
      "Ġllamadas": 6535,
      "Ġcambiar": 6536,
      "ipi": 6537,
      "ye": 6538,
      "ĠVictoria": 6539,
      "Ġunif": 6540,
      "ĠRog": 6541,
      "ĠCanal": 6542,
      "ĠexposiciÃ³n": 6543,
      "Ġrecog": 6544,
      "scar": 6545,
      "ÃŃv": 6546,
      "ota": 6547,
      "dujeron": 6548,
      "Ġbombar": 6549,
      "Ġcorto": 6550,
      "Ġdepende": 6551,
      "ĠTrad": 6552,
      "ĠProvincia": 6553,
      "AR": 6554,
      "ĠMich": 6555,
      "ĠBoy": 6556,
      "itarios": 6557,
      "ĠFranco": 6558,
      "Ġ)": 6559,
      "aliciÃ³n": 6560,
      "ĠSt": 6561,
      "Ġcampes": 6562,
      "gÃ¼edad": 6563,
      "CO": 6564,
      "idu": 6565,
      "onales": 6566,
      "Ġ1954": 6567,
      "Ġdescubrimiento": 6568,
      "uces": 6569,
      "Ġatrac": 6570,
      "Ġmone": 6571,
      "ashington": 6572,
      "itados": 6573,
      "ĠSaint": 6574,
      "ĠhipÃ³tesis": 6575,
      "Ġprecipi": 6576,
      "dientes": 6577,
      "ĠFar": 6578,
      "ĠAndal": 6579,
      "ÃŃgeno": 6580,
      "Ġmem": 6581,
      "ĠreuniÃ³n": 6582,
      "raciones": 6583,
      "ĠSco": 6584,
      "ĠHal": 6585,
      "Ġ1942": 6586,
      "ĠIrlanda": 6587,
      "Ġdialec": 6588,
      "ĠenviÃ³": 6589,
      "ĠNuestra": 6590,
      "ĠCha": 6591,
      "Ġ1953": 6592,
      "Ġresulta": 6593,
      "ÃŃvar": 6594,
      "Ġcuarta": 6595,
      "ĠresultÃ³": 6596,
      "Ġindividuos": 6597,
      "Ġdesarrolla": 6598,
      "Ġlatino": 6599,
      "ĠRub": 6600,
      "ĠcasÃ³": 6601,
      "ĠocupaciÃ³n": 6602,
      "Ġintereses": 6603,
      "Ġreducir": 6604,
      "Ġdeporte": 6605,
      "Ġpotencial": 6606,
      "Ġargum": 6607,
      "ĠCortes": 6608,
      "ĠAllÃŃ": 6609,
      "idro": 6610,
      "Ġnarra": 6611,
      "Ġimplic": 6612,
      "Ġreyes": 6613,
      "Ġtub": 6614,
      "ĠperiÃ³dico": 6615,
      "ĠfilÃ³sofo": 6616,
      "Ġdeleg": 6617,
      "Ġextranjeros": 6618,
      "Ġ{": 6619,
      "Ġlanzado": 6620,
      "onÃŃa": 6621,
      "bate": 6622,
      "Ġascenso": 6623,
      "Ġcolonia": 6624,
      "Ġusan": 6625,
      "Ġjuris": 6626,
      "goza": 6627,
      "ĠdirigiÃ³": 6628,
      "Ġarriba": 6629,
      "Ġprocedi": 6630,
      "Ġadmi": 6631,
      "Ġverdad": 6632,
      "Ġlater": 6633,
      "ĠSuecia": 6634,
      "Ġcultiv": 6635,
      "Ġingresos": 6636,
      "Con": 6637,
      "Ġfras": 6638,
      "ĠHitler": 6639,
      "ander": 6640,
      "Ġdefine": 6641,
      "Ġfar": 6642,
      "trica": 6643,
      "Ġ1933": 6644,
      "uaciÃ³n": 6645,
      "Ġhorm": 6646,
      "Ġreconocido": 6647,
      "andia": 6648,
      "Ġ1931": 6649,
      "Ġabre": 6650,
      "Ãºcar": 6651,
      "Ġusuarios": 6652,
      "Ã³geno": 6653,
      "Ġeuropea": 6654,
      "orro": 6655,
      "ĠBl": 6656,
      "Ġfamiliar": 6657,
      "ĠJusticia": 6658,
      "Ġsel": 6659,
      "Ġmunicipales": 6660,
      "ID": 6661,
      "Ġcarreras": 6662,
      "ĠconociÃ³": 6663,
      "Ġrique": 6664,
      "Ġconcierto": 6665,
      "ticiÃ³n": 6666,
      "Ġlogra": 6667,
      "Ġbuscar": 6668,
      "Ġrealizan": 6669,
      "Ġterritorial": 6670,
      "tecas": 6671,
      "Ġatraves": 6672,
      "Ġesco": 6673,
      "usos": 6674,
      "ãĥ": 6675,
      "ast": 6676,
      "Ġcatedral": 6677,
      "Ġobjetivos": 6678,
      "Ġbosques": 6679,
      "Ã³nicos": 6680,
      "Ġdivide": 6681,
      "Ġhablar": 6682,
      "Ġfres": 6683,
      "Ġalco": 6684,
      "Ġbau": 6685,
      "San": 6686,
      "Ġbosque": 6687,
      "gadas": 6688,
      "ĠPoco": 6689,
      "Ġrecord": 6690,
      "ĠAut": 6691,
      "Ġcartas": 6692,
      "ĠDistrito": 6693,
      "ĠteÃ³r": 6694,
      "ĠSalamanca": 6695,
      "Ġviolencia": 6696,
      "enzo": 6697,
      "ĠSantos": 6698,
      "Ġpertenece": 6699,
      "ĠJavier": 6700,
      "ĠintervenciÃ³n": 6701,
      "Ġsuminist": 6702,
      "ĠRu": 6703,
      "Ã¡stico": 6704,
      "Ġusuario": 6705,
      "Ġtea": 6706,
      "ĠtrasladÃ³": 6707,
      "ĠAlcal": 6708,
      "Ġsegui": 6709,
      "Ġ1938": 6710,
      "ĠcÃ¡ncer": 6711,
      "Ġ1937": 6712,
      "Ġrepresentan": 6713,
      "Ġsobr": 6714,
      "Ġesque": 6715,
      "Ġnervi": 6716,
      "Ġsalir": 6717,
      "ani": 6718,
      "ĠFon": 6719,
      "Ġdieci": 6720,
      "ĠIgna": 6721,
      "ĠKe": 6722,
      "Ġ1929": 6723,
      "Ġembaj": 6724,
      "Ġamplio": 6725,
      "Ġec": 6726,
      "Ġsul": 6727,
      "Ġtoneladas": 6728,
      "Ġotom": 6729,
      "Ġacog": 6730,
      "ĠCin": 6731,
      "79": 6732,
      "eles": 6733,
      "Ġmotivos": 6734,
      "Ġmuestran": 6735,
      "Ġguerras": 6736,
      "Ġlocalidades": 6737,
      "ĠIndust": 6738,
      "jero": 6739,
      "ĠSp": 6740,
      "Ġgaran": 6741,
      "cismo": 6742,
      "ĠOccidental": 6743,
      "ĠPl": 6744,
      "Ġdiscurso": 6745,
      "Ġepi": 6746,
      "ĠUl": 6747,
      "Ġrecibido": 6748,
      "Ġorganismos": 6749,
      "ĠWashington": 6750,
      "ĠReyes": 6751,
      "ĠpropÃ³sito": 6752,
      "Ġcontar": 6753,
      "Ġdistritos": 6754,
      "Ġnuclear": 6755,
      "Ġreca": 6756,
      "Ġveinte": 6757,
      "tipo": 6758,
      "Ġ1934": 6759,
      "ĠTr": 6760,
      "icana": 6761,
      "hal": 6762,
      "Ġdioses": 6763,
      "ĠsaliÃ³": 6764,
      "Los": 6765,
      "ĠJohan": 6766,
      "Ġtop": 6767,
      "ĠOriental": 6768,
      "Ġprefer": 6769,
      "Ġllegado": 6770,
      "ĠcrÃŃtico": 6771,
      "Ġcarbono": 6772,
      "Ġmejorar": 6773,
      "Ġmagnitud": 6774,
      "Ġmarch": 6775,
      "ĠintentÃ³": 6776,
      "ÃŃsmo": 6777,
      "dum": 6778,
      "age": 6779,
      "ĠejecuciÃ³n": 6780,
      "FF": 6781,
      "Ġprestig": 6782,
      "Ġdoctr": 6783,
      "Ġpopularidad": 6784,
      "Î±": 6785,
      "Ã³d": 6786,
      "Ġparticularmente": 6787,
      "ĠmÃ¡quina": 6788,
      "Ġocta": 6789,
      "Ġ160": 6790,
      "ficaciones": 6791,
      "ĠconstituciÃ³n": 6792,
      "ĠÃĵscar": 6793,
      "ĠLes": 6794,
      "Ġincluido": 6795,
      "bin": 6796,
      "Ġmm": 6797,
      "Ġllevado": 6798,
      "Ġdoctor": 6799,
      "ridos": 6800,
      "ĠNin": 6801,
      "Ġplane": 6802,
      "ĠtransmisiÃ³n": 6803,
      "Ġmedal": 6804,
      "Ġatle": 6805,
      "Ġflujo": 6806,
      "ĠhÃ©ro": 6807,
      "ĠCro": 6808,
      "ocal": 6809,
      "Ġderiva": 6810,
      "Ġlun": 6811,
      "Ġline": 6812,
      "Ġestima": 6813,
      "Ġprohibi": 6814,
      "ĠAyuntamiento": 6815,
      "Ġglobal": 6816,
      "Ġleyenda": 6817,
      "Ġayudar": 6818,
      "Ġjugar": 6819,
      "diz": 6820,
      "Ġcompetencia": 6821,
      "ĠSac": 6822,
      "49": 6823,
      "xi": 6824,
      "Ġfundado": 6825,
      "ĠGui": 6826,
      "ĠfusiÃ³n": 6827,
      "ĠSenado": 6828,
      "Ġextin": 6829,
      "Ġnegra": 6830,
      "cy": 6831,
      "Ġposiciones": 6832,
      "ĠBiblioteca": 6833,
      "Ġsuperiores": 6834,
      "Ġhomenaje": 6835,
      "Ġune": 6836,
      "ĠNapole": 6837,
      "ocas": 6838,
      "Ġenv": 6839,
      "Ġofer": 6840,
      "Ġelectoral": 6841,
      "Ġrepresentantes": 6842,
      "ĠlÃŃderes": 6843,
      "Ġ1918": 6844,
      "Ġtrop": 6845,
      "timiento": 6846,
      "uero": 6847,
      "Ġtratar": 6848,
      "ĠBatalla": 6849,
      "Ġnorma": 6850,
      "Ġferrocarril": 6851,
      "Ġpacientes": 6852,
      "Ġcaracteriza": 6853,
      "ĠPier": 6854,
      "''": 6855,
      "ah": 6856,
      "Ġcenso": 6857,
      "Ġbarco": 6858,
      "Ġespacial": 6859,
      "ucÃŃa": 6860,
      "ĠTex": 6861,
      "iena": 6862,
      "Ġejerci": 6863,
      "ĠgÃ©neros": 6864,
      "Ġcercano": 6865,
      "VD": 6866,
      "tilidad": 6867,
      "Ġdeseo": 6868,
      "ground": 6869,
      "Ġ$": 6870,
      "jado": 6871,
      "ĠTol": 6872,
      "Ġprivada": 6873,
      "xido": 6874,
      "udio": 6875,
      "ĠMÃºsica": 6876,
      "Ġdemanda": 6877,
      "MA": 6878,
      "83": 6879,
      "Ġboca": 6880,
      "ÃŃci": 6881,
      "tÃ©g": 6882,
      "Ġmonte": 6883,
      "ĠPatrimonio": 6884,
      "Ã³viles": 6885,
      "ĠFalle": 6886,
      "ricaciÃ³n": 6887,
      "ĠDol": 6888,
      "Ġsiguen": 6889,
      "Ġafi": 6890,
      "ĠCarmen": 6891,
      "ĠcuestiÃ³n": 6892,
      "Ġala": 6893,
      "Ġconstitucional": 6894,
      "Ġcoo": 6895,
      "Ġclubes": 6896,
      "Ġcrim": 6897,
      "Ġperdido": 6898,
      "Ġinterme": 6899,
      "Ġaustral": 6900,
      "Ġrequiere": 6901,
      "Ġtitu": 6902,
      "Ġnuestra": 6903,
      "Ġampliamente": 6904,
      "Ġcontam": 6905,
      "dras": 6906,
      "Ġbr": 6907,
      "Ġabajo": 6908,
      "SD": 6909,
      "Ġsirve": 6910,
      "74": 6911,
      "fÃ©": 6912,
      "ĠConstitu": 6913,
      "Ġfrecuentemente": 6914,
      "left": 6915,
      "Ġpropa": 6916,
      "Ġprotagonista": 6917,
      "2000": 6918,
      "duras": 6919,
      "ĠcÃŃr": 6920,
      "Ã¡i": 6921,
      "Ġintroduci": 6922,
      "reros": 6923,
      "sor": 6924,
      "ĠpetrÃ³leo": 6925,
      "entada": 6926,
      "gol": 6927,
      "Ġreglas": 6928,
      "ĠtraducciÃ³n": 6929,
      "tuvieron": 6930,
      "Ġmorir": 6931,
      "Î¿": 6932,
      "Ġ1928": 6933,
      "Ġpeligro": 6934,
      "ĠtrÃ¡fico": 6935,
      "ĠTodo": 6936,
      "gui": 6937,
      "Ġ1932": 6938,
      "Ġllevaron": 6939,
      "ĠatrÃ¡s": 6940,
      "Ġtreinta": 6941,
      "ĠAgustÃŃn": 6942,
      "ĠeconÃ³micos": 6943,
      "ĠCaribe": 6944,
      "Ġprimavera": 6945,
      "well": 6946,
      "Ġcaza": 6947,
      "Ġparlament": 6948,
      "ĠSolo": 6949,
      "ĠAeropuerto": 6950,
      "ĠRico": 6951,
      "ĠhÃºme": 6952,
      "Ġexcel": 6953,
      "Ġcondado": 6954,
      "Ġvein": 6955,
      "ĠcuÃ¡n": 6956,
      "ĠcÃ³m": 6957,
      "ĠNobel": 6958,
      "ezas": 6959,
      "Ġcanales": 6960,
      "ĠHospital": 6961,
      "dillera": 6962,
      "Ġ400": 6963,
      "Ġlegal": 6964,
      "ĠZaragoza": 6965,
      "oya": 6966,
      "Ġidiomas": 6967,
      "ĠTomÃ¡s": 6968,
      "cedentes": 6969,
      "Ġaumentar": 6970,
      "cionados": 6971,
      "ĠCel": 6972,
      "Ġdemocr": 6973,
      "Ġproteger": 6974,
      "ĠIgnacio": 6975,
      "right": 6976,
      "ĠAtl": 6977,
      "ĠvÃŃ": 6978,
      "Ġaust": 6979,
      "92": 6980,
      "Ġmezcl": 6981,
      "uerta": 6982,
      "Ġvictorias": 6983,
      "Ġdocumento": 6984,
      "Ġperuano": 6985,
      "Ġvul": 6986,
      "ĠAtlÃ¡ntico": 6987,
      "Ġgriegos": 6988,
      "jÃ³": 6989,
      "Ġpis": 6990,
      "Ġvendi": 6991,
      "ĠcelebraciÃ³n": 6992,
      "Ġregistro": 6993,
      "ĠWest": 6994,
      "Ġterc": 6995,
      "IB": 6996,
      "Ġbasa": 6997,
      "Ġpresu": 6998,
      "ĠBolÃŃvar": 6999,
      "tuario": 7000,
      "Ġenemigo": 7001,
      "Ġcolombiano": 7002,
      "gl": 7003,
      "Ġterrestre": 7004,
      "ĠJoseph": 7005,
      "for": 7006,
      "entaron": 7007,
      "ĠRena": 7008,
      "ĠtrabajÃ³": 7009,
      "ĠDerecho": 7010,
      "ĠSuiza": 7011,
      "Ġinfraestruc": 7012,
      "ĠproteÃŃnas": 7013,
      "Ġpartid": 7014,
      "Ġinglesa": 7015,
      "Ġconsiderar": 7016,
      "ĠutilizÃ³": 7017,
      "Ġcristal": 7018,
      "Ġmusulmanes": 7019,
      "Ġcontras": 7020,
      "ĠCuenta": 7021,
      "Ġpic": 7022,
      "ĠSegu": 7023,
      "Ġdeterminar": 7024,
      "Ġdesn": 7025,
      "Ġterremoto": 7026,
      "oreste": 7027,
      "mej": 7028,
      "istros": 7029,
      "Ġconstruida": 7030,
      "Ġextrem": 7031,
      "dows": 7032,
      "Ġorganismo": 7033,
      "Ġextiende": 7034,
      "42": 7035,
      "Ġvapor": 7036,
      "ĠSeÃ±or": 7037,
      "Ġrep": 7038,
      "ĠRoy": 7039,
      "ee": 7040,
      "Ġestablecido": 7041,
      "ov": 7042,
      "uk": 7043,
      "Ġvec": 7044,
      "Ġdor": 7045,
      "Ġbin": 7046,
      "Ġurbana": 7047,
      ".),": 7048,
      "Ġmodern": 7049,
      "Ã³p": 7050,
      "Ġdecide": 7051,
      "Ġcolonial": 7052,
      "Ġdemo": 7053,
      "Ġinau": 7054,
      "ficiente": 7055,
      "Ġefica": 7056,
      "eamente": 7057,
      "Ġreclam": 7058,
      "abora": 7059,
      "Ġinstrumento": 7060,
      "Ġbarrios": 7061,
      "53": 7062,
      "Ġempe": 7063,
      "Ġhiper": 7064,
      "69": 7065,
      "Ġascen": 7066,
      "ĠCur": 7067,
      "Ġtermina": 7068,
      "Ġinicios": 7069,
      "Ġuniversal": 7070,
      "Ġposeen": 7071,
      "ĠObras": 7072,
      "ĠBay": 7073,
      "ĠGreg": 7074,
      "Ġhistorias": 7075,
      "72": 7076,
      "Ġdisf": 7077,
      "ejo": 7078,
      "reste": 7079,
      "Ġcosa": 7080,
      "Ġ1951": 7081,
      "ĠÃ³rgano": 7082,
      "ald": 7083,
      "Ġaccidente": 7084,
      "Ġgobiernos": 7085,
      "iares": 7086,
      "uga": 7087,
      "Ġlejos": 7088,
      "Ġestudiar": 7089,
      "Ġgala": 7090,
      "Ġtriunfo": 7091,
      "iy": 7092,
      "Ġconflictos": 7093,
      "ĠAnexo": 7094,
      "ĠradiaciÃ³n": 7095,
      "ES": 7096,
      "ierto": 7097,
      "sk": 7098,
      "Ġsimul": 7099,
      "Ġconsideraba": 7100,
      "Ġreligiosas": 7101,
      "Ġile": 7102,
      "Ġincluir": 7103,
      "alizados": 7104,
      "tÃ¡nico": 7105,
      "ĠcientÃŃfica": 7106,
      "eth": 7107,
      "ĠFrente": 7108,
      "ĠtÃ©cnico": 7109,
      "cidentales": 7110,
      "Ġtendencia": 7111,
      "ĠcomparaciÃ³n": 7112,
      "ĠIngen": 7113,
      "Ġobliga": 7114,
      "Ġvariable": 7115,
      "ĠSala": 7116,
      "Ġben": 7117,
      "ĠClar": 7118,
      "ĠcomÃºnmente": 7119,
      "Ġdue": 7120,
      "ĠMit": 7121,
      "Ġreformas": 7122,
      "Ġlluvia": 7123,
      "ĠSor": 7124,
      "vado": 7125,
      "Ġcinemato": 7126,
      "ances": 7127,
      "Ġ1935": 7128,
      "Ġfues": 7129,
      "ĠJoaquÃŃn": 7130,
      "ĠHenry": 7131,
      "ĠTribunal": 7132,
      "Ġconse": 7133,
      "Ġimpi": 7134,
      "ĠCir": 7135,
      "Ġrealmente": 7136,
      "Ġsiguiendo": 7137,
      "Ġevolucion": 7138,
      "Ġdepartam": 7139,
      "ĠEsp": 7140,
      "Ġfrac": 7141,
      "ĠMis": 7142,
      "Ġiglesias": 7143,
      "Ġ1924": 7144,
      "Ġequivalente": 7145,
      "Ġpieza": 7146,
      "Ġmodernos": 7147,
      "ĠMes": 7148,
      "ĠfirmÃ³": 7149,
      "Ġesclavos": 7150,
      "cus": 7151,
      "ips": 7152,
      "gue": 7153,
      "ĠTru": 7154,
      "onso": 7155,
      "Ġabogado": 7156,
      "Ã©st": 7157,
      "Ġmedicina": 7158,
      "ciano": 7159,
      "ĠStu": 7160,
      "ĠRosa": 7161,
      "Ġpermanente": 7162,
      "mÃ¡tica": 7163,
      "xo": 7164,
      "itores": 7165,
      "Ġcapilla": 7166,
      "Ġmedieval": 7167,
      "ĠseparaciÃ³n": 7168,
      "ĠfabricaciÃ³n": 7169,
      "ĠCaracter": 7170,
      "Ġsing": 7171,
      "43": 7172,
      "PA": 7173,
      "Ġconsag": 7174,
      "Ġnormas": 7175,
      "ĠÃ©tn": 7176,
      "Ġtemporadas": 7177,
      "Ġobtiene": 7178,
      "cialmente": 7179,
      "Ġjuicio": 7180,
      "Ġeval": 7181,
      "itando": 7182,
      "Ġprimi": 7183,
      "ĠconvirtiÃ©ndose": 7184,
      "Ġabst": 7185,
      "Ġcanad": 7186,
      "mm": 7187,
      "Ġcens": 7188,
      "Ġpuestos": 7189,
      "Ġtren": 7190,
      "Ġprofesionales": 7191,
      "ĠCine": 7192,
      "ĠNar": 7193,
      "Ã¡stica": 7194,
      "Ġfederal": 7195,
      "Ġdisper": 7196,
      "Ġresidencia": 7197,
      "Ġediciones": 7198,
      "Ġexpor": 7199,
      "ĠmarÃŃti": 7200,
      "ĠBlack": 7201,
      "ĠprogramaciÃ³n": 7202,
      "Ġseguido": 7203,
      "Ġlibres": 7204,
      "Ġmomentos": 7205,
      "Ġagreg": 7206,
      "Ġcumplir": 7207,
      "Ġevidencia": 7208,
      "ĠÃį": 7209,
      "ĠportuguÃ©s": 7210,
      "Ġlluvi": 7211,
      "zco": 7212,
      "Ġdada": 7213,
      "LA": 7214,
      "ÂłÂłÂłÂłÂłÂłÂłÂłÂłÂłÂłÂłÂłÂłÂłÂł": 7215,
      "Ġingeniero": 7216,
      "ĠNapoleÃ³n": 7217,
      "Ġaliados": 7218,
      "Ġsucesor": 7219,
      "Ġuniversidades": 7220,
      "Ġnovelas": 7221,
      "mÃ³s": 7222,
      "blaciÃ³n": 7223,
      "Ġapertura": 7224,
      "Ġreciente": 7225,
      "Ġisrael": 7226,
      "ville": 7227,
      "ĠgrabaciÃ³n": 7228,
      "Ġnuestro": 7229,
      "ĠtensiÃ³n": 7230,
      "ĠfrÃŃo": 7231,
      "Ġ1922": 7232,
      "82": 7233,
      "Ġgla": 7234,
      "Ġjorn": 7235,
      "Ġorquesta": 7236,
      "41": 7237,
      "icano": 7238,
      "Ġinfin": 7239,
      "Ġvincul": 7240,
      "ormes": 7241,
      "ĠconexiÃ³n": 7242,
      "Ġcircunst": 7243,
      "Ġ1917": 7244,
      "Ġutilizados": 7245,
      "ĠLeo": 7246,
      "Ġinmediatamente": 7247,
      "Ġcreciente": 7248,
      "back": 7249,
      "Ġtendr": 7250,
      "Ġdesemboc": 7251,
      "Ã©f": 7252,
      "Ġaprendi": 7253,
      "ĠAndalucÃŃa": 7254,
      "Ġmucha": 7255,
      "Ġ1925": 7256,
      "Ġdeclara": 7257,
      "americanos": 7258,
      "Ġ1919": 7259,
      "ĠDipu": 7260,
      "ĠInvesti": 7261,
      "ĠVida": 7262,
      "Ġhielo": 7263,
      "ĠsÃŃnt": 7264,
      "ĠsitÃºa": 7265,
      "ĠFI": 7266,
      "Ġpier": 7267,
      "Ġentrega": 7268,
      "Ġjurisdic": 7269,
      "Ġprove": 7270,
      "Ġfach": 7271,
      "Ġcantidades": 7272,
      "ificado": 7273,
      "Ġpresidencial": 7274,
      "ĠasociaciÃ³n": 7275,
      "ĠincluÃŃa": 7276,
      "Ġalianza": 7277,
      "ĠDesarrollo": 7278,
      "Ġquiere": 7279,
      "ĠSuperior": 7280,
      "Ġfir": 7281,
      "quilla": 7282,
      "ĠCaball": 7283,
      "Ġonda": 7284,
      "Ġabandonar": 7285,
      "ĠvehÃŃculos": 7286,
      "inete": 7287,
      "guayo": 7288,
      "Ġnadie": 7289,
      "nor": 7290,
      "ÃŃces": 7291,
      "Ġfich": 7292,
      "ĠenseÃ±anza": 7293,
      "fÃŃas": 7294,
      "Ġsierra": 7295,
      "Ġ36": 7296,
      "Ġenemigos": 7297,
      "uiz": 7298,
      "Ġriv": 7299,
      "ĠDemografÃŃa": 7300,
      "Ġrue": 7301,
      "96": 7302,
      "Ġactivo": 7303,
      "ĠtransiciÃ³n": 7304,
      "Ġdestruy": 7305,
      "ĠMedio": 7306,
      "Ġcargos": 7307,
      "Ġprev": 7308,
      "har": 7309,
      "Ġdedicado": 7310,
      "Ġanunci": 7311,
      "Ġplanes": 7312,
      "ĠcompaÃ±ÃŃas": 7313,
      "Ġaun": 7314,
      "Ġbacteri": 7315,
      "Ġcopias": 7316,
      "Ġpista": 7317,
      "dolfo": 7318,
      "Ġllevan": 7319,
      "ĠteorÃŃas": 7320,
      "esi": 7321,
      "portes": 7322,
      "ĠcombinaciÃ³n": 7323,
      "ĠquerÃŃa": 7324,
      "Ġtotalidad": 7325,
      "ionado": 7326,
      "Ġrecorrido": 7327,
      "ĠSmith": 7328,
      "Ġreligiosos": 7329,
      "Ġciencias": 7330,
      "Ġmoral": 7331,
      "presidente": 7332,
      "Ġhistoriadores": 7333,
      "ĠWindows": 7334,
      "amina": 7335,
      "Ġduda": 7336,
      "vileg": 7337,
      "Ġelectrones": 7338,
      "Ġmotores": 7339,
      "ĠcompeticiÃ³n": 7340,
      "ĠConstantino": 7341,
      "Ġdiag": 7342,
      "Ġasi": 7343,
      "ĠnÃºcleos": 7344,
      "ĠZam": 7345,
      "Ġmeridi": 7346,
      "landes": 7347,
      "Ġnacido": 7348,
      "Ġavance": 7349,
      "Ġprofundidad": 7350,
      "ificar": 7351,
      "%.": 7352,
      ".:": 7353,
      "ĠAlonso": 7354,
      "ĠespectÃ¡": 7355,
      "Ġasesinado": 7356,
      "usia": 7357,
      "Ġsag": 7358,
      "ski": 7359,
      "ĠHuman": 7360,
      "ume": 7361,
      "46": 7362,
      "Ġhospital": 7363,
      "ĠHistÃ³r": 7364,
      "ĠTab": 7365,
      "56": 7366,
      "tambiÃ©n": 7367,
      "Ġpiano": 7368,
      "Ġsitios": 7369,
      "Ġporcent": 7370,
      "Ġfamosa": 7371,
      "Ġinvestigaciones": 7372,
      "Ġfondos": 7373,
      "Ġvid": 7374,
      "Ġmud": 7375,
      "Ġaceler": 7376,
      "ller": 7377,
      "Ġvertic": 7378,
      "enia": 7379,
      "Ġesfuerzos": 7380,
      "neos": 7381,
      "ĠLorenzo": 7382,
      "rato": 7383,
      "ĠvolcÃ¡n": 7384,
      "Ġ1927": 7385,
      "Ġbomba": 7386,
      "ĠestratÃ©g": 7387,
      "ivi": 7388,
      "Ġcuyas": 7389,
      "tex": 7390,
      "ices": 7391,
      "ĠComer": 7392,
      "Ġculturas": 7393,
      "Ġ1914": 7394,
      "Ġasuntos": 7395,
      "ds": 7396,
      "ĠdebiÃ³": 7397,
      "Ġconsta": 7398,
      "crip": 7399,
      "Ġanex": 7400,
      "iera": 7401,
      "icios": 7402,
      "Ġmensaje": 7403,
      "ĠCuer": 7404,
      "Ġdescubierto": 7405,
      "ĠCorea": 7406,
      "unciÃ³": 7407,
      "Ġbis": 7408,
      "hel": 7409,
      "ĠadaptaciÃ³n": 7410,
      "imno": 7411,
      "tions": 7412,
      "Ġcodi": 7413,
      "Ġensay": 7414,
      "ĠRio": 7415,
      "kov": 7416,
      "Ã©lago": 7417,
      "renos": 7418,
      "Ġama": 7419,
      "Ġjaponesa": 7420,
      "ĠbrasileÃ±o": 7421,
      ".\"": 7422,
      "Ġvoto": 7423,
      "pÃ³s": 7424,
      "mor": 7425,
      "ĠatmÃ³s": 7426,
      "ĠGabriel": 7427,
      "iner": 7428,
      "ĠvÃ¡l": 7429,
      "ĠfÃ¡cilmente": 7430,
      "ĠAR": 7431,
      "Ġespera": 7432,
      "ĠclÃŃn": 7433,
      "Ġquedando": 7434,
      "71": 7435,
      "Ġhaci": 7436,
      "Ġbronce": 7437,
      "Ġseries": 7438,
      "Ġfrecuente": 7439,
      "Ġprovincial": 7440,
      "Ġborde": 7441,
      "ĠmatemÃ¡tico": 7442,
      "ĠCity": 7443,
      "ĠDemocr": 7444,
      "Ġmanifies": 7445,
      "ĠRecord": 7446,
      "ĠprisiÃ³n": 7447,
      "ĠConcepciÃ³n": 7448,
      "Ã¡ndolo": 7449,
      "americano": 7450,
      "entalmente": 7451,
      "ĠCe": 7452,
      "vada": 7453,
      "Ġrelo": 7454,
      "ĠDal": 7455,
      "alizÃ³": 7456,
      "Ġplazo": 7457,
      "Ġcero": 7458,
      "Ġsupone": 7459,
      "Un": 7460,
      "Ġlanza": 7461,
      "ĠespÃŃritu": 7462,
      "Ġcubierta": 7463,
      "Ġfiel": 7464,
      "Ġescla": 7465,
      "Ġventas": 7466,
      "ĠdescubriÃ³": 7467,
      "Ġdigital": 7468,
      "Ġcristiana": 7469,
      "Ġcorrespondiente": 7470,
      "ĠRosario": 7471,
      "ĠdestrucciÃ³n": 7472,
      "Ġpoema": 7473,
      "Ã©rcitos": 7474,
      "2004": 7475,
      "ĠHacia": 7476,
      "ĠAntigu": 7477,
      "acen": 7478,
      "Ġjusticia": 7479,
      "Ġtampoco": 7480,
      "Ġcabec": 7481,
      "Ġuru": 7482,
      "Ġplas": 7483,
      "ĠHugo": 7484,
      "Ġparroquia": 7485,
      "laga": 7486,
      "Ġestatal": 7487,
      "Ġguitarrista": 7488,
      "ÃŃferos": 7489,
      "ĠFis": 7490,
      "Ġrendimiento": 7491,
      "culaciÃ³n": 7492,
      "amar": 7493,
      "ĠcrÃŃticos": 7494,
      "uar": 7495,
      "Ġmembran": 7496,
      "Ġdefinitivamente": 7497,
      "ĠMurcia": 7498,
      "Ġdev": 7499,
      "une": 7500,
      "Ġinno": 7501,
      "ĠÃ©sta": 7502,
      "ĠParaguay": 7503,
      "ĠTorres": 7504,
      "Ġrein": 7505,
      "EspaÃ±a": 7506,
      "ĠreducciÃ³n": 7507,
      "ĠPel": 7508,
      "azz": 7509,
      "ĠMax": 7510,
      "ĠPolÃŃtica": 7511,
      "ade": 7512,
      "gotÃ¡": 7513,
      "ĠArt": 7514,
      "Ġrama": 7515,
      "Ġdiputados": 7516,
      "ĠTan": 7517,
      "Ġoriginales": 7518,
      "Ġindividuo": 7519,
      "iados": 7520,
      "ĠabandonÃ³": 7521,
      "Ġpropuso": 7522,
      "Ġescritores": 7523,
      "trico": 7524,
      "ĠoxÃŃgeno": 7525,
      "tnam": 7526,
      "ĠAlianza": 7527,
      "uge": 7528,
      "Ġdestacados": 7529,
      "ĠvÃŃctimas": 7530,
      "logÃŃa": 7531,
      "tadora": 7532,
      "Ġ1923": 7533,
      "Ġdata": 7534,
      "ĠÃ³rbita": 7535,
      "Ã¡ndole": 7536,
      "Ã³logos": 7537,
      "98": 7538,
      "tizar": 7539,
      "Ġga": 7540,
      "Ã©lgica": 7541,
      "venir": 7542,
      "Ġencontraban": 7543,
      "Ġdeterminado": 7544,
      "Ġarchivos": 7545,
      ".).": 7546,
      "ulada": 7547,
      "Ġped": 7548,
      "Ġpresentar": 7549,
      "ĠEstudios": 7550,
      "ĠFuerza": 7551,
      "ĠWol": 7552,
      "ĠubicaciÃ³n": 7553,
      "Ġmoneda": 7554,
      "ĠFerro": 7555,
      "Ġdemocracia": 7556,
      "ĠGalicia": 7557,
      "Ġerror": 7558,
      "tici": 7559,
      "ficiencia": 7560,
      "Ġcron": 7561,
      "ĠPam": 7562,
      "Ġnombra": 7563,
      "Ġhabita": 7564,
      "ĠAll": 7565,
      "Ġpele": 7566,
      "ĠacabÃ³": 7567,
      "Ġindependientes": 7568,
      "Ġverdadero": 7569,
      "yÃ³": 7570,
      "Ġextranjero": 7571,
      "Ġempleo": 7572,
      "ĠVega": 7573,
      "ĠMont": 7574,
      "Ġhumor": 7575,
      "',": 7576,
      "ĠCÃ³": 7577,
      "orneo": 7578,
      "Ġpira": 7579,
      "imia": 7580,
      "Ġorbi": 7581,
      "Ġestric": 7582,
      "ĠFun": 7583,
      "Ġhubiera": 7584,
      "ĠAv": 7585,
      "Ġquinto": 7586,
      "ture": 7587,
      "Ã©nez": 7588,
      "ĠUE": 7589,
      "Ġrural": 7590,
      "51": 7591,
      "entados": 7592,
      "ĠJaime": 7593,
      "ĠmÃŃ": 7594,
      "ioso": 7595,
      "2003": 7596,
      "pero": 7597,
      "Ġlados": 7598,
      "ĠAlta": 7599,
      "Ġrecientemente": 7600,
      "ĠpatrÃ³n": 7601,
      "58": 7602,
      "Ġprivileg": 7603,
      "cesiÃ³n": 7604,
      "tto": 7605,
      "acha": 7606,
      "Ġnecesidades": 7607,
      "Ġdeuda": 7608,
      "Ġjudicial": 7609,
      "ĠBlo": 7610,
      "Ġprede": 7611,
      "2001": 7612,
      "Ġjer": 7613,
      "Ġilust": 7614,
      "Ġsecreto": 7615,
      "Ã³stico": 7616,
      "ĠRegional": 7617,
      "Ġsecundaria": 7618,
      "ĠviviÃ³": 7619,
      "Ġdimensiones": 7620,
      "uecos": 7621,
      "Ġemerg": 7622,
      "Ġoportunidad": 7623,
      "54": 7624,
      "paciones": 7625,
      "Ġvoluntad": 7626,
      "Ġdulce": 7627,
      "ĠgÃ³": 7628,
      "Ġverdadera": 7629,
      "Ġcontienen": 7630,
      "ĠRay": 7631,
      "ĠposesiÃ³n": 7632,
      "tte": 7633,
      "Ã³bal": 7634,
      "Ġantic": 7635,
      "Ġmargen": 7636,
      "Ġterminar": 7637,
      "Ġexistentes": 7638,
      "clo": 7639,
      "Ġinforme": 7640,
      "Ġcamp": 7641,
      "ĠProvinci": 7642,
      "ique": 7643,
      "Ġestablecimiento": 7644,
      "Ġreferencias": 7645,
      "fin": 7646,
      "Ġpagar": 7647,
      "ĠmecÃ¡nica": 7648,
      "Ġdiscu": 7649,
      "bul": 7650,
      "empo": 7651,
      "Ġneutr": 7652,
      "ĠcategorÃŃas": 7653,
      "Ġalar": 7654,
      "ĠDeportivo": 7655,
      "hite": 7656,
      "erte": 7657,
      "Ġcanta": 7658,
      "2002": 7659,
      "59": 7660,
      "ferencias": 7661,
      "ĠHom": 7662,
      "burg": 7663,
      "udal": 7664,
      "terios": 7665,
      "edor": 7666,
      "ĠJan": 7667,
      "ĠagrÃŃcola": 7668,
      "EC": 7669,
      "ĠAuto": 7670,
      "Ġnoreste": 7671,
      "Ġ1910": 7672,
      "Ġclim": 7673,
      "Ġexcepto": 7674,
      "tÃ©s": 7675,
      "leza": 7676,
      "ĠEscri": 7677,
      "ĠnombrÃ³": 7678,
      "Ġsemif": 7679,
      "Ġges": 7680,
      "Ġasal": 7681,
      "52": 7682,
      "Ġpese": 7683,
      "ĠpermaneciÃ³": 7684,
      "ĠQuin": 7685,
      "Ġcercana": 7686,
      "bÃ³n": 7687,
      "cÃº": 7688,
      "Ġfantas": 7689,
      "73": 7690,
      "Ã³micas": 7691,
      "Ġabierta": 7692,
      "ĠMediterrÃ¡neo": 7693,
      "ĠrepÃºblica": 7694,
      "ĠraÃŃces": 7695,
      "Ġ1921": 7696,
      "riles": 7697,
      "rias": 7698,
      "Ġcasco": 7699,
      "ecuen": 7700,
      "ĠLatina": 7701,
      "oros": 7702,
      "Ġculmin": 7703,
      "ometrÃŃa": 7704,
      "Ġrelacionadas": 7705,
      "Ġcaballo": 7706,
      "Ġsombra": 7707,
      "key": 7708,
      "ĠorÃŃgenes": 7709,
      "ĠTeresa": 7710,
      "Ġdisponible": 7711,
      "emia": 7712,
      "rador": 7713,
      "iversario": 7714,
      "Ġrival": 7715,
      "ĠcayÃ³": 7716,
      "hr": 7717,
      "Ġescenas": 7718,
      "Ġ1926": 7719,
      "Ġclan": 7720,
      "esis": 7721,
      "ĠmÃºsicos": 7722,
      "Ġlum": 7723,
      "ĠLee": 7724,
      "tizaciÃ³n": 7725,
      "Ġperspec": 7726,
      "Ġsecuencia": 7727,
      "2005": 7728,
      "ĠRin": 7729,
      "Ġaquellas": 7730,
      "ĠmolÃ©culas": 7731,
      "TP": 7732,
      "Ġconsul": 7733,
      "ĠMill": 7734,
      "jan": 7735,
      "sburgo": 7736,
      "lesc": 7737,
      "Ġpinturas": 7738,
      "Ġcomprom": 7739,
      "usal": 7740,
      "Ġmonarca": 7741,
      "ĠdescripciÃ³n": 7742,
      "ju": 7743,
      "Ġestall": 7744,
      "ĠMarcos": 7745,
      "Ġcomedia": 7746,
      "ĠLouis": 7747,
      "Ġcomida": 7748,
      "Ġmenciona": 7749,
      "orit": 7750,
      "ĠrÃ¡pida": 7751,
      "ĠatmÃ³sfera": 7752,
      "Ġ1900": 7753,
      "ĠChi": 7754,
      "Ġarras": 7755,
      "100": 7756,
      "pens": 7757,
      "Ġnub": 7758,
      "idor": 7759,
      "ecuencias": 7760,
      "ĠSant": 7761,
      "Ġfama": 7762,
      "Ġcausas": 7763,
      "lada": 7764,
      "traciÃ³n": 7765,
      "ĠÃ¡lbumes": 7766,
      "trando": 7767,
      "Ġocasion": 7768,
      "ĠdifusiÃ³n": 7769,
      "ĠCristÃ³bal": 7770,
      "Ġsexo": 7771,
      "Ġrelie": 7772,
      "ĠMovimiento": 7773,
      "Ġmel": 7774,
      "Ġhal": 7775,
      "Ã¡nicos": 7776,
      "grama": 7777,
      "Ġpoemas": 7778,
      "Ġajust": 7779,
      "ĠBogotÃ¡": 7780,
      "ĠpidiÃ³": 7781,
      "ĠCaracterÃŃsticas": 7782,
      "ÃŃso": 7783,
      "Ġviven": 7784,
      "Ġacces": 7785,
      "onatos": 7786,
      "ĠespaÃ±olas": 7787,
      "colo": 7788,
      "ĠafirmÃ³": 7789,
      "ĠcoaliciÃ³n": 7790,
      "Ġentender": 7791,
      "iÃ©ndose": 7792,
      "Ġdispositivos": 7793,
      "ĠautonomÃŃa": 7794,
      "san": 7795,
      "Ġdeclarado": 7796,
      "ĠjugÃ³": 7797,
      "ionero": 7798,
      "ĠocupÃ³": 7799,
      "Ġimpuestos": 7800,
      "Ġritmo": 7801,
      "ĠdaÃ±os": 7802,
      "Ġcomenzado": 7803,
      "Ġpoblado": 7804,
      "ĠCham": 7805,
      "ult": 7806,
      "lanos": 7807,
      "ĠSun": 7808,
      "ĠestÃ©": 7809,
      "Ġtir": 7810,
      "Ġdescan": 7811,
      "ĠTok": 7812,
      "timologÃŃa": 7813,
      "Ġhin": 7814,
      "81": 7815,
      "Ġactiva": 7816,
      "ĠGobern": 7817,
      "ĠcÃº": 7818,
      "Ġviajes": 7819,
      "ĠCultural": 7820,
      "ear": 7821,
      "ĠFi": 7822,
      "Ġposiblemente": 7823,
      "pac": 7824,
      "ĠCompaÃ±": 7825,
      "ges": 7826,
      "ĠAgu": 7827,
      "Ġ33": 7828,
      "Ġesfuerzo": 7829,
      "Ġregionales": 7830,
      "viv": 7831,
      "Ġacerc": 7832,
      "ĠfÃ³rmula": 7833,
      "Ġimpe": 7834,
      "Ġpartida": 7835,
      "menes": 7836,
      "quÃ©s": 7837,
      "Ġinfantil": 7838,
      "uck": 7839,
      "ĠGlo": 7840,
      "Ã¡mico": 7841,
      "Ġgrados": 7842,
      "Ġcorrientes": 7843,
      "ĠVo": 7844,
      "Ġpac": 7845,
      "Ġido": 7846,
      "ĠDom": 7847,
      "ĠmÃŃnimo": 7848,
      "ĠfalleciÃ³": 7849,
      "ĠAtlÃ©tico": 7850,
      "aves": 7851,
      "Ġid": 7852,
      "Ġrepresentar": 7853,
      "ĠrebeliÃ³n": 7854,
      "tamento": 7855,
      "Ġiniciativa": 7856,
      "Ġsemi": 7857,
      "cuenta": 7858,
      "ĠexplotaciÃ³n": 7859,
      "Ġequilibrio": 7860,
      "ĠSag": 7861,
      "Ġriqueza": 7862,
      "ĠfÃ³s": 7863,
      "izados": 7864,
      "urt": 7865,
      "Ġexplica": 7866,
      "ĠMarco": 7867,
      "Ġcola": 7868,
      "incesa": 7869,
      "Ġseguidores": 7870,
      "Ġtorm": 7871,
      "Ġrin": 7872,
      "Ġhipo": 7873,
      "Ġjuntos": 7874,
      "ĠprÃ¡cticas": 7875,
      "Ġalcance": 7876,
      "ĠpolÃ©m": 7877,
      "rilla": 7878,
      "Ġnaciones": 7879,
      "olina": 7880,
      "dest": 7881,
      "ĠViena": 7882,
      "ĠresoluciÃ³n": 7883,
      "Ġetapas": 7884,
      "ĠFacultad": 7885,
      "Ġcontrolar": 7886,
      "hat": 7887,
      "ĠAÃ©": 7888,
      "Ġefectu": 7889,
      "Ġdisfru": 7890,
      "ball": 7891,
      "junto": 7892,
      "ĠCi": 7893,
      "iger": 7894,
      "ombr": 7895,
      "ĠGen": 7896,
      "ĠdedicÃ³": 7897,
      "hua": 7898,
      "Ġamenaza": 7899,
      "Ġaflu": 7900,
      "ĠconservaciÃ³n": 7901,
      "ĠSho": 7902,
      "ĠVasco": 7903,
      "dula": 7904,
      "Ġescritora": 7905,
      "ompe": 7906,
      "fel": 7907,
      "toÃ±o": 7908,
      "Ġdro": 7909,
      "Ġprolong": 7910,
      "mol": 7911,
      "Ġabor": 7912,
      "ĠZel": 7913,
      "xa": 7914,
      "Ã¡sico": 7915,
      "ÃŃna": 7916,
      "ĠYou": 7917,
      "ĠsÃŃntomas": 7918,
      "Ġhacerse": 7919,
      "Ġjusto": 7920,
      "ĠBÃ©lgica": 7921,
      "unas": 7922,
      "Ġsupon": 7923,
      "Ġexclusivamente": 7924,
      "inadas": 7925,
      "ĠÃ¡rabes": 7926,
      "ĠTeo": 7927,
      "ĠcompaÃ±eros": 7928,
      "Ġcristianismo": 7929,
      "ĠEug": 7930,
      "62": 7931,
      "Ġpersonalidad": 7932,
      "Ġcuadro": 7933,
      "kes": 7934,
      "Ġbudi": 7935,
      "Ġcontinuar": 7936,
      "CC": 7937,
      "ĠNav": 7938,
      "Ġrecientes": 7939,
      "ĠneerlandÃ©s": 7940,
      "ĠInte": 7941,
      "97": 7942,
      "2006": 7943,
      "Ġinvad": 7944,
      "ĠPuente": 7945,
      "Ġrutas": 7946,
      "ĠEdward": 7947,
      "Ġreti": 7948,
      "Re": 7949,
      "ĠAugusto": 7950,
      "63": 7951,
      "Ġleche": 7952,
      "idera": 7953,
      "ÃŃmenes": 7954,
      "Ġadolesc": 7955,
      "ĠDVD": 7956,
      "Ġmonasterio": 7957,
      "Ġrepresentante": 7958,
      "Ġpromul": 7959,
      "Ġpantalla": 7960,
      "ĠuniÃ³": 7961,
      "Ġubica": 7962,
      "field": 7963,
      "icho": 7964,
      "ĠTecn": 7965,
      "ĠCarrera": 7966,
      "ĠintroducciÃ³n": 7967,
      "ecÃŃan": 7968,
      "ĠJunto": 7969,
      "Ġdependiendo": 7970,
      "inger": 7971,
      "ĠpÃ¡": 7972,
      "ĠAgr": 7973,
      "Ġinfancia": 7974,
      "Ġpersonales": 7975,
      "Ġcostas": 7976,
      "Ġalcanza": 7977,
      "Ġ1912": 7978,
      "ĠCle": 7979,
      "vila": 7980,
      "Ġepisodios": 7981,
      "estiones": 7982,
      "ĠpresentaciÃ³n": 7983,
      "ĠJaco": 7984,
      "ĠNÃº": 7985,
      "af": 7986,
      "arre": 7987,
      "ĠPresiden": 7988,
      "ĠFab": 7989,
      "ĠMik": 7990,
      "Ġcuentan": 7991,
      "zob": 7992,
      "Ġsureste": 7993,
      "Ġliberal": 7994,
      "Ġtradiciones": 7995,
      "cambio": 7996,
      "dicas": 7997,
      "olas": 7998,
      "ĠReci": 7999,
      "Ġzar": 8000,
      "Ġdestacado": 8001,
      "ĠLibro": 8002,
      "iver": 8003,
      "1999": 8004,
      "Ġfestival": 8005,
      "Ġrayos": 8006,
      "Ġdeca": 8007,
      "Ġpoca": 8008,
      "ÏĤ": 8009,
      "Ġabsoluta": 8010,
      "Ġconceptos": 8011,
      "ĠMilitar": 8012,
      "onÃ©s": 8013,
      "pula": 8014,
      "Ġsuro": 8015,
      "Ġdefinitiva": 8016,
      "Ġmecanismo": 8017,
      "igas": 8018,
      "Ġcomprende": 8019,
      "ĠLatino": 8020,
      "Ġinfec": 8021,
      "ĠautÃ³noma": 8022,
      "ĠAvenida": 8023,
      "Ġformal": 8024,
      "ĠMarina": 8025,
      "cionario": 8026,
      "Ġilum": 8027,
      "Ġexpon": 8028,
      "Ġpasos": 8029,
      "ĠPrimer": 8030,
      "Ġtribus": 8031,
      "Ġaumenta": 8032,
      "ĠRem": 8033,
      "usiones": 8034,
      "Ġaparecer": 8035,
      "arc": 8036,
      "ĠSocialista": 8037,
      "ÃŃctor": 8038,
      "Ġarena": 8039,
      "Ġsacri": 8040,
      "ĠSeguridad": 8041,
      "dela": 8042,
      "ĠlÃŃquido": 8043,
      "ĠdebÃŃan": 8044,
      "ĠGÃ©n": 8045,
      "Ġgub": 8046,
      "Ġaux": 8047,
      "elli": 8048,
      "tara": 8049,
      "Ġsuici": 8050,
      "ĠpÃ¡ginas": 8051,
      "ĠDen": 8052,
      "Ġresolver": 8053,
      "Ġramas": 8054,
      "Ġviejo": 8055,
      "ĠMoscÃº": 8056,
      "ĠAcon": 8057,
      "Ã±ar": 8058,
      "Ġinfluy": 8059,
      "Ġfemenino": 8060,
      "Ġcircuito": 8061,
      "ther": 8062,
      "Ġingleses": 8063,
      "mat": 8064,
      "Ġobservar": 8065,
      "omÃ©st": 8066,
      "alia": 8067,
      "Ġbgcolor": 8068,
      "Ġpatrimonio": 8069,
      "Ġmultitud": 8070,
      "ĠmatemÃ¡ticas": 8071,
      "undir": 8072,
      "Ġllegan": 8073,
      "ets": 8074,
      "Ġindustriales": 8075,
      "toriales": 8076,
      "Ã³lico": 8077,
      "ĠquiÃ©n": 8078,
      "ĠModer": 8079,
      "Ġcontinental": 8080,
      "ĠComunista": 8081,
      "57": 8082,
      "ĠmetÃ¡l": 8083,
      "Ġimplica": 8084,
      "Ġsupuso": 8085,
      "ĠazÃºcar": 8086,
      "tornos": 8087,
      "ĠNie": 8088,
      "âĢĶ.": 8089,
      "Ġfueran": 8090,
      "ĠRojo": 8091,
      "Ġgole": 8092,
      "Ġventaja": 8093,
      "ĠsurgiÃ³": 8094,
      "Ġbits": 8095,
      "ĠLis": 8096,
      "Ġhogar": 8097,
      "Ġrefor": 8098,
      "Ġrig": 8099,
      "urada": 8100,
      "aragua": 8101,
      "Ġretirada": 8102,
      "Ġrasgos": 8103,
      "Ġtol": 8104,
      "Ġacord": 8105,
      "94": 8106,
      "Ġigualmente": 8107,
      "Ġfamiliares": 8108,
      "ĠmillÃ³n": 8109,
      "Ġnut": 8110,
      "ĠFilip": 8111,
      "ĠNegro": 8112,
      "Ġnegocios": 8113,
      "Ġrestr": 8114,
      "Ġemis": 8115,
      "ĠConfe": 8116,
      "Ġviviendas": 8117,
      "ĠdiÃ¡metro": 8118,
      "denal": 8119,
      "rores": 8120,
      "ĠExiste": 8121,
      "Ġconstituyen": 8122,
      "Ġnotables": 8123,
      "gio": 8124,
      "Ġtitular": 8125,
      "Ġlegis": 8126,
      "Ġimpul": 8127,
      "ĠBlanco": 8128,
      "ĠÃ³rganos": 8129,
      "Ġlicencia": 8130,
      "ĠMach": 8131,
      "Ġcelular": 8132,
      "ĠUs": 8133,
      "Ġdescenso": 8134,
      "Äĩ": 8135,
      "ĠKu": 8136,
      "Ġguard": 8137,
      "Ġdefender": 8138,
      "Ġplaya": 8139,
      "garo": 8140,
      "ilas": 8141,
      "Ġacor": 8142,
      "ĠInform": 8143,
      "iosa": 8144,
      "ĠÃĹ": 8145,
      "Ã±Ã³n": 8146,
      "ĠsucesiÃ³n": 8147,
      "ĠmostrÃ³": 8148,
      "dell": 8149,
      "Ġrecin": 8150,
      "lula": 8151,
      "ĠincluyÃ³": 8152,
      "ĠÃ©xitos": 8153,
      "Ġtribu": 8154,
      "IS": 8155,
      "Ġnecesaria": 8156,
      "61": 8157,
      "Ġregu": 8158,
      "ĠseÃ±ales": 8159,
      "Ġdificultades": 8160,
      "Ġmonumento": 8161,
      "ĠmontaÃ±os": 8162,
      "ĠBea": 8163,
      "usieron": 8164,
      "ĠIra": 8165,
      "urus": 8166,
      "Ġpublica": 8167,
      "Ġnit": 8168,
      "ĠAdri": 8169,
      "Ġoferta": 8170,
      "Ġlistas": 8171,
      "Ġenfo": 8172,
      "ÃŃficamente": 8173,
      "heim": 8174,
      "2007": 8175,
      "op": 8176,
      "ĠMarcel": 8177,
      "Ġsemej": 8178,
      "Ġhuev": 8179,
      "Ġrelacionado": 8180,
      "Ġza": 8181,
      "ĠAtenas": 8182,
      "Ġgraves": 8183,
      "osotros": 8184,
      "ĠarquitectÃ³n": 8185,
      "ĠEle": 8186,
      "Ġneo": 8187,
      "ĠFron": 8188,
      "Ġdedicada": 8189,
      "Ġrealizaron": 8190,
      "Ġjam": 8191,
      "Ġcurva": 8192,
      "Ġestrategia": 8193,
      "ĠIz": 8194,
      "ĠBau": 8195,
      "Ġpuertos": 8196,
      "ĠMark": 8197,
      "Ġservir": 8198,
      "idel": 8199,
      "ĠolÃŃmp": 8200,
      "Ġentrevista": 8201,
      "usk": 8202,
      "Ġmito": 8203,
      "Ġpone": 8204,
      "ĠStre": 8205,
      "ĠVÃŃctor": 8206,
      "ĠconsiderÃ³": 8207,
      "Ġsilencio": 8208,
      "ĠGir": 8209,
      "Ġvariedades": 8210,
      "\"),": 8211,
      "Ġcog": 8212,
      "ĠSpi": 8213,
      "icismo": 8214,
      "incl": 8215,
      "arita": 8216,
      "Ġofens": 8217,
      "ĠestrenÃ³": 8218,
      "randa": 8219,
      "viendo": 8220,
      "ĠdisposiciÃ³n": 8221,
      "Ġcil": 8222,
      "xia": 8223,
      "ĠVis": 8224,
      "Ġcen": 8225,
      "Ġrusa": 8226,
      "ĠPic": 8227,
      "Ġpesca": 8228,
      "ĠMusic": 8229,
      "Ġredac": 8230,
      "ĠBil": 8231,
      "----": 8232,
      "ĠmÃ¡quinas": 8233,
      "Ġater": 8234,
      "onios": 8235,
      "Ġcanadiense": 8236,
      "Ġsoporte": 8237,
      "ĠmonarquÃŃa": 8238,
      "Ġrol": 8239,
      "ĠcontinÃºa": 8240,
      "Ġcincuenta": 8241,
      "ĠocurriÃ³": 8242,
      "93": 8243,
      "Ġluna": 8244,
      "ĠecuaciÃ³n": 8245,
      "Ġpudiera": 8246,
      "Ġliberales": 8247,
      "Ġacontecimientos": 8248,
      "grado": 8249,
      "zaje": 8250,
      "Ġtrist": 8251,
      "dador": 8252,
      "Ġimpar": 8253,
      "Ġtiro": 8254,
      "ifa": 8255,
      "bral": 8256,
      "ĠasumiÃ³": 8257,
      "Ġceremonia": 8258,
      "dam": 8259,
      "ĠRad": 8260,
      "ĠDefensa": 8261,
      "Ġesperanza": 8262,
      "ĠJerusal": 8263,
      "Ġrecuperar": 8264,
      "antil": 8265,
      "igna": 8266,
      "Ġanillo": 8267,
      "Ġcolonias": 8268,
      "Ġtestimon": 8269,
      "quina": 8270,
      "ĠCÃ¡diz": 8271,
      "ĠFlores": 8272,
      "Ġnoc": 8273,
      "eramente": 8274,
      "Ġfrecuentes": 8275,
      "Ġliteraria": 8276,
      "Ġdelante": 8277,
      "ĠMuer": 8278,
      "Ġarma": 8279,
      "Ġfilos": 8280,
      "ĠÃ³p": 8281,
      "Ġmantenimiento": 8282,
      "Ġnoticias": 8283,
      "Ġfechas": 8284,
      "ĠcÃ³n": 8285,
      "Ġexit": 8286,
      "pulaciÃ³n": 8287,
      "Ġprimaria": 8288,
      "Ġsustancias": 8289,
      "500": 8290,
      "Ġempieza": 8291,
      "idaciÃ³n": 8292,
      "Ġindios": 8293,
      "ak": 8294,
      "emin": 8295,
      "Ġterrenos": 8296,
      "edores": 8297,
      "Ġindividual": 8298,
      "ĠPark": 8299,
      "Ġintrodujo": 8300,
      "Ġple": 8301,
      "Ġaer": 8302,
      "ĠChica": 8303,
      "Ġautomo": 8304,
      "tm": 8305,
      "Ġperci": 8306,
      "ĠMendo": 8307,
      "ustr": 8308,
      "Ġclara": 8309,
      "Ġescribe": 8310,
      "Ïģ": 8311,
      "ĠantigÃ¼edad": 8312,
      "ĠÃģlvarez": 8313,
      "phy": 8314,
      "Ġfracaso": 8315,
      "ementerio": 8316,
      "Ġagres": 8317,
      "ĠCaracas": 8318,
      "ĠRodri": 8319,
      "Ġeditorial": 8320,
      "ĠAmerican": 8321,
      "ispan": 8322,
      "Ġcabecera": 8323,
      "Ġpene": 8324,
      "ĠCamp": 8325,
      "Ġblancos": 8326,
      "Ġcobre": 8327,
      "Ġactores": 8328,
      "Ġenlace": 8329,
      "Ġalfabe": 8330,
      "iedo": 8331,
      "Ġcolumna": 8332,
      "ĠCompaÃ±ÃŃa": 8333,
      "Ġom": 8334,
      "tidi": 8335,
      "uts": 8336,
      "Ġindividuales": 8337,
      "2010": 8338,
      "ĠabriÃ³": 8339,
      "Ġconsigue": 8340,
      "Ġsaque": 8341,
      "Ġbelleza": 8342,
      "Ġcm": 8343,
      "Ġconsejo": 8344,
      "ĠAk": 8345,
      "ĠRib": 8346,
      "yac": 8347,
      "ĠSom": 8348,
      "Ġcontinua": 8349,
      "ĠTransporte": 8350,
      "Ġclaramente": 8351,
      "Ġinterno": 8352,
      "Ġultra": 8353,
      "plas": 8354,
      "Ġplataforma": 8355,
      "Ġcerebro": 8356,
      "DA": 8357,
      "Ġsosp": 8358,
      "ĠBlanca": 8359,
      "Ġfuncional": 8360,
      "Ġvive": 8361,
      "Ġferrovi": 8362,
      "esper": 8363,
      "ĠRuiz": 8364,
      "alizadas": 8365,
      "ablemente": 8366,
      "ĠhidrÃ³geno": 8367,
      "aste": 8368,
      "ĠMir": 8369,
      "tron": 8370,
      "jada": 8371,
      "Ġ120": 8372,
      "Ġmasas": 8373,
      "Ġprivado": 8374,
      "nal": 8375,
      "tomos": 8376,
      "Ġlabora": 8377,
      "pÃ©": 8378,
      "Ġdecisiones": 8379,
      "Ã±ado": 8380,
      "rial": 8381,
      "Ġinmigrantes": 8382,
      "Ġreper": 8383,
      "Ġregresar": 8384,
      "Ġdisputa": 8385,
      "Ġopon": 8386,
      "ĠRum": 8387,
      "vaciones": 8388,
      "ĠLove": 8389,
      "zando": 8390,
      "paÃ±as": 8391,
      "baciones": 8392,
      "ĠAÃ±os": 8393,
      "Ġprohi": 8394,
      "Ġlectura": 8395,
      "Ġfachada": 8396,
      "Ġbiblioteca": 8397,
      "ĠPad": 8398,
      "ĠGusta": 8399,
      "ianas": 8400,
      "Ġpago": 8401,
      "Ġtarje": 8402,
      "Ġintentos": 8403,
      "ĠÃīl": 8404,
      "Ġentidades": 8405,
      "Ġsalvo": 8406,
      "ĠsirviÃ³": 8407,
      "ĠpÃ¡gina": 8408,
      "Ġexca": 8409,
      "ĠliberaciÃ³n": 8410,
      "Ġpronunci": 8411,
      "Ġvigor": 8412,
      "Ġejecutivo": 8413,
      "Î½": 8414,
      "Ġcapaces": 8415,
      "\"|": 8416,
      "tano": 8417,
      "voc": 8418,
      "Ã¡z": 8419,
      "ÃŃsica": 8420,
      "Ġabol": 8421,
      "tea": 8422,
      "Ġprocedentes": 8423,
      "diales": 8424,
      "itudes": 8425,
      "ĠPierre": 8426,
      "ĠBul": 8427,
      "Ġsucede": 8428,
      "cir": 8429,
      "ĠNÃ¡": 8430,
      "Ġlograron": 8431,
      "Ġirreg": 8432,
      "\").": 8433,
      "Ġdom": 8434,
      "ĠAllen": 8435,
      "Ġporcentaje": 8436,
      "ĠcÃ¡r": 8437,
      "Ġdesap": 8438,
      "ugos": 8439,
      "ĠHungrÃŃa": 8440,
      "ĠPap": 8441,
      "Ġdiscur": 8442,
      "ĠcelebrÃ³": 8443,
      "ĠTelevisiÃ³n": 8444,
      "Ġaceite": 8445,
      "ius": 8446,
      "ĠvegetaciÃ³n": 8447,
      "ĠLog": 8448,
      "ĠSalud": 8449,
      "Ġtemporal": 8450,
      "Ġacceder": 8451,
      "bs": 8452,
      "ĠPIB": 8453,
      "Ġtecl": 8454,
      "hen": 8455,
      "Ġeliminar": 8456,
      "Ġsujeto": 8457,
      "iti": 8458,
      "pÃŃa": 8459,
      "ĠmarcÃ³": 8460,
      "Ġfranco": 8461,
      "Ġrecuer": 8462,
      "Ġmetales": 8463,
      "ĠsÃŃmbolos": 8464,
      "Ġrocas": 8465,
      "tive": 8466,
      "Ġnaves": 8467,
      "ĠÅ": 8468,
      "egr": 8469,
      "Ġsegundos": 8470,
      "Ġexam": 8471,
      "Car": 8472,
      "inaciones": 8473,
      "aunque": 8474,
      "tronomÃŃa": 8475,
      "ĠsimultÃ¡n": 8476,
      "Ġsale": 8477,
      "fecto": 8478,
      "ĠGuin": 8479,
      "udas": 8480,
      "ficio": 8481,
      "%,": 8482,
      "ĠdepÃ³s": 8483,
      "omor": 8484,
      "Ġconciencia": 8485,
      "Ġvideojuegos": 8486,
      "ĠFamilia": 8487,
      "Ġquedaron": 8488,
      "Ġestrecho": 8489,
      "Ġmala": 8490,
      "urales": 8491,
      "Ġcuel": 8492,
      "Ġenz": 8493,
      "Ġarreg": 8494,
      "Ġtramo": 8495,
      "ĠrealizaciÃ³n": 8496,
      "Ġcolumnas": 8497,
      "hum": 8498,
      "ĠJerusalÃ©n": 8499,
      "erba": 8500,
      "Ġexilio": 8501,
      "Ġsimbol": 8502,
      "Ġencargado": 8503,
      "ĠmaÃŃz": 8504,
      "ĠdeberÃŃa": 8505,
      "teor": 8506,
      "Ġoccidentales": 8507,
      "Ġcromos": 8508,
      "Ġtocar": 8509,
      "ence": 8510,
      "Ġideal": 8511,
      "Ġfortaleza": 8512,
      "Ġsello": 8513,
      "Ġpudieron": 8514,
      "Ġant": 8515,
      "Ġatacar": 8516,
      "Ġenviado": 8517,
      "ĠcontÃ³": 8518,
      "Ġret": 8519,
      "ĠGram": 8520,
      "Ġmotiv": 8521,
      "ĠejÃ©rcitos": 8522,
      "ĠArmada": 8523,
      "Ġtera": 8524,
      "onald": 8525,
      "ĠÐ": 8526,
      "ĠtÃº": 8527,
      "Ġhacerlo": 8528,
      "Ġnoctur": 8529,
      "Ġ1913": 8530,
      "Ġfronteras": 8531,
      "Ġces": 8532,
      "onesa": 8533,
      "Ġ1916": 8534,
      "ois": 8535,
      "ĠBernardo": 8536,
      "ĠTorneo": 8537,
      "ĠDic": 8538,
      "Ġamericano": 8539,
      "tente": 8540,
      "guar": 8541,
      "Ġconsolid": 8542,
      "Ġpasaron": 8543,
      "ĠMarg": 8544,
      "Ġset": 8545,
      "ĠRel": 8546,
      "Ġgalle": 8547,
      "Ġfuese": 8548,
      "ĠaceptÃ³": 8549,
      "ĠKir": 8550,
      "2009": 8551,
      "ernam": 8552,
      "Ġonce": 8553,
      "ĠBib": 8554,
      "Ġarres": 8555,
      "Ġbrill": 8556,
      "Ġencontraron": 8557,
      "ĠsÃ©pti": 8558,
      "ĠMendoza": 8559,
      "ary": 8560,
      "old": 8561,
      "ĠdurÃ³": 8562,
      "ĠcrÃ©di": 8563,
      "Ġhec": 8564,
      "presa": 8565,
      "Ġprimo": 8566,
      "Ġnegros": 8567,
      "Ġinfluencias": 8568,
      "Ġhorizon": 8569,
      "2008": 8570,
      "Ġadministrativa": 8571,
      "Ġarre": 8572,
      "Ġastero": 8573,
      "gran": 8574,
      "rill": 8575,
      "Ġretro": 8576,
      "Ġherramientas": 8577,
      "Ġpuedan": 8578,
      "Ġempleados": 8579,
      "ĠfÃ¡brica": 8580,
      "Ġdorm": 8581,
      "Ġsuroeste": 8582,
      "Ġpunta": 8583,
      "Ġcomprome": 8584,
      "Ġagra": 8585,
      "ĠVene": 8586,
      "ĠZe": 8587,
      "ĠEditorial": 8588,
      "ĠTurquÃŃa": 8589,
      "ule": 8590,
      "Ġmolec": 8591,
      "ãĤ": 8592,
      "Ġhar": 8593,
      "ĠUc": 8594,
      "Ġmorf": 8595,
      "Ã³nima": 8596,
      "Ġamistad": 8597,
      "ĠJac": 8598,
      "ĠpromociÃ³n": 8599,
      "raron": 8600,
      "ĠFÃ³rmula": 8601,
      "Ġsonora": 8602,
      "Ġciento": 8603,
      "Ġcaer": 8604,
      "ĠCerv": 8605,
      "mÃ³": 8606,
      "Ġextraordin": 8607,
      "Ġfuertemente": 8608,
      "mad": 8609,
      "Ġarchipi": 8610,
      "ĠLÃŃnea": 8611,
      "ĠvarÃŃa": 8612,
      "ecuciÃ³n": 8613,
      "Ġhumanidad": 8614,
      "Ġham": 8615,
      "adolid": 8616,
      "ĠSum": 8617,
      "ĠColÃ³n": 8618,
      "ĠBeat": 8619,
      "ĠBatman": 8620,
      "Ġdesarrol": 8621,
      "ĠAla": 8622,
      "Ġconcejo": 8623,
      "Ġtarea": 8624,
      "Ġ1911": 8625,
      "Ġintensidad": 8626,
      "Ġintercambio": 8627,
      "ĠNicaragua": 8628,
      "recciÃ³n": 8629,
      "Ġvirus": 8630,
      "Ġmercan": 8631,
      "ĠacompaÃ±ado": 8632,
      "ze": 8633,
      "ĠFiestas": 8634,
      "Ġreinos": 8635,
      "Ġatac": 8636,
      "ĠvacÃŃo": 8637,
      "Ġinteligencia": 8638,
      "ĠLista": 8639,
      "acos": 8640,
      "ĠZona": 8641,
      "ĠPatr": 8642,
      "Ġdeportes": 8643,
      "ĠdiÃ³": 8644,
      "Ġincluidos": 8645,
      "Ġroja": 8646,
      "Ġpaisaje": 8647,
      "Ġaeron": 8648,
      "esas": 8649,
      "Qu": 8650,
      "entre": 8651,
      "Ġpreviamente": 8652,
      "Ġcien": 8653,
      "Ġsuble": 8654,
      "Ġ170": 8655,
      "ĠquÃŃmico": 8656,
      "ĠVe": 8657,
      "Ġdomingo": 8658,
      "ĠaprobÃ³": 8659,
      "Ġejemplares": 8660,
      "ĠHernÃ¡ndez": 8661,
      "ĠDinamarca": 8662,
      "iÃ¡n": 8663,
      "ĠhÃºn": 8664,
      "biendo": 8665,
      "ĠVin": 8666,
      "Ġreta": 8667,
      "Ġagente": 8668,
      "Ġmanga": 8669,
      "Ġteniente": 8670,
      "eae": 8671,
      "ĠotoÃ±o": 8672,
      "Ġradical": 8673,
      "Ġeuropeas": 8674,
      "ĠLiteratura": 8675,
      "Ġmetropolitana": 8676,
      "ĠAÃ±o": 8677,
      "naval": 8678,
      "Ġ64": 8679,
      "Ġdescrito": 8680,
      "Ġintelectual": 8681,
      "bÃ³": 8682,
      "ĠLucas": 8683,
      "hor": 8684,
      "Ġincur": 8685,
      "tÃ¡nica": 8686,
      "Ġvit": 8687,
      "Ġaca": 8688,
      "Ġmod": 8689,
      "Ġasentamiento": 8690,
      "Ġalternativa": 8691,
      "Ġestilos": 8692,
      "ĠPese": 8693,
      "ĠGor": 8694,
      "Ġdefinir": 8695,
      "Ġdispositivo": 8696,
      "CE": 8697,
      "tone": 8698,
      "ĠcatalÃ¡n": 8699,
      "ĠMexic": 8700,
      "ĠSerie": 8701,
      "Ġjuventud": 8702,
      "MS": 8703,
      "Ġdebate": 8704,
      "Ãºmenes": 8705,
      "Ġconvirtieron": 8706,
      "Ġalberga": 8707,
      "ĠCompan": 8708,
      "Ġperm": 8709,
      "ĠexistÃŃa": 8710,
      "91": 8711,
      "ĠHy": 8712,
      "Ġcompra": 8713,
      "ĠtransformaciÃ³n": 8714,
      "ãģ": 8715,
      "Ġcientos": 8716,
      "ĠEsteban": 8717,
      "Ġfinalizar": 8718,
      "ÃŃsimo": 8719,
      "umental": 8720,
      "ĠDeportes": 8721,
      "ĠReina": 8722,
      "Ġartic": 8723,
      "ĠinversiÃ³n": 8724,
      "piente": 8725,
      "ĠibÃ©rica": 8726,
      "Ġgubernam": 8727,
      "arcas": 8728,
      "Ġflex": 8729,
      "ĠnegÃ³": 8730,
      "Ġinvestigadores": 8731,
      "Ġrespal": 8732,
      "Ã¡sticos": 8733,
      "ĠAudi": 8734,
      "Ġescon": 8735,
      "ĠRan": 8736,
      "ĠIndi": 8737,
      "ĠTanto": 8738,
      "ings": 8739,
      "ĠÃ¡tomos": 8740,
      "AS": 8741,
      "Ġcasti": 8742,
      "Ġtelevis": 8743,
      "ĠÃŃndice": 8744,
      "mir": 8745,
      "Ġfall": 8746,
      "jano": 8747,
      "mÃ¡s": 8748,
      "ĠEntonces": 8749,
      "ĠÃ¡ngulo": 8750,
      "Ġdeportivo": 8751,
      "ĠSel": 8752,
      "Ġcabe": 8753,
      "Ġcomunicaciones": 8754,
      "Ġobligado": 8755,
      "Ġacero": 8756,
      "Ġdisponibles": 8757,
      "Ġcentrales": 8758,
      "Ġic": 8759,
      "ĠcÃ©le": 8760,
      "ĠbaterÃŃa": 8761,
      "ĠTercera": 8762,
      "Ġvencer": 8763,
      "1997": 8764,
      "ĠrecuperaciÃ³n": 8765,
      "ĠScho": 8766,
      "Ġsacerdote": 8767,
      "Ġdesembar": 8768,
      "Ġconsecuencias": 8769,
      "ĠArturo": 8770,
      "Ġincluida": 8771,
      "Ġpiedras": 8772,
      "Ġminerales": 8773,
      "Ġreserva": 8774,
      "Ġcaracteres": 8775,
      "ĠsoberanÃŃa": 8776,
      "Ġfrase": 8777,
      "yer": 8778,
      "drich": 8779,
      "Ġfruto": 8780,
      "Ġimposible": 8781,
      "Ġtaller": 8782,
      "ĠdeclaraciÃ³n": 8783,
      "ĠindÃŃgena": 8784,
      "sto": 8785,
      "ĠFuerzas": 8786,
      "Ġestatus": 8787,
      "ĠdiseÃ±ado": 8788,
      "Ġprovoca": 8789,
      "ĠmitologÃŃa": 8790,
      "umas": 8791,
      "Ġresidu": 8792,
      "Â»)": 8793,
      "ĠSelec": 8794,
      "ĠMÃ¡laga": 8795,
      "Ġrealizadas": 8796,
      "Ġcaminos": 8797,
      "Ġcineasta": 8798,
      "Ġgalard": 8799,
      "Ġalumnos": 8800,
      "Ġdesierto": 8801,
      "ienda": 8802,
      "Ġtrayectoria": 8803,
      "De": 8804,
      "Ġnace": 8805,
      "ĠFri": 8806,
      "Ġdispone": 8807,
      "Ġchilena": 8808,
      "mirante": 8809,
      "Ġempresario": 8810,
      "1998": 8811,
      "ĠRodrigo": 8812,
      "ĠIgu": 8813,
      "Ġcostumbres": 8814,
      "ĠOccidente": 8815,
      "deos": 8816,
      "ĠelÃ©ctrico": 8817,
      "izaciones": 8818,
      "Ãºst": 8819,
      "ĠingenierÃŃa": 8820,
      "Ġmonedas": 8821,
      "Ġeuros": 8822,
      "ĠApol": 8823,
      "ridge": 8824,
      "CD": 8825,
      "ĠLic": 8826,
      "Ġintegrado": 8827,
      "ĠsoviÃ©tico": 8828,
      "Î¹": 8829,
      "Ġpena": 8830,
      "Ġhermos": 8831,
      "Ġtercero": 8832,
      "estro": 8833,
      "Ġorillas": 8834,
      "Ġleer": 8835,
      "Ġsituaciones": 8836,
      "ĠÃºtil": 8837,
      "ĠAre": 8838,
      "Ġoscuro": 8839,
      "ĠColum": 8840,
      "Ġcuartos": 8841,
      "uien": 8842,
      "Ġemplea": 8843,
      "Ġcinta": 8844,
      "ualidad": 8845,
      "ĠMemor": 8846,
      "ĠcÃ©lula": 8847,
      "Ġcomplejos": 8848,
      "vez": 8849,
      "ĠhectÃ¡": 8850,
      "Ġsho": 8851,
      "Ġjuz": 8852,
      "Ġchina": 8853,
      "Ġdescendientes": 8854,
      "ueras": 8855,
      "Ġamarillo": 8856,
      "ĠAmbos": 8857,
      "Ġusada": 8858,
      "ĠNatural": 8859,
      "ited": 8860,
      "ĠMuchas": 8861,
      "Ġdepartamentos": 8862,
      "Ġcifra": 8863,
      "Ġdiputado": 8864,
      "feo": 8865,
      "Ġcarreteras": 8866,
      "ĠdomÃ©st": 8867,
      "gando": 8868,
      "especi": 8869,
      "Ġaniversario": 8870,
      "Ġcapaci": 8871,
      "Ġespiri": 8872,
      "ĠfÃ©r": 8873,
      "ĠCanarias": 8874,
      "Â¡": 8875,
      "ĠâĢķ": 8876,
      "Ġescapar": 8877,
      "ĠRecords": 8878,
      "Ġdecis": 8879,
      "ĠjurisdicciÃ³n": 8880,
      "ĠCatedral": 8881,
      "Ġestuvieron": 8882,
      "Par": 8883,
      "Ġdesf": 8884,
      "ÃŃmica": 8885,
      "Ġdram": 8886,
      "Ġregistros": 8887,
      "Ġcombustible": 8888,
      "Ġpop": 8889,
      "ĠretirÃ³": 8890,
      "Ġ600": 8891,
      "Ġasociado": 8892,
      "quisiciÃ³n": 8893,
      "Ġpredic": 8894,
      "ĠbahÃŃa": 8895,
      "ĠJimÃ©nez": 8896,
      "Ġsuerte": 8897,
      "ĠTam": 8898,
      "cesis": 8899,
      "ĠHerman": 8900,
      "Ġinterf": 8901,
      "Ġbiz": 8902,
      "ĠaprobaciÃ³n": 8903,
      "Ġtejido": 8904,
      "ĠLy": 8905,
      "Ġ(âĢ": 8906,
      "grafÃŃas": 8907,
      "ĠGib": 8908,
      "Ġ38": 8909,
      "Ġligeramente": 8910,
      "Ġavenida": 8911,
      "guno": 8912,
      "Ġincremento": 8913,
      "Ġnieve": 8914,
      "ĠArist": 8915,
      "ĠVers": 8916,
      "Ġortodo": 8917,
      "Ġejercicio": 8918,
      "Ġdespi": 8919,
      "ĠcompaÃ±ero": 8920,
      "Ġexces": 8921,
      "Ġfom": 8922,
      "Ġconfianza": 8923,
      "Ġtareas": 8924,
      "Mar": 8925,
      "anÃ¡": 8926,
      "Ġconocen": 8927,
      "Ġadultos": 8928,
      "dom": 8929,
      "Ġnobles": 8930,
      "ĠAlbert": 8931,
      "ĠMary": 8932,
      "Ġdivisiones": 8933,
      "ĠelectrÃ³nica": 8934,
      "Ġvenezolano": 8935,
      "jeros": 8936,
      "Ġ000": 8937,
      "ĠDesta": 8938,
      "ĠJuana": 8939,
      "Ġvariables": 8940,
      "Ġsuger": 8941,
      "ĠPir": 8942,
      "Ġconsiderados": 8943,
      "Ġfundamentales": 8944,
      "uan": 8945,
      "Ġsocialista": 8946,
      "pora": 8947,
      "Ġapren": 8948,
      "ĠGuardia": 8949,
      "Ġcompi": 8950,
      "acciÃ³n": 8951,
      "Ġ75": 8952,
      "1995": 8953,
      "Ġparroqui": 8954,
      "ĠMichel": 8955,
      "plan": 8956,
      "Ġnatal": 8957,
      "ĠFM": 8958,
      "chen": 8959,
      "ĠPeÃ±a": 8960,
      "sul": 8961,
      "Ð°": 8962,
      "Ġdesper": 8963,
      "Ġvalles": 8964,
      "Ġdiversidad": 8965,
      "Ġtrataba": 8966,
      "ĠMaria": 8967,
      "ĠopciÃ³n": 8968,
      "ĠÏ": 8969,
      "deste": 8970,
      "ĠLle": 8971,
      "Ġagentes": 8972,
      "Ã¶r": 8973,
      "Ġ37": 8974,
      "Ġelectri": 8975,
      "Ġnegativa": 8976,
      "rich": 8977,
      "Ġganador": 8978,
      "Fran": 8979,
      "Ġrelato": 8980,
      "ĠromÃ¡n": 8981,
      "tti": 8982,
      "Ġgras": 8983,
      "Ã¡ns": 8984,
      "arle": 8985,
      "Ġvieron": 8986,
      "ĠutilizaciÃ³n": 8987,
      "Ġdichos": 8988,
      "Ġempezaron": 8989,
      "onado": 8990,
      ":#": 8991,
      "inter": 8992,
      "Ġespada": 8993,
      "Ġdividido": 8994,
      "Ġerrores": 8995,
      "ĠStra": 8996,
      "Ġmanus": 8997,
      "enciado": 8998,
      "Ġapun": 8999,
      "Ġalguien": 9000,
      "ĠinstalaciÃ³n": 9001,
      "ĠartÃŃstica": 9002,
      "Ġpertenecen": 9003,
      "ĠEscocia": 9004,
      "Ġmostrar": 9005,
      "Ġpertenecientes": 9006,
      "Ġactitud": 9007,
      "Ġpaciente": 9008,
      "ÃŃsima": 9009,
      "aso": 9010,
      "ĠparÃ¡": 9011,
      "Ġsobres": 9012,
      "ĠGuti": 9013,
      "tificado": 9014,
      "Co": 9015,
      "ocl": 9016,
      "Ġraza": 9017,
      "Ġcliente": 9018,
      "Ġeclesi": 9019,
      "Ġjue": 9020,
      "ĠcampaÃ±as": 9021,
      "Ġdesignado": 9022,
      "ĠcapÃŃtulo": 9023,
      "Ġconjuntos": 9024,
      "Ġ1908": 9025,
      "Ġvientos": 9026,
      "UU": 9027,
      "Ġosci": 9028,
      "Ġresponsabilidad": 9029,
      "ĠKarl": 9030,
      "ĠChicago": 9031,
      "Ã¡ceas": 9032,
      "zadas": 9033,
      "tique": 9034,
      "ĠMariano": 9035,
      "ĠBell": 9036,
      "Ġestablecieron": 9037,
      "1996": 9038,
      "Ġ34": 9039,
      "Ã³rica": 9040,
      "hara": 9041,
      "erÃŃas": 9042,
      "Ġfauna": 9043,
      "ĠShe": 9044,
      "Ġinsec": 9045,
      "Ġmiedo": 9046,
      "Ã¡ticamente": 9047,
      "Ġacre": 9048,
      "ometra": 9049,
      "Ġsonidos": 9050,
      "entaba": 9051,
      "rania": 9052,
      "Ġcomplement": 9053,
      "ĠBob": 9054,
      "span": 9055,
      "Ġrup": 9056,
      "Ġlargas": 9057,
      "Ġ1915": 9058,
      "oce": 9059,
      "ĠVIII": 9060,
      "Ġcoord": 9061,
      "Ġayuntamiento": 9062,
      "Ġmanifestaciones": 9063,
      "adÃŃa": 9064,
      "amas": 9065,
      "Ġmejora": 9066,
      "Ġara": 9067,
      "sey": 9068,
      "ĠUS": 9069,
      "eciendo": 9070,
      "Ġdetalles": 9071,
      "ÃŃdos": 9072,
      "deas": 9073,
      "ĠCalle": 9074,
      "Ġ1905": 9075,
      "Ġdocumental": 9076,
      "ĠCy": 9077,
      "ĠdescribiÃ³": 9078,
      "Ġfla": 9079,
      "ĠHill": 9080,
      "Ġparticipantes": 9081,
      "estre": 9082,
      "nie": 9083,
      "Ġnotas": 9084,
      "Ġnativos": 9085,
      "Ġpeces": 9086,
      "Ġusos": 9087,
      "ĠPrÃŃncipe": 9088,
      "jud": 9089,
      "cambi": 9090,
      "ĠseÃ±ala": 9091,
      "ĠtÃºn": 9092,
      "2011": 9093,
      "Ġdoctrina": 9094,
      "Ġgris": 9095,
      "bidas": 9096,
      "tillas": 9097,
      "ĠtendrÃŃa": 9098,
      "Ġtorneos": 9099,
      "Ġmente": 9100,
      "ĠFuente": 9101,
      "ĠHolly": 9102,
      "pat": 9103,
      "Ġcumplen": 9104,
      "Ġ42": 9105,
      "ierro": 9106,
      "Ġisl": 9107,
      "ĠValladolid": 9108,
      "ĠBus": 9109,
      "Ġcircunstancias": 9110,
      "Ġrenuncia": 9111,
      "Ġpico": 9112,
      "ĠEspe": 9113,
      "ĠMah": 9114,
      "Ġsepul": 9115,
      "parte": 9116,
      "âĢķ": 9117,
      "ĠEscu": 9118,
      "Ġintens": 9119,
      "Ġpleno": 9120,
      "Ġretras": 9121,
      "Ġderrotado": 9122,
      "ĠAconte": 9123,
      "ecida": 9124,
      "ĠGan": 9125,
      "Ġprece": 9126,
      "Ġaudio": 9127,
      "ĠjardÃŃn": 9128,
      "Ġexistente": 9129,
      "Ġfundamentalmente": 9130,
      "lao": 9131,
      "Ġrelatos": 9132,
      "terno": 9133,
      "ĠTrin": 9134,
      "Ġlargos": 9135,
      "Ġpenal": 9136,
      "Ġsh": 9137,
      "ĠCabe": 9138,
      "ciles": 9139,
      "ĠGracias": 9140,
      "ceae": 9141,
      "Ġlevant": 9142,
      "ĠemisiÃ³n": 9143,
      "PE": 9144,
      "Ġtradicionalmente": 9145,
      "Ġelevado": 9146,
      "Ġrepu": 9147,
      "NT": 9148,
      "Ġhol": 9149,
      "Ġparecer": 9150,
      "ĠGio": 9151,
      "Ġelectro": 9152,
      "Ġquince": 9153,
      "boa": 9154,
      "background": 9155,
      "alda": 9156,
      "ĠArch": 9157,
      "ĠmamÃŃferos": 9158,
      "Ġvuelos": 9159,
      "Ġanuales": 9160,
      "Ġcumple": 9161,
      "pados": 9162,
[...]
