{"<bos>":0,"<eos>":1,"<wiki>":2,"<poem>":3,"<sep>":4,"<doc>":5,"<nl>":6,"!":7,"\"":8,"#":9,"$":10,"%":11,"&":12,"'":13,"(":14,")":15,"*":16,"+":17,",":18,"-":19,".":20,"/":21,"0":22,"1":23,"2":24,"3":25,"4":26,"5":27,"6":28,"7":29,"8":30,"9":31,":":32,";":33,"<":34,"=":35,">":36,"?":37,"@":38,"A":39,"B":40,"C":41,"D":42,"E":43,"F":44,"G":45,"H":46,"I":47,"J":48,"K":49,"L":50,"M":51,"N":52,"O":53,"P":54,"Q":55,"R":56,"S":57,"T":58,"U":59,"V":60,"W":61,"X":62,"Y":63,"Z":64,"[":65,"\\":66,"]":67,"^":68,"_":69,"`":70,"a":71,"b":72,"c":73,"d":74,"e":75,"f":76,"g":77,"h":78,"i":79,"j":80,"k":81,"l":82,"m":83,"n":84,"o":85,"p":86,"q":87,"r":88,"s":89,"t":90,"u":91,"v":92,"w":93,"x":94,"y":95,"z":96,"{":97,"|":98,"}":99,"~":100,"¡":101,"¢":102,"£":103,"¤":104,"¥":105,"¦":106,"§":107,"¨":108,"©":109,"ª":110,"«":111,"¬":112,"®":113,"¯":114,"°":115,"±":116,"²":117,"³":118,"´":119,"µ":120,"¶":121,"·":122,"¸":123,"¹":124,"º":125,"»":126,"¼":127,"½":128,"¾":129,"¿":130,"À":131,"Á":132,"Â":133,"Ã":134,"Ä":135,"Å":136,"Æ":137,"Ç":138,"È":139,"É":140,"Ê":141,"Ë":142,"Ì":143,"Í":144,"Î":145,"Ï":146,"Ð":147,"Ñ":148,"Ò":149,"Ó":150,"Ô":151,"Õ":152,"Ö":153,"×":154,"Ø":155,"Ù":156,"Ú":157,"Û":158,"Ü":159,"Ý":160,"Þ":161,"ß":162,"à":163,"á":164,"â":165,"ã":166,"ä":167,"å":168,"æ":169,"ç":170,"è":171,"é":172,"ê":173,"ë":174,"ì":175,"í":176,"î":177,"ï":178,"ð":179,"ñ":180,"ò":181,"ó":182,"ô":183,"õ":184,"ö":185,"÷":186,"ø":187,"ù":188,"ú":189,"û":190,"ü":191,"ý":192,"þ":193,"ÿ":194,"Ā":195,"ā":196,"Ă":197,"ă":198,"Ą":199,"ą":200,"Ć":201,"ć":202,"Ĉ":203,"ĉ":204,"Ċ":205,"ċ":206,"Č":207,"č":208,"Ď":209,"ď":210,"Đ":211,"đ":212,"Ē":213,"ē":214,"Ĕ":215,"ĕ":216,"Ė":217,"ė":218,"Ę":219,"ę":220,"Ě":221,"ě":222,"Ĝ":223,"ĝ":224,"Ğ":225,"ğ":226,"Ġ":227,"ġ":228,"Ģ":229,"ģ":230,"Ĥ":231,"ĥ":232,"Ħ":233,"ħ":234,"Ĩ":235,"ĩ":236,"Ī":237,"ī":238,"Ĭ":239,"ĭ":240,"Į":241,"į":242,"İ":243,"ı":244,"Ĳ":245,"ĳ":246,"Ĵ":247,"ĵ":248,"Ķ":249,"ķ":250,"ĸ":251,"Ĺ":252,"ĺ":253,"Ļ":254,"ļ":255,"Ľ":256,"ľ":257,"Ŀ":258,"ŀ":259,"Ł":260,"ł":261,"Ń":262,"de":263,"Ġde":264,"Ġe":265,"Ġl":266,"os":267,"Ġc":268,"er":269,"Ġp":270,"en":271,"Ġa":272,"on":273,"ar":274,"as":275,"es":276,"nl":277,"Ġ<":278,"Ġs":279,"an":280,"ci":281,"or":282,"Ã³":283,"Ġla":284,"ad":285,"al":286,"in":287,"Ġen":288,"ue":289,"un":290,"Ġm":291,"re":292,"st":293,"Ġel":294,"Ġy":295,"te":296,"ÃŃ":297,"ic":298,"que":299,"Ġt":300,"Ã³n":301,"om":302,"Ġcon":303,"ra":304,"Ġun":305,"Ġque":306,"Ġf":307,"ro":308,"di":309,"ĠE":310,"Ã¡":311,"ti":312,"do":313,"Ġse":314,"ent":315,"ri":316,"Ã©":317,"Ġh":318,"ĠC":319,"ciÃ³n":320,"am":321,"Ġdel":322,"ol":323,"Ġn":324,"Ġlos":325,"Ġsu":326,"ĠA":327,"Ġ1":328,"ĠS":329,"ĠL":330,"ta":331,"Ġre":332,"to":333,"Ġo":334,"Ġv":335,"Ġes":336,"le":337,"Ġin":338,"Ġcom":339,"Ġ(":340,"ado":341,"ĠP":342,"ĠM":343,"Ġest":344,"la":345,"Ġpor":346,"Ġal":347,"Ġpar":348,"ab":349,"Ġg":350,"ÃŃa":351,"ente":352,"is":353,"res":354,"da":355,"Ġlas":356,"tu":357,"il":358,"Ã±":359,"Ġb":360,"io":361,"ran":362,"Ġuna":363,"Ġd":364,"ica":365,"ec":366,"ist":367,"Ġdi":368,"ul":369,"im":370,"dad":371,"cion":372,"ter":373,"ia":374,"el":375,"ĠT":376,"ĠD":377,"ig":378,"ĠB":379,"Ġpro":380,"ada":381,"em":382,"Ãº":383,"ĠR":384,"Ġ19":385,"bi":386,"cia":387,"Ġ2":388,"us":389,"ui":390,"Ġcomo":391,"ac":392,"ĠG":393,"Ġpara":394,"ĠF":395,"it":396,"lo":397,"Ã¡s":398,"ales":399,"Ġdes":400,"uer":401,"tr":402,"vi":403,"ĠEl":404,"uc":405,"ĠEn":406,"ĠI":407,"ico":408,"Ġper":409,"aciÃ³n":410,"tor":411,"Ġcu":412,"iz":413,"den":414,"ĠLa":415,"Ġno":416,"bre":417,"00":418,"pa":419,"go":420,"cu":421,"ĠH":422,"ĠN":423,"Ġex":424,"oc":425,"ient":426,"ados":427,"Ã¡n":428,"ĠJ":429,"Ġac":430,"ciones":431,"ras":432,"um":433,"orm":434,"at":435,"ando":436,"se":437,"Ġan":438,"iÃ³n":439,"ĠV":440,"ĠmÃ¡s":441,"tos":442,"dos":443,"era":444,"tes":445,"tiv":446,"ien":447,"Ġj":448,"pe":449,"mo":450,"ay":451,"po":452,"Ã©n":453,"ur":454,"ir":455,"aj":456,"ici":457,"Ġme":458,"ĠU":459,"rim":460,"Ġfue":461,"Ġlo":462,"tre":463,"ch":464,"ero":465,"idad":466,"gu":467,"iv":468,"mente":469,"ĠO":470,"Ġr":471,"por":472,").":473,"per":474,"des":475,"ador":476,"Ã©s":477,"Âł":478,"ano":479,"ib":480,"qui":481,"ĠEst":482,"tra":483,"ari":484,"Ġpo":485,"Ġso":486,"co":487,"Ġar":488,"Ġser":489,"eg":490,"),":491,"ten":492,"Ġsus":493,"ĠaÃ±":494,"ambi":495,"amente":496,"ca":497,"Ġte":498,"qu":499,"Ġpr":500,"pu":501,"der":502,"ce":503,"Ġto":504,"ante":505,"par":506,"ina":507,"bl":508,"Ġor":509,"Ġres":510,"iento":511,"Ġem":512,"za":513,"ones":514,"Ġhab":515,"Ġca":516,"ie":517,"Ġprim":518,"tro":519,"Ġentre":520,"ino":521,"adas":522,"ma":523,"ĠUn":524,"Ġas":525,"ambiÃ©n":526,"aron":527,"Ġim":528,"ru":529,"ana":530,"encia":531,"ers":532,"pl":533,"ĠAl":534,"almente":535,"ida":536,"icos":537,"con":538,"paÃ±":539,"Ġsi":540,"cl":541,"Ġcar":542,"Ġob":543,"tas":544,"ÃŃn":545,"Ġtra":546,"ces":547,"Ġ\"":548,"gun":549,"Ġle":550,"Ġci":551,"Ġcons":552,"Ġpa":553,"icas":554,"las":555,"Ġ20":556,"ista":557,"lan":558,"Ġson":559,"ern":560,"âĢ":561,"ĠÂ":562,"Ãºn":563,"pos":564,"Ġpres":565,"Ġha":566,"Ġform":567,"Ġpue":568,"ĠEs":569,"fer":570,"ĠIn":571,"ug":572,"Ġesc":573,"Ġti":574,"das":575,"entes":576,"Ġ200":577,"Ġ18":578,"pi":579,"tar":580,"los":581,"uev":582,"ĠtambiÃ©n":583,"ez":584,"ĠCon":585,"tura":586,"ĠSan":587,"oci":588,"uy":589,"les":590,"Â»":591,"Ġmo":592,"ĠLos":593,"Ġinter":594,"du":595,"19":596,"Ġam":597,"ismo":598,"ÃŃs":599,"duc":600,"ores":601,"og":602,"aba":603,"ĠÂ«":604,"iden":605,"ĠRe":606,"Ã©r":607,"Ġna":608,"na":609,"ento":610,"cional":611,"ĠK":612,"pres":613,"Ġmay":614,"Ġpre":615,"if":616,"Ġfuer":617,"ba":618,"ĠW":619,"ens":620,"Ġcas":621,"til":622,"Ġman":623,"inci":624,"ĠSe":625,"jo":626,"aliz":627,"Ġmedi":628,"Ġpos":629,"eron":630,"ara":631,"Ġcor":632,"Ġsobre":633,"ener":634,"Ġdis":635,"asta":636,"tros":637,"Ġpu":638,"Ġeste":639,"ĠAn":640,"Ġmar":641,"Ġsig":642,"Ġab":643,"uran":644,"Ġgran":645,"ĠCh":646,"ag":647,"Ġter":648,"Ġsol":649,"Ġlle":650,"son":651,"uch":652,"ario":653,"Ġfin":654,"Ġciu":655,"Ġdos":656,"Ġ3":657,"tica":658,"br":659,"ĠaÃ±os":660,"antes":661,"ing":662,"Ġcol":663,"ÃŃan":664,"itu":665,"tal":666,"teri":667,"Ġcan":668,"urante":669,"ĠMar":670,"fici":671,"Ġparti":672,"man":673,"ido":674,"ton":675,"eros":676,"Ġesta":677,"ub":678,"min":679,"lam":680,"he":681,"Ġparte":682,"enta":683,"Ġpero":684,"Ġreg":685,"str":686,"Ġpol":687,"Ġcre":688,"cio":689,"Ġhasta":690,"pon":691,"ga":692,"Ġ|":693,"Ġcam":694,"ut":695,"ĠÃ©":696,"ular":697,"ona":698,"ve":699,"ple":700,"Ġciudad":701,"Ġmun":702,"Ġprinci":703,"Ġ201":704,"ide":705,"Ġ199":706,"Ġdon":707,"ĠAr":708,"ĠDe":709,"laciÃ³n":710,"Ġdesde":711,"Ġnuev":712,"Ġej":713,"ios":714,"Ġfun":715,"Ġnom":716,"Ġtien":717,"endo":718,"vo":719,"Ġinf":720,"udi":721,"tivo":722,"Ġsin":723,"tico":724,"me":725,"ĠÃ¡":726,"ech":727,"Ġmayor":728,"Ġdonde":729,"ill":730,"port":731,"cul":732,"able":733,"ĠaÃ±o":734,"arios":735,"cias":736,"ÃŃo":737,"tur":738,"ĠLas":739,"ĠCar":740,"unto":741,"ble":742,"Ġera":743,"gos":744,"ven":745,"Ġpas":746,"je":747,"ÃŃas":748,"ajo":749,"gra":750,"gr":751,"Ġma":752,"iones":753,"uel":754,"bar":755,"ich":756,"embre":757,"Ġus":758,"Ġperson":759,"eo":760,"Ã±o":761,"cial":762,"Ġ-":763,"dem":764,"anos":765,"ĠCom":766,"Ġprincip":767,"dr":768,"Ġdurante":769,"ĠSu":770,"puÃ©s":771,"Ġhi":772,"zo":773,"rec":774,"stitu":775,"Ġmen":776,"Ġap":777,"gen":778,"va":779,"ora":780,"Ġ4":781,"mas":782,"ber":783,"ĠY":784,"ion":785,"Ġya":786,"istor":787,"Ġgener":788,"amiento":789,"Ġu":790,"et":791,"ĠNa":792,"entos":793,"mi":794,"bol":795,"Ġincl":796,"Ġcual":797,"paÃ±ol":798,"Ġestado":799,"endi":800,"arro":801,"rans":802,"no":803,"idos":804,"arse":805,"ver":806,"rib":807,"ĠâĢ":808,"gan":809,"Ġdist":810,"adores":811,"Ġcl":812,"tado":813,"Ġau":814,"Ġ198":815,"tin":816,"ares":817,"Ġespe":818,"ĠÃ":819,"iciÃ³n":820,"Ġforma":821,"ena":822,"Ġden":823,"Ġtan":824,"Ġllam":825,"ĠestÃ¡":826,"Ġsal":827,"Ġgo":828,"Ġ5":829,"Ġalgun":830,"so":831,"Ã³r":832,"pec":833,"uro":834,"ĠpaÃŃs":835,"Ġten":836,"tras":837,"Ã©c":838,"Ġpuede":839,"ud":840,"Ġprimer":841,"Ġtr":842,"Ġcontra":843,"Ġoc":844,"Ãºl":845,"Ġcer":846,"Ġmuch":847,"Ġmon":848,"car":849,"rist":850,"Ġad":851,"Ġhac":852,"gua":853,"Ġcal":854,"ĠPar":855,"Ġotros":856,"ed":857,"ll":858,"emp":859,"ĠpolÃŃ":860,"Ġproduc":861,"ura":862,"isiÃ³n":863,"Ġcuando":864,"ier":865,"ust":866,"ja":867,"omin":868,"ĠPor":869,"dades":870,"mos":871,"tiva":872,"ĠFran":873,"Ġro":874,"esti":875,"Ġtem":876,"erno":877,"Ġqui":878,"ĠhabÃŃa":879,"ĠespaÃ±ol":880,"ros":881,"ea":882,"iendo":883,"all":884,"anz":885,"Ãºbl":886,"ala":887,"ĠLe":888,"Ġcent":889,"unque":890,"Ġver":891,"ital":892,"istem":893,"miento":894,"ivers":895,"Ãºlti":896,"Ġco":897,"icaciÃ³n":898,"and":899,"Ġprimera":900,"Ġ197":901,"Ã³m":902,"pues":903,"Ġpe":904,"ase":905,"ÃŃst":906,"aban":907,"ĠDes":908,"eci":909,"Ġimport":910,"ĠdespuÃ©s":911,"Ã±a":912,"Ġtras":913,"tiliz":914,"uerra":915,"Ġmuy":916,"Ġencu":917,"Ġ6":918,"Ġtrans":919,"Ġfueron":920,"Ġlug":921,"Ġprov":922,"eces":923,"Ġmismo":924,"Ġprop":925,"Ġmu":926,"Ġactu":927,"Ġmi":928,"Ġra":929,"tic":930,"paÃ±a":931,"ap":932,"Ġlib":933,"Ġescri":934,"Ġinv":935,"Ġcap":936,"Ġvez":937,"Ġdo":938,"Ġgru":939,"Ġrealiz":940,"Ġconoci":941,"Ġutiliz":942,"Ġtu":943,"Ġtiem":944,"Ġtiene":945,"Ġsuper":946,"fec":947,"Ġz":948,"čĊ":949,"Ġuno":950,"istoria":951,"ard":952,"tÃ³":953,"demÃ¡s":954,"Ġlleg":955,"Ġnombre":956,"Ġencuent":957,"alidad":958,"bierno":959,"ĠRo":960,"id":961,"ine":962,"Ġreci":963,"Ġtrab":964,"ĠasÃŃ":965,"Ġmil":966,"20":967,"Ãºs":968,"Ġanti":969,"ĠÃºlti":970,"Ġ15":971,"taciÃ³n":972,"Ġdest":973,"ĠZ":974,"ĠnÃº":975,"orte":976,"idades":977,"Ġdifer":978,"aria":979,"Ġsistem":980,"Ġcul":981,"Ġdesarro":982,"Ġtres":983,"iÃ³":984,"Ġespeci":985,"Ġdeci":986,"tores":987,"olog":988,"Ġher":989,"Ġembar":990,"Ġtodo":991,"uego":992,"oca":993,"Ġdef":994,"be":995,"Ġconf":996,"lu":997,"illa":998,"Ġ17":999,"cur":1000,"uso":1001,"Ġorig":1002,"ris":1003,"ientos":1004,"Ġestudi":1005,"ren":1006,"Ġcab":1007,"Ġhan":1008,"Ġch":1009,"ĠAs":1010,"istas":1011,"Ġcomun":1012,"Ġ7":1013,"Ġcos":1014,"Ġ196":1015,"rig":1016,"Ġlugar":1017,"ĠJu":1018,"Ġsegun":1019,"ĠMe":1020,"ĠNo":1021,"Ġvari":1022,"Ġpob":1023,"Ġsec":1024,"Ġfran":1025,"Ġdirec":1026,"Ġexist":1027,"oma":1028,"Ġsigui":1029,"Ġsolo":1030,"Ġfam":1031,"ĠAm":1032,"000":1033,"dia":1034,"Ġgra":1035,"Ġembargo":1036,"Ġequi":1037,"atro":1038,"Ġof":1039,"Ġmis":1040,"Ġtiempo":1041,"tivos":1042,"ias":1043,"ancia":1044,"Ġseg":1045,"ÂłÂł":1046,"Ġdiv":1047,"Ġda":1048,"Ġrepres":1049,"dic":1050,"ÃŃm":1051,"Ġloc":1052,"cos":1053,"Ġ8":1054,"uciÃ³n":1055,"bido":1056,"Ġelec":1057,"Ġban":1058,"ge":1059,"ima":1060,"Ġsim":1061,"Ġplan":1062,"Ġvol":1063,"ito":1064,"ene":1065,"ril":1066,"erv":1067,"atal":1068,"ĠCas":1069,"raciÃ³n":1070,"ĠCu":1071,"Ġquien":1072,"Ġpel":1073,"Ġfr":1074,"aje":1075,"Ã³g":1076,"Ġapar":1077,"ĠCo":1078,"Ġedi":1079,"Ġpes":1080,"Ġcada":1081,"Ġhom":1082,"Ġis":1083,"Ã±os":1084,"cer":1085,"Ġsido":1086,"ientras":1087,"ip":1088,"..":1089,"inas":1090,"Ġsur":1091,"Ġrela":1092,"Ġmuer":1093,"tido":1094,"Ġref":1095,"Ġvi":1096,"Ġval":1097,"Ġpla":1098,"Ġaunque":1099,"tir":1100,"ĠEspaÃ±a":1101,"ual":1102,"fÃŃa":1103,"ord":1104,"itar":1105,"Ġtanto":1106,"ĠSin":1107,"Ġcr":1108,"Ġ9":1109,"ĠMa":1110,"sta":1111,"ologÃŃa":1112,"ĠMon":1113,"th":1114,"Ġpresiden":1115,"ĠnÃºm":1116,"oy":1117,"Ġk":1118,"cep":1119,"ne":1120,"tÃ¡n":1121,"ĠCol":1122,"ĠGu":1123,"Ġpubl":1124,"uniden":1125,"Ġotras":1126,"Ġ16":1127,"Ġale":1128,"Ġ194":1129,"cios":1130,"ĠPa":1131,"pera":1132,"fic":1133,"ĠQ":1134,"ior":1135,"icip":1136,"tec":1137,"eno":1138,"Ġtodos":1139,"ciÃ³":1140,"ele":1141,"ita":1142,"jos":1143,"tural":1144,"Ġev":1145,"Ġmej":1146,"ĠBar":1147,"cho":1148,"omo":1149,"Ġ195":1150,"cri":1151,"ang":1152,"Ġig":1153,"18":1154,"Ġaf":1155,"Ġmin":1156,"llo":1157,"Ġvida":1158,"Ġrec":1159,"Ġbajo":1160,"ĠJos":1161,"cha":1162,"Ġbas":1163,"ĠpoblaciÃ³n":1164,"Ġpueden":1165,"II":1166,"ĠCor":1167,"Ġgobierno":1168,"ĠEstados":1169,"Ġestadouniden":1170,"Â».":1171,"duci":1172,"Ġcontin":1173,"ach":1174,"av":1175,"Ġhum":1176,"Ġhacia":1177,"ile":1178,"Ġcomple":1179,"Ġconstr":1180,"Ġli":1181,"ĠPro":1182,"diÃ³":1183,"Ġ193":1184,"ible":1185,"ÃŃtu":1186,"Ġni":1187,"dor":1188,"bo":1189,"Ġllev":1190,"osa":1191,"Ġgeneral":1192,"Ġsistema":1193,"Ġtrad":1194,"Ġ10":1195,"uir":1196,"ticas":1197,"torio":1198,"ĠX":1199,"vir":1200,"Ġlar":1201,"Ã³l":1202,"Ġinici":1203,"ĠEste":1204,"Ġcomp":1205,"Ġmundo":1206,"Ġqu":1207,"ĠUnidos":1208,"ĠJuan":1209,"oso":1210,"ticos":1211,"Ġencon":1212,"ĠLu":1213,"ganiz":1214,"Ġsub":1215,"ĠThe":1216,"ilo":1217,"enz":1218,"cis":1219,"pti":1220,"Ġecon":1221,"ĠMan":1222,"oco":1223,"ban":1224,"Ã¡f":1225,"gres":1226,"Ġpues":1227,"gent":1228,"Ġfe":1229,"ria":1230,"ĠÃģ":1231,"Ġhay":1232,"yo":1233,"Ġne":1234,"quier":1235,"Ġese":1236,"dose":1237,"ell":1238,"Ġmientras":1239,"Ġrev":1240,"Ġ,":1241,"ĠestÃ¡n":1242,"ÃŃcul":1243,"Ġresul":1244,"ĠJo":1245,"Ġestable":1246,"iano":1247,"olÃ³g":1248,"Ġtor":1249,"eta":1250,"Ġgrupo":1251,"xim":1252,"ĠPer":1253,"tan":1254,"ies":1255,"pen":1256,"Ġsiendo":1257,"Ġalgunos":1258,"\".":1259,"ÃŃf":1260,"\",":1261,"tera":1262,"Ã¡c":1263,"can":1264,"pre":1265,"Ġapro":1266,"emplo":1267,"Ġprof":1268,"val":1269,"ĠnÃºmero":1270,"Ġbien":1271,"terior":1272,"Ġsen":1273,"ific":1274,"ĠTambiÃ©n":1275,"Ġsitu":1276,"Ġestos":1277,"tonces":1278,"acter":1279,"Ġnuevo":1280,"cas":1281,"bres":1282,"ian":1283,"Ġrey":1284,"ques":1285,"ĠUnivers":1286,"cula":1287,"Ãºblica":1288,"ĠSeg":1289,"Ġmunicip":1290,"ama":1291,"Ġhech":1292,"inos":1293,"ĠTo":1294,"arÃŃa":1295,"adre":1296,"tiÃ³":1297,"Ġfamil":1298,"ya":1299,"yec":1300,"ĠdÃŃa":1301,"Ġrom":1302,"Ġestadounidense":1303,"Ġproces":1304,"Ġpoder":1305,"ial":1306,"ĠAle":1307,"ilidad":1308,"tam":1309,"hi":1310,"Ġven":1311,"Ġofici":1312,"ep":1313,"ĠOr":1314,"ĠEuro":1315,"ĠMun":1316,"cel":1317,"Ġhistoria":1318,"zas":1319,"Ġpal":1320,"Ġantes":1321,"ome":1322,"Ġgan":1323,"cil":1324,"ĠCam":1325,"ĠGran":1326,"Ġterri":1327,"ulio":1328,"teg":1329,"Ġjun":1330,"Ġbar":1331,"ĠVal":1332,"ĠPara":1333,"Ġjunto":1334,"Ã¡l":1335,"Ġguerra":1336,"cionales":1337,"biÃ³":1338,"edad":1339,"Ġotro":1340,"Ġpeque":1341,"ĠIs":1342,"imiento":1343,"lig":1344,"Ġcin":1345,"ĠGo":1346,"pol":1347,"dencia":1348,"lec":1349,"fr":1350,"und":1351,"uela":1352,"cimiento":1353,"ex":1354,"ĠPo":1355,"ĠÃ©l":1356,"Ġrecon":1357,"Ġclas":1358,"incia":1359,"ĠCan":1360,"tivi":1361,"Ġentonces":1362,"Ġdestac":1363,"ues":1364,"bra":1365,"jer":1366,"ign":1367,"Ġtar":1368,"pas":1369,"Ġobje":1370,"ĠJosÃ©":1371,"Ġ12":1372,"Ġdebido":1373,"Ã¡m":1374,"pan":1375,"Ġejemplo":1376,"Ġins":1377,"Ġlen":1378,"Ġnorte":1379,"ĠEsta":1380,"tados":1381,"Ã©rica":1382,"Ġtrabaj":1383,"ĠSal":1384,"Ġri":1385,"Ġmus":1386,"ĠAu":1387,"pular":1388,"ĠÃºn":1389,"dial":1390,"ece":1391,"ĠNacional":1392,"dio":1393,"tem":1394,"uen":1395,"pios":1396,"ucciÃ³n":1397,"Ġencuentra":1398,"ĠmÃºs":1399,"ÃŃtulo":1400,"Ġincluy":1401,"Ġvarios":1402,"Ġ14":1403,"turas":1404,"Ġfinal":1405,"Ġneces":1406,"riÃ³":1407,"ĠÃ©p":1408,"Ġcomenz":1409,"gar":1410,"Ġdeb":1411,"Ġentr":1412,"rea":1413,"bas":1414,"Ġtrav":1415,"Ġrepresent":1416,"rem":1417,"ivel":1418,"ĠMÃ©":1419,"nos":1420,"Ġfil":1421,"ĠademÃ¡s":1422,"Ġtoda":1423,"Ġmes":1424,"Ġestaba":1425,"ider":1426,"Ġjug":1427,"Ġcomer":1428,"erg":1429,"Ġcaracter":1430,"tamente":1431,"Ġmejor":1432,"ĠMo":1433,"Ġpresidente":1434,"ĠEx":1435,"terna":1436,"Ġzona":1437,"Ġdere":1438,"tis":1439,"Ġpartici":1440,"Ġpersonas":1441,"ĠrÃŃo":1442,"Ġobra":1443,"Ã¼":1444,"minist":1445,"Ġpresent":1446,"lor":1447,"Â»,":1448,"ula":1449,"aciones":1450,"ental":1451,"este":1452,"Ġnacional":1453,"rid":1454,"Ġorganiz":1455,"Ġorden":1456,"Ġpublic":1457,"Ġgrandes":1458,"Ġmill":1459,"Ġpl":1460,"ĠtravÃ©s":1461,"ĠtÃ©r":1462,"Ġfal":1463,"Ġ192":1464,"fo":1465,"Ġat":1466,"Ġpermi":1467,"Ġservi":1468,"ral":1469,"Ġmenos":1470,"Ġserie":1471,"Ġtipo":1472,"tad":1473,"cent":1474,"Ġnivel":1475,"Ġinc":1476,"ong":1477,"200":1478,"Ġdici":1479,"Ġvis":1480,"Ġcuatro":1481,"Ġapo":1482,"ciden":1483,"izo":1484,"Ġcontro":1485,"Ġmuerte":1486,"Ġmom":1487,"Ġder":1488,"cal":1489,"Ġante":1490,"Ġcuenta":1491,"Ġpartir":1492,"Ġimportante":1493,"Ġfu":1494,"Ġav":1495,"ÃŃcula":1496,"tion":1497,"ĠDurante":1498,"Ġeran":1499,"tubre":1500,"Ġprovincia":1501,"ice":1502,"ĠmayorÃŃa":1503,"Ġinform":1504,"col":1505,"ptiembre":1506,"Ġdirig":1507,"Ġneg":1508,"Ã©rci":1509,"ĠCl":1510,"ĠLo":1511,"Ġtom":1512,"tivas":1513,"uido":1514,"Ġcuer":1515,"Ġ13":1516,"Ġautor":1517,"encias":1518,"ira":1519,"Ġconsider":1520,"Ã©l":1521,"rio":1522,"rado":1523,"ĠÃ©poca":1524,"Ġmiem":1525,"Ġmayo":1526,"Ġtuvo":1527,"Ġprincipal":1528,"xico":1529,"ĠBo":1530,"ĠCal":1531,"ĠmÃ¡":1532,"Ġdivers":1533,"ciales":1534,"Ġorigin":1535,"dida":1536,"adio":1537,"Ġsue":1538,"quel":1539,"bio":1540,"sa":1541,"ĠMad":1542,"ha":1543,"Ġefec":1544,"Ã³lo":1545,"dust":1546,"Ġmuchos":1547,"ĠSo":1548,"Ġequipo":1549,"ĠsegÃºn":1550,"Ġvers":1551,"Ġmer":1552,"Ġseptiembre":1553,"irm":1554,"Ġtempor":1555,"Ġcaso":1556,"Ġellos":1557,"Ġoctubre":1558,"Ġ.":1559,"bier":1560,"Ġ11":1561,"guas":1562,"Ġjulio":1563,"ĠâĢĶ":1564,"Ġotra":1565,"rag":1566,"ĠseÃ±":1567,"form":1568,"uerto":1569,"Ġconside":1570,"Ġbri":1571,"omÃŃa":1572,"ĠNuev":1573,"ĠEstado":1574,"Ġdej":1575,"Ġgol":1576,"Ġcaus":1577,"Ġmedio":1578,"Ġtienen":1579,"az":1580,"ĠSi":1581,"Ġing":1582,"Ġenero":1583,"Ġcentro":1584,"Ġide":1585,"gosto":1586,"riz":1587,"ormente":1588,"Ġdiciembre":1589,"Ġdentro":1590,"Ġunos":1591,"ruc":1592,"dera":1593,"tante":1594,"Ġjunio":1595,"bos":1596,"ĠregiÃ³n":1597,"ho":1598,"Ġuso":1599,"Ġagua":1600,"ĠUna":1601,"Ġqued":1602,"eza":1603,"Ġint":1604,"ĠPe":1605,"Ġsign":1606,"orÃŃa":1607,"eric":1608,"Ġinterna":1609,"jas":1610,"Ġencontr":1611,"una":1612,"mÃ¡n":1613,"Ġcontinu":1614,"siÃ³n":1615,"Ġhace":1616,"lesia":1617,"Ġmarzo":1618,"Ġay":1619,"pul":1620,"Ġestas":1621,"Ġley":1622,"ĠpolÃŃtica":1623,"brero":1624,"uda":1625,"Ġmillones":1626,"ĠlÃŃn":1627,"Ġve":1628,"Ġagosto":1629,"ĠUniversidad":1630,"elo":1631,"Ġocu":1632,"Ġprogra":1633,"Ġba":1634,"ĠCent":1635,"Ġhacer":1636,"Ġmov":1637,"toria":1638,"Ġmanera":1639,"ecu":1640,"Ġdistin":1641,"Ġmas":1642,"ĠpÃºbl":1643,"Ġhabit":1644,"var":1645,"ĠSanta":1646,"istÃ³r":1647,"teriormente":1648,"dÃŃa":1649,"viembre":1650,"ĠmÃ©":1651,"Ġag":1652,"Ġtier":1653,"Ġet":1654,"Ġconstitu":1655,"Ġcele":1656,"Ġcapital":1657,"Ġinde":1658,"ĠAdemÃ¡s":1659,"plic":1660,"pro":1661,"ĠMÃ©xico":1662,"Ġliber":1663,"ĠeconÃ³m":1664,"Ã©rcito":1665,"Ġvo":1666,"ĠFue":1667,"posiciÃ³n":1668,"Ġdefin":1669,"Ġdiferentes":1670,"ik":1671,"Ġproyec":1672,"Ġlargo":1673,"Ġpopular":1674,"unda":1675,"ĠAc":1676,"Ġabril":1677,"oluciÃ³n":1678,"Ġempres":1679,"Ġpie":1680,"Ġmujer":1681,"Ġhecho":1682,"Ġdem":1683,"pÃºblica":1684,"Ġmomento":1685,"ef":1686,"blo":1687,"ĠFrancia":1688,"Ġcier":1689,"ĠGuerra":1690,"Ġconvir":1691,"Ġinte":1692,"Ġtal":1693,"ĠdÃ©c":1694,"idi":1695,"Ġpartido":1696,"Ġtotal":1697,"Ġnoviembre":1698,"Ġpun":1699,"ĠlÃŃ":1700,"ĠpelÃŃcula":1701,"Ġindi":1702,"Ġrefer":1703,"tidad":1704,"Ġpunto":1705,"ĠIm":1706,"Ġconj":1707,"ron":1708,"Ġcapa":1709,"199":1710,"Ġluego":1711,"Ġdich":1712,"uz":1713,"erÃŃa":1714,"viÃ³":1715,"icamente":1716,"Ġsegundo":1717,"lev":1718,"ĠCa":1719,"bum":1720,"ĠII":1721,"zar":1722,"Ġespa":1723,"Ġespec":1724,"Ġleg":1725,"Ġampl":1726,"Ġdecl":1727,"ts":1728,"Ġnatural":1729,"ĠbritÃ¡n":1730,"ĠpaÃŃses":1731,"Ġvarias":1732,"10":1733,"Ġalgunas":1734,"Ġdenomin":1735,"Ġfund":1736,"Ġconst":1737,"Ġdesarroll":1738,"onia":1739,"rera":1740,"Ġdesarrollo":1741,"Ġtodas":1742,"Ġmisma":1743,"ĠSa":1744,"iga":1745,"Ã¡r":1746,"Ġveces":1747,"arias":1748,"ono":1749,"Ġur":1750,"Ġexten":1751,"pel":1752,"âĢĿ":1753,"Ġpoco":1754,"tÃŃn":1755,"bern":1756,"Ġcir":1757,"ivil":1758,"Ġsiguiente":1759,"cido":1760,"Ġub":1761,"che":1762,"Ġactivi":1763,"Ġsegunda":1764,"Ġata":1765,"Ġfebrero":1766,"Ġrelig":1767,"pendi":1768,"Ã±as":1769,"icia":1770,"cum":1771,"Ġcambi":1772,"Ġhizo":1773,"ves":1774,"reg":1775,"Ġtrabajo":1776,"Ġfamilia":1777,"Ġperio":1778,"ĠÃ¡l":1779,"Ġaquel":1780,"Ġbanda":1781,"iel":1782,"Ġindust":1783,"tener":1784,"tada":1785,"ĠtenÃŃa":1786,"Ġlanz":1787,"ck":1788,"âĢĶ":1789,"icaciones":1790,"idas":1791,"ĠMarÃŃa":1792,"Ġorigen":1793,"ĠCarlos":1794,"ĠÃºltimo":1795,"Ġmor":1796,"Ġnueva":1797,"17":1798,"abor":1799,"ĠpolÃŃtico":1800,"Ġhaber":1801,"ĠNe":1802,"Ġtermin":1803,"Ġles":1804,"Ġtri":1805,"ĠâĢľ":1806,"onas":1807,"Ġmediante":1808,"Ġ0":1809,"Ġfor":1810,"ĠMadrid":1811,"ĠEuropa":1812,"tran":1813,"Ġestre":1814,"Ġtarde":1815,"ĠEntre":1816,"Ã¡tica":1817,"ĠTras":1818,"Ġprincipales":1819,"Ġobras":1820,"ĠLuis":1821,"Ġelem":1822,"ical":1823,"Ġantigu":1824,"15":1825,"Ġinst":1826,"Ġcontrol":1827,"Ġpin":1828,"olu":1829,"bros":1830,"Ã©cn":1831,"grafÃŃa":1832,"Ġtro":1833,"Ġsocial":1834,"Ã©ase":1835,"ĠPol":1836,"uerdo":1837,"Ġanim":1838,"pÃ³":1839,"Ġmunicipio":1840,"quer":1841,"ajes":1842,"ĠtÃ©rm":1843,"Ġ||":1844,"Ġdomin":1845,"Ġesto":1846,"Ã¡ndose":1847,"ĠdÃŃas":1848,"gentina":1849,"Ġexper":1850,"ÂłÂłÂłÂł":1851,"Ġproble":1852,"Ġlogr":1853,"cÃ©s":1854,"oro":1855,"mon":1856,"Ġpalab":1857,"tivamente":1858,"utbol":1859,"Ġprimeros":1860,"orn":1861,"ĠIg":1862,"eras":1863,"Ġmoder":1864,"ĠRepÃºblica":1865,"hn":1866,"porte":1867,"ant":1868,"Ġpri":1869,"Ġaum":1870,"ivo":1871,"del":1872,"Ġbaj":1873,"Ġsino":1874,"ric":1875,"ruz":1876,"ĠPla":1877,"ĠÃ¡lbum":1878,"Ġcasi":1879,"imo":1880,"Ġ25":1881,"tel":1882,"Ġunivers":1883,"gas":1884,"dido":1885,"Ġconoc":1886,"ĠFe":1887,"Ġcuales":1888,"via":1889,"ola":1890,"mientos":1891,"Ġnum":1892,"perio":1893,"ire":1894,"ĠDesde":1895,"bia":1896,"Ġmilitar":1897,"Ġella":1898,"ĠGar":1899,"anza":1900,"ry":1901,"ĠhistÃ³r":1902,"16":1903,"Ġhabitantes":1904,"Ã¡tico":1905,"recu":1906,"iva":1907,"fa":1908,"anas":1909,"Ġfutbol":1910,"Ġprofes":1911,"Ã©tica":1912,"Ġdise":1913,"ĠFrancis":1914,"ĠComo":1915,"izaciÃ³n":1916,"Ġmat":1917,"ĠHistoria":1918,"ÃŃos":1919,"Ġllamado":1920,"Ġderro":1921,"Ġtener":1922,"Ġconocido":1923,"Ġgen":1924,"gel":1925,"Ġart":1926,"Ġestruc":1927,"Ġgri":1928,"dal":1929,"Ġfrente":1930,"termin":1931,"Ġ190":1932,"puesta":1933,"Âº":1934,"ĠmÃºsica":1935,"ĠTer":1936,"Ġdescu":1937,"empre":1938,"Ġobs":1939,"Ġexpres":1940,"mar":1941,"rede":1942,"ka":1943,"ĠGe":1944,"Ġproceso":1945,"ke":1946,"Ġcrist":1947,"Ġinvesti":1948,"Ġrespec":1949,"ĠTe":1950,"cre":1951,"Ġalc":1952,"cidad":1953,"Ġadminist":1954,"cado":1955,"puesto":1956,"Ġthe":1957,"pez":1958,"Ġterritorio":1959,"ĠPrim":1960,"Ġdesc":1961,"Ġisla":1962,"Ġporque":1963,"ĠfrancÃ©s":1964,"ĠhabÃŃan":1965,"Ġvia":1966,"iso":1967,"ĠRa":1968,"ĠDi":1969,"ĠÃ©x":1970,"12":1971,"ĠproducciÃ³n":1972,"ional":1973,"erro":1974,"ĠFern":1975,"itos":1976,"bro":1977,"Ġhor":1978,"ĠHer":1979,"ilar":1980,"Ġsan":1981,"Ġ=":1982,"Ġconsidera":1983,"usiÃ³n":1984,"ÃŃsticas":1985,"ĠBa":1986,"ifica":1987,"Ġimportantes":1988,"tud":1989,"Ġdecir":1990,"ĠMus":1991,"ph":1992,"Ġhijo":1993,"ĠVÃ©ase":1994,"adamente":1995,"zos":1996,"edro":1997,"Ġfrecu":1998,"Ġpesar":1999,"tbol":2000,"tiene":2001,"Ġir":2002,"igo":2003,"ĠTra":2004,"Ġmode":2005,"ĠAnton":2006,"Ġpueblo":2007,"ĠMundial":2008,"omas":2009,"ĠSol":2010,"Ġ30":2011,"ĠMor":2012,"Ġnorm":2013,"...":2014,"Ġesp":2015,"Ġtradi":2016,"Ġgu":2017,"Ġbase":2018,"Ġreal":2019,"ĠNueva":2020,"14":2021,"fon":2022,"Ġaut":2023,"Ġcuar":2024,"Ġcompar":2025,"illo":2026,"Ġincluso":2027,"bir":2028,"Ġfutbolista":2029,"tia":2030,"onio":2031,"iu":2032,"ensa":2033,"Ġmateri":2034,"Ġalcanz":2035,"mana":2036,"Ġigual":2037,"Ãºtbol":2038,"ĠsÃŃ":2039,"Ġdebe":2040,"Ġlim":2041,"ev":2042,"ĠtÃ©rmino":2043,"Ġah":2044,"Ġperten":2045,"ardo":2046,"inado":2047,"udo":2048,"ĠSh":2049,"ÃŃgen":2050,"ĠHa":2051,"Ġgobern":2052,"ĠdÃ©cada":2053,"ĠcompaÃ±":2054,"Ġital":2055,"Ġemple":2056,"Ġesa":2057,"Ġinterpre":2058,"Ġblan":2059,"ables":2060,"ĠcomÃºn":2061,"Ġtemporada":2062,"Ġmal":2063,"Ġsiempre":2064,"Ġcomien":2065,"bel":2066,"agn":2067,"Ġocas":2068,"bur":2069,"tag":2070,"uegos":2071,"ĠPr":2072,"ĠChile":2073,"uri":2074,"iana":2075,"bles":2076,"eas":2077,"atalla":2078,"rez":2079,"Ġactual":2080,"=\"":2081,"ĠOl":2082,"Ġcinco":2083,"ĠFrancisco":2084,"vil":2085,"nas":2086,"ĠPedro":2087,"ĠtÃ©cn":2088,"Ġfinales":2089,"vieron":2090,"Ġcondi":2091,"ĠTh":2092,"stas":2093,"Ġpapel":2094,"teriores":2095,"Ġatra":2096,"ĠcrÃŃ":2097,"Ġacuerdo":2098,"Ġsab":2099,"ĠconstrucciÃ³n":2100,"Ġgrupos":2101,"ĠDa":2102,"end":2103,"iente":2104,"bal":2105,"Ġ202":2106,"ĠPrem":2107,"198":2108,"tuvo":2109,"Ġmiembros":2110,"vers":2111,"ĠSegÃºn":2112,"Ġdif":2113,"Ġalrede":2114,"Ġreconoci":2115,"Ġmucho":2116,"Ġposible":2117,"pciÃ³n":2118,"tÃ³n":2119,"ĠSer":2120,"aco":2121,"Ġbo":2122,"Ġbus":2123,"Ġinflu":2124,"respon":2125,"adora":2126,"Ġlado":2127,"Ġpadre":2128,"ki":2129,"enci":2130,"Ġsuperfici":2131,"Ġdeclar":2132,"Ġcerca":2133,"seg":2134,"drÃŃa":2135,"Ã³s":2136,"Ġfuera":2137,"ĠGal":2138,"ment":2139,"ĠEm":2140,"ĠCuando":2141,"lÃ©s":2142,"ierra":2143,"Ġpose":2144,"Ġpropie":2145,"iencia":2146,"ĠrelaciÃ³n":2147,"Ġ189":2148,"Ġproduci":2149,"Ġexpl":2150,"ĠlÃŃnea":2151,"Ġcasa":2152,"ÃŃstica":2153,"urope":2154,"Ġcivil":2155,"Ġcualquier":2156,"Ġdetermin":2157,"tista":2158,"quitec":2159,"Ġmuchas":2160,"Ġcambio":2161,"ĠHo":2162,"13":2163,"Ġfac":2164,"aran":2165,"taba":2166,"inaciÃ³n":2167,"Ġsuf":2168,"rac":2169,"avor":2170,"Ġcolor":2171,"ond":2172,"pla":2173,"Ġsepar":2174,"ĠAd":2175,"mania":2176,"Ġclub":2177,"taciones":2178,"are":2179,"ieron":2180,"Ġenerg":2181,"sos":2182,"arca":2183,"Ġcuerpo":2184,"Ġact":2185,"ĠcomenzÃ³":2186,"paciÃ³n":2187,"enas":2188,"ĠDespuÃ©s":2189,"Ġpat":2190,"Ġos":2191,"):":2192,"Â°":2193,"partam":2194,"Ġperman":2195,"Ġestu":2196,"entemente":2197,"dica":2198,"ft":2199,"ĠJohn":2200,"ĠAmÃ©rica":2201,"ĠReg":2202,"Ġnumeros":2203,"Ġpropio":2204,"Ġencuentran":2205,"xto":2206,"ff":2207,"Ġciudades":2208,"Ġconjunto":2209,"Ġcorrespon":2210,"ĠespaÃ±ola":2211,"Ġconver":2212,"Ġcat":2213,"ĠEsto":2214,"Ġ2000":2215,"Ġge":2216,"Ġubic":2217,"ram":2218,"Ġmovimiento":2219,"Ġedifici":2220,"xic":2221,"ulo":2222,"Ġw":2223,"vier":2224,"Ġand":2225,"tien":2226,"ko":2227,"ificaciÃ³n":2228,"ĠprÃ¡c":2229,"Ġ%":2230,"ĠtÃŃtulo":2231,"Ġases":2232,"cin":2233,"men":2234,"greso":2235,"tio":2236,"ĠTor":2237,"ĠconvirtiÃ³":2238,"tiz":2239,"itor":2240,"Ġdio":2241,"ĠllegÃ³":2242,"ĠInterna":2243,"ĠcÃ³":2244,"ema":2245,"Ġeleg":2246,"tando":2247,"Ġcum":2248,"ĠAntonio":2249,"Ġprincipalmente":2250,"Ġello":2251,"Ġcomb":2252,"ĠÃ©xito":2253,"Ġnombr":2254,"Ġenfer":2255,"erva":2256,"emor":2257,"ĠejÃ©rcito":2258,"Ġsegu":2259,"ĠfÃŃs":2260,"Ġdisco":2261,"Ġescritor":2262,"esa":2263,"Ġextra":2264,"Ġfavor":2265,"Ġencar":2266,"Ġsoci":2267,"Ġestudio":2268,"ticular":2269,"istro":2270,"Ġlocal":2271,"Ġconserv":2272,"Ġmues":2273,"ĠinglÃ©s":2274,"lar":2275,"Ġgui":2276,"ite":2277,"mit":2278,"Ġfrances":2279,"ĠgÃ©n":2280,"Ġespecies":2281,"Ġsac":2282,"ĠaÃºn":2283,"Ġol":2284,"ĠArgentina":2285,"van":2286,"Ġhon":2287,"entÃ³":2288,"Ġhistor":2289,"Ġluch":2290,"lio":2291,"ĠversiÃ³n":2292,"Ġcampo":2293,"ĠserÃŃa":2294,"ĠReal":2295,"Ġfig":2296,"Ġgas":2297,"Ġinten":2298,"Ġiden":2299,"est":2300,"Ġ24":2301,"Ġpan":2302,"Ġsignifica":2303,"lla":2304,"land":2305,"ĠLib":2306,"lÃŃ":2307,"Ġprincipios":2308,"echa":2309,"Ġregres":2310,"Ġrad":2311,"Ġdu":2312,"Ġetc":2313,"ĠJa":2314,"vÃŃa":2315,"Ġllamada":2316,"ĠAunque":2317,"ogra":2318,"itud":2319,"ĠAlgun":2320,"Ġvuel":2321,"Ġestilo":2322,"ĠGener":2323,"Ġ188":2324,"cle":2325,"ĠSoci":2326,"ĠImperio":2327,"ace":2328,"Ġeduc":2329,"Ġobl":2330,"ork":2331,"Ġdivi":2332,"Ġdescri":2333,"Ġalrededor":2334,"ultura":2335,"Ġva":2336,"stituciÃ³n":2337,"Ġeurope":2338,"Ġambos":2339,"tales":2340,"arÃ¡":2341,"Ġpen":2342,"bor":2343,"Ġpuesto":2344,"dez":2345,"cÃŃa":2346,"Ġmodo":2347,"50":2348,"ĠUniÃ³n":2349,"ĠperÃŃo":2350,"Ġacep":2351,"Ġvalor":2352,"cor":2353,"Ġsea":2354,"Ġpon":2355,"Ġrespon":2356,"rad":2357,"rimonio":2358,"Ġvic":2359,"Ġlibro":2360,"ĠBer":2361,"Ġactor":2362,"rito":2363,"Ġaband":2364,"uida":2365,"11":2366,"Ġaproxim":2367,"ĠMin":2368,"Ġmit":2369,"ega":2370,"Ġcompe":2371,"Ġvir":2372,"Ġhombres":2373,"ĠÃºltima":2374,"ĠÃ¡rea":2375,"grÃ¡f":2376,"ĠPos":2377,"turales":2378,"Ġenfr":2379,"tific":2380,"Ġtierra":2381,"Ġreligios":2382,"Ġop":2383,"Ġdedic":2384,"Ġespecialmente":2385,"Ġarquitec":2386,"ĠCab":2387,"com":2388,"Ġbal":2389,"Ġluz":2390,"rÃ³":2391,"Ġcirc":2392,"Ġcargo":2393,"dico":2394,"Ġresto":2395,"ĠReino":2396,"tero":2397,"Ġrelacion":2398,"Ġagr":2399,"ĠPartido":2400,"ĠPal":2401,"Ġtelev":2402,"ĠEj":2403,"ix":2404,"Ġvel":2405,"Ġ'":2406,"ĠCiu":2407,"Ġbu":2408,"Ġru":2409,"Ġado":2410,"ĠpÃºblico":2411,"ĠSur":2412,"Ġestudios":2413,"anto":2414,"Ġsiguientes":2415,"ĠrÃ¡":2416,"enso":2417,"Ġparticular":2418,"Ġpens":2419,"Ġanterior":2420,"ĠCopa":2421,"Ġaz":2422,"ĠAlemania":2423,"Ġcur":2424,"ĠIglesia":2425,"Ġdocum":2426,"ĠCastil":2427,"entar":2428,"Ã©tico":2429,"Ġhoy":2430,"Ġoficial":2431,"Ġ2007":2432,"vela":2433,"ĠalemÃ¡n":2434,"Ġalta":2435,"dra":2436,"Ġinm":2437,"ĠTa":2438,"gado":2439,"dujo":2440,"Ġ2010":2441,"ĠAt":2442,"ĠÃ³r":2443,"ÃŃculas":2444,"pendencia":2445,"ulas":2446,"ĠPres":2447,"Ġjuego":2448,"Ġtempera":2449,"Ġalim":2450,"aro":2451,"Ġbatalla":2452,"Ġ2006":2453,"Ġdesem":2454,"Ġcantidad":2455,"Ġmol":2456,"Ġproce":2457,"tamiento":2458,"Ġtur":2459,"Ġ2005":2460,"Ġelecciones":2461,"ĠItal":2462,"ack":2463,"ĠVen":2464,"Ġkm":2465,"ty":2466,"Ġdatos":2467,"Ġimag":2468,"Ġconsig":2469,"Ġreun":2470,"alizaciÃ³n":2471,"Ġconcep":2472,"ĠSus":2473,"gaciÃ³n":2474,"ientÃŃf":2475,"ĠenergÃŃa":2476,"Ġ187":2477,"od":2478,"tÃ¡":2479,"Ġfuncion":2480,"ĠRam":2481,"rÃ¡f":2482,"reas":2483,"ĠPerÃº":2484,"Ġ|-":2485,"Ġmenor":2486,"ĠFin":2487,"bert":2488,"ĠRos":2489,"Ġmeses":2490,"Ġespecial":2491,"Ġzonas":2492,"ĠGobierno":2493,"aca":2494,"Ġsuperficie":2495,"Ġauto":2496,"lic":2497,"ridad":2498,"unca":2499,"Ġespacio":2500,"Ġ22":2501,"Ġdirector":2502,"illas":2503,"La":2504,"Ġcentral":2505,"197":2506,"Ġ23":2507,"Ġcarrera":2508,".,":2509,"Ġpuntos":2510,"Ġelementos":2511,"rÃ¡n":2512,"dados":2513,"ĠBe":2514,"ruy":2515,"Ġselec":2516,"plo":2517,"ines":2518,"chos":2519,"orge":2520,"Ġprimero":2521,"perador":2522,"alla":2523,"Ġproyecto":2524,"Ġmos":2525,"ducciÃ³n":2526,"Ġcabo":2527,"ecer":2528,"Ġintro":2529,"Ġestar":2530,"Ġfuerzas":2531,"Ġon":2532,"ste":2533,");":2534,"ĠCrist":2535,"ĠÃ³":2536,"Ã©m":2537,"iro":2538,"Ġresultado":2539,"Ġ2008":2540,"ĠfunciÃ³n":2541,"ĠAb":2542,"ĠRes":2543,"Ġprob":2544,"Ġhombre":2545,"ĠPas":2546,"culo":2547,"vidu":2548,"Ġpropor":2549,"iles":2550,"Ġinstr":2551,"Ġ/":2552,"quÃŃ":2553,"ick":2554,"guay":2555,"Ġarte":2556,"Ġapl":2557,"table":2558,"Ġfuerte":2559,"Ã³nica":2560,"ĠBol":2561,"Ġfron":2562,"Ã©ndose":2563,"Ġantiguo":2564,"lad":2565,"ĠQu":2566,"ĠNorte":2567,"Ġinternacional":2568,"Ġextre":2569,"dir":2570,"Ġconocida":2571,"posi":2572,"Ġren":2573,"Ġcampe":2574,"eb":2575,"tario":2576,"Ġsuces":2577,"Ġmonta":2578,"Ġ186":2579,"Ġactriz":2580,"Ġanun":2581,"ili":2582,"ĠManuel":2583,"ĠInternacional":2584,"Ġ2004":2585,"Ġorient":2586,"tiago":2587,"Ġambi":2588,"ĠPero":2589,"ĠÃºnico":2590,"Ã¡st":2591,"Ġcine":2592,"dero":2593,"Ġsuperior":2594,"ĠperÃŃodo":2595,"ecen":2596,"Ġviol":2597,"ĠMig":2598,"Ġcompr":2599,"Ġconce":2600,"Ġconqu":2601,"Ġmul":2602,"Ġdistrib":2603,"ĠposiciÃ³n":2604,"Ġcri":2605,"torios":2606,"ĠcientÃŃf":2607,"trÃ³":2608,"hu":2609,"ĠsÃ³lo":2610,"eciÃ³":2611,"Ġocur":2612,"Ġfinalmente":2613,"Ġabs":2614,"Ġsex":2615,"Ġmujeres":2616,"ĠAsÃŃ":2617,"Ġposib":2618,"Ġfa":2619,"El":2620,"uras":2621,"cen":2622,"ĠMi":2623,"Ġalto":2624,"Ġfo":2625,"Ġindividu":2626,"ger":2627,"vel":2628,"Ġlengua":2629,"Ġalg":2630,"Ġraz":2631,"Ġsecre":2632,"titud":2633,"celona":2634,"Ġ2009":2635,"ĠCiudad":2636,"Ġmexic":2637,"Ġelectr":2638,"americ":2639,"ÃŃstico":2640,"ĠHar":2641,"Ġred":2642,"Ġrepresenta":2643,"Ġsa":2644,"Ġesper":2645,"Ġ[":2646,"Ġviv":2647,"Ġ2011":2648,"Ġedad":2649,"Ġcuad":2650,"Ġcultura":2651,"Ġmetros":2652,"Ġprograma":2653,"Ġindustri":2654,"ĠsituaciÃ³n":2655,"Ġep":2656,"Ġseis":2657,"Ġcasos":2658,"Ġ100":2659,"Ġderi":2660,"Ġellas":2661,"Ġprem":2662,"Ġinterior":2663,"Ġcolon":2664,"Ġrecu":2665,"Ġcont":2666,"Ġpartidos":2667,"rir":2668,"Ġestaban":2669,"Ġho":2670,"erio":2671,"Ġobserv":2672,"pone":2673,"ografÃŃa":2674,"Ġcantante":2675,"ĠMartÃŃn":2676,"Ġfon":2677,"ĠSantiago":2678,"ĠItalia":2679,"pr":2680,"partamento":2681,"rique":2682,"uenos":2683,"Ġconten":2684,"Ġunas":2685,"Ġpoten":2686,"ĠVir":2687,"amos":2688,"cÃ³":2689,"Ġoriginal":2690,"Ġlibre":2691,"Ġsiglo":2692,"Ġcontr":2693,"Ġrecur":2694,"ĠVic":2695,"Ġfuerza":2696,"Ġproblemas":2697,"Ġargent":2698,"her":2699,"ht":2700,"ĠInter":2701,"Ġdar":2702,"Ã©g":2703,"ĠBan":2704,"ĠSon":2705,"torial":2706,"ĠinformaciÃ³n":2707,"Ã¡g":2708,"iste":2709,"cimientos":2710,"Ġafec":2711,"Ġactividad":2712,"au":2713,"sejo":2714,"Ġ28":2715,"30":2716,"Ġabandon":2717,"ĠOri":2718,"Ġfi":2719,"Ġgal":2720,"dado":2721,"ĠBal":2722,"Ġvent":2723,"Ġdic":2724,"ĠMiguel":2725,"ĠClub":2726,"Ġservicio":2727,"Ġderecho":2728,"Ġdin":2729,"enda":2730,"ĠPremio":2731,"Ġpresencia":2732,"Ġmencion":2733,"tac":2734,"Ġnunca":2735,"Ġmodelo":2736,"Ġdepor":2737,"Ġ27":2738,"Ġfl":2739,"tual":2740,"ĠIng":2741,"ĠteorÃŃa":2742,"Ġconsecu":2743,"ĠBarcelona":2744,"Ġpaso":2745,"metros":2746,"ĠFernando":2747,"Ġamor":2748,"Ġ26":2749,"ĠDo":2750,"Ġ21":2751,"later":2752,"Ġenferme":2753,"ĠMay":2754,"iza":2755,"ler":2756,"ĠMal":2757,"pes":2758,"Ġmedida":2759,"ires":2760,"onal":2761,"Ġalgo":2762,"cidental":2763,"Ġlocalidad":2764,"istencia":2765,"Ġprovoc":2766,"Ġpron":2767,"cera":2768,"Ġdiferencia":2769,"tagon":2770,"ĠfÃºtbol":2771,"Ġib":2772,"Ġestructura":2773,"ĠYork":2774,"taron":2775,"entales":2776,"ulares":2777,"uelo":2778,"ĠtelevisiÃ³n":2779,"Ġpropia":2780,"ps":2781,"Ġlig":2782,"Ġsos":2783,"Ġer":2784,"Ġ2003":2785,"ĠDem":2786,"Ã©ctr":2787,"ins":2788,"Ġelim":2789,"ĠParÃŃs":2790,"berto":2791,"Ġtec":2792,"ĠSegunda":2793,"ĠIII":2794,"Ġoeste":2795,"todo":2796,"asa":2797,"ĠVer":2798,"Ġprovinci":2799,"atos":2800,"Ġprue":2801,"ĠBen":2802,"peraciÃ³n":2803,"Ġcel":2804,"ĠcreaciÃ³n":2805,"Ġsistemas":2806,"ĠRec":2807,"ĠbritÃ¡nico":2808,"ĠChina":2809,"Ġdesa":2810,"Ġcapacidad":2811,"Ġtropas":2812,"Ġtrib":2813,"ÃŃculo":2814,"Ġperiodo":2815,"jar":2816,"km":2817,"Ġbor":2818,"ĠLeÃ³n":2819,"Ġcolec":2820,"dar":2821,"Ġexperim":2822,"Ġapoyo":2823,"ĠOc":2824,"ĠEstos":2825,"tino":2826,"Ġmec":2827,"Ġservicios":2828,"Ġprimeras":2829,"tina":2830,"aja":2831,"Ġpuer":2832,"ĠSch":2833,"Ġinfluencia":2834,"uales":2835,"Ġexisten":2836,"Ã¡ndo":2837,"Ġprincipio":2838,"Ġsede":2839,"dieron":2840,"Ġpartes":2841,"Ġju":2842,"umento":2843,"ĠBel":2844,"fe":2845,"iete":2846,"mano":2847,"Ġposteriormente":2848,"Ġmilit":2849,"Ġmadre":2850,"ĠCentro":2851,"Ġdescub":2852,"Ġdispu":2853,"Ġconci":2854,"ciaciÃ³n":2855,"Ãºa":2856,"Ġconsum":2857,"ĠCap":2858,"Ġmedia":2859,"Ġindependi":2860,"Ġpersona":2861,"ham":2862,"ĠfÃ¡":2863,"iblio":2864,"ĠgÃ©nero":2865,"onato":2866,"tom":2867,"ceso":2868,"Ġexiste":2869,"ĠÃºltimos":2870,"rados":2871,"Ġtama":2872,"ĠseÃ±al":2873,"ĠHe":2874,"Ġgrande":2875,"Ġ1990":2876,"ciendo":2877,"Ġcausa":2878,"Ġ2012":2879,"Ġllegar":2880,"Ġarm":2881,"Ġfundam":2882,"ĠMer":2883,"Ġcateg":2884,"ĠclÃ¡s":2885,"Ġveloci":2886,"gÃ³":2887,"ĠrÃ¡pi":2888,"amientos":2889,"rido":2890,"Ġil":2891,"olÃ³gico":2892,"Ġdiversos":2893,"rÃŃa":2894,"mac":2895,"han":2896,"Ġposi":2897,"ĠInstitu":2898,"ner":2899,"rada":2900,"ÃŃp":2901,"ĠHu":2902,"Ġnoche":2903,"Ġregist":2904,"Ġantigua":2905,"eli":2906,"bu":2907,"tus":2908,"Ġsem":2909,"Ã¶":2910,"Ġsir":2911,"ĠâĢĵ":2912,"puestos":2913,"196":2914,"ĠrecibiÃ³":2915,"Ġnuevos":2916,"ĠdirecciÃ³n":2917,"ĠDios":2918,"abilidad":2919,"Ġ50":2920,"Ġpermite":2921,"Ġpoc":2922,"ĠHay":2923,"guna":2924,"Ġopera":2925,"ĠSuper":2926,"Ġfecha":2927,"âĢĵ":2928,"uez":2929,"Ġpalabra":2930,"ĠGre":2931,"ĠJun":2932,"Ġimportancia":2933,"ĠAutor":2934,"Ġoblig":2935,"ĠDel":2936,"gal":2937,"Ġencontra":2938,"Ġespos":2939,"Ġind":2940,"ini":2941,"ror":2942,"Ġincor":2943,"Ġfundad":2944,"Ġconven":2945,"Ġnuevas":2946,"Ġreac":2947,"ĠRoma":2948,"Ġempresa":2949,"ĠEdi":2950,"ĠRus":2951,"ĠTierra":2952,"laciones":2953,"Ġacer":2954,"Ġcic":2955,"ĠDiv":2956,"Ġsociedad":2957,"ĠPan":2958,"emos":2959,"Ġ2002":2960,"Ġcuyo":2961,"Ġsust":2962,"Ġeta":2963,"Ġtrata":2964,"iam":2965,"nes":2966,"tistas":2967,"Ġaparece":2968,"anci":2969,"ĠGeneral":2970,"iene":2971,"ĠComun":2972,"Ġaire":2973,"Ġ2001":2974,"ĠpasÃ³":2975,"isis":2976,"Ġgrab":2977,"estiv":2978,"ego":2979,"ĠGra":2980,"Ġempez":2981,"ianos":2982,"Ġejer":2983,"blos":2984,"Ġfab":2985,"ĠWill":2986,"ĠEsc":2987,"Ġreform":2988,"Ġ1999":2989,"ĠRey":2990,"Ġhijos":2991,"Ã¡ticas":2992,"Ġcorri":2993,"ĠColom":2994,"Ġestuvo":2995,"fi":2996,"dente":2997,"ĠediciÃ³n":2998,"Ġjef":2999,"Ġgracias":3000,"Ġ184":3001,"entado":3002,"Ġprepar":3003,"Ġacom":3004,"Ġpriv":3005,"tul":3006,"alacio":3007,"ĠformaciÃ³n":3008,"ĠDis":3009,"Ġpers":3010,"ĠPrimera":3011,"ĠCos":3012,"Ġidi":3013,"cepciÃ³n":3014,"Ġjo":3015,"dap":3016,"ĠRom":3017,"gust":3018,"Ġargentino":3019,"Ġaproximadamente":3020,"ĠAires":3021,"vas":3022,"Ġsentido":3023,"Ġformas":3024,"ĠMag":3025,"ubo":3026,"Ġtecn":3027,"uros":3028,"Ġenc":3029,"ĠMil":3030,"Ã¡cter":3031,"Ġcelebr":3032,"idente":3033,"Ġmundial":3034,"laterra":3035,"Ġitaliano":3036,"ĠcanciÃ³n":3037,"Ġinstitu":3038,"ĠJap":3039,"Ġretir":3040,"tim":3041,"enes":3042,"Ġta":3043,"Ġfirm":3044,"Ġahora":3045,"inar":3046,"Ġvoc":3047,"ĠtamaÃ±o":3048,"Ġconsigui":3049,"Ġfra":3050,"ley":3051,"Ġintegr":3052,"Ġhonor":3053,"Ġemperador":3054,"Ġreco":3055,"vis":3056,"Ġcumpl":3057,"stral":3058,"Ġpresenta":3059,"Ġconstituy":3060,"Ġdiversas":3061,"Ġiglesia":3062,"Ġcuya":3063,"Ġconv":3064,"ĠcarÃ¡cter":3065,"Ġprotagon":3066,"ey":3067,"Ġcosta":3068,"âĢĻ":3069,"Ġabier":3070,"Ġproductos":3071,"ĠquÃŃm":3072,"Ġmitad":3073,"Ġobst":3074,"Ġnovela":3075,"Ġdoc":3076,"Ġayud":3077,"empl":3078,"teratura":3079,"Ġobjetivo":3080,"Ġ29":3081,"Ġpromo":3082,"Ġoro":3083,"yos":3084,"ĠPat":3085,"Ġrespecto":3086,"ancias":3087,"ĠSte":3088,"dores":3089,"ĠJes":3090,"ses":3091,"'s":3092,"ĠorganizaciÃ³n":3093,"ĠcaracterÃŃsticas":3094,"Ġimagen":3095,"uraciÃ³n":3096,"ĠMuseo":3097,"Ġmanif":3098,"ance":3099,"Ġdestr":3100,"center":3101,"uidos":3102,"don":3103,"Ġsector":3104,"ĠInglaterra":3105,"Ġmagn":3106,"ĠÃī":3107,"ĠnÃºcle":3108,"rando":3109,"Ġdicho":3110,"Ġcrecimiento":3111,"ĠBuenos":3112,"ĠpodrÃŃa":3113,"Ġmanten":3114,"irse":3115,"Ġderechos":3116,"Ġjust":3117,"Ġpersonaje":3118,"tif":3119,"ĠllevÃ³":3120,"ĠCruz":3121,"Ġbom":3122,"tt":3123,"Ġdice":3124,"ĠinterÃ©s":3125,"Ġactualidad":3126,"Ġnego":3127,"Ġislas":3128,"Ġconcent":3129,"ĠMas":3130,"quÃŃa":3131,"Ġcondiciones":3132,"Ġpersonal":3133,"Ġnin":3134,"Ã¡ticos":3135,"ientes":3136,"ĠEr":3137,"Ġcompon":3138,"Ġtipos":3139,"Ġmenudo":3140,"Ġimp":3141,"Ġsimple":3142,"Ġtransform":3143,"Ġactividades":3144,"Ġrealizar":3145,"ablo":3146,"Ġcompos":3147,"ĠRev":3148,"Ġpobl":3149,"ĠOb":3150,"Ġ1980":3151,"Ġconflic":3152,"ly":3153,"tida":3154,"Ġcla":3155,"ximo":3156,"tadas":3157,"ĠBras":3158,"tÃŃa":3159,"Ġiz":3160,"ĠeconomÃŃa":3161,"Ġincorpor":3162,"Ġenvi":3163,"Ġmanos":3164,"Ġcandida":3165,"ĠÃºnica":3166,"ole":3167,"estiÃ³n":3168,"Ġmaterial":3169,"Ġurb":3170,"si":3171,"ĠcatÃ³l":3172,"Ġ182":3173,"Â²":3174,"jes":3175,"Ġlong":3176,"Ġ2013":3177,"Ġconform":3178,"Ġquin":3179,"olucion":3180,"ÃŃg":3181,"ker":3182,"Ġ1998":3183,"ĠCons":3184,"Ġtierras":3185,"ualmente":3186,"Ġpalabras":3187,"li":3188,"Ġnues":3189,"Ġacab":3190,"tum":3191,"ws":3192,"Ġdispon":3193,"ĠCastilla":3194,"Ġadap":3195,"ĠacciÃ³n":3196,"Ġaten":3197,"Ġescu":3198,"ĠBor":3199,"Ġsimilar":3200,"ind":3201,"ĠAlgunos":3202,"ĠTÃŃtulo":3203,"Ġofre":3204,"berg":3205,"Ġ185":3206,"Ġdemos":3207,"Ġmemor":3208,"ĠGon":3209,"Ġutiliza":3210,"ĠUnido":3211,"Ġ2014":3212,"vent":3213,"Ġtales":3214,"ĠCongreso":3215,"Ġesf":3216,"iere":3217,"Ġvelocidad":3218,"turo":3219,"ticamente":3220,"Ġradio":3221,"eos":3222,"ĠallÃŃ":3223,"puls":3224,"ivos":3225,"Ġmic":3226,"Ġtema":3227,"Ġjud":3228,"pal":3229,"vid":3230,"Ġactualmente":3231,"Ġaspec":3232,"ĠÃģn":3233,"pir":3234,"Ġmez":3235,"Ġreferencia":3236,"Ġmercado":3237,"ĠNic":3238,"Ġsuce":3239,"ĠacompaÃ±":3240,"ÃŃculos":3241,"ianza":3242,"Ġocasiones":3243,"ese":3244,"ĠEd":3245,"Ġministro":3246,"ĠJapÃ³n":3247,"Ġadop":3248,"Ġapoy":3249,"Ġrelaciones":3250,"Ġcomunidad":3251,"Ġextran":3252,"Ġtab":3253,"Ġvig":3254,"Ġobten":3255,"iencias":3256,"onte":3257,"Ġinstal":3258,"arlo":3259,"gip":3260,"wa":3261,"iaciÃ³n":3262,"ĠDie":3263,"Ġ2015":3264,"ĠFer":3265,"Ġmusical":3266,"ÃŃr":3267,"acto":3268,"ĠLey":3269,"ime":3270,"tell":3271,"Ġdescon":3272,"Ġmiembro":3273,"Ġjoven":3274,"Ġrealidad":3275,"Ġ&":3276,"ĠelÃ©ctr":3277,"Ġfunda":3278,"diendo":3279,"ans":3280,"Ġedificio":3281,"Ġfies":3282,"Ġcanciones":3283,"itas":3284,"zado":3285,"clam":3286,"Ġmano":3287,"ites":3288,"Ġacu":3289,"Ġ183":3290,"Ġpueblos":3291,"Ġaprob":3292,"Ġtraslad":3293,"Ġ40":3294,"ĠConsejo":3295,"ensiÃ³n":3296,"Ġrecha":3297,"estival":3298,"ĠPre":3299,"ĠFuer":3300,"Ġindustria":3301,"zÃ¡":3302,"Ġcuanto":3303,"Ġcolabor":3304,"ĠFeder":3305,"Ġtemperatura":3306,"itario":3307,"Ġrecor":3308,"ĠMÃ¡s":3309,"ĠLond":3310,"umentos":3311,"Ġnos":3312,"Ġizquier":3313,"ĠLi":3314,"etas":3315,"seÃ±":3316,"irma":3317,"Ġefecto":3318,"ĠFil":3319,"ĠYo":3320,"pado":3321,"ĠGarcÃŃa":3322,".)":3323,"Ġcomba":3324,"Ġinteres":3325,"Ġestra":3326,"ĠTur":3327,"ciente":3328,"Ġentren":3329,"usa":3330,"arra":3331,"ĠpequeÃ±o":3332,"ĠespaÃ±oles":3333,"Ġmodi":3334,"ÃŃmp":3335,"quil":3336,"teca":3337,"Ġhermano":3338,"Ġdado":3339,"Ġelev":3340,"Ġlec":3341,"ni":3342,"ĠDon":3343,"terÃŃa":3344,"ame":3345,"Ġproduce":3346,"Ġasoci":3347,"demia":3348,"dios":3349,"ĠColombia":3350,"Ġmuestra":3351,"Ġidea":3352,"Ġavi":3353,"ĠpublicÃ³":3354,"Ġcalle":3355,"lÃ¡n":3356,"Ġvan":3357,"Ġquienes":3358,"Ġlenguas":3359,"torno":3360,"Ġmayores":3361,"olÃ³gica":3362,"Ġincluyendo":3363,"Ġaltura":3364,"igos":3365,"dena":3366,"ĠBur":3367,"40":3368,"ĠdiseÃ±":3369,"Ġrefle":3370,"och":3371,"Ġvas":3372,"Ġveci":3373,"Ġnav":3374,"Ġanimales":3375,"Ġvictoria":3376,"culos":3377,"Ġinfer":3378,"ĠrealizÃ³":3379,"ĠRÃŃo":3380,"pedi":3381,"onel":3382,"ĠlogrÃ³":3383,"Ġreduci":3384,"Ġmilitares":3385,"Ġayuda":3386,"ÃŃfico":3387,"ĠescribiÃ³":3388,"Ġ1996":3389,"Ġlugares":3390,"ĠVilla":3391,"manas":3392,"Ġgeneralmente":3393,"ĠJe":3394,"cidente":3395,"ĠDomin":3396,"Ġ1997":3397,"len":3398,"Ġclase":3399,"ĠEstas":3400,"ĠganÃ³":3401,"Ġespecie":3402,"ĠMu":3403,"itan":3404,"Ġguer":3405,"ks":3406,"Ġpersonajes":3407,"Ġsignific":3408,"Ġrespons":3409,"Ġotor":3410,"quia":3411,"ĠOtros":3412,"ĠTom":3413,"Ġpudo":3414,"Ġsiete":3415,"blic":3416,"tismo":3417,"int":3418,"Ġincluye":3419,"icales":3420,"ĠPu":3421,"aya":3422,"Ã¡nica":3423,"ĠAlfon":3424,"isto":3425,"uye":3426,"Ġcontrib":3427,"ismos":3428,"Ġminu":3429,"ĠBrasil":3430,"Åį":3431,"rios":3432,"teras":3433,"manes":3434,"ĠTrans":3435,"ribe":3436,"ĠCat":3437,"Ġdig":3438,"tualmente":3439,"pias":3440,"ĠÃ¡r":3441,"ĠVenez":3442,"ĠcompaÃ±ÃŃa":3443,"ĠeducaciÃ³n":3444,"ĠinvestigaciÃ³n":3445,"ĠeconÃ³mica":3446,"Ġmatem":3447,"Ġbel":3448,"ĠQue":3449,"ĠdecidiÃ³":3450,"Ġenfrent":3451,"ÂłÂłÂłÂłÂłÂłÂłÂł":3452,"Ġexistencia":3453,"ÃŃc":3454,"Ġconstruy":3455,"ucle":3456,"Ġhoras":3457,"ĠMat":3458,"Ġarch":3459,"Ġbaja":3460,"Ġproporcion":3461,"ĠcampaÃ±a":3462,"Ġhija":3463,"ĠFo":3464,"ĠAy":3465,"Ġkil":3466,"Ġ1970":3467,"ĠdiseÃ±o":3468,"ĠCatal":3469,"ÃŃnci":3470,"Ġmedios":3471,"ferencia":3472,"Ġfru":3473,"Ġplata":3474,"ibles":3475,"tador":3476,"ĠInstituto":3477,"Ġi":3478,"Ġchil":3479,"Ġliter":3480,"ĠHum":3481,"erop":3482,"Ġexpan":3483,"Ġexcl":3484,"tidos":3485,"ÃŃmbol":3486,"Ġsurg":3487,"burgo":3488,"ĠquedÃ³":3489,"ĠEnrique":3490,"ĠDan":3491,"ĠPue":3492,"ĠDivisiÃ³n":3493,"ĠLiber":3494,"Ġprobable":3495,"Ġhu":3496,"urÃ³":3497,"Ġpi":3498,"Ġcalidad":3499,"ĠOs":3500,"osp":3501,"ĠLiga":3502,"Ġconduc":3503,"Ġhumanos":3504,"dÃŃan":3505,"Ġobjeto":3506,"undo":3507,"ĠbÃ¡s":3508,"inal":3509,"ĠdÃ³l":3510,"Ġvista":3511,"Ġsiglos":3512,"risis":3513,"Ġevi":3514,"imen":3515,"Ġfalle":3516,"Ġequipos":3517,"ĠpequeÃ±a":3518,"Ġmunicipal":3519,"su":3520,"Ġcerc":3521,"ĠChar":3522,"ĠcÃ©l":3523,"Ġplantas":3524,"Ġdiez":3525,"Ġsuel":3526,"Ġcomercial":3527,"ĠniÃ±os":3528,"Ġ1992":3529,"Ġvide":3530,"Ġmando":3531,"Ġfigura":3532,"ĠFeli":3533,"Ġpatr":3534,"ames":3535,"Ġbos":3536,"mite":3537,"ore":3538,"rismo":3539,"ĠSec":3540,"ĠBas":3541,"Ġpuerto":3542,"icha":3543,"Ġlongitud":3544,"ĠÃģngel":3545,"oj":3546,"ĠCampe":3547,"Ġsociales":3548,"Ġens":3549,"ĠTu":3550,"Ġcabeza":3551,"Ġesposa":3552,"itado":3553,"Ġfunciones":3554,"ĠtenÃŃan":3555,"Ġingen":3556,"Ġcultural":3557,"Ġreino":3558,"ock":3559,"estr":3560,"Ġ2019":3561,"ĠÂ¿":3562,"terrÃ¡n":3563,"esiÃ³n":3564,"Ġ1994":3565,"Ġtradicional":3566,"entaciÃ³n":3567,"Ġarmas":3568,"Ġevitar":3569,"ural":3570,"Ġade":3571,"Ġtercer":3572,"Ġindependencia":3573,"Ġhe":3574,"ĠVi":3575,"iado":3576,"Ġposee":3577,"damente":3578,"llas":3579,"Ġconvertir":3580,"isiones":3581,"Ġvoz":3582,"venciÃ³n":3583,"genes":3584,"cla":3585,"Ġregiones":3586,"ĠFelipe":3587,"ĠAg":3588,"ĠJer":3589,"Ġdefini":3590,"Ã¡ndez":3591,"Ġdicha":3592,"Ġnombrado":3593,"ĠpelÃŃculas":3594,"III":3595,"ariciÃ³n":3596,"amp":3597,"Ġfen":3598,"Ġdepartamento":3599,"Ġencontrar":3600,"Ġconsiderado":3601,"Ġtercera":3602,"Ġsil":3603,"iales":3604,"quis":3605,"ĠDÃŃa":3606,"Ġmantener":3607,"isten":3608,"Ġconoce":3609,"Ġ1995":3610,"Ã³nimo":3611,"ĠNew":3612,"ĠUr":3613,"ingÃºn":3614,"ĠEdad":3615,"25":3616,"Ġ2016":3617,"tesis":3618,"rael":3619,"digo":3620,"Ġaplic":3621,"iar":3622,"cida":3623,"cina":3624,"Ġindic":3625,"ĠWilliam":3626,"Ġ2018":3627,"deres":3628,"Ġlleva":3629,"Ġcamino":3630,"Ã¡lisis":3631,"ĠBern":3632,"Ġproteg":3633,"reno":3634,"Ġobtuvo":3635,"Ġpul":3636,"Ġtemas":3637,"ĠVenezuela":3638,"untos":3639,"Ġsigue":3640,"Ġobstante":3641,"trÃ¡s":3642,"Ġatrib":3643,"ĠAlfonso":3644,"Ġarg":3645,"bran":3646,"Ġdios":3647,"Âª":3648,"Ġtiempos":3649,"ĠcÃ©lulas":3650,"195":3651,"ĠSim":3652,"ity":3653,"amÃ©rica":3654,"Ġverano":3655,"80":3656,"Ġjugador":3657,"ĠtradiciÃ³n":3658,"emen":3659,"Ġsuele":3660,"omÃ©":3661,"Ġps":3662,"Ġconcl":3663,"ĠestaciÃ³n":3664,"tividad":3665,"||":3666,"Ġtex":3667,"ragÃ³n":3668,"Ġmediados":3669,"esta":3670,"ĠYa":3671,"Ġfuente":3672,"Ġhistori":3673,"Ġobtener":3674,"deo":3675,"ĠdivisiÃ³n":3676,"Ã¨":3677,"ÃŃns":3678,"Ġ1991":3679,"Ġconec":3680,"rum":3681,"Ġgolpe":3682,"Ġafirm":3683,"rar":3684,"Ġhici":3685,"ĠquÃ©":3686,"Ġjefe":3687,"ĠFu":3688,"Ġcambios":3689,"Ġquer":3690,"ÃŃtulos":3691,"mer":3692,"Ġnaturaleza":3693,"Ã¡mara":3694,"Ġcome":3695,"ĠvolviÃ³":3696,"ĠMedi":3697,"anÃŃa":3698,"ionales":3699,"lav":3700,"ware":3701,"Ġsang":3702,"Ġempresas":3703,"Ġposterior":3704,"Ġingres":3705,"Ġasum":3706,"ĠcomunicaciÃ³n":3707,"curso":3708,"Ġprotec":3709,"ĠindÃŃgen":3710,"ĠGa":3711,"gada":3712,"Ġfrancesa":3713,"Ġnumerosos":3714,"ples":3715,"ĠEjÃ©rcito":3716,"Ġcontem":3717,"ĠCasa":3718,"ĠEurope":3719,"Ġextranj":3720,"Ġemb":3721,"ĠLondres":3722,"Ġelabor":3723,"Ġmatrimonio":3724,"ocr":3725,"Ġlengu":3726,"Ġvac":3727,"Ġdepen":3728,"ĠAca":3729,"ispo":3730,"Ġsustitu":3731,"Ġparque":3732,"Ġresta":3733,"Ġtoc":3734,"cidos":3735,"Ġaguas":3736,"ĠtodavÃŃa":3737,"empla":3738,"Ġelegido":3739,"ÃŃz":3740,"ides":3741,"ĠningÃºn":3742,"Ġrepar":3743,"Ġguitar":3744,"Ġinvi":3745,"Ġetapa":3746,"Ġcontac":3747,"tern":3748,"Ġagu":3749,"Ã³c":3750,"Ġlista":3751,"ĠPuerto":3752,"tn":3753,"pie":3754,"como":3755,"ale":3756,"Ġunidad":3757,"Ġsom":3758,"lez":3759,"Ġmejores":3760,"Ġdistancia":3761,"Ġlocales":3762,"ogrÃ¡f":3763,"ĠDavid":3764,"Ġescuela":3765,"ĠDer":3766,"ĠcÃ³mo":3767,"echo":3768,"uelas":3769,"Ġesca":3770,"vador":3771,"Ġasc":3772,"Ġ2017":3773,"ĠAst":3774,"Ġx":3775,"osos":3776,"Ġinme":3777,"Ġcorte":3778,"Ġadqui":3779,"ĠprÃ¡ctica":3780,"undi":3781,"Ġadministra":3782,"ĠCentral":3783,"ĠMac":3784,"Ġentrada":3785,"22":3786,"Ġlibros":3787,"Ġdistintos":3788,"ĠÃ¡reas":3789,"Ġdijo":3790,"Ġfinaliz":3791,"omina":3792,"ĠlÃŃneas":3793,"Ġrevista":3794,"Ġpoeta":3795,"xima":3796,"Ġincluyen":3797,"eso":3798,"Ġclima":3799,"uf":3800,"frica":3801,"alista":3802,"Ġarro":3803,"Ġllama":3804,"alo":3805,"Ġconseg":3806,"Ġtransporte":3807,"ĠÃ¡ra":3808,"deraciÃ³n":3809,"ĠdemÃ¡s":3810,"Ġromano":3811,"ĠAnti":3812,"ky":3813,"ĠHol":3814,"Ġproducto":3815,"Ġgobernador":3816,"Ġdesign":3817,"lin":3818,"ĠSeÃ±":3819,"one":3820,"Ġfalta":3821,"orÃŃas":3822,"Ġenem":3823,"Ġejempl":3824,"Ġ31":3825,"ense":3826,"Ġefectos":3827,"ĠCla":3828,"Ġcruz":3829,"Ġpare":3830,"wn":3831,"Ġ1993":3832,"ĠpodÃŃa":3833,"ĠsÃŃn":3834,"net":3835,"Ġanteriores":3836,"ĠGer":3837,"dentes":3838,"tillo":3839,"isp":3840,"Ġprodujo":3841,"ĠtÃŃp":3842,"ĠpÃºblica":3843,"ĠpresiÃ³n":3844,"ĠpolÃŃticos":3845,"Ġseguridad":3846,"ĠcategorÃŃa":3847,"ĠÂ¡":3848,"Ġalcal":3849,"Ġperiodi":3850,"Ġcrear":3851,"Ã©gimen":3852,"Ġadi":3853,"tantes":3854,"ĠBro":3855,"Ġreempla":3856,"Ġecu":3857,"ĠBri":3858,"ive":3859,"Ġsens":3860,"Ġrestos":3861,"Ġcoloc":3862,"Ġprome":3863,"Ġmaes":3864,"Ġimpres":3865,"Ġ1960":3866,"Ġdesapar":3867,"org":3868,"Ġconcepto":3869,"ĠMuch":3870,"rey":3871,"Ġpropiedad":3872,"ĠConstituciÃ³n":3873,"Ġgira":3874,"Ġhumano":3875,"Ġderiv":3876,"Ġcarre":3877,"aug":3878,"ĠJesÃºs":3879,"enca":3880,"Ġorgan":3881,"aces":3882,"Ġformar":3883,"endiÃ³":3884,"Ġ2020":3885,"ĠMientras":3886,"60":3887,"Ġfinanci":3888,"Ġconsecuencia":3889,"Ġlucha":3890,"Ġblanco":3891,"Ġconvirti":3892,"ÃŃncipe":3893,"Ġinfl":3894,"Ġejecu":3895,"ĠPlan":3896,"Ġast":3897,"Ġataque":3898,"public":3899,"ĠdÃ³lares":3900,"Ġdismin":3901,"ĠÃ¡rbol":3902,"ĠalgÃºn":3903,"entan":3904,"ĠkilÃ³":3905,"Ġenfermedad":3906,"ĠMc":3907,"Ġgriego":3908,"ux":3909,"ato":3910,"Ġpris":3911,"Ġproblema":3912,"Ã³st":3913,"ĠhistÃ³rico":3914,"rom":3915,"Ġbol":3916,"minos":3917,"Ġliteratura":3918,"Ġalguna":3919,"Ã³nico":3920,"Ġconvier":3921,"Ġocho":3922,"unci":3923,"Ã³logo":3924,"fil":3925,"ĠEspaÃ±ol":3926,"Ġran":3927,"Ġsalud":3928,"Ġcrisis":3929,"Ġsecu":3930,"tugu":3931,"itÃ¡n":3932,"umen":3933,"tedr":3934,"Ġacceso":3935,"Ġrecuper":3936,"Ġpremio":3937,"ĠAz":3938,"iller":3939,"ĠÎ":3940,"Ġcompositor":3941,"Ġsecund":3942,"ĠArm":3943,"Ġcarb":3944,"Ġ60":3945,"Ġestados":3946,"23":3947,"eropuerto":3948,"ĠÃģfrica":3949,"Ġdistintas":3950,"Ġtorn":3951,"ĠOrden":3952,"ĠHen":3953,"imientos":3954,"yas":3955,"ĠAndr":3956,"ĠPablo":3957,"Ġclasific":3958,"Ġja":3959,"Ġcomercio":3960,"andro":3961,"ĠRusia":3962,"Ġresiden":3963,"ĠPaÃŃs":3964,"art":3965,"Ġtoma":3966,"Ġconcier":3967,"ĠLuego":3968,"Ġfer":3969,"Ġresultados":3970,"fos":3971,"ĠJust":3972,"ash":3973,"tienen":3974,"Ġrebel":3975,"imismo":3976,"cÃ¡n":3977,"leg":3978,"ĠAlej":3979,"ĠMari":3980,"Ġsonido":3981,"ilio":3982,"ĠserÃ¡":3983,"iografÃŃa":3984,"Ġidentific":3985,"Ġ1989":3986,"Ġfoto":3987,"olÃ³gicos":3988,"Ġ180":3989,"Ġfuentes":3990,"Ġcompeti":3991,"ĠIV":3992,"Ġsoldados":3993,"Ġdan":3994,"Ġviaje":3995,"rieron":3996,"Ġnacionales":3997,"Ġllegada":3998,"ĠRich":3999,"ĠtÃ©rminos":4000,"Ġ80":4001,"adal":4002,"dan":4003,"ulos":4004,"ÃŃda":4005,"ort":4006,"ĠLin":4007,"ulta":4008,"ĠselecciÃ³n":4009,"Ġautores":4010,"Ġrealiza":4011,"Ġbene":4012,"Ġmetal":4013,"Ġfrecuencia":4014,"inte":4015,"ĠpÃ©r":4016,"Ġutilizado":4017,"ĠÃ¡n":4018,"torias":4019,"Ġhabla":4020,"sen":4021,"ot":4022,"Ġras":4023,"ĠperiÃ³":4024,"Ġacus":4025,"Ġpaz":4026,"Ġusu":4027,"ĠFre":4028,"ĠJorge":4029,"Ġoscu":4030,"Ġplanta":4031,"ĠsÃŃmbol":4032,"ĠAnd":4033,"ĠpequeÃ±os":4034,"Ġobjetos":4035,"Ġdistrito":4036,"iores":4037,"isterio":4038,"ĠadministraciÃ³n":4039,"Ġherman":4040,"ĠCer":4041,"icipios":4042,"Ġarque":4043,"Ã³vil":4044,"ĠPh":4045,"Ġinicia":4046,"Ġteatro":4047,"Ġmad":4048,"Ġazul":4049,"Ġejec":4050,"ĠenseÃ±":4051,"ĠlÃŃder":4052,"teria":4053,"ĠpolÃŃticas":4054,"Ġplaza":4055,"amble":4056,"ĠTi":4057,"Ġjugadores":4058,"ĠrazÃ³n":4059,"Ġenter":4060,"Ġblo":4061,"Ġfase":4062,"ĠcreÃ³":4063,"Ġvivi":4064,"ĠMen":4065,"Ġprotes":4066,"Ġamar":4067,"Ġcelebra":4068,"uta":4069,"Ġprovincias":4070,"ingÃ¼":4071,"Ġbi":4072,"Ġhabitu":4073,"Ġoficiales":4074,"Ġsufici":4075,"isla":4076,"ĠparticipaciÃ³n":4077,"ĠDebido":4078,"Ġterritorios":4079,"Ġcontiene":4080,"Ã³pez":4081,"viÃ©tica":4082,"ĠdejÃ³":4083,"ĠeconÃ³mico":4084,"ĠDist":4085,"use":4086,"ĠdifÃŃ":4087,"Ġverda":4088,"Ġsum":4089,"Ġoccidental":4090,"Ġimper":4091,"Ġinternacionales":4092,"Ġinicio":4093,"Ġaudi":4094,"Ġbre":4095,"ilares":4096,"esÃŃa":4097,"adÃ¡":4098,"amil":4099,"ĠHab":4100,"Ġyo":4101,"Ġflu":4102,"ÃŃnsula":4103,"--":4104,"Ġdeben":4105,"ĠEscuela":4106,"Ġlibertad":4107,"Ġbuen":4108,"Ġasist":4109,"tiles":4110,"Ġpocos":4111,"Ġdeber":4112,"Ġpermit":4113,"Ġtexto":4114,"rano":4115,"cciÃ³n":4116,"Ġnumerosas":4117,"Ġforman":4118,"Ġambas":4119,"Ġferro":4120,"ĠQui":4121,"Ġconstante":4122,"Ġmexicano":4123,"ĠActualmente":4124,"yn":4125,"194":4126,"alizado":4127,"Ġnada":4128,"Ġunidades":4129,"Ġantiguos":4130,"lamento":4131,"ĠSen":4132,"SA":4133,"Ġenci":4134,"ayo":4135,"ĠEcon":4136,"Ġtre":4137,"eda":4138,"193":4139,"ĠnÃºmeros":4140,"Ġvie":4141,"Ġestim":4142,"orme":4143,"ĠLuc":4144,"ÃŃtica":4145,"Ġmemoria":4146,"tz":4147,"Ġrode":4148,"ĠBre":4149,"isa":4150,"metro":4151,"Ã¡mica":4152,"izado":4153,"Ġtrabajos":4154,"ĠLÃ³pez":4155,"ĠdÃ©":4156,"Ġnombres":4157,"Ġbe":4158,"ĠnÃºcleo":4159,"cam":4160,"Ġperteneci":4161,"Ġinvas":4162,"Ġ!":4163,"Ġjuegos":4164,"sidad":4165,"Ġpublicado":4166,"hibi":4167,"ĠBlan":4168,"bla":4169,"Ġsitio":4170,"abel":4171,"Ġpasado":4172,"Ġpilo":4173,"puestas":4174,"ward":4175,"Ġprote":4176,"ĠTele":4177,"ĠVol":4178,"ĠFinalmente":4179,"pia":4180,"Ġnaturales":4181,"Ġ:":4182,"Ġtitul":4183,"rantes":4184,"Ġvio":4185,"Ġnucle":4186,"ĠprÃ³":4187,"ĠSanto":4188,"icultura":4189,"uÃ±a":4190,"ĠNor":4191,"Ġsangre":4192,"fica":4193,"Ġrecursos":4194,"icciÃ³n":4195,"ĠÃŃn":4196,"ĠBat":4197,"Ġmag":4198,"Ġ+":4199,"uyÃ³":4200,"Ġprecis":4201,"tri":4202,"Ġmens":4203,"ĠRobert":4204,"ĠPosteriormente":4205,"ĠpequeÃ±as":4206,"Ġexterior":4207,"ĠSil":4208,"ÃŃcol":4209,"egio":4210,"zÃ³":4211,"para":4212,"arÃŃan":4213,"ĠAust":4214,"ĠPaul":4215,"aman":4216,"Ġconquist":4217,"ĠIr":4218,"Ġninguna":4219,"Ġpapa":4220,"venes":4221,"Ġproductor":4222,"osas":4223,"ĠProv":4224,"Ġsituado":4225,"ĠHon":4226,"ĠJuegos":4227,"ĠDepor":4228,"icÃŃa":4229,"Ã³venes":4230,"ĠBra":4231,"Ġrock":4232,"Ġamena":4233,"din":4234,"rista":4235,"Ġciencia":4236,"Ġbuena":4237,"Ġ1986":4238,"Ġvisit":4239,"uno":4240,"ĠkilÃ³metros":4241,"21":4242,"ĠBr":4243,"reo":4244,"ĠVie":4245,"ĠEstÃ¡":4246,"ĠWil":4247,"ĠIndia":4248,"enario":4249,"ĠrÃ©gimen":4250,"cionalmente":4251,"Ġvalle":4252,"Ġrepro":4253,"Ġce":4254,"Ġepiso":4255,"Ġidioma":4256,"ĠFlor":4257,"Ġhubo":4258,"Ġpodr":4259,"Ġeso":4260,"Ġartes":4261,"Ġcomienza":4262,"Ġpresente":4263,"ĠcÃ¡l":4264,"Ġavanz":4265,"izar":4266,"Ġhacen":4267,"Ġingles":4268,"terio":4269,"ĠMonte":4270,"Ġinaug":4271,"Ġdirectamente":4272,"ua":4273,"Ġmasa":4274,"Ġexpedi":4275,"ĠJames":4276,"Ġsor":4277,"Ġimpl":4278,"Ġaumento":4279,"ney":4280,"Ġveg":4281,"ĠMur":4282,"Ġizquierda":4283,"ĠmuriÃ³":4284,"Ġsuelen":4285,"gro":4286,"ĠFal":4287,"bes":4288,"24":4289,"Ġflo":4290,"TA":4291,"Ġaquellos":4292,"Ġguar":4293,"ĠLor":4294,"gÃ¼":4295,"ĠrÃŃos":4296,"Ġedificios":4297,"anda":4298,"mina":4299,"ok":4300,"Ġlenguaje":4301,"pus":4302,"ĠGol":4303,"ĠDu":4304,"ospital":4305,"ĠartÃŃculo":4306,"Ġalign":4307,"Ġ1988":4308,"Ġportugu":4309,"ĠAragÃ³n":4310,"Ġinvers":4311,"ĠvÃŃa":4312,"Ġbarrio":4313,"Ġgrado":4314,"Ġdirigida":4315,"Ġdecre":4316,"ere":4317,"ane":4318,"Ġgente":4319,"aga":4320,"Ġpiedra":4321,"ila":4322,"ches":4323,"ĠÃĵ":4324,"Ġdoble":4325,"dicos":4326,"Ġglo":4327,"Ġfabric":4328,"Ġcatal":4329,"ĠWal":4330,"Ġequival":4331,"Ġcosas":4332,"Ġvolver":4333,"zan":4334,"ĠMunicip":4335,"anzas":4336,"Ġalterna":4337,"ĠIS":4338,"tig":4339,"Ġpelig":4340,"Ġparece":4341,"Ġformado":4342,"Ġelemento":4343,"Ġincrem":4344,"ĠEstudi":4345,"ÃŃdo":4346,"siones":4347,"Ġmadera":4348,"ĠCosta":4349,"itaria":4350,"ivamente":4351,"Ġutilizar":4352,"Ġsuelo":4353,"Ġali":4354,"ĠmÃ©todo":4355,"inta":4356,"Ġ1985":4357,"Ġdefensa":4358,"Ġconde":4359,"Ġfuturo":4360,"ĠVirgen":4361,"Ġ1982":4362,"rante":4363,"Ġflor":4364,"Ġperu":4365,"tarse":4366,"ivas":4367,"Ġbastante":4368,"Ġenl":4369,"Ġartistas":4370,"ĠLeg":4371,"Ġcru":4372,"azÃ³n":4373,"ecido":4374,"lia":4375,"ĠKa":4376,"Ġmarc":4377,"ĠInde":4378,"ĠValle":4379,"smo":4380,"Ġdibu":4381,"ĠterminÃ³":4382,"70":4383,"ĠPortu":4384,"bita":4385,"endido":4386,"Ġmulti":4387,"Ġestrella":4388,"Es":4389,"ĠEduc":4390,"Ġfines":4391,"ood":4392,"cillo":4393,"ĠfÃŃsica":4394,"Ġpad":4395,"ĠBos":4396,"ĠjÃ³venes":4397,"ĠcrÃŃtica":4398,"Ġnega":4399,"Ġtuvieron":4400,"izada":4401,"osofÃŃa":4402,"ĠÃģl":4403,"enn":4404,"ĠextensiÃ³n":4405,"ĠtÃ©cnica":4406,"Ġbenefici":4407,"Ġ1987":4408,"ung":4409,"dro":4410,"Ġusa":4411,"tidades":4412,"Ġvariedad":4413,"amblea":4414,"ĠaÃ±ad":4415,"Ġcanal":4416,"Ġtes":4417,"ĠAcademia":4418,"Ġsolici":4419,"Ġllu":4420,"ĠSud":4421,"oche":4422,"Ġnecesario":4423,"Ġbandera":4424,"villa":4425,"ĠValencia":4426,"Ġconcre":4427,"Ġproducir":4428,"Ġutilizan":4429,"polit":4430,"ĠAustral":4431,"Ġderecha":4432,"ĠFa":4433,"Ġvalores":4434,"Ġconocimiento":4435,"Ġasent":4436,"cripciÃ³n":4437,"Ġmusul":4438,"ĠBiblio":4439,"Ġnegro":4440,"Ġllevar":4441,"Ġinferior":4442,"eran":4443,"edades":4444,"ĠSam":4445,"ĠOro":4446,"Ġdisposi":4447,"Ġhicieron":4448,"urado":4449,"Ã³rm":4450,"Ġ2021":4451,"icio":4452,"ĠiniciÃ³":4453,"Ġmateriales":4454,"Ġaus":4455,"ĠInf":4456,"Ġtomar":4457,"Ã©ticos":4458,"Ġojos":4459,"Ġniveles":4460,"olo":4461,"mentos":4462,"ĠWar":4463,"inato":4464,"78":4465,"Ġpreten":4466,"Ġ1984":4467,"Ġfis":4468,"Ġfemen":4469,"Ã¡genes":4470,"oras":4471,"Ġ1979":4472,"Ġexplo":4473,"Ġtriun":4474,"Ġarquitectura":4475,"ĠmÃ¡ximo":4476,"Ġcub":4477,"Ġocup":4478,"ĠMedia":4479,"Ġtorno":4480,"visiÃ³n":4481,"ĠmÃŃn":4482,"Ġfrontera":4483,"lado":4484,"Ġrespuesta":4485,"Ġpasa":4486,"Ġconflicto":4487,"Ġalcan":4488,"iforn":4489,"ĠFÃºtbol":4490,"ĠdistribuciÃ³n":4491,"ĠJul":4492,"ĠanunciÃ³":4493,"Ġlabor":4494,"Ġcarga":4495,"Ġtratamiento":4496,"Ġresistencia":4497,"Ġllega":4498,"ariamente":4499,"itÃ©":4500,"Ġfacil":4501,"ĠfenÃ³m":4502,"chas":4503,"Ġmunicipios":4504,"lÃ¡":4505,"Ġleyes":4506,"rie":4507,"ocra":4508,"Ġreina":4509,"Ġrecom":4510,"Ġcubier":4511,"Ġ1983":4512,"Ġcentros":4513,"Ġprogramas":4514,"ĠmÃºlti":4515,"ĠconsiguiÃ³":4516,"Ġcompu":4517,"Ġoper":4518,"Ġparticipar":4519,"Ġvuelta":4520,"ĠPers":4521,"Ġminutos":4522,"Ġestrellas":4523,"Ġpasar":4524,"apones":4525,"Ġ179":4526,"ĠfÃ¡cil":4527,"ĠJean":4528,"Ġsituada":4529,"ĠEdu":4530,"ĠFestival":4531,"Ġcorriente":4532,"rin":4533,"Ġastr":4534,"Ġcircun":4535,"Ġabsolu":4536,"Ġfuego":4537,"mento":4538,"ĠDos":4539,"ĠDar":4540,"Ġ70":4541,"ĠempezÃ³":4542,"Ġprofesional":4543,"Ġreconoc":4544,"Ġbra":4545,"Ġindependiente":4546,"inados":4547,"Ġcere":4548,"Ġhumana":4549,"forma":4550,"ilidades":4551,"ombi":4552,"Ġnuevamente":4553,"Ġ90":4554,"Ġmanifes":4555,"endas":4556,"grÃ¡fica":4557,"Ġaso":4558,"ĠnaciÃ³":4559,"rÃ³n":4560,"Ġsalida":4561,"Ġtorneo":4562,"Ġ(\"":4563,"tedral":4564,"ĠpermitiÃ³":4565,"ĠmÃ¡qu":4566,"onda":4567,"ĠPortugal":4568,"Ġpreci":4569,"Ġinfan":4570,"ĠanÃ¡lisis":4571,"Ġ1950":4572,"by":4573,"ster":4574,"sh":4575,"Ġexcep":4576,"Ġlarga":4577,"leo":4578,"ĠTiene":4579,"Ã§":4580,"Ġalmac":4581,"ĠChrist":4582,"ecÃŃa":4583,"Ġconvierte":4584,"Ġdominio":4585,"vidad":4586,"ĠÃ¡m":4587,"Ġox":4588,"Ġesfuer":4589,"Ġviaj":4590,"Ġencontraba":4591,"Ġmantuvo":4592,"Ġconden":4593,"Ġcolores":4594,"Ġaprov":4595,"Ġmismos":4596,"Ġideas":4597,"ÃŃsticos":4598,"Ġescrito":4599,"trar":4600,"ĠParque":4601,"tyle":4602,"ington":4603,"rupo":4604,"uestra":4605,"Ġemi":4606,"Ġescala":4607,"Ġacciones":4608,"Ã³cra":4609,"Ġalum":4610,"anes":4611,"ĠMel":4612,"ĠOlÃŃmp":4613,"imos":4614,"ĠpenÃŃnsula":4615,"ĠrÃ¡pidamente":4616,"Ġusar":4617,"ĠAp":4618,"Ġdenomina":4619,"Ġcontrario":4620,"Ã©ndo":4621,"Ġpruebas":4622,"ĠestableciÃ³":4623,"ĠGonzÃ¡":4624,"vol":4625,"Ġvin":4626,"adura":4627,"Ġjapones":4628,"Ġindustrial":4629,"Ġesos":4630,"pin":4631,"zada":4632,"Ã¤":4633,"abe":4634,"ĠBu":4635,"Ġcuarto":4636,"ĠapariciÃ³n":4637,"Ġseguir":4638,"Ġderrota":4639,"ĠOtras":4640,"ĠseÃ±or":4641,"bito":4642,"Ġrum":4643,"Ġ1981":4644,"Ġposibilidad":4645,"Ġcompuesto":4646,"ĠMos":4647,"Ġameric":4648,"Ġdespla":4649,"teros":4650,"ĠGonzÃ¡lez":4651,"Ġconstruir":4652,"ombre":4653,"Ġpeso":4654,"ille":4655,"emas":4656,"Ġ2022":4657,"porÃ¡n":4658,"Ã³mica":4659,"Ġexig":4660,"ĠDiego":4661,"Ġdipu":4662,"ĠCre":4663,"ĠclasificaciÃ³n":4664,"Ġcompleto":4665,"onomÃŃa":4666,"ĠExisten":4667,"FA":4668,"Ġdetal":4669,"ith":4670,"ĠLima":4671,"The":4672,"Ġdim":4673,"Ġpintor":4674,"ĠÃ³rg":4675,"ĠoposiciÃ³n":4676,"Ġcaball":4677,"ĠhabrÃŃa":4678,"Ġ1973":4679,"Ġcomerci":4680,"ĠimÃ¡genes":4681,"ĠKar":4682,"inastÃŃa":4683,"eca":4684,"26":4685,"Ġlic":4686,"Ġllegaron":4687,"Ġvilla":4688,"Ġconocer":4689,"Ġlago":4690,"cieron":4691,"ÃŃguez":4692,"Ġnecesidad":4693,"uma":4694,"ĠElec":4695,"Ġmetro":4696,"ĠrepresentaciÃ³n":4697,"ÃŃti":4698,"Ġcontacto":4699,"Ġprobablemente":4700,"rama":4701,"Ġconocidos":4702,"ÃŃb":4703,"ĠMol":4704,"ÃŃes":4705,"ĠSalvador":4706,"ĠtÃ©cnicas":4707,"ĠFernÃ¡ndez":4708,"Ġposteriores":4709,"alizada":4710,"ultad":4711,"Ġopin":4712,"Ġstyle":4713,"untamiento":4714,"ĠTri":4715,"Ġhora":4716,"Ġnacimiento":4717,"Ġrealizado":4718,"Ġubicado":4719,"ight":4720,"drÃŃguez":4721,"Ġ1976":4722,"antas":4723,"Ġnie":4724,"ĠXV":4725,"Ġcierto":4726,"ĠTen":4727,"Ġamigo":4728,"Ġpropiedades":4729,"rida":4730,"ĠtomÃ³":4731,"ĠStar":4732,"Ġprom":4733,"Ġ1978":4734,"Ġcrea":4735,"uidas":4736,"Ġabund":4737,"deras":4738,"ej":4739,"entas":4740,"Ġvolun":4741,"Ġdestacan":4742,"venida":4743,"ĠAsia":4744,"ĠpÃ¡g":4745,"Ġpart":4746,"ĠPÃ©":4747,"ĠpresentÃ³":4748,"fre":4749,"ĠatenciÃ³n":4750,"ĠRodrÃŃguez":4751,"iss":4752,"enos":4753,"color":4754,"ĠcÃ³digo":4755,"ĠRafa":4756,"ucciones":4757,"Ġcreado":4758,"tol":4759,"Ġexclus":4760,"talmente":4761,"Ġmicro":4762,"Ġll":4763,"tadores":4764,"Ġmateria":4765,"ponÃ©s":4766,"Ġestablecer":4767,"ĠPopular":4768,"Ġnaveg":4769,"amo":4770,"Ġagru":4771,"erra":4772,"ĠCÃ³r":4773,"undaciÃ³n":4774,"Ġdinero":4775,"Ġclases":4776,"ĠMed":4777,"Ġdetec":4778,"Ġcabal":4779,"Ġsemana":4780,"Ġdific":4781,"Ġcalles":4782,"Ġpropios":4783,"Ġhem":4784,"Ġmarca":4785,"toral":4786,"Ġcompren":4787,"entro":4788,"Ġcadena":4789,"Ġcampos":4790,"Ġenten":4791,"ĠGeorge":4792,"Ġries":4793,"bios":4794,"Ġtej":4795,"Ġcolum":4796,"ĠexpresiÃ³n":4797,"Ġgoles":4798,"ibilidad":4799,"deros":4800,"bil":4801,"Ġsencillo":4802,"ĠEduardo":4803,"ĠOn":4804,"Ġmotor":4805,"amento":4806,"Ġdisc":4807,"ĠAna":4808,"ĠreligiÃ³n":4809,"ĠDirec":4810,"zi":4811,"tiendo":4812,"Ġversiones":4813,"ĠcampeÃ³n":4814,"Ġ*":4815,"29":4816,"ifornia":4817,"Ġsome":4818,"Ġgenerales":4819,"ĠCÃ¡":4820,"ĠPalacio":4821,"geno":4822,"Ġhaciendo":4823,"Ġperiodista":4824,"ĠPlaza":4825,"Ġproto":4826,"ĠtecnologÃŃa":4827,"Ġtratado":4828,"ku":4829,"ĠEgip":4830,"ĠGab":4831,"ull":4832,"Ġhel":4833,"adÃ©m":4834,"28":4835,"ĠPin":4836,"Ġoriental":4837,"its":4838,"Ġbienes":4839,"Ġprocesos":4840,"logo":4841,"rimiento":4842,"ĠindÃŃgenas":4843,"ĠWin":4844,"Ġvotos":4845,"Ġcontenido":4846,"Ġprofesor":4847,"Ġfondo":4848,"ĠdifÃŃcil":4849,"Ġacerca":4850,"Ġmotivo":4851,"Ġestadounidenses":4852,"Ġbur":4853,"ĠSue":4854,"ĠGua":4855,"27":4856,"Ġcastell":4857,"Ġadecu":4858,"Ġhalla":4859,"Ġclar":4860,"ld":4861,"Ġcombate":4862,"Ġperfec":4863,"inada":4864,"Ġ1974":4865,"ĠfundaciÃ³n":4866,"Ã©ro":4867,"Ġrespectivamente":4868,"bida":4869,"Ġase":4870,"hab":4871,"dias":4872,"Ġconseguir":4873,"ĠBla":4874,"Ġprogram":4875,"tones":4876,"ĠSevilla":4877,"ibe":4878,"Ġveh":4879,"Ġdesempe":4880,"presiÃ³n":4881,"Ġcompletamente":4882,"ivia":4883,"ĠWe":4884,"Ġpudi":4885,"In":4886,"Ġescribir":4887,"Ġinstituciones":4888,"ĠPac":4889,"ueva":4890,"todos":4891,"Ġais":4892,"Ġescal":4893,"omos":4894,"Ġfeder":4895,"ĠUru":4896,"Ġbras":4897,"Ġprac":4898,"bras":4899,"Ġescudo":4900,"Ġmanda":4901,"Ġang":4902,"desa":4903,"dÃ³":4904,"Ġsolamente":4905,"Ġ1975":4906,"Ġrecibe":4907,"ocu":4908,"Ġ1977":4909,"Ġdeman":4910,"Ġpred":4911,"Ġambiente":4912,"ĠEducaciÃ³n":4913,"landÃ©s":4914,"Ġsuje":4915,"Ġaprovech":4916,"ĠdeclarÃ³":4917,"ftware":4918,"ganizaciÃ³n":4919,"Ġprogres":4920,"ĠCada":4921,"ĠDec":4922,"Ġcolombi":4923,"NE":4924,"Ġapr":4925,"asco":4926,"ĠNuevo":4927,"ĠRadio":4928,"ĠprotecciÃ³n":4929,"fra":4930,"Ġprueba":4931,"ĠcorazÃ³n":4932,"Ġhechos":4933,"ĠEgipto":4934,"Ġoperaciones":4935,"olÃ³gicas":4936,"Ġescul":4937,"lie":4938,"ĠCultura":4939,"ĠTro":4940,"Ġsent":4941,"Ġexplic":4942,"Ġautoridades":4943,"fera":4944,"ys":4945,"Ġdiferente":4946,"ĠNeg":4947,"ĠtÃŃtulos":4948,"Ġaj":4949,"Ġapre":4950,"prim":4951,"ĠdebÃŃa":4952,"Ġlevan":4953,"tric":4954,"ĠFor":4955,"ĠSar":4956,"Ġpros":4957,"ĠRevoluciÃ³n":4958,"ĠdÃ©cadas":4959,"olid":4960,"trÃŃa":4961,"Ġvesti":4962,"Ġdefens":4963,"estruc":4964,"Ġsug":4965,"ĠbritÃ¡nica":4966,"Ġmecan":4967,"ĠRiv":4968,"Ġtrabajar":4969,"ritu":4970,"ĠMayor":4971,"antino":4972,"we":4973,"ĠAir":4974,"ĠjaponÃ©s":4975,"let":4976,"ĠDef":4977,"Ġruso":4978,"ess":4979,"ĠJim":4980,"ĠRafael":4981,"Ġ35":4982,"denes":4983,"ĠFr":4984,"Ġalcanzar":4985,"Ġestren":4986,"ĠJulio":4987,"Ġcoinci":4988,"Ã³rmula":4989,"Ġfranceses":4990,"ĠcÃ©":4991,"ĠAustria":4992,"texto":4993,"Ġtenido":4994,"Ġconfirm":4995,"pio":4996,"onces":4997,"ĠcaÃŃda":4998,"ure":4999,"Ġempa":5000,"Ġgana":5001,"Ġsimilares":5002,"ĠgeneraciÃ³n":5003,"istema":5004,"endario":5005,"Ġparro":5006,"Ġcomunes":5007,"Ġcomerciales":5008,"ania":5009,"Ġtum":5010,"ĠelecciÃ³n":5011,"ĠaÃ©":5012,"Ġrendi":5013,"Ġmodific":5014,"Ġautom":5015,"dea":5016,"doba":5017,"ĠRichard":5018,"Ġfamilias":5019,"ulaciÃ³n":5020,"Ãºr":5021,"ĠevoluciÃ³n":5022,"erdo":5023,"terrÃ¡neo":5024,"reras":5025,"Ġganar":5026,"viera":5027,"Ġacce":5028,"Ġcomenzaron":5029,"Ġmedidas":5030,"ĠPeter":5031,"Ġ1930":5032,"35":5033,"Ġofrec":5034,"ĠHel":5035,"Ġhermanos":5036,"84":5037,"ann":5038,"ocracia":5039,"ĠAra":5040,"Ġdipl":5041,"Ġregular":5042,"Ġdisting":5043,"lÃŃn":5044,"ĠAlberto":5045,"ĠRamÃ³n":5046,"ĠConst":5047,"ĠCul":5048,"Ġaltas":5049,"ficaciÃ³n":5050,"ĠCivil":5051,"ĠdiÃ¡":5052,"Ġromana":5053,"vaciÃ³n":5054,"ĠSoviÃ©tica":5055,"Ġdestaca":5056,"elos":5057,"ĠAlejandro":5058,"Ġmovimientos":5059,"âĢĿ.":5060,"puso":5061,"Ġpiezas":5062,"americana":5063,"riendo":5064,"lex":5065,"Ġinteg":5066,"itales":5067,"Ġplaneta":5068,"Ġaquella":5069,"tres":5070,"arquÃŃa":5071,"ĠAlgunas":5072,"Ar":5073,"ĠlatÃŃn":5074,"urar":5075,"ĠmÃ¡xima":5076,"ĠIsabel":5077,"Ġrepublic":5078,"90":5079,"BN":5080,"Ġconquista":5081,"ĠSierra":5082,"Ġdependi":5083,"ĠMetro":5084,"ĠAustralia":5085,"ĠBiografÃŃa":5086,"ĠForm":5087,"Ġsober":5088,"dice":5089,"Ġinspir":5090,"jeron":5091,"Ġfus":5092,"ernos":5093,"ĠpÃ©rdida":5094,"Ġcasas":5095,"ĠaquÃŃ":5096,"ĠdecisiÃ³n":5097,"Ġfracas":5098,"Ġoficialmente":5099,"Ġcastillo":5100,"Ġcomand":5101,"Ġpopulares":5102,"Ġextremo":5103,"poner":5104,"dri":5105,"Ġbasada":5106,"ĠparticipÃ³":5107,"ĠlÃŃmite":5108,"Ġconsiste":5109,"Ġintento":5110,"unidad":5111,"usta":5112,"ĠRic":5113,"diente":5114,"Ġnoti":5115,"bus":5116,"Ġproclam":5117,"Ġexperiencia":5118,"ĠCristo":5119,"Ġadel":5120,"Ġescena":5121,"Ġ1945":5122,"uega":5123,"ĠGuadal":5124,"ritos":5125,"icidad":5126,"taban":5127,"Ġlu":5128,"Ġpiel":5129,"Ġpresidencia":5130,"taÃ±a":5131,"ĠagrÃŃcol":5132,"ĠUno":5133,"Ġcentr":5134,"imas":5135,"itz":5136,"Ġrecibir":5137,"ĠPaz":5138,"Ġescuelas":5139,"Ġproven":5140,"ĠCalifornia":5141,"orld":5142,"Ġrojo":5143,"Ġarri":5144,"Ġ1968":5145,"Ġreinado":5146,"Ġtesti":5147,"ĠVI":5148,"Ġartista":5149,"ĠMic":5150,"Ġoport":5151,"ĠGrecia":5152,"Ġcomport":5153,"Ġ1972":5154,"Ġpuso":5155,"ĠSig":5156,"ĠcatÃ³lica":5157,"75":5158,"illos":5159,"Ġexplor":5160,"ĠPlata":5161,"ĠgeogrÃ¡f":5162,"taria":5163,"viene":5164,"Ġnovel":5165,"Ġ1940":5166,"unal":5167,"Ġrequier":5168,"Ġcarta":5169,"ĠestÃ¡ndar":5170,"Ġgrad":5171,"ĠTeatro":5172,"Ġgrave":5173,"ath":5174,"Ġdando":5175,"demos":5176,"teo":5177,"emente":5178,"Ġterres":5179,"rer":5180,"Ġplante":5181,"ĠPÃ©rez":5182,"Ġconsumo":5183,"Ġmeta":5184,"ĠhistÃ³rica":5185,"Ġestatu":5186,"ĠmÃ©dico":5187,"Ġtemplo":5188,"Ġalemanes":5189,"ĠexpansiÃ³n":5190,"ĠEv":5191,"Ġmuertos":5192,"itada":5193,"ĠPon":5194,"Ġestudiantes":5195,"ĠcontinuaciÃ³n":5196,"Ġcoci":5197,"Ġeuropeos":5198,"stein":5199,"Ġinvierno":5200,"Ã³f":5201,"Ġconstruido":5202,"Ã³so":5203,"dol":5204,"tle":5205,"Ġalemana":5206,"Ġhidr":5207,"ĠmÃºsico":5208,"iber":5209,"ĠEra":5210,"ĠFl":5211,"way":5212,"Ġconm":5213,"Ġger":5214,"Ġverde":5215,"ĠAsimismo":5216,"tencia":5217,"ĠprÃŃncipe":5218,"Ġcay":5219,"ise":5220,"Ġabog":5221,"ĠEspaÃ±ola":5222,"ĠalcanzÃ³":5223,"Ġbloque":5224,"Ġsovi":5225,"ĠSab":5226,"ĠEuropea":5227,"Ġqueda":5228,"edi":5229,"trop":5230,"ĠUruguay":5231,"ajos":5232,"Ġnota":5233,"Ġdescubier":5234,"Ã©ano":5235,"ducir":5236,"ÃŃcti":5237,"ford":5238,"Ġvon":5239,"gica":5240,"Ġventa":5241,"ĠÃ¡rabe":5242,"Ġparal":5243,"ĠCÃ³rdoba":5244,"Ġsola":5245,"Ġinicial":5246,"ĠTal":5247,"ude":5248,"ĠjudÃŃos":5249,"Ġinstala":5250,"99":5251,"Ġcorrec":5252,"quez":5253,"ÃŃl":5254,"Ġpronto":5255,"Ġcapaz":5256,"cipl":5257,"Ã©di":5258,"ĠAso":5259,"ĠTratado":5260,"ichael":5261,"Ġamplia":5262,"Ġdese":5263,"Ġampli":5264,"ĠCharles":5265,"Ġadelante":5266,"ĠdinastÃŃa":5267,"Ġsobrevi":5268,"Ġcierta":5269,"ĠaplicaciÃ³n":5270,"oroeste":5271,"Ġbio":5272,"ĠâĢĺ":5273,"posiciones":5274,"tarÃŃa":5275,"carril":5276,"ĠLen":5277,"âĢĶ,":5278,"Ġterror":5279,"oles":5280,"ĠacadÃ©m":5281,"ĠcapitÃ¡n":5282,"Ġreconocimiento":5283,"ĠOtro":5284,"Ġdemas":5285,"Ġsat":5286,"Ġpresentan":5287,"tios":5288,"alizar":5289,"Ġmoderna":5290,"Ġguion":5291,"88":5292,"ĠPremios":5293,"peci":5294,"ĠEcu":5295,"Ġdenominado":5296,"Ġtransm":5297,"ĠGas":5298,"gura":5299,"Ġurban":5300,"ĠautÃ³n":5301,"Ġtorre":5302,"unta":5303,"Ġbrasile":5304,"cientes":5305,"âĢĿ,":5306,"Ġagricultura":5307,"Ġobispo":5308,"Ġ1969":5309,"ĠcÃ¡n":5310,"Ġinterac":5311,"Ġlin":5312,"ĠTar":5313,"ĠMej":5314,"vio":5315,"Al":5316,"Ġnueve":5317,"ĠEse":5318,"amb":5319,"Ġalf":5320,"mann":5321,"45":5322,"Ġculturales":5323,"rero":5324,"Ġsimplemente":5325,"ĠHi":5326,"Ġfortal":5327,"ish":5328,"Ġtrono":5329,"ĠcomposiciÃ³n":5330,"Ġaseg":5331,"Ġrefiere":5332,"Ġhuman":5333,"Ġnotable":5334,"Ġviento":5335,"Ġindica":5336,"ĠespecÃŃf":5337,"ister":5338,"ÃŃgenes":5339,"Ġusado":5340,"Ġmodelos":5341,"Ġpadres":5342,"izÃ³":5343,"Ġmarco":5344,"ĠfÃŃsico":5345,"Ġcomienzo":5346,"33":5347,"dÃ³n":5348,"Ġmenores":5349,"ĠdenominaciÃ³n":5350,"ĠproteÃŃn":5351,"CA":5352,"Ġcalor":5353,"Ġeventos":5354,"ĠmisiÃ³n":5355,"ĠcontinuÃ³":5356,"lesias":5357,"Ġautoridad":5358,"Ġace":5359,"ĠniÃ±o":5360,"dada":5361,"Ġdispar":5362,"acer":5363,"ĠDomingo":5364,"tora":5365,"ĠGuiller":5366,"ĠlanzÃ³":5367,"65":5368,"Ġcara":5369,"ĠSub":5370,"Ġaspecto":5371,"Ġimpuls":5372,"gaciones":5373,"ÃŃmites":5374,"Ġtradicionales":5375,"Ġcomplejo":5376,"tifici":5377,"ĠVicente":5378,"ĠmÃºltiples":5379,"entando":5380,"Ġdura":5381,"gulo":5382,"Ġâ":5383,"Ġromanos":5384,"Ġcontaba":5385,"Ġcielo":5386,"ĠTorre":5387,"ĠcontemporÃ¡n":5388,"Ġplano":5389,"ĠCampeonato":5390,"ĠAndrÃ©s":5391,"acho":5392,"Ġweb":5393,"Ġestadio":5394,"Ġproyectos":5395,"Ã³mico":5396,"Ġbandas":5397,"ĠfilÃ³so":5398,"chi":5399,"fas":5400,"ĠAD":5401,"Ġbiblio":5402,"Ġ1967":5403,"Ġfactores":5404,"Ġcostum":5405,"ĠallÃ¡":5406,"Ġpuente":5407,"Ġsubs":5408,"istÃ¡n":5409,"ĠuniÃ³n":5410,"ĠAdminist":5411,"Ġhojas":5412,"Ġbusc":5413,"ĠHasta":5414,"ĠGeografÃŃa":5415,"Ġros":5416,"ecciÃ³n":5417,"usto":5418,"ĠSta":5419,"aliza":5420,"ensiones":5421,"ella":5422,"Ġ1920":5423,"up":5424,"ĠgrÃ¡f":5425,"Ġciclo":5426,"ĠlingÃ¼":5427,"ĠdesarrollÃ³":5428,"Ġalber":5429,"En":5430,"cesa":5431,"Ġ1971":5432,"tional":5433,"ates":5434,"Ġlanzamiento":5435,"Ġcomarca":5436,"tarios":5437,"Ġvar":5438,"SS":5439,"ĠCuba":5440,"ĠBill":5441,"Ġrelev":5442,"acas":5443,"Ġterreno":5444,"Ġvolumen":5445,"ĠJunta":5446,"ĠCanadÃ¡":5447,"Ġfiestas":5448,"pertura":5449,"Ġhog":5450,"derÃŃa":5451,"ĠMinisterio":5452,"Ġnar":5453,"Ġpoblaciones":5454,"Ġcurso":5455,"Ġsacerdo":5456,"alismo":5457,"pren":5458,"ĠsÃ©":5459,"tiende":5460,"ĠMichael":5461,"ĠTrib":5462,"Ġintelec":5463,"Ġencima":5464,"tral":5465,"Ġhidro":5466,"ello":5467,"Ġpregun":5468,"ĠsiguiÃ³":5469,"ĠTour":5470,"Ġfas":5471,"ĠpublicaciÃ³n":5472,";\"":5473,"cÃ³n":5474,"Ġsolar":5475,"fes":5476,"Ġaparecen":5477,"Ġfol":5478,"Ġescas":5479,"orado":5480,"Ġfiguras":5481,"ĠGrupo":5482,"Ġdestino":5483,"ĠFrank":5484,"ĠSebas":5485,"ĠIsrael":5486,"ĠpodÃŃan":5487,"ĠGuillermo":5488,"ĠPi":5489,"ĠsÃŃmbolo":5490,"Ġdul":5491,"ÃŃtico":5492,"Ġorg":5493,"Â«":5494,"Ġconex":5495,"bilidad":5496,"ĠfilosofÃŃa":5497,"ĠhacÃŃa":5498,"piraciÃ³n":5499,"remo":5500,"Ġpractic":5501,"align":5502,"ĠJack":5503,"Ġ1936":5504,"anti":5505,"Ġcercan":5506,"Ġapenas":5507,"ĠCarta":5508,"ĠAsamblea":5509,"85":5510,"Ġjard":5511,"Ġprensa":5512,"Ġvisto":5513,"cular":5514,"uth":5515,"ĠPacÃŃfico":5516,"ĠraÃŃz":5517,"Ġpropias":5518,"ĠAlex":5519,"Ġllamados":5520,"Ġcarretera":5521,"Ġsabe":5522,"urÃŃ":5523,"dencias":5524,"Ġfundada":5525,"ĠVan":5526,"ĠBolivia":5527,"Ġincon":5528,"Ġconsiderada":5529,"Ġinmig":5530,"ĠNicol":5531,"Ġpantal":5532,"Ġvideoj":5533,"ĠHern":5534,"ĠvÃŃcti":5535,"Ġtemperaturas":5536,"ĠMartÃŃnez":5537,"Ġcree":5538,"ĠLeon":5539,"ĠNorm":5540,"ĠcondiciÃ³n":5541,"Ġaspectos":5542,"ĠÃģlvar":5543,"ĠcolecciÃ³n":5544,"ĠartÃŃculos":5545,"Ġ500":5546,"Ġdec":5547,"Ġactuales":5548,"Ġpsic":5549,"ami":5550,"oluc":5551,"Ġhistoriador":5552,"Ġurbano":5553,"Ch":5554,"abez":5555,"igh":5556,"Ġdebajo":5557,"teles":5558,"Ġmusicales":5559,"ĠSem":5560,"Ġobserva":5561,"quiera":5562,"Ġriesgo":5563,"eng":5564,"Ġpiloto":5565,"ĠEstadio":5566,"Ġbasado":5567,"Ġorques":5568,"Ġpais":5569,"Ġcorre":5570,"Ġtele":5571,"rÃ¡":5572,"Ġllan":5573,"Ġrepe":5574,"ĠvisiÃ³n":5575,"pira":5576,"Ġdeten":5577,"Ġneu":5578,"ĠHam":5579,"ĠapareciÃ³":5580,"ĠpÃºblicos":5581,"Ġvuelo":5582,"dis":5583,"ĠFac":5584,"ĠHit":5585,"Ġamigos":5586,"ĠinvasiÃ³n":5587,"Ġavent":5588,"tuales":5589,"chez":5590,"Ġganado":5591,"Ã¡nico":5592,"ĠVel":5593,"NA":5594,"ĠHun":5595,"Ġano":5596,"Ġtextos":5597,"Ġencuentro":5598,"Ġdebut":5599,"Ġtotalmente":5600,"ĠISBN":5601,"ĠÃºltimas":5602,"Äģ":5603,"Ġubicada":5604,"ĠÃ¡mbito":5605,"Ġnormalmente":5606,"Ġclave":5607,"ĠSociedad":5608,"egas":5609,"Ġtel":5610,"ĠVill":5611,"Ġcomunidades":5612,"Ġdescar":5613,"86":5614,"Ġnad":5615,"Ġauton":5616,"Ġvecinos":5617,"Ġ45":5618,"Ġponer":5619,"quilib":5620,"Ġestad":5621,"Ġpalacio":5622,"cien":5623,"ĠCÃ©s":5624,"ons":5625,"ĠCO":5626,"RA":5627,"Ġruta":5628,"Ġentorno":5629,"Ġaves":5630,"ĠCataluÃ±a":5631,"Ġvivo":5632,"ĠformÃ³":5633,"Ġfiesta":5634,"Ġcicl":5635,"Ġcui":5636,"Ġfrag":5637,"ĠdefiniciÃ³n":5638,"Ġmig":5639,"ierÃŃa":5640,"Ġacto":5641,"Ġses":5642,"ĠSebasti":5643,"Ġrem":5644,"Ġconsist":5645,"ĠSui":5646,"erna":5647,"isco":5648,"Ġcristian":5649,"ling":5650,"Ġentrev":5651,"ĠCiencias":5652,"Ġpotencia":5653,"Ġutilizando":5654,"ife":5655,"quista":5656,"Ġcompleta":5657,"ĠexpediciÃ³n":5658,"Ġdial":5659,"76":5660,"Ġantiguas":5661,"Ġdejar":5662,"Ġduque":5663,"ĠXI":5664,"Ġpromedio":5665,"Ġocupa":5666,"Ġchileno":5667,"ĠHan":5668,"Ġsemanas":5669,"pole":5670,"Ġalimentos":5671,"Ġreno":5672,"Ġhubi":5673,"grÃŃa":5674,"encial":5675,"ĠperdiÃ³":5676,"Ġuniversidad":5677,"ĠmÃ©todos":5678,"Ã±ez":5679,"didas":5680,"ĠFies":5681,"ciaciones":5682,"Ġmarcha":5683,"Ġreales":5684,"Ġinvestig":5685,"Ġcorresponde":5686,"Ġ()":5687,"ĠfundÃ³":5688,"plement":5689,"Ġcaptur":5690,"temala":5691,"Ġdestacar":5692,"Ġ1964":5693,"rillo":5694,"Ġentrenador":5695,"iense":5696,"Ġtrabajadores":5697,"ĠAsociaciÃ³n":5698,"amÃ¡":5699,"ĠpolicÃŃa":5700,"Ġintelig":5701,"Ġconvers":5702,"Ġrespe":5703,"Ġsectores":5704,"Ã³lica":5705,"ĠdetrÃ¡s":5706,"Ġalmacen":5707,"egos":5708,"Ã©rico":5709,"Ġsit":5710,"Ġanual":5711,"dy":5712,"ĠMario":5713,"Ġbajas":5714,"Ġcompuesta":5715,"ĠinterpretaciÃ³n":5716,"Ã©cord":5717,"ĠGrande":5718,"inales":5719,"Ġllegando":5720,"Ġrefug":5721,"ĠJosep":5722,"ĠÃ¡cido":5723,"ĠOtra":5724,"encio":5725,"ĠTim":5726,"Ġcomunic":5727,"Ġinstalaciones":5728,"Ġvino":5729,"Ġlog":5730,"ĠoperaciÃ³n":5731,"Ġesas":5732,"ĠRol":5733,"kin":5734,"pida":5735,"ĠMuchos":5736,"Ġflores":5737,"ĠSy":5738,"Ġletras":5739,"Ġmezcla":5740,"Ġsoftware":5741,"ement":5742,"Ġrevolucion":5743,"wer":5744,"ardia":5745,"Ġciudadanos":5746,"duce":5747,"grafo":5748,"ĠmolÃ©":5749,"ĠSÃ¡n":5750,"urias":5751,"Ġcerem":5752,"Ġfamoso":5753,"ĠPaÃŃses":5754,"tieron":5755,"ĠencontrÃ³":5756,"ĠWorld":5757,"Ġestructuras":5758,"uciones":5759,"Ġestaciones":5760,"Ġ1966":5761,"tadura":5762,"Ġremo":5763,"Ġaconte":5764,"porta":5765,"Ġ1962":5766,"ĠÃºnicamente":5767,"Ġdejando":5768,"my":5769,"ĠCr":5770,"uce":5771,"Ġdiferencias":5772,"Ġ150":5773,"orio":5774,"ĠÃ³rdenes":5775,"ĠArte":5776,"36":5777,"Ġhaya":5778,"dill":5779,"ĠPresidente":5780,"tificaciÃ³n":5781,"Ġingeni":5782,"ĠOrganizaciÃ³n":5783,"sas":5784,"Ġcandidato":5785,"Ġciertos":5786,"ajas":5787,"ĠrevoluciÃ³n":5788,"ender":5789,"Ġprofundi":5790,"ervi":5791,"Ġimperio":5792,"Ġdesarrollado":5793,"Ġmoderno":5794,"Ġrelativamente":5795,"Ġaltitud":5796,"ĠGuatemala":5797,"Ġabsor":5798,"190":5799,"Ġinclu":5800,"adoras":5801,"Ġreforma":5802,"Ġecl":5803,"ĠAh":5804,"Ġmascul":5805,"ĠNavar":5806,"ieren":5807,"estion":5808,"Ã±ana":5809,"arla":5810,"Ġciviles":5811,"Ġdiplom":5812,"An":5813,"Ġidentidad":5814,"Ġ300":5815,"Ġregreso":5816,"Ġofrece":5817,"ĠSha":5818,"ĠAmeric":5819,"Ġtasa":5820,"Ġfundamental":5821,"riel":5822,"Ġafirma":5823,"cados":5824,"ĠinstituciÃ³n":5825,"ĠlÃŃmites":5826,"Ġenfermedades":5827,"Ġneer":5828,"ultades":5829,"ics":5830,"uelta":5831,"Ġinca":5832,"Ġdensidad":5833,"ĠcientÃŃfico":5834,"\")":5835,"uto":5836,"ciar":5837,"Ġrecibi":5838,"Ã©ticas":5839,"ĠNi":5840,"ĠmontaÃ±as":5841,"grÃ¡fico":5842,"udicial":5843,"Ġnoble":5844,"ĠMÃ¡":5845,"uco":5846,"Ġdemasiado":5847,"Ġminer":5848,"ĠgestiÃ³n":5849,"Ġescuch":5850,"Ġ1965":5851,"ĠAntes":5852,"ĠlÃŃqui":5853,"ĠWa":5854,"Ġcristianos":5855,"ĠSÃ¡nchez":5856,"Ġgl":5857,"ramient":5858,"ĠNaciones":5859,"Ġexac":5860,"ĠArtes":5861,"Ġmir":5862,"ulado":5863,"lament":5864,"trado":5865,"Ġdiario":5866,"Ã£":5867,"rupciÃ³n":5868,"Ãł":5869,"Ġpensamiento":5870,"oledo":5871,"eses":5872,"Ġprol":5873,"Ġformada":5874,"ordin":5875,"ĠMundo":5876,"ĠSecre":5877,"Ġataques":5878,"Ġiba":5879,"ÃŃnea":5880,"ĠPen":5881,"ĠLou":5882,"Ġdescribe":5883,"Ġparticip":5884,"ek":5885,"Ġactiv":5886,"ĠCÃ©sar":5887,"ĠTodos":5888,"ĠGil":5889,"Ġfuertes":5890,"ĠpropÃ³s":5891,"Ġconsiderable":5892,"ĠTre":5893,"Ġtemp":5894,"ĠThomas":5895,"Ġinstrumentos":5896,"ĠColegio":5897,"ĠreacciÃ³n":5898,"Ġinicialmente":5899,"ĠAten":5900,"Ã¡b":5901,"atas":5902,"ajeros":5903,"Ġpermitir":5904,"Ġdolor":5905,"Ġsean":5906,"Ġtempl":5907,"Ġinmedia":5908,"ĠClas":5909,"ĠelÃ©ctrica":5910,"Ãºsque":5911,"Ġanteriormente":5912,"37":5913,"Ġmantiene":5914,"Ġgar":5915,"Ġconvertirse":5916,"Ġclaro":5917,"Ġvuelve":5918,"Ġalcalde":5919,"ĠEE":5920,"Ġadul":5921,"gados":5922,"Ġsexual":5923,"ĠOlÃŃmpicos":5924,"uicio":5925,"ĠcaracterÃŃstica":5926,"Ġretra":5927,"Ġpintura":5928,"ny":5929,"ĠsecciÃ³n":5930,"Ġespi":5931,"trol":5932,"Ġceleb":5933,"Ġanal":5934,"Ġexter":5935,"echas":5936,"Ġbusca":5937,"Ġcorona":5938,"Ġcontrato":5939,"Ġlegisla":5940,"Ġpredomin":5941,"Ġdirecto":5942,"Ġmac":5943,"urg":5944,"Ġactos":5945,"34":5946,"Ġcontexto":5947,"Ġciertas":5948,"uera":5949,"ĠEconomÃŃa":5950,"avera":5951,"Ã³nicas":5952,"Ġnor":5953,"log":5954,"Ġ1958":5955,"Ġescrita":5956,"tidas":5957,"Ġformato":5958,"ĠTV":5959,"ĠactuaciÃ³n":5960,"Ġconvertido":5961,"95":5962,"Ġdirecta":5963,"OS":5964,"Ġlab":5965,"mita":5966,"Ġ#":5967,"Ġmam":5968,"ĠpoesÃŃa":5969,"uelos":5970,"ecieron":5971,"Ġtradu":5972,"Ġevento":5973,"ĠOriente":5974,"Ġreserv":5975,"Ãºm":5976,"Ġhues":5977,"Ġvivir":5978,"ĠFundaciÃ³n":5979,"Ġpropuesta":5980,"Ġbases":5981,"Ġeduca":5982,"ĠBajo":5983,"tisf":5984,"ĠprÃ¡cticamente":5985,"itÃ³":5986,"ezol":5987,"Ġaplicaciones":5988,"Ġpreocu":5989,"Ġfactor":5990,"cionado":5991,"Ġsecretario":5992,"Ġvaria":5993,"Ġsalv":5994,"roso":5995,"Ġ1948":5996,"32":5997,"Ġestablece":5998,"ji":5999,"ĠRica":6000,"Ġencabez":6001,"Ġ1963":6002,"64":6003,"Ġcomponentes":6004,"Ġargentina":6005,"ĠRicardo":6006,"Ġcarne":6007,"orden":6008,"Ġreligiosa":6009,"ĠahÃŃ":6010,"Ġalma":6011,"ĠMartin":6012,"Ġalej":6013,"ronce":6014,"Ġcombust":6015,"ĠmontaÃ±a":6016,"emato":6017,"wood":6018,"ĠIslas":6019,"Ġmiles":6020,"ĠFederal":6021,"ĠHoy":6022,"ĠcrÃŃticas":6023,"Ġrango":6024,"Ġsignificado":6025,"ĠBerlÃŃn":6026,"ĠGranada":6027,"Ġpobre":6028,"Ġdeja":6029,"Ġprevi":6030,"ĠquÃŃmica":6031,"ĠIl":6032,"Ġlograr":6033,"Ġarist":6034,"Ġusando":6035,"Ġcircui":6036,"BA":6037,"uncia":6038,"Ġnoroeste":6039,"ĠAf":6040,"ĠRed":6041,"Ġdesemb":6042,"Ġcampeonato":6043,"aras":6044,"Ġ2023":6045,"Ġgig":6046,"Ġasign":6047,"Ġdenominada":6048,"onos":6049,"ÃŃritu":6050,"Ġvisita":6051,"Ãºan":6052,"89":6053,"Ġexpuls":6054,"ĠclÃ¡sico":6055,"ĠfÃ¡br":6056,"ben":6057,"politana":6058,"ĠentrÃ³":6059,"Ġpec":6060,"Ġhabl":6061,"Ġabierto":6062,"ĠcaÃ±":6063,"Ġcuerpos":6064,"ĠconstruyÃ³":6065,"Ġorganizaciones":6066,"Ã¡ce":6067,"ioneros":6068,"Ġmet":6069,"Ġhierro":6070,"Ġul":6071,"inÃ³":6072,"portar":6073,"Ġinvoluc":6074,"ĠToledo":6075,"ĠpÃºblicas":6076,"ĠfenÃ³meno":6077,"Ġfib":6078,"Ġvice":6079,"Ġincendi":6080,"Ġcalendario":6081,"Ġreconstr":6082,"87":6083,"Ġlider":6084,"Ġsaber":6085,"ĠComunidad":6086,"Ġrecl":6087,"Ġteniendo":6088,"unciÃ³n":6089,"ĠhipÃ³":6090,"Ġpasando":6091,"ĠduraciÃ³n":6092,"ologÃŃas":6093,"Ġhermana":6094,"Ġherramient":6095,"amarca":6096,"Ġarquitecto":6097,"Ġbru":6098,"Ġcomportamiento":6099,"ting":6100,"Ã©la":6101,"ĠPC":6102,"Ġterremo":6103,"ĠcientÃŃficos":6104,"Ġdesconoci":6105,"ĠBretaÃ±a":6106,"angel":6107,"Ġmandato":6108,"Ġrealizada":6109,"Ġcomienzos":6110,"Ġdieron":6111,"Ã©is":6112,"ĠordenÃ³":6113,"Ġpuerta":6114,"Ġaeropuerto":6115,"ĠKo":6116,"Ġvenezol":6117,"Ġdiferenci":6118,"ĠTem":6119,"ush":6120,"uss":6121,"47":6122,"ĠBajos":6123,"hÃŃa":6124,"Ġgenera":6125,"Ġenf":6126,"ĠbÃºsque":6127,"ĠsufriÃ³":6128,"Ġnave":6129,"Ġtabla":6130,"ĠhÃ¡":6131,"ĠXX":6132,"radas":6133,"ĠÃº":6134,"Ġconsideran":6135,"ĠbritÃ¡nicos":6136,"Ġoriginalmente":6137,"ĠNotas":6138,"vie":6139,"Ġcastellano":6140,"fal":6141,"Ġturismo":6142,"sal":6143,"enio":6144,"Ã³mez":6145,"Ġcuyos":6146,"Ġsuma":6147,"Ġmismas":6148,"ĠServi":6149,"ĠComisiÃ³n":6150,"ave":6151,"ĠlÃ³g":6152,"ĠcolaboraciÃ³n":6153,"ĠMy":6154,"Ġflota":6155,"ĠGro":6156,"ony":6157,"Ġespeciales":6158,"Ġdocumentos":6159,"Ġentra":6160,"ĠAnte":6161,"Ġblanca":6162,"asterio":6163,"uerdos":6164,"gÃ©n":6165,"Ġacum":6166,"Ġocul":6167,"Ġmono":6168,"Ġarco":6169,"quin":6170,"Ġpremios":6171,"Ġepisodio":6172,"Ġdiscipl":6173,"quÃŃn":6174,"Ġescritos":6175,"Ġfundador":6176,"39":6177,"Ġtran":6178,"lavos":6179,"Ġejemplos":6180,"ĠPrinci":6181,"ĠÃ³pera":6182,"ĠMunicipal":6183,"BC":6184,"Ġ1939":6185,"ĠconcentraciÃ³n":6186,"IC":6187,"arte":6188,"ĠKing":6189,"itaciÃ³n":6190,"ĠmÃ¡r":6191,"acteri":6192,"rup":6193,"55":6194,"ĠVar":6195,"Ġmaestro":6196,"Ġrelacionados":6197,"eco":6198,"Ġespacios":6199,"ĠCD":6200,"Ġconserva":6201,"izan":6202,"pieza":6203,"nia":6204,"Ġ1944":6205,"Ġrit":6206,"vin":6207,"Ġregional":6208,"No":6209,"Ġsuficiente":6210,"66":6211,"ĠMÃºs":6212,"ĠVall":6213,"Ġartifici":6214,"Ġproducen":6215,"ĠFederaciÃ³n":6216,"Ġimpos":6217,"raestruc":6218,"Ġbarro":6219,"ugh":6220,"ĠpartÃŃculas":6221,"ĠIb":6222,"Ġtransmi":6223,"ĠsoluciÃ³n":6224,"mes":6225,"ĠMov":6226,"ĠsueÃ±o":6227,"ĠLar":6228,"crito":6229,"amor":6230,"ĠHor":6231,"Ġsencil":6232,"SO":6233,"ĠPra":6234,"elas":6235,"ĠrÃ©cord":6236,"Ġcontinente":6237,"didos":6238,"ield":6239,"ĠÃ¡rboles":6240,"Ġdescendi":6241,"Ġposibles":6242,"ĠnaciÃ³n":6243,"Ġhos":6244,"Ġreferirse":6245,"Ġseres":6246,"ĠCastillo":6247,"ĠRock":6248,"Ġdiscos":6249,"eval":6250,"Ġbarcos":6251,"ĠintenciÃ³n":6252,"Ġresponsable":6253,"Ġdespe":6254,"Ġ(Â«":6255,"ĠGÃ³mez":6256,"ĠexcepciÃ³n":6257,"ĠreciÃ©n":6258,"Ġcorpor":6259,"Ġamist":6260,"ĠAlto":6261,"Ġausencia":6262,"zgo":6263,"Ġredes":6264,"Ġhere":6265,"Ġdecor":6266,"ĠcÃ¡mara":6267,"Ġmari":6268,"ĠDaniel":6269,"landa":6270,"ĠllamÃ³":6271,"Ġ1961":6272,"gre":6273,"ae":6274,"ĠIsla":6275,"Ġresol":6276,"Ġbalonces":6277,"Ġvege":6278,"Å«":6279,"ĠZa":6280,"IA":6281,"Ġafric":6282,"48":6283,"Ġrevel":6284,"ĠSobre":6285,"Ġproducido":6286,"Ġrequer":6287,"ĠsatÃ©l":6288,"ĠGuer":6289,"ĠParlamento":6290,"enaje":6291,"Ġ1956":6292,"Est":6293,"Ġtus":6294,"ĠdesempeÃ±":6295,"Ġtard":6296,"pt":6297,"ĠApar":6298,"ĠNavarra":6299,"Ġitaliana":6300,"Ġremon":6301,"amentos":6302,"Ġdoce":6303,"ĠLan":6304,"ĠPri":6305,"ĠComitÃ©":6306,"Ġmuerto":6307,"hol":6308,"ĠGeorg":6309,"Ġasesinato":6310,"uyen":6311,"aller":6312,"Ġconciertos":6313,"Ġ1941":6314,"77":6315,"Ġaltos":6316,"ilos":6317,"Ġcomuna":6318,"ĠTrab":6319,"Ġdesarrollar":6320,"ĠaviÃ³n":6321,"ters":6322,"cher":6323,"Ġpoderes":6324,"ĠpodrÃŃan":6325,"Ġhisp":6326,"ĠADN":6327,"Ġocurre":6328,"Ġeje":6329,"Ġ1959":6330,"ĠprovocÃ³":6331,"Ġequilib":6332,"ĠSistema":6333,"Ã³crata":6334,"NU":6335,"gin":6336,"Ġinci":6337,"Ġ1946":6338,"Ġconstituye":6339,"ĠopiniÃ³n":6340,"lantes":6341,"38":6342,"Ġgriega":6343,"Ġmexicana":6344,"Ã£o":6345,"ela":6346,"Ġdirigido":6347,"31":6348,"ĠCorona":6349,"ĠAugust":6350,"cidas":6351,"pati":6352,"ĠAnt":6353,"amanca":6354,"Ġdictadura":6355,"Ġlev":6356,"Ġocupar":6357,"ĠÃģngeles":6358,"Ġconvoc":6359,"Ġgobi":6360,"Ġfuncionamiento":6361,"ĠInv":6362,"Ġpocas":6363,"ĠTes":6364,"Ġcorta":6365,"Ġencontrado":6366,"ĠficciÃ³n":6367,"cionar":6368,"vos":6369,"Ġreligioso":6370,"diat":6371,"mal":6372,"ĠTec":6373,"Ġcritic":6374,"ĠSebastiÃ¡n":6375,"Ġprecios":6376,"win":6377,"echos":6378,"ĠRegiÃ³n":6379,"ĠFederico":6380,"rana":6381,"Ġresist":6382,"Ġmuseo":6383,"Ġuniverso":6384,"Ġpermiten":6385,"ĠbÃºsqueda":6386,"ĠAtlÃ¡n":6387,"zamiento":6388,"graciÃ³n":6389,"Ġlimita":6390,"ĠEcuador":6391,"ĠOfici":6392,"Ġaviones":6393,"till":6394,"Ġperteneciente":6395,"king":6396,"Ġpasajeros":6397,"Ġcoron":6398,"idal":6399,"ĠPanamÃ¡":6400,"ĠsÃ³l":6401,"Ġescritura":6402,"Ġpareja":6403,"Ġnormal":6404,"Ġreda":6405,"culas":6406,"sin":6407,"Ġsosten":6408,"ĠUnidas":6409,"Ġmur":6410,"denas":6411,"titu":6412,"ĠBon":6413,"67":6414,"ĠBanco":6415,"ĠTres":6416,"Ġronda":6417,"Ġformando":6418,"Ġviene":6419,"ĠAlfre":6420,"Ġelig":6421,"Ġsala":6422,"ĠDÃŃaz":6423,"ĠocÃ©ano":6424,"Ġpublicada":6425,"ĠNicolÃ¡s":6426,"abil":6427,"ĠAsturias":6428,"ampoco":6429,"ĠIndependencia":6430,"Ġtonel":6431,"tilla":6432,"Ġpueda":6433,"Ġejecut":6434,"ĠcÃ¡":6435,"ĠhistÃ³ricos":6436,"ata":6437,"ĠVII":6438,"Ġemo":6439,"ĠZara":6440,"Ġ1955":6441,"Ġcreada":6442,"mith":6443,"Ġestrateg":6444,"amilia":6445,"ĠDoc":6446,"Ġ1000":6447,"Ã¡rez":6448,"ĠCorte":6449,"Ġhabitual":6450,"ĠrÃ¡pido":6451,"Ġescenario":6452,"ĠDepartamento":6453,"cat":6454,"ĠLim":6455,"zados":6456,"eler":6457,"Ġ1947":6458,"ĠAng":6459,"Ġchino":6460,"ĠIncl":6461,"ĠcambiÃ³":6462,"Ġproviene":6463,"Ġhall":6464,"Ġanimal":6465,"Ġhuel":6466,"Ġtrayec":6467,"ĠRen":6468,"Ġletra":6469,"Ã¡fico":6470,"Ġpies":6471,"ĠSupre":6472,"ĠDin":6473,"ĠDesarro":6474,"Ġculto":6475,"ĠPolonia":6476,"ĠocasiÃ³n":6477,"ĠAgust":6478,"Ġimperial":6479,"cada":6480,"Ġliga":6481,"ĠEsco":6482,"68":6483,"Ġconfig":6484,"Ġhoriz":6485,"Ãºme":6486,"uca":6487,"diatamente":6488,"ÃŃfer":6489,"Ġ1957":6490,"ventud":6491,"ĠLuna":6492,"ĠDr":6493,"Ġnecesita":6494,"Ġalter":6495,"Ġcuenca":6496,"Ġimpacto":6497,"ague":6498,"Ġeuropeo":6499,"ER":6500,"Ġimplement":6501,"ĠCastro":6502,"ĠregresÃ³":6503,"ĠDentro":6504,"ĠVil":6505,"Ġpodemos":6506,"ĠserÃŃan":6507,"Ġexplos":6508,"Ġrazones":6509,"ĠSeÃ±ora":6510,"Ġescol":6511,"ĠRoberto":6512,"ray":6513,"ristas":6514,"Ġentrar":6515,"ĠInternet":6516,"Ġpresentes":6517,"ĠPie":6518,"ficamente":6519,"ĠMejor":6520,"Ġenorme":6521,"omb":6522,"ĠclÃ¡sica":6523,"Ġtitulado":6524,"ser":6525,"Ġcultivo":6526,"Ġbreve":6527,"polis":6528,"Ġpuertas":6529,"ĠPhil":6530,"Ġdecreto":6531,"Ġcoronel":6532,"exo":6533,"Ġfel":6534,"Ġdrama":6535,"Ġentidad":6536,"44":6537,"Ġfirma":6538,"ĠEp":6539,"ĠJoa":6540,"trÃ³leo":6541,"ĠvÃŃas":6542,"ueve":6543,"Ġsatisf":6544,"Ġcompuestos":6545,"zÃ³n":6546,"Ġperder":6547,"ĠmaÃ±ana":6548,"ĠAma":6549,"gn":6550,"ium":6551,"TV":6552,"ĠÃļ":6553,"Ġ32":6554,"ĠCarl":6555,"gcolor":6556,"eck":6557,"Ġutilizada":6558,"ĠeconÃ³micas":6559,"Ġguitarra":6560,"Ġegip":6561,"ĠjurÃŃ":6562,"Ġ1949":6563,"ĠJef":6564,"Ġcomandante":6565,"ĠAdministraciÃ³n":6566,"uyendo":6567,"ĠSocial":6568,"ĠCÃ¡mara":6569,"tinos":6570,"Ġ1952":6571,"Hz":6572,"Ġemig":6573,"ĠGi":6574,"rica":6575,"Ġrecep":6576,"vido":6577,"Ġconocidas":6578,"ĠCampo":6579,"Ġancho":6580,"Ġ1943":6581,"Ġprecio":6582,"Ġllamadas":6583,"Ġcambiar":6584,"ipi":6585,"ye":6586,"ĠVictoria":6587,"Ġunif":6588,"ĠRog":6589,"ĠCanal":6590,"ĠexposiciÃ³n":6591,"Ġrecog":6592,"scar":6593,"ÃŃv":6594,"ota":6595,"dujeron":6596,"Ġbombar":6597,"Ġcorto":6598,"Ġdepende":6599,"ĠTrad":6600,"ĠProvincia":6601,"AR":6602,"ĠMich":6603,"ĠBoy":6604,"itarios":6605,"ĠFranco":6606,"Ġ)":6607,"aliciÃ³n":6608,"ĠSt":6609,"Ġcampes":6610,"gÃ¼edad":6611,"CO":6612,"idu":6613,"onales":6614,"Ġ1954":6615,"Ġdescubrimiento":6616,"uces":6617,"Ġatrac":6618,"Ġmone":6619,"ashington":6620,"itados":6621,"ĠSaint":6622,"ĠhipÃ³tesis":6623,"Ġprecipi":6624,"dientes":6625,"ĠFar":6626,"ĠAndal":6627,"ÃŃgeno":6628,"Ġmem":6629,"ĠreuniÃ³n":6630,"raciones":6631,"ĠSco":6632,"ĠHal":6633,"Ġ1942":6634,"ĠIrlanda":6635,"Ġdialec":6636,"ĠenviÃ³":6637,"ĠNuestra":6638,"ĠCha":6639,"Ġ1953":6640,"Ġresulta":6641,"ÃŃvar":6642,"Ġcuarta":6643,"ĠresultÃ³":6644,"Ġindividuos":6645,"Ġdesarrolla":6646,"Ġlatino":6647,"ĠRub":6648,"ĠcasÃ³":6649,"ĠocupaciÃ³n":6650,"Ġintereses":6651,"Ġreducir":6652,"Ġdeporte":6653,"Ġpotencial":6654,"Ġargum":6655,"ĠCortes":6656,"ĠAllÃŃ":6657,"idro":6658,"Ġnarra":6659,"Ġimplic":6660,"Ġreyes":6661,"Ġtub":6662,"ĠperiÃ³dico":6663,"ĠfilÃ³sofo":6664,"Ġdeleg":6665,"Ġextranjeros":6666,"Ġ{":6667,"Ġlanzado":6668,"onÃŃa":6669,"bate":6670,"Ġascenso":6671,"Ġcolonia":6672,"Ġusan":6673,"Ġjuris":6674,"goza":6675,"ĠdirigiÃ³":6676,"Ġarriba":6677,"Ġprocedi":6678,"Ġadmi":6679,"Ġverdad":6680,"Ġlater":6681,"ĠSuecia":6682,"Ġcultiv":6683,"Ġingresos":6684,"Con":6685,"Ġfras":6686,"ĠHitler":6687,"ander":6688,"Ġdefine":6689,"Ġfar":6690,"trica":6691,"Ġ1933":6692,"uaciÃ³n":6693,"Ġhorm":6694,"Ġreconocido":6695,"andia":6696,"Ġ1931":6697,"Ġabre":6698,"Ãºcar":6699,"Ġusuarios":6700,"Ã³geno":6701,"Ġeuropea":6702,"orro":6703,"ĠBl":6704,"Ġfamiliar":6705,"ĠJusticia":6706,"Ġsel":6707,"Ġmunicipales":6708,"ID":6709,"Ġcarreras":6710,"ĠconociÃ³":6711,"Ġrique":6712,"Ġconcierto":6713,"ticiÃ³n":6714,"Ġlogra":6715,"Ġbuscar":6716,"Ġrealizan":6717,"Ġterritorial":6718,"tecas":6719,"Ġatraves":6720,"Ġesco":6721,"usos":6722,"ãĥ":6723,"ast":6724,"Ġcatedral":6725,"Ġobjetivos":6726,"Ġbosques":6727,"Ã³nicos":6728,"Ġdivide":6729,"Ġhablar":6730,"Ġfres":6731,"Ġalco":6732,"Ġbau":6733,"San":6734,"Ġbosque":6735,"gadas":6736,"ĠPoco":6737,"Ġrecord":6738,"ĠAut":6739,"Ġcartas":6740,"ĠDistrito":6741,"ĠteÃ³r":6742,"ĠSalamanca":6743,"Ġviolencia":6744,"enzo":6745,"ĠSantos":6746,"Ġpertenece":6747,"ĠJavier":6748,"ĠintervenciÃ³n":6749,"Ġsuminist":6750,"ĠRu":6751,"Ã¡stico":6752,"Ġusuario":6753,"Ġtea":6754,"ĠtrasladÃ³":6755,"ĠAlcal":6756,"Ġsegui":6757,"Ġ1938":6758,"ĠcÃ¡ncer":6759,"Ġ1937":6760,"Ġrepresentan":6761,"Ġsobr":6762,"Ġesque":6763,"Ġnervi":6764,"Ġsalir":6765,"ani":6766,"ĠFon":6767,"Ġdieci":6768,"ĠIgna":6769,"ĠKe":6770,"Ġ1929":6771,"Ġembaj":6772,"Ġamplio":6773,"Ġec":6774,"Ġsul":6775,"Ġtoneladas":6776,"Ġotom":6777,"Ġacog":6778,"ĠCin":6779,"79":6780,"eles":6781,"Ġmotivos":6782,"Ġmuestran":6783,"Ġguerras":6784,"Ġlocalidades":6785,"ĠIndust":6786,"jero":6787,"ĠSp":6788,"Ġgaran":6789,"cismo":6790,"ĠOccidental":6791,"ĠPl":6792,"Ġdiscurso":6793,"Ġepi":6794,"ĠUl":6795,"Ġrecibido":6796,"Ġorganismos":6797,"ĠWashington":6798,"ĠReyes":6799,"ĠpropÃ³sito":6800,"Ġcontar":6801,"Ġdistritos":6802,"Ġnuclear":6803,"Ġreca":6804,"Ġveinte":6805,"tipo":6806,"Ġ1934":6807,"ĠTr":6808,"icana":6809,"hal":6810,"Ġdioses":6811,"ĠsaliÃ³":6812,"Los":6813,"ĠJohan":6814,"Ġtop":6815,"ĠOriental":6816,"Ġprefer":6817,"Ġllegado":6818,"ĠcrÃŃtico":6819,"Ġcarbono":6820,"Ġmejorar":6821,"Ġmagnitud":6822,"Ġmarch":6823,"ĠintentÃ³":6824,"ÃŃsmo":6825,"dum":6826,"age":6827,"ĠejecuciÃ³n":6828,"FF":6829,"Ġprestig":6830,"Ġdoctr":6831,"Ġpopularidad":6832,"Î±":6833,"Ã³d":6834,"Ġparticularmente":6835,"ĠmÃ¡quina":6836,"Ġocta":6837,"Ġ160":6838,"ficaciones":6839,"ĠconstituciÃ³n":6840,"ĠÃĵscar":6841,"ĠLes":6842,"Ġincluido":6843,"bin":6844,"Ġmm":6845,"Ġllevado":6846,"Ġdoctor":6847,"ridos":6848,"ĠNin":6849,"Ġplane":6850,"ĠtransmisiÃ³n":6851,"Ġmedal":6852,"Ġatle":6853,"Ġflujo":6854,"ĠhÃ©ro":6855,"ĠCro":6856,"ocal":6857,"Ġderiva":6858,"Ġlun":6859,"Ġline":6860,"Ġestima":6861,"Ġprohibi":6862,"ĠAyuntamiento":6863,"Ġglobal":6864,"Ġleyenda":6865,"Ġayudar":6866,"Ġjugar":6867,"diz":6868,"Ġcompetencia":6869,"ĠSac":6870,"49":6871,"xi":6872,"Ġfundado":6873,"ĠGui":6874,"ĠfusiÃ³n":6875,"ĠSenado":6876,"Ġextin":6877,"Ġnegra":6878,"cy":6879,"Ġposiciones":6880,"ĠBiblioteca":6881,"Ġsuperiores":6882,"Ġhomenaje":6883,"Ġune":6884,"ĠNapole":6885,"ocas":6886,"Ġenv":6887,"Ġofer":6888,"Ġelectoral":6889,"Ġrepresentantes":6890,"ĠlÃŃderes":6891,"Ġ1918":6892,"Ġtrop":6893,"timiento":6894,"uero":6895,"Ġtratar":6896,"ĠBatalla":6897,"Ġnorma":6898,"Ġferrocarril":6899,"Ġpacientes":6900,"Ġcaracteriza":6901,"ĠPier":6902,"''":6903,"ah":6904,"Ġcenso":6905,"Ġbarco":6906,"Ġespacial":6907,"ucÃŃa":6908,"ĠTex":6909,"iena":6910,"Ġejerci":6911,"ĠgÃ©neros":6912,"Ġcercano":6913,"VD":6914,"tilidad":6915,"Ġdeseo":6916,"ground":6917,"Ġ$":6918,"jado":6919,"ĠTol":6920,"Ġprivada":6921,"xido":6922,"udio":6923,"ĠMÃºsica":6924,"Ġdemanda":6925,"MA":6926,"83":6927,"Ġboca":6928,"ÃŃci":6929,"tÃ©g":6930,"Ġmonte":6931,"ĠPatrimonio":6932,"Ã³viles":6933,"ĠFalle":6934,"ricaciÃ³n":6935,"ĠDol":6936,"Ġsiguen":6937,"Ġafi":6938,"ĠCarmen":6939,"ĠcuestiÃ³n":6940,"Ġala":6941,"Ġconstitucional":6942,"Ġcoo":6943,"Ġclubes":6944,"Ġcrim":6945,"Ġperdido":6946,"Ġinterme":6947,"Ġaustral":6948,"Ġrequiere":6949,"Ġtitu":6950,"Ġnuestra":6951,"Ġampliamente":6952,"Ġcontam":6953,"dras":6954,"Ġbr":6955,"Ġabajo":6956,"SD":6957,"Ġsirve":6958,"74":6959,"fÃ©":6960,"ĠConstitu":6961,"Ġfrecuentemente":6962,"left":6963,"Ġpropa":6964,"Ġprotagonista":6965,"2000":6966,"duras":6967,"ĠcÃŃr":6968,"Ã¡i":6969,"Ġintroduci":6970,"reros":6971,"sor":6972,"ĠpetrÃ³leo":6973,"entada":6974,"gol":6975,"Ġreglas":6976,"ĠtraducciÃ³n":6977,"tuvieron":6978,"Ġmorir":6979,"Î¿":6980,"Ġ1928":6981,"Ġpeligro":6982,"ĠtrÃ¡fico":6983,"ĠTodo":6984,"gui":6985,"Ġ1932":6986,"Ġllevaron":6987,"ĠatrÃ¡s":6988,"Ġtreinta":6989,"ĠAgustÃŃn":6990,"ĠeconÃ³micos":6991,"ĠCaribe":6992,"Ġprimavera":6993,"well":6994,"Ġcaza":6995,"Ġparlament":6996,"ĠSolo":6997,"ĠAeropuerto":6998,"ĠRico":6999,"ĠhÃºme":7000,"Ġexcel":7001,"Ġcondado":7002,"Ġvein":7003,"ĠcuÃ¡n":7004,"ĠcÃ³m":7005,"ĠNobel":7006,"ezas":7007,"Ġcanales":7008,"ĠHospital":7009,"dillera":7010,"Ġ400":7011,"Ġlegal":7012,"ĠZaragoza":7013,"oya":7014,"Ġidiomas":7015,"ĠTomÃ¡s":7016,"cedentes":7017,"Ġaumentar":7018,"cionados":7019,"ĠCel":7020,"Ġdemocr":7021,"Ġproteger":7022,"ĠIgnacio":7023,"right":7024,"ĠAtl":7025,"ĠvÃŃ":7026,"Ġaust":7027,"92":7028,"Ġmezcl":7029,"uerta":7030,"Ġvictorias":7031,"Ġdocumento":7032,"Ġperuano":7033,"Ġvul":7034,"ĠAtlÃ¡ntico":7035,"Ġgriegos":7036,"jÃ³":7037,"Ġpis":7038,"Ġvendi":7039,"ĠcelebraciÃ³n":7040,"Ġregistro":7041,"ĠWest":7042,"Ġterc":7043,"IB":7044,"Ġbasa":7045,"Ġpresu":7046,"ĠBolÃŃvar":7047,"tuario":7048,"Ġenemigo":7049,"Ġcolombiano":7050,"gl":7051,"Ġterrestre":7052,"ĠJoseph":7053,"for":7054,"entaron":7055,"ĠRena":7056,"ĠtrabajÃ³":7057,"ĠDerecho":7058,"ĠSuiza":7059,"Ġinfraestruc":7060,"ĠproteÃŃnas":7061,"Ġpartid":7062,"Ġinglesa":7063,"Ġconsiderar":7064,"ĠutilizÃ³":7065,"Ġcristal":7066,"Ġmusulmanes":7067,"Ġcontras":7068,"ĠCuenta":7069,"Ġpic":7070,"ĠSegu":7071,"Ġdeterminar":7072,"Ġdesn":7073,"Ġterremoto":7074,"oreste":7075,"mej":7076,"istros":7077,"Ġconstruida":7078,"Ġextrem":7079,"dows":7080,"Ġorganismo":7081,"Ġextiende":7082,"42":7083,"Ġvapor":7084,"ĠSeÃ±or":7085,"Ġrep":7086,"ĠRoy":7087,"ee":7088,"Ġestablecido":7089,"ov":7090,"uk":7091,"Ġvec":7092,"Ġdor":7093,"Ġbin":7094,"Ġurbana":7095,".),":7096,"Ġmodern":7097,"Ã³p":7098,"Ġdecide":7099,"Ġcolonial":7100,"Ġdemo":7101,"Ġinau":7102,"ficiente":7103,"Ġefica":7104,"eamente":7105,"Ġreclam":7106,"abora":7107,"Ġinstrumento":7108,"Ġbarrios":7109,"53":7110,"Ġempe":7111,"Ġhiper":7112,"69":7113,"Ġascen":7114,"ĠCur":7115,"Ġtermina":7116,"Ġinicios":7117,"Ġuniversal":7118,"Ġposeen":7119,"ĠObras":7120,"ĠBay":7121,"ĠGreg":7122,"Ġhistorias":7123,"72":7124,"Ġdisf":7125,"ejo":7126,"reste":7127,"Ġcosa":7128,"Ġ1951":7129,"ĠÃ³rgano":7130,"ald":7131,"Ġaccidente":7132,"Ġgobiernos":7133,"iares":7134,"uga":7135,"Ġlejos":7136,"Ġestudiar":7137,"Ġgala":7138,"Ġtriunfo":7139,"iy":7140,"Ġconflictos":7141,"ĠAnexo":7142,"ĠradiaciÃ³n":7143,"ES":7144,"ierto":7145,"sk":7146,"Ġsimul":7147,"Ġconsideraba":7148,"Ġreligiosas":7149,"Ġile":7150,"Ġincluir":7151,"alizados":7152,"tÃ¡nico":7153,"ĠcientÃŃfica":7154,"eth":7155,"ĠFrente":7156,"ĠtÃ©cnico":7157,"cidentales":7158,"Ġtendencia":7159,"ĠcomparaciÃ³n":7160,"ĠIngen":7161,"Ġobliga":7162,"Ġvariable":7163,"ĠSala":7164,"Ġben":7165,"ĠClar":7166,"ĠcomÃºnmente":7167,"Ġdue":7168,"ĠMit":7169,"Ġreformas":7170,"Ġlluvia":7171,"ĠSor":7172,"vado":7173,"Ġcinemato":7174,"ances":7175,"Ġ1935":7176,"Ġfues":7177,"ĠJoaquÃŃn":7178,"ĠHenry":7179,"ĠTribunal":7180,"Ġconse":7181,"Ġimpi":7182,"ĠCir":7183,"Ġrealmente":7184,"Ġsiguiendo":7185,"Ġevolucion":7186,"Ġdepartam":7187,"ĠEsp":7188,"Ġfrac":7189,"ĠMis":7190,"Ġiglesias":7191,"Ġ1924":7192,"Ġequivalente":7193,"Ġpieza":7194,"Ġmodernos":7195,"ĠMes":7196,"ĠfirmÃ³":7197,"Ġesclavos":7198,"cus":7199,"ips":7200,"gue":7201,"ĠTru":7202,"onso":7203,"Ġabogado":7204,"Ã©st":7205,"Ġmedicina":7206,"ciano":7207,"ĠStu":7208,"ĠRosa":7209,"Ġpermanente":7210,"mÃ¡tica":7211,"xo":7212,"itores":7213,"Ġcapilla":7214,"Ġmedieval":7215,"ĠseparaciÃ³n":7216,"ĠfabricaciÃ³n":7217,"ĠCaracter":7218,"Ġsing":7219,"43":7220,"PA":7221,"Ġconsag":7222,"Ġnormas":7223,"ĠÃ©tn":7224,"Ġtemporadas":7225,"Ġobtiene":7226,"cialmente":7227,"Ġjuicio":7228,"Ġeval":7229,"itando":7230,"Ġprimi":7231,"ĠconvirtiÃ©ndose":7232,"Ġabst":7233,"Ġcanad":7234,"mm":7235,"Ġcens":7236,"Ġpuestos":7237,"Ġtren":7238,"Ġprofesionales":7239,"ĠCine":7240,"ĠNar":7241,"Ã¡stica":7242,"Ġfederal":7243,"Ġdisper":7244,"Ġresidencia":7245,"Ġediciones":7246,"Ġexpor":7247,"ĠmarÃŃti":7248,"ĠBlack":7249,"ĠprogramaciÃ³n":7250,"Ġseguido":7251,"Ġlibres":7252,"Ġmomentos":7253,"Ġagreg":7254,"Ġcumplir":7255,"Ġevidencia":7256,"ĠÃį":7257,"ĠportuguÃ©s":7258,"Ġlluvi":7259,"zco":7260,"Ġdada":7261,"LA":7262,"ÂłÂłÂłÂłÂłÂłÂłÂłÂłÂłÂłÂłÂłÂłÂłÂł":7263,"Ġingeniero":7264,"ĠNapoleÃ³n":7265,"Ġaliados":7266,"Ġsucesor":7267,"Ġuniversidades":7268,"Ġnovelas":7269,"mÃ³s":7270,"blaciÃ³n":7271,"Ġapertura":7272,"Ġreciente":7273,"Ġisrael":7274,"ville":7275,"ĠgrabaciÃ³n":7276,"Ġnuestro":7277,"ĠtensiÃ³n":7278,"ĠfrÃŃo":7279,"Ġ1922":7280,"82":7281,"Ġgla":7282,"Ġjorn":7283,"Ġorquesta":7284,"41":7285,"icano":7286,"Ġinfin":7287,"Ġvincul":7288,"ormes":7289,"ĠconexiÃ³n":7290,"Ġcircunst":7291,"Ġ1917":7292,"Ġutilizados":7293,"ĠLeo":7294,"Ġinmediatamente":7295,"Ġcreciente":7296,"back":7297,"Ġtendr":7298,"Ġdesemboc":7299,"Ã©f":7300,"Ġaprendi":7301,"ĠAndalucÃŃa":7302,"Ġmucha":7303,"Ġ1925":7304,"Ġdeclara":7305,"americanos":7306,"Ġ1919":7307,"ĠDipu":7308,"ĠInvesti":7309,"ĠVida":7310,"Ġhielo":7311,"ĠsÃŃnt":7312,"ĠsitÃºa":7313,"ĠFI":7314,"Ġpier":7315,"Ġentrega":7316,"Ġjurisdic":7317,"Ġprove":7318,"Ġfach":7319,"Ġcantidades":7320,"ificado":7321,"Ġpresidencial":7322,"ĠasociaciÃ³n":7323,"ĠincluÃŃa":7324,"Ġalianza":7325,"ĠDesarrollo":7326,"Ġquiere":7327,"ĠSuperior":7328,"Ġfir":7329,"quilla":7330,"ĠCaball":7331,"Ġonda":7332,"Ġabandonar":7333,"ĠvehÃŃculos":7334,"inete":7335,"guayo":7336,"Ġnadie":7337,"nor":7338,"ÃŃces":7339,"Ġfich":7340,"ĠenseÃ±anza":7341,"fÃŃas":7342,"Ġsierra":7343,"Ġ36":7344,"Ġenemigos":7345,"uiz":7346,"Ġriv":7347,"ĠDemografÃŃa":7348,"Ġrue":7349,"96":7350,"Ġactivo":7351,"ĠtransiciÃ³n":7352,"Ġdestruy":7353,"ĠMedio":7354,"Ġcargos":7355,"Ġprev":7356,"har":7357,"Ġdedicado":7358,"Ġanunci":7359,"Ġplanes":7360,"ĠcompaÃ±ÃŃas":7361,"Ġaun":7362,"Ġbacteri":7363,"Ġcopias":7364,"Ġpista":7365,"dolfo":7366,"Ġllevan":7367,"ĠteorÃŃas":7368,"esi":7369,"portes":7370,"ĠcombinaciÃ³n":7371,"ĠquerÃŃa":7372,"Ġtotalidad":7373,"ionado":7374,"Ġrecorrido":7375,"ĠSmith":7376,"Ġreligiosos":7377,"Ġciencias":7378,"Ġmoral":7379,"presidente":7380,"Ġhistoriadores":7381,"ĠWindows":7382,"amina":7383,"Ġduda":7384,"vileg":7385,"Ġelectrones":7386,"Ġmotores":7387,"ĠcompeticiÃ³n":7388,"ĠConstantino":7389,"Ġdiag":7390,"Ġasi":7391,"ĠnÃºcleos":7392,"ĠZam":7393,"Ġmeridi":7394,"landes":7395,"Ġnacido":7396,"Ġavance":7397,"Ġprofundidad":7398,"ificar":7399,"%.":7400,".:":7401,"ĠAlonso":7402,"ĠespectÃ¡":7403,"Ġasesinado":7404,"usia":7405,"Ġsag":7406,"ski":7407,"ĠHuman":7408,"ume":7409,"46":7410,"Ġhospital":7411,"ĠHistÃ³r":7412,"ĠTab":7413,"56":7414,"tambiÃ©n":7415,"Ġpiano":7416,"Ġsitios":7417,"Ġporcent":7418,"Ġfamosa":7419,"Ġinvestigaciones":7420,"Ġfondos":7421,"Ġvid":7422,"Ġmud":7423,"Ġaceler":7424,"ller":7425,"Ġvertic":7426,"enia":7427,"Ġesfuerzos":7428,"neos":7429,"ĠLorenzo":7430,"rato":7431,"ĠvolcÃ¡n":7432,"Ġ1927":7433,"Ġbomba":7434,"ĠestratÃ©g":7435,"ivi":7436,"Ġcuyas":7437,"tex":7438,"ices":7439,"ĠComer":7440,"Ġculturas":7441,"Ġ1914":7442,"Ġasuntos":7443,"ds":7444,"ĠdebiÃ³":7445,"Ġconsta":7446,"crip":7447,"Ġanex":7448,"iera":7449,"icios":7450,"Ġmensaje":7451,"ĠCuer":7452,"Ġdescubierto":7453,"ĠCorea":7454,"unciÃ³":7455,"Ġbis":7456,"hel":7457,"ĠadaptaciÃ³n":7458,"imno":7459,"tions":7460,"Ġcodi":7461,"Ġensay":7462,"ĠRio":7463,"kov":7464,"Ã©lago":7465,"renos":7466,"Ġama":7467,"Ġjaponesa":7468,"ĠbrasileÃ±o":7469,".\"":7470,"Ġvoto":7471,"pÃ³s":7472,"mor":7473,"ĠatmÃ³s":7474,"ĠGabriel":7475,"iner":7476,"ĠvÃ¡l":7477,"ĠfÃ¡cilmente":7478,"ĠAR":7479,"Ġespera":7480,"ĠclÃŃn":7481,"Ġquedando":7482,"71":7483,"Ġhaci":7484,"Ġbronce":7485,"Ġseries":7486,"Ġfrecuente":7487,"Ġprovincial":7488,"Ġborde":7489,"ĠmatemÃ¡tico":7490,"ĠCity":7491,"ĠDemocr":7492,"Ġmanifies":7493,"ĠRecord":7494,"ĠprisiÃ³n":7495,"ĠConcepciÃ³n":7496,"Ã¡ndolo":7497,"americano":7498,"entalmente":7499,"ĠCe":7500,"vada":7501,"Ġrelo":7502,"ĠDal":7503,"alizÃ³":7504,"Ġplazo":7505,"Ġcero":7506,"Ġsupone":7507,"Un":7508,"Ġlanza":7509,"ĠespÃŃritu":7510,"Ġcubierta":7511,"Ġfiel":7512,"Ġescla":7513,"Ġventas":7514,"ĠdescubriÃ³":7515,"Ġdigital":7516,"Ġcristiana":7517,"Ġcorrespondiente":7518,"ĠRosario":7519,"ĠdestrucciÃ³n":7520,"Ġpoema":7521,"Ã©rcitos":7522,"2004":7523,"ĠHacia":7524,"ĠAntigu":7525,"acen":7526,"Ġjusticia":7527,"Ġtampoco":7528,"Ġcabec":7529,"Ġuru":7530,"Ġplas":7531,"ĠHugo":7532,"Ġparroquia":7533,"laga":7534,"Ġestatal":7535,"Ġguitarrista":7536,"ÃŃferos":7537,"ĠFis":7538,"Ġrendimiento":7539,"culaciÃ³n":7540,"amar":7541,"ĠcrÃŃticos":7542,"uar":7543,"Ġmembran":7544,"Ġdefinitivamente":7545,"ĠMurcia":7546,"Ġdev":7547,"une":7548,"Ġinno":7549,"ĠÃ©sta":7550,"ĠParaguay":7551,"ĠTorres":7552,"Ġrein":7553,"EspaÃ±a":7554,"ĠreducciÃ³n":7555,"ĠPel":7556,"azz":7557,"ĠMax":7558,"ĠPolÃŃtica":7559,"ade":7560,"gotÃ¡":7561,"ĠArt":7562,"Ġrama":7563,"Ġdiputados":7564,"ĠTan":7565,"Ġoriginales":7566,"Ġindividuo":7567,"iados":7568,"ĠabandonÃ³":7569,"Ġpropuso":7570,"Ġescritores":7571,"trico":7572,"ĠoxÃŃgeno":7573,"tnam":7574,"ĠAlianza":7575,"uge":7576,"Ġdestacados":7577,"ĠvÃŃctimas":7578,"logÃŃa":7579,"tadora":7580,"Ġ1923":7581,"Ġdata":7582,"ĠÃ³rbita":7583,"Ã¡ndole":7584,"Ã³logos":7585,"98":7586,"tizar":7587,"Ġga":7588,"Ã©lgica":7589,"venir":7590,"Ġencontraban":7591,"Ġdeterminado":7592,"Ġarchivos":7593,".).":7594,"ulada":7595,"Ġped":7596,"Ġpresentar":7597,"ĠEstudios":7598,"ĠFuerza":7599,"ĠWol":7600,"ĠubicaciÃ³n":7601,"Ġmoneda":7602,"ĠFerro":7603,"Ġdemocracia":7604,"ĠGalicia":7605,"Ġerror":7606,"tici":7607,"ficiencia":7608,"Ġcron":7609,"ĠPam":7610,"Ġnombra":7611,"Ġhabita":7612,"ĠAll":7613,"Ġpele":7614,"ĠacabÃ³":7615,"Ġindependientes":7616,"Ġverdadero":7617,"yÃ³":7618,"Ġextranjero":7619,"Ġempleo":7620,"ĠVega":7621,"ĠMont":7622,"Ġhumor":7623,"',":7624,"ĠCÃ³":7625,"orneo":7626,"Ġpira":7627,"imia":7628,"Ġorbi":7629,"Ġestric":7630,"ĠFun":7631,"Ġhubiera":7632,"ĠAv":7633,"Ġquinto":7634,"ture":7635,"Ã©nez":7636,"ĠUE":7637,"Ġrural":7638,"51":7639,"entados":7640,"ĠJaime":7641,"ĠmÃŃ":7642,"ioso":7643,"2003":7644,"pero":7645,"Ġlados":7646,"ĠAlta":7647,"Ġrecientemente":7648,"ĠpatrÃ³n":7649,"58":7650,"Ġprivileg":7651,"cesiÃ³n":7652,"tto":7653,"acha":7654,"Ġnecesidades":7655,"Ġdeuda":7656,"Ġjudicial":7657,"ĠBlo":7658,"Ġprede":7659,"2001":7660,"Ġjer":7661,"Ġilust":7662,"Ġsecreto":7663,"Ã³stico":7664,"ĠRegional":7665,"Ġsecundaria":7666,"ĠviviÃ³":7667,"Ġdimensiones":7668,"uecos":7669,"Ġemerg":7670,"Ġoportunidad":7671,"54":7672,"paciones":7673,"Ġvoluntad":7674,"Ġdulce":7675,"ĠgÃ³":7676,"Ġverdadera":7677,"Ġcontienen":7678,"ĠRay":7679,"ĠposesiÃ³n":7680,"tte":7681,"Ã³bal":7682,"Ġantic":7683,"Ġmargen":7684,"Ġterminar":7685,"Ġexistentes":7686,"clo":7687,"Ġinforme":7688,"Ġcamp":7689,"ĠProvinci":7690,"ique":7691,"Ġestablecimiento":7692,"Ġreferencias":7693,"fin":7694,"Ġpagar":7695,"ĠmecÃ¡nica":7696,"Ġdiscu":7697,"bul":7698,"empo":7699,"Ġneutr":7700,"ĠcategorÃŃas":7701,"Ġalar":7702,"ĠDeportivo":7703,"hite":7704,"erte":7705,"Ġcanta":7706,"2002":7707,"59":7708,"ferencias":7709,"ĠHom":7710,"burg":7711,"udal":7712,"terios":7713,"edor":7714,"ĠJan":7715,"ĠagrÃŃcola":7716,"EC":7717,"ĠAuto":7718,"Ġnoreste":7719,"Ġ1910":7720,"Ġclim":7721,"Ġexcepto":7722,"tÃ©s":7723,"leza":7724,"ĠEscri":7725,"ĠnombrÃ³":7726,"Ġsemif":7727,"Ġges":7728,"Ġasal":7729,"52":7730,"Ġpese":7731,"ĠpermaneciÃ³":7732,"ĠQuin":7733,"Ġcercana":7734,"bÃ³n":7735,"cÃº":7736,"Ġfantas":7737,"73":7738,"Ã³micas":7739,"Ġabierta":7740,"ĠMediterrÃ¡neo":7741,"ĠrepÃºblica":7742,"ĠraÃŃces":7743,"Ġ1921":7744,"riles":7745,"rias":7746,"Ġcasco":7747,"ecuen":7748,"ĠLatina":7749,"oros":7750,"Ġculmin":7751,"ometrÃŃa":7752,"Ġrelacionadas":7753,"Ġcaballo":7754,"Ġsombra":7755,"key":7756,"ĠorÃŃgenes":7757,"ĠTeresa":7758,"Ġdisponible":7759,"emia":7760,"rador":7761,"iversario":7762,"Ġrival":7763,"ĠcayÃ³":7764,"hr":7765,"Ġescenas":7766,"Ġ1926":7767,"Ġclan":7768,"esis":7769,"ĠmÃºsicos":7770,"Ġlum":7771,"ĠLee":7772,"tizaciÃ³n":7773,"Ġperspec":7774,"Ġsecuencia":7775,"2005":7776,"ĠRin":7777,"Ġaquellas":7778,"ĠmolÃ©culas":7779,"TP":7780,"Ġconsul":7781,"ĠMill":7782,"jan":7783,"sburgo":7784,"lesc":7785,"Ġpinturas":7786,"Ġcomprom":7787,"usal":7788,"Ġmonarca":7789,"ĠdescripciÃ³n":7790,"ju":7791,"Ġestall":7792,"ĠMarcos":7793,"Ġcomedia":7794,"ĠLouis":7795,"Ġcomida":7796,"Ġmenciona":7797,"orit":7798,"ĠrÃ¡pida":7799,"ĠatmÃ³sfera":7800,"Ġ1900":7801,"ĠChi":7802,"Ġarras":7803,"100":7804,"pens":7805,"Ġnub":7806,"idor":7807,"ecuencias":7808,"ĠSant":7809,"Ġfama":7810,"Ġcausas":7811,"lada":7812,"traciÃ³n":7813,"ĠÃ¡lbumes":7814,"trando":7815,"Ġocasion":7816,"ĠdifusiÃ³n":7817,"ĠCristÃ³bal":7818,"Ġsexo":7819,"Ġrelie":7820,"ĠMovimiento":7821,"Ġmel":7822,"Ġhal":7823,"Ã¡nicos":7824,"grama":7825,"Ġpoemas":7826,"Ġajust":7827,"ĠBogotÃ¡":7828,"ĠpidiÃ³":7829,"ĠCaracterÃŃsticas":7830,"ÃŃso":7831,"Ġviven":7832,"Ġacces":7833,"onatos":7834,"ĠespaÃ±olas":7835,"colo":7836,"ĠafirmÃ³":7837,"ĠcoaliciÃ³n":7838,"Ġentender":7839,"iÃ©ndose":7840,"Ġdispositivos":7841,"ĠautonomÃŃa":7842,"san":7843,"Ġdeclarado":7844,"ĠjugÃ³":7845,"ionero":7846,"ĠocupÃ³":7847,"Ġimpuestos":7848,"Ġritmo":7849,"ĠdaÃ±os":7850,"Ġcomenzado":7851,"Ġpoblado":7852,"ĠCham":7853,"ult":7854,"lanos":7855,"ĠSun":7856,"ĠestÃ©":7857,"Ġtir":7858,"Ġdescan":7859,"ĠTok":7860,"timologÃŃa":7861,"Ġhin":7862,"81":7863,"Ġactiva":7864,"ĠGobern":7865,"ĠcÃº":7866,"Ġviajes":7867,"ĠCultural":7868,"ear":7869,"ĠFi":7870,"Ġposiblemente":7871,"pac":7872,"ĠCompaÃ±":7873,"ges":7874,"ĠAgu":7875,"Ġ33":7876,"Ġesfuerzo":7877,"Ġregionales":7878,"viv":7879,"Ġacerc":7880,"ĠfÃ³rmula":7881,"Ġimpe":7882,"Ġpartida":7883,"menes":7884,"quÃ©s":7885,"Ġinfantil":7886,"uck":7887,"ĠGlo":7888,"Ã¡mico":7889,"Ġgrados":7890,"Ġcorrientes":7891,"ĠVo":7892,"Ġpac":7893,"Ġido":7894,"ĠDom":7895,"ĠmÃŃnimo":7896,"ĠfalleciÃ³":7897,"ĠAtlÃ©tico":7898,"aves":7899,"Ġid":7900,"Ġrepresentar":7901,"ĠrebeliÃ³n":7902,"tamento":7903,"Ġiniciativa":7904,"Ġsemi":7905,"cuenta":7906,"ĠexplotaciÃ³n":7907,"Ġequilibrio":7908,"ĠSag":7909,"Ġriqueza":7910,"ĠfÃ³s":7911,"izados":7912,"urt":7913,"Ġexplica":7914,"ĠMarco":7915,"Ġcola":7916,"incesa":7917,"Ġseguidores":7918,"Ġtorm":7919,"Ġrin":7920,"Ġhipo":7921,"Ġjuntos":7922,"ĠprÃ¡cticas":7923,"Ġalcance":7924,"ĠpolÃ©m":7925,"rilla":7926,"Ġnaciones":7927,"olina":7928,"dest":7929,"ĠViena":7930,"ĠresoluciÃ³n":7931,"Ġetapas":7932,"ĠFacultad":7933,"Ġcontrolar":7934,"hat":7935,"ĠAÃ©":7936,"Ġefectu":7937,"Ġdisfru":7938,"ball":7939,"junto":7940,"ĠCi":7941,"iger":7942,"ombr":7943,"ĠGen":7944,"ĠdedicÃ³":7945,"hua":7946,"Ġamenaza":7947,"Ġaflu":7948,"ĠconservaciÃ³n":7949,"ĠSho":7950,"ĠVasco":7951,"dula":7952,"Ġescritora":7953,"ompe":7954,"fel":7955,"toÃ±o":7956,"Ġdro":7957,"Ġprolong":7958,"mol":7959,"Ġabor":7960,"ĠZel":7961,"xa":7962,"Ã¡sico":7963,"ÃŃna":7964,"ĠYou":7965,"ĠsÃŃntomas":7966,"Ġhacerse":7967,"Ġjusto":7968,"ĠBÃ©lgica":7969,"unas":7970,"Ġsupon":7971,"Ġexclusivamente":7972,"inadas":7973,"ĠÃ¡rabes":7974,"ĠTeo":7975,"ĠcompaÃ±eros":7976,"Ġcristianismo":7977,"ĠEug":7978,"62":7979,"Ġpersonalidad":7980,"Ġcuadro":7981,"kes":7982,"Ġbudi":7983,"Ġcontinuar":7984,"CC":7985,"ĠNav":7986,"Ġrecientes":7987,"ĠneerlandÃ©s":7988,"ĠInte":7989,"97":7990,"2006":7991,"Ġinvad":7992,"ĠPuente":7993,"Ġrutas":7994,"ĠEdward":7995,"Ġreti":7996,"Re":7997,"ĠAugusto":7998,"63":7999,"Ġleche":8000,"idera":8001,"ÃŃmenes":8002,"Ġadolesc":8003,"ĠDVD":8004,"Ġmonasterio":8005,"Ġrepresentante":8006,"Ġpromul":8007,"Ġpantalla":8008,"ĠuniÃ³":8009,"Ġubica":8010,"field":8011,"icho":8012,"ĠTecn":8013,"ĠCarrera":8014,"ĠintroducciÃ³n":8015,"ecÃŃan":8016,"ĠJunto":8017,"Ġdependiendo":8018,"inger":8019,"ĠpÃ¡":8020,"ĠAgr":8021,"Ġinfancia":8022,"Ġpersonales":8023,"Ġcostas":8024,"Ġalcanza":8025,"Ġ1912":8026,"ĠCle":8027,"vila":8028,"Ġepisodios":8029,"estiones":8030,"ĠpresentaciÃ³n":8031,"ĠJaco":8032,"ĠNÃº":8033,"af":8034,"arre":8035,"ĠPresiden":8036,"ĠFab":8037,"ĠMik":8038,"Ġcuentan":8039,"zob":8040,"Ġsureste":8041,"Ġliberal":8042,"Ġtradiciones":8043,"cambio":8044,"dicas":8045,"olas":8046,"ĠReci":8047,"Ġzar":8048,"Ġdestacado":8049,"ĠLibro":8050,"iver":8051,"1999":8052,"Ġfestival":8053,"Ġrayos":8054,"Ġdeca":8055,"Ġpoca":8056,"ÏĤ":8057,"Ġabsoluta":8058,"Ġconceptos":8059,"ĠMilitar":8060,"onÃ©s":8061,"pula":8062,"Ġsuro":8063,"Ġdefinitiva":8064,"Ġmecanismo":8065,"igas":8066,"Ġcomprende":8067,"ĠLatino":8068,"Ġinfec":8069,"ĠautÃ³noma":8070,"ĠAvenida":8071,"Ġformal":8072,"ĠMarina":8073,"cionario":8074,"Ġilum":8075,"Ġexpon":8076,"Ġpasos":8077,"ĠPrimer":8078,"Ġtribus":8079,"Ġaumenta":8080,"ĠRem":8081,"usiones":8082,"Ġaparecer":8083,"arc":8084,"ĠSocialista":8085,"ÃŃctor":8086,"Ġarena":8087,"Ġsacri":8088,"ĠSeguridad":8089,"dela":8090,"ĠlÃŃquido":8091,"ĠdebÃŃan":8092,"ĠGÃ©n":8093,"Ġgub":8094,"Ġaux":8095,"elli":8096,"tara":8097,"Ġsuici":8098,"ĠpÃ¡ginas":8099,"ĠDen":8100,"Ġresolver":8101,"Ġramas":8102,"Ġviejo":8103,"ĠMoscÃº":8104,"ĠAcon":8105,"Ã±ar":8106,"Ġinfluy":8107,"Ġfemenino":8108,"Ġcircuito":8109,"ther":8110,"Ġingleses":8111,"mat":8112,"Ġobservar":8113,"omÃ©st":8114,"alia":8115,"Ġbgcolor":8116,"Ġpatrimonio":8117,"Ġmultitud":8118,"ĠmatemÃ¡ticas":8119,"undir":8120,"Ġllegan":8121,"ets":8122,"Ġindustriales":8123,"toriales":8124,"Ã³lico":8125,"ĠquiÃ©n":8126,"ĠModer":8127,"Ġcontinental":8128,"ĠComunista":8129,"57":8130,"ĠmetÃ¡l":8131,"Ġimplica":8132,"Ġsupuso":8133,"ĠazÃºcar":8134,"tornos":8135,"ĠNie":8136,"âĢĶ.":8137,"Ġfueran":8138,"ĠRojo":8139,"Ġgole":8140,"Ġventaja":8141,"ĠsurgiÃ³":8142,"Ġbits":8143,"ĠLis":8144,"Ġhogar":8145,"Ġrefor":8146,"Ġrig":8147,"urada":8148,"aragua":8149,"Ġretirada":8150,"Ġrasgos":8151,"Ġtol":8152,"Ġacord":8153,"94":8154,"Ġigualmente":8155,"Ġfamiliares":8156,"ĠmillÃ³n":8157,"Ġnut":8158,"ĠFilip":8159,"ĠNegro":8160,"Ġnegocios":8161,"Ġrestr":8162,"Ġemis":8163,"ĠConfe":8164,"Ġviviendas":8165,"ĠdiÃ¡metro":8166,"denal":8167,"rores":8168,"ĠExiste":8169,"Ġconstituyen":8170,"Ġnotables":8171,"gio":8172,"Ġtitular":8173,"Ġlegis":8174,"Ġimpul":8175,"ĠBlanco":8176,"ĠÃ³rganos":8177,"Ġlicencia":8178,"ĠMach":8179,"Ġcelular":8180,"ĠUs":8181,"Ġdescenso":8182,"Äĩ":8183,"ĠKu":8184,"Ġguard":8185,"Ġdefender":8186,"Ġplaya":8187,"garo":8188,"ilas":8189,"Ġacor":8190,"ĠInform":8191,"iosa":8192,"ĠÃĹ":8193,"Ã±Ã³n":8194,"ĠsucesiÃ³n":8195,"ĠmostrÃ³":8196,"dell":8197,"Ġrecin":8198,"lula":8199,"ĠincluyÃ³":8200,"ĠÃ©xitos":8201,"Ġtribu":8202,"IS":8203,"Ġnecesaria":8204,"61":8205,"Ġregu":8206,"ĠseÃ±ales":8207,"Ġdificultades":8208,"Ġmonumento":8209,"ĠmontaÃ±os":8210,"ĠBea":8211,"usieron":8212,"ĠIra":8213,"urus":8214,"Ġpublica":8215,"Ġnit":8216,"ĠAdri":8217,"Ġoferta":8218,"Ġlistas":8219,"Ġenfo":8220,"ÃŃficamente":8221,"heim":8222,"2007":8223,"op":8224,"ĠMarcel":8225,"Ġsemej":8226,"Ġhuev":8227,"Ġrelacionado":8228,"Ġza":8229,"ĠAtenas":8230,"Ġgraves":8231,"osotros":8232,"ĠarquitectÃ³n":8233,"ĠEle":8234,"Ġneo":8235,"ĠFron":8236,"Ġdedicada":8237,"Ġrealizaron":8238,"Ġjam":8239,"Ġcurva":8240,"Ġestrategia":8241,"ĠIz":8242,"ĠBau":8243,"Ġpuertos":8244,"ĠMark":8245,"Ġservir":8246,"idel":8247,"ĠolÃŃmp":8248,"Ġentrevista":8249,"usk":8250,"Ġmito":8251,"Ġpone":8252,"ĠStre":8253,"ĠVÃŃctor":8254,"ĠconsiderÃ³":8255,"Ġsilencio":8256,"ĠGir":8257,"Ġvariedades":8258,"\"),":8259,"Ġcog":8260,"ĠSpi":8261,"icismo":8262,"incl":8263,"arita":8264,"Ġofens":8265,"ĠestrenÃ³":8266,"randa":8267,"viendo":8268,"ĠdisposiciÃ³n":8269,"Ġcil":8270,"xia":8271,"ĠVis":8272,"Ġcen":8273,"Ġrusa":8274,"ĠPic":8275,"Ġpesca":8276,"ĠMusic":8277,"Ġredac":8278,"ĠBil":8279,"----":8280,"ĠmÃ¡quinas":8281,"Ġater":8282,"onios":8283,"Ġcanadiense":8284,"Ġsoporte":8285,"ĠmonarquÃŃa":8286,"Ġrol":8287,"ĠcontinÃºa":8288,"Ġcincuenta":8289,"ĠocurriÃ³":8290,"93":8291,"Ġluna":8292,"ĠecuaciÃ³n":8293,"Ġpudiera":8294,"Ġliberales":8295,"Ġacontecimientos":8296,"grado":8297,"zaje":8298,"Ġtrist":8299,"dador":8300,"Ġimpar":8301,"Ġtiro":8302,"ifa":8303,"bral":8304,"ĠasumiÃ³":8305,"Ġceremonia":8306,"dam":8307,"ĠRad":8308,"ĠDefensa":8309,"Ġesperanza":8310,"ĠJerusal":8311,"Ġrecuperar":8312,"antil":8313,"igna":8314,"Ġanillo":8315,"Ġcolonias":8316,"Ġtestimon":8317,"quina":8318,"ĠCÃ¡diz":8319,"ĠFlores":8320,"Ġnoc":8321,"eramente":8322,"Ġfrecuentes":8323,"Ġliteraria":8324,"Ġdelante":8325,"ĠMuer":8326,"Ġarma":8327,"Ġfilos":8328,"ĠÃ³p":8329,"Ġmantenimiento":8330,"Ġnoticias":8331,"Ġfechas":8332,"ĠcÃ³n":8333,"Ġexit":8334,"pulaciÃ³n":8335,"Ġprimaria":8336,"Ġsustancias":8337,"500":8338,"Ġempieza":8339,"idaciÃ³n":8340,"Ġindios":8341,"ak":8342,"emin":8343,"Ġterrenos":8344,"edores":8345,"Ġindividual":8346,"ĠPark":8347,"Ġintrodujo":8348,"Ġple":8349,"Ġaer":8350,"ĠChica":8351,"Ġautomo":8352,"tm":8353,"Ġperci":8354,"ĠMendo":8355,"ustr":8356,"Ġclara":8357,"Ġescribe":8358,"Ïģ":8359,"ĠantigÃ¼edad":8360,"ĠÃģlvarez":8361,"phy":8362,"Ġfracaso":8363,"ementerio":8364,"Ġagres":8365,"ĠCaracas":8366,"ĠRodri":8367,"Ġeditorial":8368,"ĠAmerican":8369,"ispan":8370,"Ġcabecera":8371,"Ġpene":8372,"ĠCamp":8373,"Ġblancos":8374,"Ġcobre":8375,"Ġactores":8376,"Ġenlace":8377,"Ġalfabe":8378,"iedo":8379,"Ġcolumna":8380,"ĠCompaÃ±ÃŃa":8381,"Ġom":8382,"tidi":8383,"uts":8384,"Ġindividuales":8385,"2010":8386,"ĠabriÃ³":8387,"Ġconsigue":8388,"Ġsaque":8389,"Ġbelleza":8390,"Ġcm":8391,"Ġconsejo":8392,"ĠAk":8393,"ĠRib":8394,"yac":8395,"ĠSom":8396,"Ġcontinua":8397,"ĠTransporte":8398,"Ġclaramente":8399,"Ġinterno":8400,"Ġultra":8401,"plas":8402,"Ġplataforma":8403,"Ġcerebro":8404,"DA":8405,"Ġsosp":8406,"ĠBlanca":8407,"Ġfuncional":8408,"Ġvive":8409,"Ġferrovi":8410,"esper":8411,"ĠRuiz":8412,"alizadas":8413,"ablemente":8414,"ĠhidrÃ³geno":8415,"aste":8416,"ĠMir":8417,"tron":8418,"jada":8419,"Ġ120":8420,"Ġmasas":8421,"Ġprivado":8422,"nal":8423,"tomos":8424,"Ġlabora":8425,"pÃ©":8426,"Ġdecisiones":8427,"Ã±ado":8428,"rial":8429,"Ġinmigrantes":8430,"Ġreper":8431,"Ġregresar":8432,"Ġdisputa":8433,"Ġopon":8434,"ĠRum":8435,"vaciones":8436,"ĠLove":8437,"zando":8438,"paÃ±as":8439,"baciones":8440,"ĠAÃ±os":8441,"Ġprohi":8442,"Ġlectura":8443,"Ġfachada":8444,"Ġbiblioteca":8445,"ĠPad":8446,"ĠGusta":8447,"ianas":8448,"Ġpago":8449,"Ġtarje":8450,"Ġintentos":8451,"ĠÃīl":8452,"Ġentidades":8453,"Ġsalvo":8454,"ĠsirviÃ³":8455,"ĠpÃ¡gina":8456,"Ġexca":8457,"ĠliberaciÃ³n":8458,"Ġpronunci":8459,"Ġvigor":8460,"Ġejecutivo":8461,"Î½":8462,"Ġcapaces":8463,"\"|":8464,"tano":8465,"voc":8466,"Ã¡z":8467,"ÃŃsica":8468,"Ġabol":8469,"tea":8470,"Ġprocedentes":8471,"diales":8472,"itudes":8473,"ĠPierre":8474,"ĠBul":8475,"Ġsucede":8476,"cir":8477,"ĠNÃ¡":8478,"Ġlograron":8479,"Ġirreg":8480,"\").":8481,"Ġdom":8482,"ĠAllen":8483,"Ġporcentaje":8484,"ĠcÃ¡r":8485,"Ġdesap":8486,"ugos":8487,"ĠHungrÃŃa":8488,"ĠPap":8489,"Ġdiscur":8490,"ĠcelebrÃ³":8491,"ĠTelevisiÃ³n":8492,"Ġaceite":8493,"ius":8494,"ĠvegetaciÃ³n":8495,"ĠLog":8496,"ĠSalud":8497,"Ġtemporal":8498,"Ġacceder":8499,"bs":8500,"ĠPIB":8501,"Ġtecl":8502,"hen":8503,"Ġeliminar":8504,"Ġsujeto":8505,"iti":8506,"pÃŃa":8507,"ĠmarcÃ³":8508,"Ġfranco":8509,"Ġrecuer":8510,"Ġmetales":8511,"ĠsÃŃmbolos":8512,"Ġrocas":8513,"tive":8514,"Ġnaves":8515,"ĠÅ":8516,"egr":8517,"Ġsegundos":8518,"Ġexam":8519,"Car":8520,"inaciones":8521,"aunque":8522,"tronomÃŃa":8523,"ĠsimultÃ¡n":8524,"Ġsale":8525,"fecto":8526,"ĠGuin":8527,"udas":8528,"ficio":8529,"%,":8530,"ĠdepÃ³s":8531,"omor":8532,"Ġconciencia":8533,"Ġvideojuegos":8534,"ĠFamilia":8535,"Ġquedaron":8536,"Ġestrecho":8537,"Ġmala":8538,"urales":8539,"Ġcuel":8540,"Ġenz":8541,"Ġarreg":8542,"Ġtramo":8543,"ĠrealizaciÃ³n":8544,"Ġcolumnas":8545,"hum":8546,"ĠJerusalÃ©n":8547,"erba":8548,"Ġexilio":8549,"Ġsimbol":8550,"Ġencargado":8551,"ĠmaÃŃz":8552,"ĠdeberÃŃa":8553,"teor":8554,"Ġoccidentales":8555,"Ġcromos":8556,"Ġtocar":8557,"ence":8558,"Ġideal":8559,"Ġfortaleza":8560,"Ġsello":8561,"Ġpudieron":8562,"Ġant":8563,"Ġatacar":8564,"Ġenviado":8565,"ĠcontÃ³":8566,"Ġret":8567,"ĠGram":8568,"Ġmotiv":8569,"ĠejÃ©rcitos":8570,"ĠArmada":8571,"Ġtera":8572,"onald":8573,"ĠÐ":8574,"ĠtÃº":8575,"Ġhacerlo":8576,"Ġnoctur":8577,"Ġ1913":8578,"Ġfronteras":8579,"Ġces":8580,"onesa":8581,"Ġ1916":8582,"ois":8583,"ĠBernardo":8584,"ĠTorneo":8585,"ĠDic":8586,"Ġamericano":8587,"tente":8588,"guar":8589,"Ġconsolid":8590,"Ġpasaron":8591,"ĠMarg":8592,"Ġset":8593,"ĠRel":8594,"Ġgalle":8595,"Ġfuese":8596,"ĠaceptÃ³":8597,"ĠKir":8598,"2009":8599,"ernam":8600,"Ġonce":8601,"ĠBib":8602,"Ġarres":8603,"Ġbrill":8604,"Ġencontraron":8605,"ĠsÃ©pti":8606,"ĠMendoza":8607,"ary":8608,"old":8609,"ĠdurÃ³":8610,"ĠcrÃ©di":8611,"Ġhec":8612,"presa":8613,"Ġprimo":8614,"Ġnegros":8615,"Ġinfluencias":8616,"Ġhorizon":8617,"2008":8618,"Ġadministrativa":8619,"Ġarre":8620,"Ġastero":8621,"gran":8622,"rill":8623,"Ġretro":8624,"Ġherramientas":8625,"Ġpuedan":8626,"Ġempleados":8627,"ĠfÃ¡brica":8628,"Ġdorm":8629,"Ġsuroeste":8630,"Ġpunta":8631,"Ġcomprome":8632,"Ġagra":8633,"ĠVene":8634,"ĠZe":8635,"ĠEditorial":8636,"ĠTurquÃŃa":8637,"ule":8638,"Ġmolec":8639,"ãĤ":8640,"Ġhar":8641,"ĠUc":8642,"Ġmorf":8643,"Ã³nima":8644,"Ġamistad":8645,"ĠJac":8646,"ĠpromociÃ³n":8647,"raron":8648,"ĠFÃ³rmula":8649,"Ġsonora":8650,"Ġciento":8651,"Ġcaer":8652,"ĠCerv":8653,"mÃ³":8654,"Ġextraordin":8655,"Ġfuertemente":8656,"mad":8657,"Ġarchipi":8658,"ĠLÃŃnea":8659,"ĠvarÃŃa":8660,"ecuciÃ³n":8661,"Ġhumanidad":8662,"Ġham":8663,"adolid":8664,"ĠSum":8665,"ĠColÃ³n":8666,"ĠBeat":8667,"ĠBatman":8668,"Ġdesarrol":8669,"ĠAla":8670,"Ġconcejo":8671,"Ġtarea":8672,"Ġ1911":8673,"Ġintensidad":8674,"Ġintercambio":8675,"ĠNicaragua":8676,"recciÃ³n":8677,"Ġvirus":8678,"Ġmercan":8679,"ĠacompaÃ±ado":8680,"ze":8681,"ĠFiestas":8682,"Ġreinos":8683,"Ġatac":8684,"ĠvacÃŃo":8685,"Ġinteligencia":8686,"ĠLista":8687,"acos":8688,"ĠZona":8689,"ĠPatr":8690,"Ġdeportes":8691,"ĠdiÃ³":8692,"Ġincluidos":8693,"Ġroja":8694,"Ġpaisaje":8695,"Ġaeron":8696,"esas":8697,"Qu":8698,"entre":8699,"Ġpreviamente":8700,"Ġcien":8701,"Ġsuble":8702,"Ġ170":8703,"ĠquÃŃmico":8704,"ĠVe":8705,"Ġdomingo":8706,"ĠaprobÃ³":8707,"Ġejemplares":8708,"ĠHernÃ¡ndez":8709,"ĠDinamarca":8710,"iÃ¡n":8711,"ĠhÃºn":8712,"biendo":8713,"ĠVin":8714,"Ġreta":8715,"Ġagente":8716,"Ġmanga":8717,"Ġteniente":8718,"eae":8719,"ĠotoÃ±o":8720,"Ġradical":8721,"Ġeuropeas":8722,"ĠLiteratura":8723,"Ġmetropolitana":8724,"ĠAÃ±o":8725,"naval":8726,"Ġ64":8727,"Ġdescrito":8728,"Ġintelectual":8729,"bÃ³":8730,"ĠLucas":8731,"hor":8732,"Ġincur":8733,"tÃ¡nica":8734,"Ġvit":8735,"Ġaca":8736,"Ġmod":8737,"Ġasentamiento":8738,"Ġalternativa":8739,"Ġestilos":8740,"ĠPese":8741,"ĠGor":8742,"Ġdefinir":8743,"Ġdispositivo":8744,"CE":8745,"tone":8746,"ĠcatalÃ¡n":8747,"ĠMexic":8748,"ĠSerie":8749,"Ġjuventud":8750,"MS":8751,"Ġdebate":8752,"Ãºmenes":8753,"Ġconvirtieron":8754,"Ġalberga":8755,"ĠCompan":8756,"Ġperm":8757,"ĠexistÃŃa":8758,"91":8759,"ĠHy":8760,"Ġcompra":8761,"ĠtransformaciÃ³n":8762,"ãģ":8763,"Ġcientos":8764,"ĠEsteban":8765,"Ġfinalizar":8766,"ÃŃsimo":8767,"umental":8768,"ĠDeportes":8769,"ĠReina":8770,"Ġartic":8771,"ĠinversiÃ³n":8772,"piente":8773,"ĠibÃ©rica":8774,"Ġgubernam":8775,"arcas":8776,"Ġflex":8777,"ĠnegÃ³":8778,"Ġinvestigadores":8779,"Ġrespal":8780,"Ã¡sticos":8781,"ĠAudi":8782,"Ġescon":8783,"ĠRan":8784,"ĠIndi":8785,"ĠTanto":8786,"ings":8787,"ĠÃ¡tomos":8788,"AS":8789,"Ġcasti":8790,"Ġtelevis":8791,"ĠÃŃndice":8792,"mir":8793,"Ġfall":8794,"jano":8795,"mÃ¡s":8796,"ĠEntonces":8797,"ĠÃ¡ngulo":8798,"Ġdeportivo":8799,"ĠSel":8800,"Ġcabe":8801,"Ġcomunicaciones":8802,"Ġobligado":8803,"Ġacero":8804,"Ġdisponibles":8805,"Ġcentrales":8806,"Ġic":8807,"ĠcÃ©le":8808,"ĠbaterÃŃa":8809,"ĠTercera":8810,"Ġvencer":8811,"1997":8812,"ĠrecuperaciÃ³n":8813,"ĠScho":8814,"Ġsacerdote":8815,"Ġdesembar":8816,"Ġconsecuencias":8817,"ĠArturo":8818,"Ġincluida":8819,"Ġpiedras":8820,"Ġminerales":8821,"Ġreserva":8822,"Ġcaracteres":8823,"ĠsoberanÃŃa":8824,"Ġfrase":8825,"yer":8826,"drich":8827,"Ġfruto":8828,"Ġimposible":8829,"Ġtaller":8830,"ĠdeclaraciÃ³n":8831,"ĠindÃŃgena":8832,"sto":8833,"ĠFuerzas":8834,"Ġestatus":8835,"ĠdiseÃ±ado":8836,"Ġprovoca":8837,"ĠmitologÃŃa":8838,"umas":8839,"Ġresidu":8840,"Â»)":8841,"ĠSelec":8842,"ĠMÃ¡laga":8843,"Ġrealizadas":8844,"Ġcaminos":8845,"Ġcineasta":8846,"Ġgalard":8847,"Ġalumnos":8848,"Ġdesierto":8849,"ienda":8850,"Ġtrayectoria":8851,"De":8852,"Ġnace":8853,"ĠFri":8854,"Ġdispone":8855,"Ġchilena":8856,"mirante":8857,"Ġempresario":8858,"1998":8859,"ĠRodrigo":8860,"ĠIgu":8861,"Ġcostumbres":8862,"ĠOccidente":8863,"deos":8864,"ĠelÃ©ctrico":8865,"izaciones":8866,"Ãºst":8867,"ĠingenierÃŃa":8868,"Ġmonedas":8869,"Ġeuros":8870,"ĠApol":8871,"ridge":8872,"CD":8873,"ĠLic":8874,"Ġintegrado":8875,"ĠsoviÃ©tico":8876,"Î¹":8877,"Ġpena":8878,"Ġhermos":8879,"Ġtercero":8880,"estro":8881,"Ġorillas":8882,"Ġleer":8883,"Ġsituaciones":8884,"ĠÃºtil":8885,"ĠAre":8886,"Ġoscuro":8887,"ĠColum":8888,"Ġcuartos":8889,"uien":8890,"Ġemplea":8891,"Ġcinta":8892,"ualidad":8893,"ĠMemor":8894,"ĠcÃ©lula":8895,"Ġcomplejos":8896,"vez":8897,"ĠhectÃ¡":8898,"Ġsho":8899,"Ġjuz":8900,"Ġchina":8901,"Ġdescendientes":8902,"ueras":8903,"Ġamarillo":8904,"ĠAmbos":8905,"Ġusada":8906,"ĠNatural":8907,"ited":8908,"ĠMuchas":8909,"Ġdepartamentos":8910,"Ġcifra":8911,"Ġdiputado":8912,"feo":8913,"Ġcarreteras":8914,"ĠdomÃ©st":8915,"gando":8916,"especi":8917,"Ġaniversario":8918,"Ġcapaci":8919,"Ġespiri":8920,"ĠfÃ©r":8921,"ĠCanarias":8922,"Â¡":8923,"ĠâĢķ":8924,"Ġescapar":8925,"ĠRecords":8926,"Ġdecis":8927,"ĠjurisdicciÃ³n":8928,"ĠCatedral":8929,"Ġestuvieron":8930,"Par":8931,"Ġdesf":8932,"ÃŃmica":8933,"Ġdram":8934,"Ġregistros":8935,"Ġcombustible":8936,"Ġpop":8937,"ĠretirÃ³":8938,"Ġ600":8939,"Ġasociado":8940,"quisiciÃ³n":8941,"Ġpredic":8942,"ĠbahÃŃa":8943,"ĠJimÃ©nez":8944,"Ġsuerte":8945,"ĠTam":8946,"cesis":8947,"ĠHerman":8948,"Ġinterf":8949,"Ġbiz":8950,"ĠaprobaciÃ³n":8951,"Ġtejido":8952,"ĠLy":8953,"Ġ(âĢ":8954,"grafÃŃas":8955,"ĠGib":8956,"Ġ38":8957,"Ġligeramente":8958,"Ġavenida":8959,"guno":8960,"Ġincremento":8961,"Ġnieve":8962,"ĠArist":8963,"ĠVers":8964,"Ġortodo":8965,"Ġejercicio":8966,"Ġdespi":8967,"ĠcompaÃ±ero":8968,"Ġexces":8969,"Ġfom":8970,"Ġconfianza":8971,"Ġtareas":8972,"Mar":8973,"anÃ¡":8974,"Ġconocen":8975,"Ġadultos":8976,"dom":8977,"Ġnobles":8978,"ĠAlbert":8979,"ĠMary":8980,"Ġdivisiones":8981,"ĠelectrÃ³nica":8982,"Ġvenezolano":8983,"jeros":8984,"Ġ000":8985,"ĠDesta":8986,"ĠJuana":8987,"Ġvariables":8988,"Ġsuger":8989,"ĠPir":8990,"Ġconsiderados":8991,"Ġfundamentales":8992,"uan":8993,"Ġsocialista":8994,"pora":8995,"Ġapren":8996,"ĠGuardia":8997,"Ġcompi":8998,"acciÃ³n":8999,"Ġ75":9000,"1995":9001,"Ġparroqui":9002,"ĠMichel":9003,"plan":9004,"Ġnatal":9005,"ĠFM":9006,"chen":9007,"ĠPeÃ±a":9008,"sul":9009,"Ð°":9010,"Ġdesper":9011,"Ġvalles":9012,"Ġdiversidad":9013,"Ġtrataba":9014,"ĠMaria":9015,"ĠopciÃ³n":9016,"ĠÏ":9017,"deste":9018,"ĠLle":9019,"Ġagentes":9020,"Ã¶r":9021,"Ġ37":9022,"Ġelectri":9023,"Ġnegativa":9024,"rich":9025,"Ġganador":9026,"Fran":9027,"Ġrelato":9028,"ĠromÃ¡n":9029,"tti":9030,"Ġgras":9031,"Ã¡ns":9032,"arle":9033,"Ġvieron":9034,"ĠutilizaciÃ³n":9035,"Ġdichos":9036,"Ġempezaron":9037,"onado":9038,":#":9039,"inter":9040,"Ġespada":9041,"Ġdividido":9042,"Ġerrores":9043,"ĠStra":9044,"Ġmanus":9045,"enciado":9046,"Ġapun":9047,"Ġalguien":9048,"ĠinstalaciÃ³n":9049,"ĠartÃŃstica":9050,"Ġpertenecen":9051,"ĠEscocia":9052,"Ġmostrar":9053,"Ġpertenecientes":9054,"Ġactitud":9055,"Ġpaciente":9056,"ÃŃsima":9057,"aso":9058,"ĠparÃ¡":9059,"Ġsobres":9060,"ĠGuti":9061,"tificado":9062,"Co":9063,"ocl":9064,"Ġraza":9065,"Ġcliente":9066,"Ġeclesi":9067,"Ġjue":9068,"ĠcampaÃ±as":9069,"Ġdesignado":9070,"ĠcapÃŃtulo":9071,"Ġconjuntos":9072,"Ġ1908":9073,"Ġvientos":9074,"UU":9075,"Ġosci":9076,"Ġresponsabilidad":9077,"ĠKarl":9078,"ĠChicago":9079,"Ã¡ceas":9080,"zadas":9081,"tique":9082,"ĠMariano":9083,"ĠBell":9084,"Ġestablecieron":9085,"1996":9086,"Ġ34":9087,"Ã³rica":9088,"hara":9089,"erÃŃas":9090,"Ġfauna":9091,"ĠShe":9092,"Ġinsec":9093,"Ġmiedo":9094,"Ã¡ticamente":9095,"Ġacre":9096,"ometra":9097,"Ġsonidos":9098,"entaba":9099,"rania":9100,"Ġcomplement":9101,"ĠBob":9102,"span":9103,"Ġrup":9104,"Ġlargas":9105,"Ġ1915":9106,"oce":9107,"ĠVIII":9108,"Ġcoord":9109,"Ġayuntamiento":9110,"Ġmanifestaciones":9111,"adÃŃa":9112,"amas":9113,"Ġmejora":9114,"Ġara":9115,"sey":9116,"ĠUS":9117,"eciendo":9118,"Ġdetalles":9119,"ÃŃdos":9120,"deas":9121,"ĠCalle":9122,"Ġ1905":9123,"Ġdocumental":9124,"ĠCy":9125,"ĠdescribiÃ³":9126,"Ġfla":9127,"ĠHill":9128,"Ġparticipantes":9129,"estre":9130,"nie":9131,"Ġnotas":9132,"Ġnativos":9133,"Ġpeces":9134,"Ġusos":9135,"ĠPrÃŃncipe":9136,"jud":9137,"cambi":9138,"ĠseÃ±ala":9139,"ĠtÃºn":9140,"2011":9141,"Ġdoctrina":9142,"Ġgris":9143,"bidas":9144,"tillas":9145,"ĠtendrÃŃa":9146,"Ġtorneos":9147,"Ġmente":9148,"ĠFuente":9149,"ĠHolly":9150,"pat":9151,"Ġcumplen":9152,"Ġ42":9153,"ierro":9154,"Ġisl":9155,"ĠValladolid":9156,"ĠBus":9157,"Ġcircunstancias":9158,"Ġrenuncia":9159,"Ġpico":9160,"ĠEspe":9161,"ĠMah":9162,"Ġsepul":9163,"parte":9164,"âĢķ":9165,"ĠEscu":9166,"Ġintens":9167,"Ġpleno":9168,"Ġretras":9169,"Ġderrotado":9170,"ĠAconte":9171,"ecida":9172,"ĠGan":9173,"Ġprece":9174,"Ġaudio":9175,"ĠjardÃŃn":9176,"Ġexistente":9177,"Ġfundamentalmente":9178,"lao":9179,"Ġrelatos":9180,"terno":9181,"ĠTrin":9182,"Ġlargos":9183,"Ġpenal":9184,"Ġsh":9185,"ĠCabe":9186,"ciles":9187,"ĠGracias":9188,"ceae":9189,"Ġlevant":9190,"ĠemisiÃ³n":9191,"PE":9192,"Ġtradicionalmente":9193,"Ġelevado":9194,"Ġrepu":9195,"NT":9196,"Ġhol":9197,"Ġparecer":9198,"ĠGio":9199,"Ġelectro":9200,"Ġquince":9201,"boa":9202,"background":9203,"alda":9204,"ĠArch":9205,"ĠmamÃŃferos":9206,"Ġvuelos":9207,"Ġanuales":9208,"Ġcumple":9209,"pados":9210,"Ġintenta":9211,"Ġcanto":9212,"Ġitalianos":9213,"ĠTy":9214,"Ġmix":9215,"Ġbrazos":9216,"ĠlÃ³gica":9217,"ĠAcontecimientos":9218,"reto":9219,"ĠPartici":9220,"ĠValenci":9221,"inan":9222,"ĠBurgos":9223,"Ġpartidarios":9224,"the":9225,"Ġsubmar":9226,"amba":9227,"drome":9228,"PS":9229,"Ġcoste":9230,"ĠelaboraciÃ³n":9231,"enses":9232,"Ġerig":9233,"Ġcadenas":9234,"Ġobtenido":9235,"ruecos":9236,"Ġconcur":9237,"entri":9238,"ucho":9239,"Ġllamar":9240,"Ġeconom":9241,"Ġespectadores":9242,"Ġsiguieron":9243,"ĠinaugurÃ³":9244,"Ġmaris":9245,"ĠClima":9246,"fonÃŃa":9247,"ĠBran":9248,"ensis":9249,"ĠusÃ³":9250,"Ġargumento":9251,"Ġdescribir":9252,"ĠgeogrÃ¡fica":9253,"Ġsupuesto":9254,"Ġteor":9255,"upe":9256,"erta":9257,"ĠFra":9258,"ĠagrÃŃcolas":9259,"Ġlluvias":9260,"rÃŃan":9261,"daje":9262,"ĠofreciÃ³":9263,"ĠVietnam":9264,"ĠarchipiÃ©lago":9265,"inario":9266,"Ġemble":9267,"Ġcruc":9268,"Ġcelebran":9269,"ĠmÃ©dicos":9270,"Ġparedes":9271,"ĠPuede":9272,"bieron":9273,"ĠartÃŃstico":9274,"Ġelegir":9275,"Ġ65":9276,"utas":9277,"1994":9278,"Ġterminal":9279,"Ġsustancia":9280,"ĠBaja":9281,"ernes":9282,"Ġabrir":9283,"enco":9284,"ĠNik":9285,"Ġalrededores":9286,"copio":9287,"ĠMira":9288,"Ġbuques":9289,"Ġjuven":9290,"pto":9291,"Ġquedan":9292,"Ġpeligros":9293,"Ġcolegio":9294,"Ġneuro":9295,"campe":9296,"ÃŃticas":9297,"ĠDor":9298,"quete":9299,"Ġfuner":9300,"istemas":9301,"Ġcomponente":9302,"uidad":9303,"ĠCoo":9304,"Ġconvento":9305,"Ġsedi":9306,"ager":9307,"ĠsÃŃntesis":9308,"ĠOf":9309,"Ġpolvo":9310,"ĠGreen":9311,"Ġcandidatura":9312,"into":9313,"ĠRi":9314,"Ġcuarenta":9315,"Ġconservan":9316,"Ġdiagn":9317,"ĠGonz":9318,"ĠPR":9319,"Ġduro":9320,"Ġciclista":9321,"cura":9322,"ĠJane":9323,"Ġnaval":9324,"gebra":9325,"gia":9326,"ĠSir":9327,"ienen":9328,"Ġprior":9329,"copa":9330,"Ġinvent":9331,"Ġnuestros":9332,"Ġpsico":9333,"ĠSing":9334,"loria":9335,"Ġindustrias":9336,"Ġproporciona":9337,"Ġdistinguir":9338,"Ġinfraestructura":9339,"Ġsupre":9340,"Ġgust":9341,"atrocin":9342,"Ġdisciplina":9343,"ĠsatÃ©lite":9344,"estado":9345,"core":9346,"ĠHonor":9347,"EA":9348,"Ġprivadas":9349,"Ġbro":9350,"ĠvolÃºmenes":9351,"dones":9352,"ximos":9353,"lov":9354,"Ġreconocer":9355,"stem":9356,"ÃŃlica":9357,"Å¡":9358,"gena":9359,"Ã¡zquez":9360,"Ġdaba":9361,"Ġrecinto":9362,"Ġactuar":9363,"Ġmuere":9364,"Ġsueco":9365,"uelto":9366,"ĠTodas":9367,"ĠViejo":9368,"ĠcÃ¡lculo":9369,"SOE":9370,"Â¿":9371,"Ġartill":9372,"Ġcultivos":9373,"ĠWat":9374,"Ġcompro":9375,"zÃ¡s":9376,"landesa":9377,"ĠAndes":9378,"ĠCatÃ³lica":9379,"ĠdecÃŃa":9380,"ĠAndre":9381,"ĠBibliografÃŃa":9382,"ĠTÃ©cn":9383,"ĠEspa":9384,"ĠhectÃ¡reas":9385,"Ġsociedades":9386,"Ġape":9387,"omer":9388,"ĠNA":9389,"Ã©ricas":9390,"Ġconcej":9391,"ĠNoruega":9392,"Ġbrillante":9393,"vino":9394,"menta":9395,"Ġvariantes":9396,"ĠCastell":9397,"Ġtrabajando":9398,"ĠStal":9399,"ĠLl":9400,"Ġalas":9401,"Ġincom":9402,"rosoft":9403,"Ġpared":9404,"ĠEstre":9405,"Ġcerro":9406,"Ġilustr":9407,"ĠcÃŃrculo":9408,"cidentes":9409,"Ġfuncionarios":9410,"Ġalgorit":9411,"Ġhard":9412,"tona":9413,"Ġpobreza":9414,"Ġexterna":9415,"Ġrurales":9416,"Ġdiscre":9417,"Ġcreando":9418,"hl":9419,"ĠclÃ¡sicos":9420,"ĠDisney":9421,"Ġbeneficios":9422,"abo":9423,"Ġmesa":9424,"yendo":9425,"ĠenfrentÃ³":9426,"Ġnoticia":9427,"ĠPach":9428,"Ġ1906":9429,"Ġprisioneros":9430,"ĠIndias":9431,"ĠprecisiÃ³n":9432,"Ġperspectiva":9433,"ĠPolicÃŃa":9434,"ĠFel":9435,"Ġcuentos":9436,"Ġram":9437,"Ġhecha":9438,"Ġenfoque":9439,"Ġpreserv":9440,"Ġcapas":9441,"igui":9442,"ĠserÃ¡n":9443,"Ġaceptar":9444,"ajara":9445,"ĠestudiÃ³":9446,"Ġllen":9447,"Ġporta":9448,"ĠPlay":9449,"IT":9450,"Ġpura":9451,"ĠpeticiÃ³n":9452,"Ġcoment":9453,"vita":9454,"Ã©rrez":9455,"Ġvag":9456,"uyeron":9457,"Ġcontrovers":9458,"Ġcocina":9459,"Ġ1909":9460,"ĠRoger":9461,"laba":9462,"urs":9463,"Ã¡maras":9464,"osex":9465,"ĠRomano":9466,"Ġnobleza":9467,"Ġdisol":9468,"Ġganando":9469,"ĠAntigua":9470,"ĠhÃ©roe":9471,"unt":9472,"ĠProfes":9473,"Ã«":9474,"Ġcalific":9475,"Ġatravi":9476,"Ġmostr":9477,"ĠRecon":9478,"ĠDra":9479,"ĠNaciÃ³n":9480,"Ġdesas":9481,"mentaciÃ³n":9482,"stru":9483,"Ġtono":9484,"ĠHarry":9485,"ĠtÃŃpico":9486,"Ġsimples":9487,"ĠsucediÃ³":9488,"aÃ±os":9489,"ĠRepres":9490,"ĠFinal":9491,"ĠEstad":9492,"zobispo":9493,"Ġvital":9494,"ĠNational":9495,"Ġaport":9496,"Ġcualquiera":9497,"ii":9498,"Ġapariencia":9499,"Ġrelativa":9500,"Ġconstrucciones":9501,"ĠPoder":9502,"Ġ(),":9503,"ont":9504,"ĠDav":9505,"ĠIns":9506,"ĠOeste":9507,"Ġnegociaciones":9508,"ĠPueblo":9509,"Ġapell":9510,"Ġsuperar":9511,"Ã³micos":9512,"Ġgases":9513,"Ġpreh":9514,"ĠLibre":9515,"ĠSw":9516,"Ġempu":9517,"Ġchinos":9518,"thur":9519,"ptentri":9520,"Ġhispano":9521,"Ġropa":9522,"ĠJon":9523,"ĠLeague":9524,"Ġtenga":9525,"Ġderrotar":9526,"Ġorn":9527,"Ġrelieve":9528,"Ġpobres":9529,"ĠGutiÃ©rrez":9530,"ĠCerro":9531,"Ġhomosex":9532,"Ġvence":9533,"Ġpresentado":9534,"ĠintegraciÃ³n":9535,"Ġhistorie":9536,"Ġvisitantes":9537,"ĠcirculaciÃ³n":9538,"Ġ48":9539,"Ġbuenas":9540,"Ġdecidieron":9541,"Ġgratu":9542,"Ġelector":9543,"canes":9544,"ĠRA":9545,"ache":9546,"vial":9547,"tendo":9548,"ĠMicrosoft":9549,"ĠBet":9550,"Ġactuaciones":9551,"Ġaventuras":9552,"EE":9553,"Ġprincesa":9554,"ĠespecÃŃfico":9555,"Ġ250":9556,"ĠTerri":9557,"jÃ³n":9558,"Ġmedir":9559,"ĠpermitÃŃa":9560,"Ġabsoluto":9561,"Ġcable":9562,"inidad":9563,"Ġacon":9564,"ĠDisco":9565,"Ġconcurso":9566,"Ġdeterminada":9567,"Ġjaponeses":9568,"Ġlidera":9569,"ĠInici":9570,"cilio":9571,"sar":9572,"ĠcreÃŃa":9573,"achos":9574,"grÃ¡ficas":9575,"Ã¡logo":9576,"Ġliterario":9577,"Ġvoces":9578,"ĠVenecia":9579,"ĠStor":9580,"jed":9581,"cionÃ³":9582,"ĠDescripciÃ³n":9583,"Ġalcohol":9584,"Ġparcialmente":9585,"ĠFig":9586,"iw":9587,"tÃŃ":9588,"Ġsigno":9589,"Ġconstruc":9590,"ĠPascu":9591,"eres":9592,"Ġvender":9593,"Ġpensar":9594,"ĠMul":9595,"ĠtratÃ³":9596,"Ġplaca":9597,"ĠFIFA":9598,"pista":9599,"Ġcita":9600,"Ġexistir":9601,"Ġintentar":9602,"Ġhip":9603,"Ġgenerar":9604,"Ġmortal":9605,"Ġreconoce":9606,"ĠUb":9607,"Ġvariaciones":9608,"ĠExtre":9609,"cito":9610,"Ġanar":9611,"ĠQuer":9612,"cm":9613,"uertos":9614,"ĠMarruecos":9615,"tamientos":9616,"mond":9617,"Lo":9618,"ĠlÃ¡":9619,"ĠnÃ¡":9620,"Ġterra":9621,"Ġalguno":9622,"ogÃ©n":9623,"Ġreproduc":9624,"Ġador":9625,"Ġcho":9626,"Ġ1904":9627,"Ġermita":9628,"ĠdisoluciÃ³n":9629,"pita":9630,"ĠEmilio":9631,"Ġvideojuego":9632,"Ġrepresentado":9633,"ĠFlorida":9634,"ĠSici":9635,"Ġsinte":9636,"Ġadvers":9637,"ĠTurismo":9638,"ĠMall":9639,"Ġ800":9640,"Ġofrecer":9641,"ĠConfederaciÃ³n":9642,"Ġdanza":9643,"ĠConde":9644,"ĠRaÃºl":9645,"ĠfenÃ³menos":9646,"Ġrepos":9647,"Ġrequis":9648,"ĠAdam":9649,"Ġaplica":9650,"Ġrenunci":9651,"Ġescuad":9652,"ĠAntiguo":9653,"ĠcÃ¡rcel":9654,"ĠRÃŃos":9655,"Ġformaron":9656,"Ġoperativo":9657,"ĠChil":9658,"Ġvariante":9659,"Ġcambia":9660,"ĠIsa":9661,"Ġtumba":9662,"Ġseco":9663,"Ġprovis":9664,"ĠCabo":9665,"ĠdisminuciÃ³n":9666,"Ġrevis":9667,"Ġtejidos":9668,"Ġcordillera":9669,"Ġheridos":9670,"ĠtÃ¡c":9671,"Ġcaja":9672,"Ġpien":9673,"mel":9674,"Ġrebeldes":9675,"ĠinteracciÃ³n":9676,"reza":9677,"landia":9678,"ĠCompany":9679,"ĠElla":9680,"Ġescrib":9681,"ĠContin":9682,".-":9683,"ĠfotografÃŃa":9684,"Ġconocimientos":9685,"Ġquinta":9686,"Ġuruguayo":9687,"uci":9688,"Ġbater":9689,"Ġpost":9690,"ĠdaÃ±o":9691,"ĠturÃŃstico":9692,"Ġtax":9693,"Ġacabar":9694,"Ġvirtud":9695,"ĠPala":9696,"ĠbÃ³":9697,"ĠArgent":9698,"ĠColonia":9699,"Ġsanto":9700,"Ġcolonos":9701,"Ġinferiores":9702,"ĠSport":9703,"ĠproporciÃ³n":9704,"abal":9705,"atales":9706,"Ġaden":9707,"Ġsignos":9708,"Ġminuto":9709,"Ġele":9710,"ÃŃpul":9711,"Ġtrama":9712,"Ġartificial":9713,"ĠHaw":9714,"ĠCic":9715,"Ġpolar":9716,"ĠJoan":9717,"Ġvicepresidente":9718,"ĠIncluso":9719,"ĠÃļl":9720,"ĠmÃ³d":9721,"tima":9722,"ĠEstaciÃ³n":9723,"prendi":9724,"Ġexplicar":9725,"bina":9726,"Ã¡rqu":9727,"Ġeuc":9728,"Ġdesac":9729,"Ġregla":9730,"Ġmuestras":9731,"Ġgrabado":9732,"ĠcatÃ³lico":9733,"fras":9734,"Ġescultura":9735,"Ġtomando":9736,"ĠWilliams":9737,"Ġfiscal":9738,"Ġhuesos":9739,"Ġestr":9740,"vemente":9741,"Ġreducido":9742,"Ġinaugurado":9743,"Ġaisl":9744,"Ġprovenientes":9745,"Ġasimismo":9746,"1990":9747,"ugar":9748,"Ġuniforme":9749,"cara":9750,"Ġnazi":9751,"riÃ³n":9752,"lem":9753,"Ġestatua":9754,"ĠBiblia":9755,"Ġlit":9756,"ĠTay":9757,"Ġpelo":9758,"ĠextendiÃ³":9759,"ĠSerg":9760,"ĠreÃºn":9761,"Ġvalenci":9762,"Ġcristiano":9763,"Ġrepresentaciones":9764,"Ġpoblada":9765,"Ġapreci":9766,"ĠFinl":9767,"Ġpatrocin":9768,"Ġminas":9769,"ĠpreparaciÃ³n":9770,"Ġbacterias":9771,"Ġzo":9772,"Ġsolitario":9773,"Ġpublicaciones":9774,"Ġneur":9775,"1992":9776,"ĠRivera":9777,"Ġinmediato":9778,"ĠServicio":9779,"ĠMora":9780,"ĠFilipinas":9781,"Ã¡zar":9782,"Ġfilm":9783,"1993":9784,"ĠGustavo":9785,"Ġverse":9786,"ĠMayo":9787,"Ġmembrana":9788,"nar":9789,"Ġsof":9790,"ĠFrances":9791,"ĠRobin":9792,"ĠorganizÃ³":9793,"Ġdividida":9794,"ĠLam":9795,"ĠClaudio":9796,"ĠDoctor":9797,"ĠcafÃ©":9798,"Ġseguro":9799,"Ġbautiz":9800,"Ġfrancesas":9801,"Ġprecipitaciones":9802,"Ġcostos":9803,"Ġbordo":9804,"Ġintegrantes":9805,"Ġdiosa":9806,"ruce":9807,"ator":9808,"ĠPes":9809,"atl":9810,"Ġnegocio":9811,"tadoras":9812,"ĠJones":9813,"Ġpresidenciales":9814,"sol":9815,"ĠEtimologÃŃa":9816,"Ġcompati":9817,"ocar":9818,"Ġescoc":9819,"Ġintercambi":9820,"Ġlogrado":9821,"Ġreparto":9822,"Ġespiritual":9823,"Ġbando":9824,"ĠBir":9825,"Ġperpe":9826,"ĠjamÃ¡s":9827,"mÃ³n":9828,"Ġrealizados":9829,"Ġllevaba":9830,"Ġcircular":9831,"Ġposibilidades":9832,"ĠVirgin":9833,"ĠAutÃ³n":9834,"OR":9835,"PC":9836,"Ġsemifinales":9837,"ĠPs":9838,"ĠaumentÃ³":9839,"Ġreconocida":9840,"Ġpolaco":9841,"lle":9842,"Ġjes":9843,"vivencia":9844,"Ġ;":9845,"ĠFrie":9846,"Ġantrop":9847,"ym":9848,"Ġflam":9849,"Ġsepara":9850,"ĠperiÃ³dicos":9851,"Ġestancia":9852,"Ġhumedad":9853,"Ġadelan":9854,"Ġcuestiones":9855,"ĠhistÃ³ricas":9856,"Ġpares":9857,"Ġsocio":9858,"ĠDirecciÃ³n":9859,"ĠadquiriÃ³":9860,"Ġcaballos":9861,"Ġestando":9862,"ĠCorn":9863,"Ã¼r":9864,"ĠMerce":9865,"ĠadoptÃ³":9866,"ĠAÃ©rea":9867,"Ġvisible":9868,"ĠWalter":9869,"2012":9870,"Ġrevistas":9871,"ĠGonzalo":9872,"tencias":9873,"Ġojo":9874,"ĠSegundo":9875,"ĠalimentaciÃ³n":9876,"inc":9877,"ĠGuz":9878,"Ġproducida":9879,"ĠMagdal":9880,"ĠLive":9881,"Ġdejado":9882,"ĠHip":9883,"Ġasistencia":9884,"Ġescen":9885,"Ġsimpl":9886,"Ġprofundo":9887,"sion":9888,"ĠBien":9889,"contin":9890,"ĠcausÃ³":9891,"Ġencontrarse":9892,"ĠdisputÃ³":9893,"ĠSimÃ³n":9894,"ize":9895,"ĠCarre":9896,"unidades":9897,"Ġjuega":9898,"ĠRelaciones":9899,"ĠtecnologÃŃas":9900,"Ġreloj":9901,"ĠArg":9902,"Ġracional":9903,"ĠUcrania":9904,"ket":9905,"Ġextremos":9906,"Ġderivados":9907,"Ġaustri":9908,"Ġabarca":9909,"Ġmodernas":9910,"ĠcatÃ³licos":9911,"Ġvigil":9912,"ĠNintendo":9913,"ĠTexas":9914,"Ġroca":9915,"ĠJord":9916,"ĠLew":9917,"ĠBrown":9918,"ugosla":9919,"Ġcrearon":9920,"Ġconcreto":9921,"ĠastrÃ³n":9922,"ĠIv":9923,"Ġondas":9924,"Ġpromover":9925,"Ġresidentes":9926,"pacidad":9927,"ĠPerÃ³n":9928,"Ġcierre":9929,"Ã³nde":9930,"Ġcortes":9931,"Ġprofunda":9932,"ĠMilÃ¡n":9933,"ĠPuebla":9934,"anc":9935,"Ġparques":9936,"Ġreacciones":9937,"tab":9938,"strucciÃ³n":9939,"Ġarran":9940,"ĠWhite":9941,"edy":9942,"Ġcontraste":9943,"ĠComercio":9944,"ĠDay":9945,"ĠCamb":9946,"ĠMoreno":9947,"Ġvirrey":9948,"Ġsar":9949,"To":9950,"Ġingreso":9951,"Ġestabilidad":9952,"Ġperegr":9953,"ĠotorgÃ³":9954,"ĠGregorio":9955,"ĠBartol":9956,"tua":9957,"video":9958,"Ġdichas":9959,"ĠAquÃŃ":9960,"ĠcomisiÃ³n":9961,"Ġplayas":9962,"Ã©lix":9963,"Ġheredero":9964,"Ġdepos":9965,"Ġmurieron":9966,"Ġprecisamente":9967,"Ġincendio":9968,"ĠAlfredo":9969,"Ġmedias":9970,"Ġdeportiva":9971,"ĠrechazÃ³":9972,"Ġmedalla":9973,"ildo":9974,"Ġtomaron":9975,"emplos":9976,"ĠIngenierÃŃa":9977,"Ġelimina":9978,"Ġempleado":9979,"ĠnavegaciÃ³n":9980,"Ġbajos":9981,"zaron":9982,"Ġ978":9983,"ĠMedicina":9984,"Ġescultor":9985,"Ġestreno":9986,"ĠRy":9987,"ĠAngel":9988,"Ġhebre":9989,"Ġimpresion":9990,"ĠDig":9991,"ĠArquitec":9992,"desde":9993,"ĠXIII":9994,"ĠrestauraciÃ³n":9995,"Ġgravedad":9996,"Ġmural":9997,"ism":9998,"ĠTener":9999,"Ġ84":10000,"Ġinterpretado":10001,"ciona":10002,"ĠHall":10003,"Ġhabitualmente":10004,"ĠHonduras":10005,"logos":10006,"atallas":10007,"Ġparcial":10008,"Ġcercanos":10009,"oni":10010,"udos":10011,"Ġoch":10012,"Ġcuestion":10013,"lamiento":10014,"ĠÃ©ste":10015,"Ġiguales":10016,"Ġdescen":10017,"ĠEjecu":10018,"Ġarroz":10019,"Ġhabilidades":10020,"Ġprofun":10021,"jam":10022,"Ġtercio":10023,"ĠdistinciÃ³n":10024,"Ġrefleja":10025,"Ã©rpre":10026,"buses":10027,"ĠvÃŃdeo":10028,"Ġcostumbre":10029,"ĠhÃ¡bita":10030,"Ġcompromiso":10031,"Ġfan":10032,"Ġesencial":10033,"ĠDado":10034,"Ġplena":10035,"Ġ1903":10036,"ĠCatalina":10037,"ĠSemana":10038,"Ġtib":10039,"ĠGam":10040,"ĠVa":10041,"Ġhabilidad":10042,"Ġmatar":10043,"Ġasociados":10044,"Ġvideo":10045,"ĠAmaz":10046,"Ġcau":10047,"Ġelegidos":10048,"Ġdibujos":10049,"Ġabstrac":10050,"Com":10051,"Ġarag":10052,"Ġhabiendo":10053,"Ġdirigir":10054,"Ġsingular":10055,"Ġcuello":10056,"rones":10057,"Ġgab":10058,"aceae":10059,"ocho":10060,"Ġmencionado":10061,"ĠcaballerÃŃa":10062,"Ġpotencias":10063,"Ġreflex":10064,"Ġarchivo":10065,"pedia":10066,"Ġninguno":10067,"iologÃŃa":10068,"Ġseno":10069,"ĠJug":10070,"ĠGuadalajara":10071,"ĠHollywood":10072,"bili":10073,"iri":10074,"rÃŃ":10075,"Ġespon":10076,"Ġparecen":10077,"ĠAlb":10078,"Ġcardenal":10079,"Ġdiciendo":10080,"ĠorientaciÃ³n":10081,"Ġaudiencia":10082,"Ġveget":10083,"Ġparticiparon":10084,"Ġcompone":10085,"Ġtomado":10086,"Ġrestring":10087,"ĠPÃºblica":10088,"ĠdÃ©bil":10089,"Ġpresupuesto":10090,"ĠMaxim":10091,"itoral":10092,"ĠBautista":10093,"Ġsugiere":10094,"ĠCuatro":10095,"1991":10096,"ĠIrÃ¡n":10097,"Ġpuesta":10098,"Ġbailar":10099,"Ġelevada":10100,"Ġadicionales":10101,"Ġhimno":10102,"imal":10103,"ĠÃ©pocas":10104,"Ġautomovil":10105,"ĠRuta":10106,"ĠPubl":10107,"fia":10108,"Ġmarcado":10109,"Ġensayo":10110,"Ġbrazo":10111,"ĠNer":10112,"Ġvivos":10113,"ordenadas":10114,"Ġnutri":10115,"ĠIndependi":10116,"Ġasegurar":10117,"Ġapa":10118,"cionamiento":10119,"Ġfic":10120,"Ġdivis":10121,"Ã¡frica":10122,"ĠGrand":10123,"Ġvisitar":10124,"Ġ1890":10125,"grÃ¡ficos":10126,"Ġembara":10127,"ĠviajÃ³":10128,"Ġreservas":10129,"Ġmarido":10130,"Ġaldea":10131,"dadas":10132,"ĠcerÃ¡mica":10133,"Ġcomunista":10134,"Ġcosto":10135,"ĠTermin":10136,"war":10137,"cimo":10138,"ĠWh":10139,"ĠCuar":10140,"Ġgradu":10141,"Ġtorres":10142,"ĠinterpretÃ³":10143,"ĠbÃ¡sicos":10144,"Ġembal":10145,"âĢ¦":10146,"ĠKenn":10147,"Ġproductores":10148,"Ġcorresponden":10149,"Ġ...":10150,"ass":10151,"Ġretorno":10152,"ĠGermÃ¡n":10153,"Ġretor":10154,"Ã¡ndal":10155,"Ġusados":10156,"Ġasentamientos":10157,"pp":10158,"mens":10159,"Ġcomplic":10160,"ĠHans":10161,"ĠVide":10162,"Ġprobabilidad":10163,"ĠScott":10164,"Ġcreencia":10165,"verg":10166,"tela":10167,"ĠAward":10168,"Ġcomunistas":10169,"Ġparticulares":10170,"Ġtesis":10171,"Ġprocedimiento":10172,"ĠTuc":10173,"ĠOx":10174,"Ġvocal":10175,"Ġdespo":10176,"Ġinterpretar":10177,"Ġevidente":10178,"ĠdesapariciÃ³n":10179,"enciales":10180,"Ġago":10181,"Ġinex":10182,"Ġrobo":10183,"Ġadicional":10184,"ĠcarbÃ³n":10185,"Ġfemenina":10186,"Ġportada":10187,"jillo":10188,"sch":10189,"plica":10190,"Ġelectricidad":10191,"Ġgenes":10192,"ĠhacÃŃan":10193,"Ġ1907":10194,"ĠcivilizaciÃ³n":10195,"Ġbaloncesto":10196,"Ġocupado":10197,"Ġaprendizaje":10198,"bao":10199,"Ġgrabar":10200,"Ġacuerdos":10201,"Ġeditor":10202,"BM":10203,"Ã¢":10204,"Ġencuentros":10205,"Ġdestruir":10206,"Ġdivor":10207,"Ġdiecis":10208,"Ġbaile":10209,"1989":10210,"Ġmecanismos":10211,"Ġgigante":10212,"gico":10213,"ĠvÃ©r":10214,"Ġcorreg":10215,"ĠProyec":10216,"Ġparticipa":10217,"Ġfilme":10218,"Ġvisigo":10219,"Ġapropi":10220,"olia":10221,"igg":10222,"bitos":10223,"ream":10224,"Ġcampesinos":10225,"Ġjornada":10226,"ĠcorrupciÃ³n":10227,"idores":10228,"Ġparalelo":10229,"uelve":10230,"ĠRoyal":10231,"Ġtenemos":10232,"Por":10233,"Ġsalas":10234,"mall":10235,"ganda":10236,"Ġlogrando":10237,"CI":10238,"Ġtitulada":10239,"erto":10240,"ĠEqui":10241,"apia":10242,"Ġsustan":10243,"Ġindican":10244,"Se":10245,"izadas":10246,"Ġorilla":10247,"Ġexternos":10248,"iciones":10249,"ĠAlm":10250,"ĠAlexander":10251,"Col":10252,"Ġverdes":10253,"Ġturistas":10254,"ĨĴ":10255,"ĠTin":10256,"ĠImper":10257,"Ġhaberse":10258,"ĠSancho":10259,"fonos":10260,"ĠfÃŃsicas":10261,"01":10262,"iego":10263,"ĠreuniÃ³":10264,"Ġenfrentamiento":10265,"ĠSuc":10266,"ĠUnidad":10267,"Ġmarina":10268,"Ġorganizado":10269,"Ġconstruyeron":10270,"Ġauge":10271,"inando":10272,"Ġobis":10273,"Ġemper":10274,"Ġdestinado":10275,"ĠHerrera":10276,"Ġirre":10277,"ĠautÃ©n":10278,"Ġnaz":10279,"Ġguionista":10280,"Pa":10281,"Ġcuerdas":10282,"ĠmÃŃnima":10283,"Ġburgu":10284,"ĠEvangel":10285,"Ġpapeles":10286,"ĠquÃŃmicos":10287,"ison":10288,"ĠWood":10289,"%)":10290,"izas":10291,"Ã©ricos":10292,"Ġrecol":10293,"Ġpierde":10294,"Ġsubdi":10295,"ĠÃģlvaro":10296,"ĠGuzmÃ¡n":10297,"iriÃ³":10298,"Ġmeteor":10299,"Ġcreencias":10300,"Ġherencia":10301,"jeras":10302,"Ġ1902":10303,"quera":10304,"trices":10305,"Ġcercanas":10306,"ĠFord":10307,"ĠJard":10308,"ĠContra":10309,"Ġconforman":10310,"ĠHisp":10311,"Ġ3000":10312,"Ġtemprana":10313,"ĠLÃ©":10314,"ecos":10315,"Ã¡nicas":10316,"Ġ55":10317,"ĠZelanda":10318,"Ġpendi":10319,"Ġ1901":10320,"-,":10321,"ken":10322,"cionada":10323,"ĠColle":10324,"Ġost":10325,"Ġandal":10326,"plicaciÃ³n":10327,"orca":10328,"Ġhun":10329,"Ġiban":10330,"Ġabundante":10331,"Ġprestigio":10332,"ĠJr":10333,"board":10334,"ĠjudÃŃa":10335,"OM":10336,"Ġactivos":10337,"ĠjudÃŃo":10338,"Ġsuficientemente":10339,"Ġ44":10340,"Man":10341,"Ġdelan":10342,"Ã©ndez":10343,"tÃ©":10344,"Ġ39":10345,"esiones":10346,"Ġvolvieron":10347,"critos":10348,"Ġespectro":10349,"ĠFiesta":10350,"kar":10351,"ĠVarios":10352,"Ġbasados":10353,"Ġcomenzar":10354,"icante":10355,"Ġfamosos":10356,"ĠMass":10357,"fort":10358,"cientos":10359,"ĠHistor":10360,"ĠSpe":10361,"Ġentrenamiento":10362,"itarias":10363,"ĠMancha":10364,"asas":10365,"ÃŃrez":10366,"Ġpir":10367,"ĠNet":10368,"ĠGrandes":10369,"ĠEdiciones":10370,"Ġrumbo":10371,"Ġfusion":10372,"taro":10373,"edonia":10374,"Ġencom":10375,"raba":10376,"ĠBru":10377,"Ġmasculino":10378,"Ġby":10379,"ĠtÃŃo":10380,"ÃŃfica":10381,"Ġdemostrado":10382,"Ġgi":10383,"ĠPaulo":10384,"Ġsaga":10385,"Ġmisiones":10386,"tander":10387,"ĠVerde":10388,"Ġofrecen":10389,"bara":10390,"ĠDerechos":10391,"ĠFriedrich":10392,"Ġiniciar":10393,"Ġnecesarios":10394,"Ġaterriz":10395,"ĠGuinea":10396,"Ġpade":10397,"ĠMagdalena":10398,"Ġcomis":10399,"ĠBio":10400,"ĠidÃ©n":10401,"Ġnosotros":10402,"ellÃ³n":10403,"Ġseparado":10404,"tta":10405,"Ġapos":10406,"ĠCum":10407,"Ġoficinas":10408,"ĠespecÃŃficamente":10409,"Ġprocede":10410,"ĠPrado":10411,"ĠÃ¡ngel":10412,"Ġsesenta":10413,"Ġplazas":10414,"Ġmercados":10415,"ĠelectrÃ³nico":10416,"anal":10417,"Ġund":10418,"Ġpropi":10419,"Ġaparato":10420,"oches":10421,"ĠDecreto":10422,"elÃ©ctr":10423,"Ġhoja":10424,"conoci":10425,"Ġinterrum":10426,"ĠlingÃ¼ÃŃstica":10427,"ĠJackson":10428,"Ġlimitada":10429,"AN":10430,"Ġsexto":10431,"Ġofensiva":10432,"Ġsuizo":10433,"iebre":10434,"quero":10435,"Ġfronter":10436,"Ġcae":10437,"ĠSuÃ¡rez":10438,"ally":10439,"ĠSiria":10440,"ĠPatri":10441,"ĠdemostrÃ³":10442,"cr":10443,"Ã³b":10444,"Ã³nimos":10445,"ĠEspeci":10446,"Ġexperimentos":10447,"sur":10448,"Ġsimb":10449,"ernas":10450,"Ġmencionar":10451,"ped":10452,"Ġmonumentos":10453,"doro":10454,"Ġdetener":10455,"QuÃ©":10456,"ĠSupremo":10457,"eja":10458,"fÃ³nica":10459,"ĠFÃ©lix":10460,"iten":10461,"Ġtratados":10462,"Ġpesos":10463,"tha":10464,"Ġorganizar":10465,"ĠseguÃŃa":10466,"Ġrelacionada":10467,"Ã©ndole":10468,"Ġprodujeron":10469,"Ġanf":10470,"ĠGuar":10471,"ĠaÃ©reo":10472,"Ġenga":10473,"ĠMHz":10474,"tiza":10475,"ĠBut":10476,"ĠprÃ³ximo":10477,"ĠFox":10478,"eto":10479,"Ġinver":10480,"ĠparecÃŃa":10481,"Ġrica":10482,"Ġsoy":10483,"ĠprÃ©st":10484,"Ġtemplos":10485,"Ġlineal":10486,"cienda":10487,"inio":10488,"Ġarmada":10489,"ĠXVI":10490,"Ġit":10491,"orr":10492,"Ġexactamente":10493,"Ġlagos":10494,"Ġunirse":10495,"ĠAqu":10496,"Ġvertical":10497,"hire":10498,"ĠIrak":10499,"esen":10500,"ĠTel":10501,"ĠMauri":10502,"ĠFinlandia":10503,"Ġinn":10504,"Ġsuspendi":10505,"Ġrestable":10506,"ĠCapital":10507,"cusiÃ³n":10508,"fl":10509,"Ġdestacando":10510,"ĠconcediÃ³":10511,"Ġenviar":10512,"ombar":10513,"Ġrosa":10514,"Â»),":10515,"ximas":10516,"Ġcuadrados":10517,"Ġrecopi":10518,"Ġfases":10519,"guen":10520,"Ġbelga":10521,"ĠfinalizÃ³":10522,"Mad":10523,"icado":10524,"Ġperdiendo":10525,"ĠrotaciÃ³n":10526,"Ġsemillas":10527,"ĠvehÃŃculo":10528,"titudes":10529,"Ġpiso":10530,"veda":10531,"Ġbancos":10532,"iki":10533,"05":10534,"ĠVas":10535,"Ġcoleg":10536,"Ġveinti":10537,"ĠZamora":10538,"IN":10539,"Ġperseg":10540,"ĠFantas":10541,"anismo":10542,"Ġversos":10543,"ĠOrig":10544,"Ã³rico":10545,"Ãģ":10546,"Ġafro":10547,"ĠMcC":10548,"ĠcaÃ±ones":10549,"Ġecos":10550,"Ġbatallas":10551,"jera":10552,"Ġparo":10553,"vientes":10554,"Ġencontramos":10555,"dt":10556,"ĠReich":10557,"ĠencargÃ³":10558,"Ġaliment":10559,"Ġislam":10560,"ĠSudÃ¡frica":10561,"ienta":10562,"Ġprocedente":10563,"Ġcontrad":10564,"ciende":10565,"tain":10566,"Ġextensa":10567,"ĠobservaciÃ³n":10568,"ĠMÃ¡r":10569,"ĠFlo":10570,"ĠPoblaciÃ³n":10571,"ĠPalma":10572,"ĠRoc":10573,"Ġblancas":10574,"Ã¡ndola":10575,"Ġorganiza":10576,"ĠWars":10577,"Ġrepi":10578,"risa":10579,"Ġtropical":10580,"ptim":10581,"Ð¾":10582,"entamente":10583,"isos":10584,"Ġtranscur":10585,"Ġextremadamente":10586,"ĠPadre":10587,"Ġministros":10588,"Ġsabor":10589,"ĠCra":10590,"pulsiÃ³n":10591,"Ġcomienzan":10592,"garon":10593,"ety":10594,"Ġtrenes":10595,"Ġnucleares":10596,"Ġbaloncestista":10597,"Ġ1500":10598,"Ġsurge":10599,"Ġdominante":10600,"Ġjesui":10601,"ĠdepresiÃ³n":10602,"Ġjuez":10603,"ĠÃºnicos":10604,"sea":10605,"Ġarcos":10606,"cing":10607,"of":10608,"cub":10609,"Ġconsiderarse":10610,"Ġpropuesto":10611,"Ġescasa":10612,"ĠEjemplos":10613,"ĠTrujillo":10614,"ĠcÃ¡maras":10615,"ĠViz":10616,"ĠToda":10617,"Ġconmemor":10618,"Ġdirigentes":10619,"ĠObs":10620,"Ġaparte":10621,"ĠSara":10622,"Ġjazz":10623,"Ġmantienen":10624,"Ġreciben":10625,"ĠreconociÃ³":10626,"Ġaltamente":10627,"vida":10628,"Ġmarcas":10629,"Ġhotel":10630,"chester":10631,"ĠDam":10632,"ĠpÃ©rdidas":10633,"Ġesclavi":10634,"Ġaltar":10635,"Ġagre":10636,"Ġencarcel":10637,"Ġsexuales":10638,"ĠMarx":10639,"ĠErn":10640,"mis":10641,"Ġseptentri":10642,"olÃ³gicamente":10643,"Ġinstrucciones":10644,"Ġclientes":10645,"ĠgenÃ©tica":10646,"ĠRamÃŃrez":10647,"ĠLibertad":10648,"Ã¨re":10649,"Ġgluc":10650,"sem":10651,"Ġfesti":10652,"Ġprefi":10653,"Ġmapa":10654,"Ã±e":10655,"Ġcore":10656,"ĠPhilip":10657,"umo":10658,"ÃŃneas":10659,"Ġetn":10660,"ĠPÃ¡":10661,"Ġgigantes":10662,"cista":10663,"Ġmover":10664,"Ġanime":10665,"Ġconsiderablemente":10666,"Ġileg":10667,"Ġmelo":10668,"ats":10669,"Ġ43":10670,"ĠMagn":10671,"ĠMedalla":10672,"Ġdramatur":10673,"icul":10674,"Ġpistas":10675,"ondo":10676,"Ġtim":10677,"ponimia":10678,"ecidos":10679,"Ġtransferencia":10680,"ĠinspiraciÃ³n":10681,"ĠEuropeo":10682,"ĠperÃŃodos":10683,"Ġdificultad":10684,"ĠComple":10685,"Ġcotidi":10686,"Ġtransport":10687,"Ġsentir":10688,"Ġtrigo":10689,"ĠganaderÃŃa":10690,"ĠobligÃ³":10691,"Ġelog":10692,"Ġreduc":10693,"Ġdientes":10694,"Ġpropuestas":10695,"ĠDominicana":10696,"ĠLegisla":10697,"bado":10698,"Ġdesh":10699,"Ġsostiene":10700,"ĠdiagnÃ³stico":10701,"Ġinac":10702,"igu":10703,"gues":10704,"Ġcandidatos":10705,"ĠPerson":10706,"die":10707,"Cu":10708,"Ġdeterior":10709,"Ġfle":10710,"ĠPÃºbl":10711,"onial":10712,"ĠSto":10713,"umer":10714,"Ġdirige":10715,"Ġjefes":10716,"Ġecuaciones":10717,"ĠMontevideo":10718,"jidad":10719,"Ã©ri":10720,"ĠOne":10721,"Ġbuque":10722,"ĠpersecuciÃ³n":10723,"Ġmeridional":10724,"Ġpersa":10725,"Ġapoyar":10726,"cro":10727,"Ġconferencia":10728,"glo":10729,"vera":10730,"ĠFranÃ§":10731,"Ġhumanas":10732,"ĠdestacÃ³":10733,"Ġrepublicano":10734,"dÃŃas":10735,"Ġentero":10736,"ĠKen":10737,"Ġhijas":10738,"ĠUR":10739,"ĠArthur":10740,"Ġservidor":10741,"Ġcaz":10742,"dura":10743,"Ġcorrespondientes":10744,"Ġrecuerda":10745,"Ġ1898":10746,"Ġperuana":10747,"ĠUnited":10748,"ĠInternational":10749,"avi":10750,"ĠrepresiÃ³n":10751,"Ġ1870":10752,"Ġllanura":10753,"ĠCollege":10754,"Ġexpresa":10755,"Ġalimento":10756,"quita":10757,"ĠInvestigaciÃ³n":10758,"delo":10759,"ĠsÃº":10760,"Ã³licos":10761,"Ġdefinido":10762,"adÃ¡ver":10763,"Ġdemostrar":10764,"Ġconecta":10765,"Ġutilizadas":10766,"Ġ1880":10767,"Ġesperar":10768,"ĠaÃ©rea":10769,"Ġpian":10770,"Ġsangu":10771,"ĠniÃ±a":10772,"Ġpermitiendo":10773,"'.":10774,"Ġpoetas":10775,"Ġprotagonizada":10776,"Ġremonta":10777,"Ġmuros":10778,"ĠGri":10779,"tricos":10780,"atra":10781,"Ġejercer":10782,"Ġensayos":10783,"ĠsesiÃ³n":10784,"Ġacos":10785,"ĠcantÃ³n":10786,"Ġtron":10787,"Ġpermanecer":10788,"ĠartillerÃŃa":10789,"Ġsencillos":10790,"Ġrestantes":10791,"Ġcortos":10792,"Ġprotestas":10793,"Ġfolcl":10794,"ĠConferencia":10795,"Ġpasan":10796,"Ġdevol":10797,"Ġed":10798,"Ġcoche":10799,"Ġlimitado":10800,"Ġruinas":10801,"ĠTw":10802,"ĠBig":10803,"kistÃ¡n":10804,"ĠSantander":10805,"ificada":10806,"ĠderrotÃ³":10807,"ĠMiranda":10808,"Ġempate":10809,"Ġrostro":10810,"ĠAlicante":10811,"Ġpeor":10812,"Ġcompeticiones":10813,"Ġlatina":10814,"Ġdesen":10815,"Ġelectrom":10816,"Ġcementerio":10817,"ĠStone":10818,"Ġluchar":10819,"ĠvariaciÃ³n":10820,"Îµ":10821,"ucado":10822,"Ġcuidado":10823,"emora":10824,"ceres":10825,"Ġcifras":10826,"Ġmoda":10827,"dros":10828,"Ġadquirir":10829,"ĠGiovan":10830,"ĠInterior":10831,"piro":10832,"ueba":10833,"tricas":10834,"2013":10835,"Ġintr":10836,"Ġproxim":10837,"Ġcaudal":10838,"ĠUEFA":10839,"ĠSelecciÃ³n":10840,"Ġsalvar":10841,"ĠinformÃ³":10842,"cripciones":10843,"ĠONU":10844,"eau":10845,"Ġcompletar":10846,"valo":10847,"ĠreproducciÃ³n":10848,"Ġrespeto":10849,"Ã©p":10850,"ĠLong":10851,"ĠAnder":10852,"Ġmarx":10853,"Ġverte":10854,"ĠApple":10855,"Ġpredominante":10856,"far":10857,"Ġviva":10858,"Ġintes":10859,"ĠWilson":10860,"ĠLeopol":10861,"oph":10862,"Â³":10863,"ĠGame":10864,"illones":10865,"ĠintÃ©rpre":10866,"Ġpositivo":10867,"Ġespar":10868,"Ġaltern":10869,"ĠGuadalupe":10870,"Ġjardines":10871,"tible":10872,"Ġromper":10873,"Ġinterpreta":10874,"ĠSergio":10875,"Ġcro":10876,"Ġpecho":10877,"Ġcreador":10878,"Ġbolivi":10879,"lim":10880,"Ġester":10881,"uliano":10882,"ĠTemplo":10883,"ĠLev":10884,"Ġignor":10885,"Ġruptura":10886,"Ġiniciales":10887,"Ġcelebrado":10888,"ĠElecciones":10889,"Ġvidrio":10890,"Ġdelim":10891,"Le":10892,"Las":10893,"Ġempla":10894,"uber":10895,"Ġdescubre":10896,"ĠPS":10897,"ĠFort":10898,"ĠAlber":10899,"ĠBenito":10900,"Ġimpulso":10901,"Pro":10902,"arlos":10903,"Ġreh":10904,"menia":10905,"Ġfos":10906,"ĠARN":10907,"trans":10908,"isfer":10909,"Ġrecuerdo":10910,"ĠFC":10911,"Ġarmon":10912,"Ġgolfo":10913,"Ġintelectuales":10914,"ob":10915,"guardia":10916,"Ġsoluciones":10917,"ĠRojas":10918,"ĠGalerÃŃa":10919,"ĠmagnÃ©tico":10920,"urrecciÃ³n":10921,"ĠKal":10922,"ĠcreciÃ³":10923,"Ġmedic":10924,"Ġ41":10925,"ĠcaracterÃŃstico":10926,"ĠeliminaciÃ³n":10927,"ĠLewis":10928,"tang":10929,"ĠvÃŃn":10930,"Ġdosis":10931,"Ġterrestres":10932,"ĠacadÃ©mico":10933,"ĠÃįn":10934,"Ġfirmado":10935,"enen":10936,"Ġnaran":10937,"plona":10938,"ĠRelig":10939,"ĠsoviÃ©ticos":10940,"Ġescog":10941,"ĠTime":10942,"Ġatribuye":10943,"olÃŃtico":10944,"ĠvotaciÃ³n":10945,"Ġnumer":10946,"ĠLit":10947,"ĠdiplomÃ¡tico":10948,"ĠBruce":10949,"Ġconsol":10950,"pido":10951,"cilla":10952,"Ġconstantes":10953,"Ġprosper":10954,"pil":10955,"Ġrepresentada":10956,"ĠayudÃ³":10957,"Ġlaboratorio":10958,"Ġth":10959,"ĠDrag":10960,"Ġprivados":10961,"Ġoscura":10962,"ĠSicilia":10963,"ĠAun":10964,"lave":10965,"ĠDur":10966,"icias":10967,"Ġimplan":10968,"Ġbeneficio":10969,"Ġalfabeto":10970,"ww":10971,"Ġimpro":10972,"Ġcaptura":10973,"tifica":10974,"ĠCuerpo":10975,"ĠLaguna":10976,"piÃ³":10977,"Ġdesarrollaron":10978,"ĠSteph":10979,"ĠexplosiÃ³n":10980,"ĠDemocrÃ¡tica":10981,"ĠLoc":10982,"2014":10983,"ĠconfiguraciÃ³n":10984,"reinato":10985,"Ġdejaron":10986,"Ġauxili":10987,"ĠsÃ¡b":10988,"Ġov":10989,"ĠCartagena":10990,"ÏĦ":10991,"ĠAP":10992,"Ġaustr":10993,"ĠExteriores":10994,"sell":10995,"Ġtiendas":10996,"Ġcerrado":10997,"ĠSalÃ³n":10998,"Ġ1895":10999,"Ġrecibieron":11000,"Ġindio":11001,"Ġperro":11002,"Ġcoordenadas":11003,"Ġrevela":11004,"2015":11005,"Ġindirec":11006,"ĠposeÃŃa":11007,"ĠJacques":11008,"Â»).":11009,"Ġmovil":11010,"ĠWolf":11011,"ĠTenerife":11012,"Ġinforma":11013,"Ġdistinto":11014,"ref":11015,"ucar":11016,"poles":11017,"ĠStreet":11018,"gi":11019,"Ġparlamento":11020,"set":11021,"Ġpudiendo":11022,"Ġsecciones":11023,"Bar":11024,"Ġsuprim":11025,"ĠUniversity":11026,"Ġfusil":11027,"ĠespectÃ¡culo":11028,"Ġvib":11029,"ĠampliaciÃ³n":11030,"ĠPrimeros":11031,"Ġleal":11032,"Ġmatriz":11033,"ĠSitu":11034,"ĠChristian":11035,"Ġbanco":11036,"Ġdividir":11037,"pton":11038,"Ġreduce":11039,"0000":11040,"Ġvisual":11041,"ĠAutÃ³noma":11042,"lues":11043,"Ġaparecieron":11044,"Ġsenador":11045,"ĠâĨĴ":11046,"ĠRepublic":11047,"ĠFallecimientos":11048,"utica":11049,"Ġsint":11050,"Ġcontinuaron":11051,"Ġreligiones":11052,"ĠPP":11053,"Ġcaliente":11054,"reos":11055,"Ġreele":11056,"ĠNan":11057,"Ġrechazo":11058,"ĠJar":11059,"ĠMetal":11060,"Ġgobernante":11061,"Ġembajador":11062,"Ġdeter":11063,"actual":11064,"Ġplanetas":11065,"Ġcompens":11066,"Ġfallecimiento":11067,"ĠBilbao":11068,"ĠProduc":11069,"vieran":11070,"Ġproporcionar":11071,"idalgo":11072,"ĠisraelÃŃ":11073,"ĠAth":11074,"ĠMontes":11075,"ĠextinciÃ³n":11076,"04":11077,"imnas":11078,"ĠBerg":11079,"ĠIll":11080,"Ġcolap":11081,"Ġcriol":11082,"Ġcoman":11083,"ĠFrancesa":11084,"ĠRenacimiento":11085,"fran":11086,"dere":11087,"ĠcadÃ¡ver":11088,"Ġsignificativa":11089,"ĠmatemÃ¡tica":11090,"ĠAzul":11091,"ĠRioja":11092,"DE":11093,"Ġcuadros":11094,"Ġarbi":11095,"Ġimpor":11096,"Ãºnich":11097,"andra":11098,"Ġmineral":11099,"Ġaerol":11100,"xe":11101,"ĠPiz":11102,"ĠgeomÃ©":11103,"bis":11104,"esto":11105,"Ġparecido":11106,"usas":11107,"Ġfunciona":11108,"ĠvivÃŃan":11109,"ĠactÃºa":11110,"Ġcoro":11111,"idez":11112,"ĠbÃ¡sica":11113,"ĠTokio":11114,"Ġbuenos":11115,"Ġcontinuo":11116,"ĠconcepciÃ³n":11117,"gener":11118,"Ġestrech":11119,"1985":11120,"IV":11121,"ĠAdolfo":11122,"Ġves":11123,"ĠFeria":11124,"Ġresponsables":11125,"ĠBall":11126,"Ġrar":11127,"Ġquedar":11128,"Ġpales":11129,"ĠVia":11130,"ĠErnes":11131,"ĠconfirmÃ³":11132,"Ġconson":11133,"unidense":11134,"Ġsufrir":11135,"ĠBlas":11136,"Ġfij":11137,"Ã¶n":11138,"ĠBond":11139,"Ġsusp":11140,"Ġllaman":11141,"ĠMuerte":11142,"ted":11143,"ĠReforma":11144,"ĠreconstrucciÃ³n":11145,"ĠKon":11146,"Ġ1899":11147,"ĠCervantes":11148,"Ġmental":11149,"ĠAC":11150,"Ġnoches":11151,"MI":11152,"cra":11153,"paz":11154,"Ġrefuer":11155,"inalmente":11156,"Ã©e":11157,"Ġdr":11158,"Ġordin":11159,"Ġhermanas":11160,"ĠBarrio":11161,"Ġambiental":11162,"Ġprepara":11163,"rison":11164,"iev":11165,"ensor":11166,"ĠFuentes":11167,"ĠSaj":11168,"Ġprecur":11169,"tania":11170,"ĠHacienda":11171,"AP":11172,"Ġ>":11173,"ette":11174,"ĠquizÃ¡s":11175,"Ġsenti":11176,"1986":11177,"ĠgeometrÃŃa":11178,"bust":11179,"Ġajed":11180,"ĠmÃ³vil":11181,"Ġcalcul":11182,"cano":11183,"ij":11184,"Ġidentificar":11185,"Ġalmacenamiento":11186,"ĠEnter":11187,"ĠtÃŃpica":11188,"ĠCÃ³digo":11189,"ĠLatinoamÃ©rica":11190,"Ġ}":11191,"ĠSilva":11192,"Ġarzobispo":11193,"Ġasim":11194,"Ġretom":11195,"ĠtriÃ¡n":11196,"Ġreuniones":11197,"ĠinfanterÃŃa":11198,"ĠObra":11199,"ĠAnn":11200,"Ġfrutos":11201,"ĠCaballero":11202,"Ġquem":11203,"ĠUU":11204,"Ġdebil":11205,"Ġinstancia":11206,"Ġvivienda":11207,"ĠdiscÃŃpul":11208,"Ġdesarrollan":11209,"ulÃ³":11210,"ĠDun":11211,"igual":11212,"acruz":11213,"ĠAlma":11214,"Ġsecundario":11215,"Ġficti":11216,"Ġgem":11217,"ĠIX":11218,"Ġrusos":11219,"Ġgama":11220,"ĠCamino":11221,"Î»":11222,"torce":11223,"iros":11224,"ĠEmil":11225,"ĠOpera":11226,"Ġdifun":11227,"Ġbon":11228,"ĠdaÃ±":11229,"Ġindis":11230,"ĠBartolomÃ©":11231,"ĠAnth":11232,"hard":11233,"Ġcuerda":11234,"Ġizquierdo":11235,"person":11236,"Ġmensajes":11237,"Ġreor":11238,"Ġexhibi":11239,"Ġ46":11240,"Ġdeportivas":11241,"ĠCE":11242,"Ġfacilitar":11243,"lines":11244,"ĠtÃ³":11245,"Ġmodificaciones":11246,"Ġhablantes":11247,"Ġaplicar":11248,"ĠAlfred":11249,"dices":11250,"Ġpublicados":11251,"Ġurbanos":11252,"ĠApolo":11253,"Ð¸":11254,"ĠCiencia":11255,"Ġperfil":11256,"curio":11257,"Ġhablan":11258,"Ġcintur":11259,"Ġlaterales":11260,"ĠAlc":11261,"Ġestudiante":11262,"ĠWes":11263,"prov":11264,"ĠGuerrero":11265,"Ġaline":11266,"ĠSecretarÃŃa":11267,"ĠAntÃ¡r":11268,"ĠArro":11269,"ĠBoe":11270,"ĠespecÃŃfica":11271,"hou":11272,"Ġigualdad":11273,"ĠexplÃŃci":11274,"Ġatleta":11275,"Ma":11276,"eÃ±o":11277,"Ġmara":11278,"ĠsoviÃ©tica":11279,"Ġcursos":11280,"Ġotomano":11281,"ĠcontaminaciÃ³n":11282,"ĠNÃ¡poles":11283,"Ġaque":11284,"ĠAlg":11285,"Ġpresa":11286,"Ġcopia":11287,"ĠMargarita":11288,"Ġdescubrir":11289,"Ġfragmentos":11290,"Ġrico":11291,"Ġend":11292,"Ġocupada":11293,"ĠvÃŃctima":11294,"Ġliderazgo":11295,"Ġpilotos":11296,"ĠSystem":11297,"Ġ95":11298,"ĠSatur":11299,"Ġfija":11300,"ĠPamplona":11301,"omun":11302,"ĠClo":11303,"Ġcomputadora":11304,"ĠSS":11305,"ĠKan":11306,"Ġorientales":11307,"Ġfotos":11308,"Ġcelebrar":11309,"enza":11310,"Ġestrecha":11311,"Ġgastos":11312,"ĠOscar":11313,"Ġcamis":11314,"Ġpeda":11315,"ĠexistÃŃan":11316,"Si":11317,"1988":11318,"yl":11319,"ucha":11320,"Ġtantos":11321,"penden":11322,"Ġinaugu":11323,"Ġpecul":11324,"ĠTony":11325,"prende":11326,"ĠPÃŃo":11327,"tudes":11328,"istÃŃa":11329,"Ġexteriores":11330,"Ġrevuelta":11331,"ĠconclusiÃ³n":11332,"Ġbuscando":11333,"Ġteatral":11334,"Ġtin":11335,"ĠConvenciÃ³n":11336,"ĠinstalÃ³":11337,"ĠHumanidad":11338,"adi":11339,"ĠRon":11340,"ficar":11341,"ĠMorales":11342,"ĠPrusia":11343,"ori":11344,"dium":11345,"ĠMÃºnich":11346,"actos":11347,"1987":11348,"Ġvocales":11349,"Ġobservaciones":11350,"ombres":11351,"Ġreiv":11352,"Ġances":11353,"Ġfilas":11354,"Ġfirme":11355,"Ġopos":11356,"izos":11357,"Ġconseguido":11358,"ĠTimes":11359,"ĠProvincial":11360,"ĪĴ":11361,"rededor":11362,"kh":11363,"Ġcima":11364,"tier":11365,"ĠCuenca":11366,"Ġalcanzado":11367,"ĠCristina":11368,"ĠFoot":11369,"ĠPSOE":11370,"Ġfranqui":11371,"Ġplen":11372,"Ġrenov":11373,"bat":11374,"Ġformalmente":11375,"Ġinflam":11376,"ĠNavidad":11377,"Ġ52":11378,"ĠMujer":11379,"Ġtrece":11380,"ĠEsper":11381,"Ġcantar":11382,"Ġtabl":11383,"ĠarqueolÃ³gicos":11384,"Ġdeclarada":11385,"Ġdeportivos":11386,"Ġrecomend":11387,"Ġcria":11388,"ĠNight":11389,"Ġmarino":11390,"Ġcriterios":11391,"Ġhero":11392,"ĠGales":11393,"paraÃŃso":11394,"ĠVargas":11395,"ĠConstantinopla":11396,"ĠlÃ¡m":11397,"tega":11398,"Ġorto":11399,"Ġsindic":11400,"Ġsufrido":11401,"ĠbÃ¡sico":11402,"Ġtoler":11403,"ĠcÃ©lebre":11404,"Ġvegetales":11405,"ĠDC":11406,"Ġrevolucionario":11407,"ĠTrabaj":11408,"Ġpse":11409,"Ġinser":11410,"leto":11411,"ĠbiÃ³":11412,"ĠBona":11413,"Ġdescrib":11414,"Ġadministrativo":11415,"ĠfilosÃ³f":11416,"ĠArquitectura":11417,"zaba":11418,"Ġgusto":11419,"Ġpoderoso":11420,"ĠingresÃ³":11421,"tit":11422,"irman":11423,"fectos":11424,"Ġejecutar":11425,"ĠSÃ¡":11426,"ĠOpen":11427,"ĠCho":11428,"ĠideologÃŃa":11429,"1980":11430,"Ġcondujo":11431,"ĠNorth":11432,"Ġaficionados":11433,"kins":11434,"Ġfinalidad":11435,"ĠCalder":11436,"ĠLad":11437,"ĠHidalgo":11438,"ĠgÃ³tico":11439,"Ġnove":11440,"Ġconducta":11441,"ĠDiputados":11442,"ĠlegislaciÃ³n":11443,"sel":11444,"oria":11445,"dilla":11446,"tah":11447,"lava":11448,"Ġrespira":11449,"Ġuc":11450,"ĠIt":11451,"Ã©simo":11452,"ars":11453,"plicaciones":11454,"Ġcontinuidad":11455,"Ġlegado":11456,"Ġ1897":11457,"ĠErnesto":11458,"ĠTac":11459,"Ġmanio":11460,"ĠMolina":11461,"ĠValenciana":11462,"ĠDavis":11463,"Ġmuro":11464,"Ġprima":11465,"prendiÃ³":11466,"itadas":11467,"Ġasunto":11468,"Ġdistinta":11469,"gaba":11470,"ĠAsunciÃ³n":11471,"ĠUniversal":11472,"Ġsegura":11473,"Ġochenta":11474,"fu":11475,"Ġion":11476,"Ġdescom":11477,"ĠJohnson":11478,"Ġtransfer":11479,"ĠgrabÃ³":11480,"Ġmicros":11481,"Ġobteniendo":11482,"ĠSuprema":11483,"Ġmolecular":11484,"Ã´":11485,"ĠGh":11486,"ĠvisitÃ³":11487,"ĠfÃŃsicos":11488,"Ġsignificativo":11489,"ĠEbro":11490,"quÃ©":11491,"Ġrestric":11492,"Ġoficina":11493,"08":11494,"ĠDeb":11495,"Ġapellido":11496,"MP":11497,"size":11498,"Ġcampan":11499,"ĠÃģvila":11500,"Ġconjun":11501,"Ġasumir":11502,"TS":11503,"yd":11504,"Ã¡Ã±ez":11505,"Ġpastor":11506,"ĠanimaciÃ³n":11507,"Ġbici":11508,"Ġprogreso":11509,"viedo":11510,"ĠOh":11511,"ĠAmar":11512,"ĠXII":11513,"Ġpobladores":11514,"ĠimpresiÃ³n":11515,"ĠÃģrea":11516,"ĠvenciÃ³":11517,"ĠirlandÃ©s":11518,"ĠVenus":11519,"Ġreemplazado":11520,"Ġcomerciantes":11521,"Ġrescat":11522,"Ġsiquiera":11523,"Ġcancel":11524,"Ġmasiva":11525,"Ġsufrag":11526,"ĠcolonizaciÃ³n":11527,"Ġlan":11528,"Ġcomposiciones":11529,"Ġpodido":11530,"Ġchoc":11531,"Ġcaballero":11532,"ĠVirginia":11533,"europe":11534,"llam":11535,"ĠOp":11536,"mosf":11537,"ĠGuan":11538,"fato":11539,"Ġasociada":11540,"unales":11541,"tillos":11542,"FC":11543,"oz":11544,"ĠvendiÃ³":11545,"cate":11546,"ĠMinistro":11547,"ufac":11548,"Ġlaboral":11549,"ĠTrabajo":11550,"Ġgestion":11551,"Ġverti":11552,"ĠOrigen":11553,"Ġflora":11554,"Madrid":11555,"Ġfores":11556,"Ġpostura":11557,"risto":11558,"Ġhered":11559,"formas":11560,"Ġ1889":11561,"Ġadecuado":11562,"Ġpuentes":11563,"ĠMonumento":11564,"ĠtÃ©cnicos":11565,"ĠVictor":11566,"ĠSudamÃ©rica":11567,"ĠHispan":11568,"encialmente":11569,"ĠGod":11570,"Ġintegral":11571,"ĠSteve":11572,"Ġinternas":11573,"ĠEjecutivo":11574,"gara":11575,"hem":11576,"ĠSamuel":11577,"ĠAlba":11578,"ĠprocesiÃ³n":11579,"Ġteorema":11580,"ĠParro":11581,"ĠAhora":11582,"ĠIP":11583,"uevas":11584,"ificaciones":11585,"Ġyacimientos":11586,"Ġtrabaja":11587,"Ġdesarrollada":11588,"urb":11589,"Ġpedir":11590,"ĠHenri":11591,"ĠCÃ¡r":11592,"Ġabuelo":11593,"Ġplacas":11594,"Ġretirarse":11595,"ĠServicios":11596,"Ġveter":11597,"1982":11598,"ild":11599,"ĠWeb":11600,"ĠSchool":11601,"Ġmister":11602,"ĠNas":11603,"Ġdirecciones":11604,"ĠUniversitario":11605,"ĠtripulaciÃ³n":11606,"Ġolvi":11607,"ĠAndrÃ©":11608,"Ġacusado":11609,"baj":11610,"Ġeros":11611,"Ġdibuj":11612,"ĠpolÃ©mica":11613,"Ġpermiso":11614,"gulos":11615,"Ġimpuesto":11616,"Ġpuntu":11617,"ĠdiseÃ±os":11618,"ĠAtlan":11619,"ĠconcluyÃ³":11620,"bertura":11621,"ĠespecÃŃficos":11622,"Ġcausar":11623,"Ġreceptor":11624,"esco":11625,"ĠArgel":11626,"ĠdinÃ¡mica":11627,"kÃŃn":11628,"Ġbille":11629,"Ġ51":11630,"ĠsueÃ±os":11631,"ĠidentificaciÃ³n":11632,"Ġinsta":11633,"Ġmontes":11634,"ĠhomÃ³nima":11635,"Ġfort":11636,"Ġesposo":11637,"ĠHistÃ³rico":11638,"brada":11639,"vena":11640,"ĠFueron":11641,"ĠsatÃ©lites":11642,"Ġgabinete":11643,"tigu":11644,"ĠSA":11645,"uctor":11646,"Ġnov":11647,"Ġmostra":11648,"Ġabundantes":11649,"mun":11650,"Ġaprobado":11651,"ĠdimensiÃ³n":11652,"ĠClasificaciÃ³n":11653,"],":11654,"Ġlad":11655,"Ġtam":11656,"Ġsucesos":11657,"ĠJeff":11658,"Ġrazon":11659,"ĠdÃ³nde":11660,"1983":11661,"Ġsustituido":11662,"Ġbarroco":11663,"geo":11664,"pson":11665,"toci":11666,"ĠMeso":11667,"Ġoral":11668,"ĠJuÃ¡rez":11669,"Ġdominios":11670,"Ġdarle":11671,"Ġmaestros":11672,"Ġ47":11673,"Ġenlaces":11674,"ganza":11675,"Ġpublicar":11676,"Ġenfrentamientos":11677,"Ġmand":11678,"ĠbritÃ¡nicas":11679,"ĠfÃ³siles":11680,"Ġinsectos":11681,"ĠTrinidad":11682,"porada":11683,"Ġsurgieron":11684,"03":11685,"roga":11686,"uit":11687,"Ġdesenca":11688,"vienen":11689,"Ġexili":11690,"Ġavances":11691,"Ġportugueses":11692,"Ãºmero":11693,"ĠNel":11694,"Ġ49":11695,"Ġintegrada":11696,"Ġpala":11697,"Ġdiarios":11698,"Ġdesaparecido":11699,"ĠImperial":11700,"Ġpist":11701,"lash":11702,"Ã±oz":11703,"unk":11704,"icar":11705,"Ġadh":11706,"ĠRoque":11707,"Ġnecesariamente":11708,"Ġtransmitir":11709,"ury":11710,"Ġplanos":11711,"ĠconocÃŃa":11712,"ĠrespondiÃ³":11713,"Ġsesiones":11714,"ĠJohann":11715,"isc":11716,"Ġpresidi":11717,"1984":11718,"Ġ1860":11719,"ĠincorporÃ³":11720,"elia":11721,"Ġcompleja":11722,"Ġviajar":11723,"Ġmarcador":11724,"ĠemitiÃ³":11725,"Ġllena":11726,"Ġcong":11727,"andÃ©s":11728,"iko":11729,"Ġsecundarios":11730,"gunas":11731,"Ġatmosf":11732,"Ġesperaba":11733,"ĠBellas":11734,"onga":11735,"Ġentus":11736,"Ġpositiva":11737,"Ġesfera":11738,"ometraje":11739,"Ġexposiciones":11740,"zy":11741,"ĠLab":11742,"Ġevangel":11743,"Ġunido":11744,"Ġperiodos":11745,"Ġseparados":11746,"Ġmanteniendo":11747,"ĠtÃŃpicos":11748,"Ġber":11749,"Ġcatorce":11750,"ĠJoe":11751,"Ġcomponen":11752,"Ġprotocolo":11753,"Ġestatales":11754,"bach":11755,"Ġoce":11756,"Ġteles":11757,"Ġmodos":11758,"Ġmundiales":11759,"Ġcorteza":11760,"ĠDoug":11761,"Ġtubo":11762,"ĠmarquÃ©s":11763,"Ġabaste":11764,"gencias":11765,"ĠAmor":11766,"Ġdescrip":11767,"ĠconversiÃ³n":11768,"ĠBab":11769,"edic":11770,"Ġdrogas":11771,"Ġbat":11772,"Ġdur":11773,"Ġanualmente":11774,"Ġimpon":11775,"ĠexplicaciÃ³n":11776,"ĠcooperaciÃ³n":11777,"Ġpermitido":11778,"Ġexpresiones":11779,"ĠGiovanni":11780,"Me":11781,"ÃŃticos":11782,"ĠPens":11783,"Ġquiso":11784,"Ġpetrol":11785,"ĠBarran":11786,"Ġcombatir":11787,"06":11788,"ms":11789,"Ġaloj":11790,"1981":11791,"ME":11792,"Ġestablecida":11793,"psis":11794,"Ġsetenta":11795,"hoy":11796,"dista":11797,"Ġpropiamente":11798,"Ġdieta":11799,"lova":11800,"trales":11801,"ĠVera":11802,"Ġlegales":11803,"Ġpermanece":11804,"Per":11805,"Ã©isbol":11806,"ĠSk":11807,"Ġfacilidad":11808,"ĠdecoraciÃ³n":11809,"Ġnervioso":11810,"acre":11811,"ĠOperaciÃ³n":11812,"Ġintegra":11813,"Ġlanzar":11814,"Ġcubano":11815,"madura":11816,"Ġvendido":11817,"Ġpolin":11818,"ĠZo":11819,"Ġcontenidos":11820,"Ġadecuada":11821,"Ġexperiencias":11822,"ĠHouse":11823,"Ġtribunal":11824,"Ġasume":11825,"vidades":11826,"urbios":11827,"ĠPales":11828,"ĠDick":11829,"Ġsindica":11830,"2018":11831,"Ġcumbre":11832,"teto":11833,"lanes":11834,"ĠWay":11835,"Ã©ctor":11836,"Ġasociaciones":11837,"Ġmanejo":11838,"ducido":11839,"ĠestÃ©tica":11840,"Ġevolu":11841,"ĠvivÃŃa":11842,"ĠCapitÃ¡n":11843,"mil":11844,"ning":11845,"ĠSong":11846,"Ġventana":11847,"ĠsensaciÃ³n":11848,"ĠfÃ¡bricas":11849,"Ã©xico":11850,"Ġ1888":11851,"ĠAlejan":11852,"Ġatraviesa":11853,"Ġdetermina":11854,"guerra":11855,"uirre":11856,"Ã¡culo":11857,"ĠVlad":11858,"peras":11859,"Ġsimil":11860,"ĠHabana":11861,"Ġusualmente":11862,"box":11863,"...]":11864,"oleta":11865,"Ġnacionalidad":11866,"Ã¡sticas":11867,"Ġnegativo":11868,"Po":11869,"ÃŃamos":11870,"Ġgeo":11871,"Ġoriente":11872,"Ġescritas":11873,"hib":11874,"Ġapres":11875,"ĠLife":11876,"patÃŃa":11877,"poraciÃ³n":11878,"Ġmarinos":11879,"Ġllevando":11880,"ĠOcta":11881,"Ġrequieren":11882,"ĠinmigraciÃ³n":11883,"ĠpÃ³st":11884,"tades":11885,"socia":11886,"mu":11887,"Ġpacto":11888,"ĠCri":11889,"Ġsocialistas":11890,"Ġdegr":11891,"imar":11892,"Ġ1894":11893,"onde":11894,"ĠOviedo":11895,"Ġllevada":11896,"ĠSÃ£o":11897,"Ġcuan":11898,"Ġplatos":11899,"Ġjunta":11900,"ĠGun":11901,"ĠÃ¡cidos":11902,"Ġsufre":11903,"Ġesquema":11904,"Ä«":11905,"ĠCis":11906,"erson":11907,"ĠMedina":11908,"Ġrib":11909,"Ġcubre":11910,"Ġadquier":11911,"Ġcomplejidad":11912,"iblemente":11913,"Ġquedado":11914,"bury":11915,"tana":11916,"ocos":11917,"Ġendo":11918,"ĠAnto":11919,"Ġintensa":11920,"politano":11921,"ĠJal":11922,"ĠEspar":11923,"ĠNaciÃ³":11924,"Ġdictador":11925,"Ġmide":11926,"Ġinternos":11927,"Ġaparentemente":11928,"Ġmejoras":11929,"Ġ1896":11930,"Ġintroducir":11931,"Ġsobresal":11932,"Ġindo":11933,"itt":11934,"ĠEsa":11935,"ĠNorteamÃ©rica":11936,"ĠAirlines":11937,"ĠconsistÃŃa":11938,"urantes":11939,"US":11940,"Ġescar":11941,"Ġtranspar":11942,"Ġafecta":11943,"Ã©ndolo":11944,"ĠDion":11945,"brado":11946,"Ġbombas":11947,"dÃ©s":11948,"usura":11949,"ĠFA":11950,"ĠValparaÃŃso":11951,"ĠCampeones":11952,"ÃŃmetros":11953,"ĠOficina":11954,"ĠIndustrial":11955,"TE":11956,"Ġcuento":11957,"ett":11958,"Ġalemanas":11959,"Ġpatria":11960,"Ġprovocando":11961,"Ġpianista":11962,"ox":11963,"Ġetique":11964,"Ġhosp":11965,"ĠBorbÃ³n":11966,"zu":11967,"Ġans":11968,"ĠKim":11969,"Ġimpuso":11970,"ĠAlcalÃ¡":11971,"isferio":11972,"Ġlitoral":11973,"Ġunir":11974,"ĠbÃŃ":11975,"ĠcontenÃŃa":11976,"Ġfarmac":11977,"Ġsam":11978,"Ġasamblea":11979,"ĠsÃŃndrome":11980,"Ġaero":11981,"Ġcuadrado":11982,"Ġpudieran":11983,"Ġflan":11984,"Ġsuave":11985,"Ġcura":11986,"ĠKn":11987,"Ġ1891":11988,"Ġcondenado":11989,"ĠproteÃŃna":11990,"ciller":11991,"Ġsupervis":11992,"Ġasturi":11993,"ĠIndependiente":11994,"Ġseca":11995,"ulan":11996,"cionista":11997,"alizan":11998,"Ġoportunidades":11999,"ĠcuÃ¡ntica":12000,"Ġucran":12001,"eÃ±a":12002,"ĠAbra":12003,"ĠHur":12004,"Ġregal":12005,"Ġexpertos":12006,"ĠGuy":12007,"Ġaco":12008,"brar":12009,"Ġdenominados":12010,"Ġglob":12011,"Ġvidas":12012,"ĠmÃ©dica":12013,"urios":12014,"ĠMuÃ±oz":12015,"govia":12016,"Ġsoldado":12017,"Ġinsu":12018,"allÃ³n":12019,"ĠincorporaciÃ³n":12020,"Ġindicar":12021,"ĠexportaciÃ³n":12022,"ĠHD":12023,"ĠAlan":12024,"bren":12025,"puestamente":12026,"ĠMonter":12027,"ĠJava":12028,"As":12029,"BS":12030,"Ġfren":12031,"ĠsÃ©ptimo":12032,"Ġcreen":12033,"Ġprotestantes":12034,"ĠmolÃ©cula":12035,"ĠLlo":12036,"ĠTig":12037,"Ã©ndum":12038,"ĠMarte":12039,"idth":12040,"ĠrenunciÃ³":12041,"ĠHÃ©ctor":12042,"Ġpatrones":12043,"Ġexcelente":12044,"ĠdepÃ³sitos":12045,"gÃ³n":12046,"yente":12047,"Ġllor":12048,"tipos":12049,"Ãºo":12050,"ĠPress":12051,"yle":12052,"oli":12053,"rudi":12054,"Ġcarro":12055,"ueltas":12056,"Ġsituados":12057,"Ġdesplazamiento":12058,"ĠcontemporÃ¡neos":12059,"Ġrelevancia":12060,"ĠtendrÃ¡":12061,"09":12062,"ĠBach":12063,"Ġ700":12064,"ĠValent":12065,"undamente":12066,"regaciÃ³n":12067,"cino":12068,"quist":12069,"Ġregulares":12070,"ĠespecÃŃficas":12071,"02":12072,"quetes":12073,"Ġincidente":12074,"Ġelectorales":12075,"ĠhabitaciÃ³n":12076,"Ġaventura":12077,"ĠXIX":12078,"ĠHard":12079,"ĠBernard":12080,"Ġfinanciero":12081,"Ġcontroversia":12082,"Ġesculturas":12083,"Ġhueso":12084,"Ġrell":12085,"Ġresal":12086,"dromo":12087,"ĠcontribuyÃ³":12088,"ĠescaÃ±os":12089,"ĠaÃ±adir":12090,"Ġsacerdotes":12091,"Ġá":12092,"Ġdevo":12093,"ĠMadre":12094,"ĠBang":12095,"Ġbizantino":12096,"vina":12097,"brados":12098,"ubio":12099,"Ġcapi":12100,"ĠmenciÃ³n":12101,"andÃŃa":12102,"ĠIglesias":12103,"Ġcompetencias":12104,"IP":12105,"hÃŃ":12106,"ston":12107,"ĠmediterrÃ¡neo":12108,"ĠAnna":12109,"ĠCarolina":12110,"Ġbasadas":12111,"Ġeficaz":12112,"Ġinformes":12113,"Ġacepta":12114,"ĠVÃŃa":12115,"Ġmanz":12116,"Ġsuelos":12117,"Ġespl":12118,"Ġrealizando":12119,"ĠCiudades":12120,"ĠMiem":12121,"Ġherramienta":12122,"ĠDio":12123,"Ġconservadores":12124,"vÃ©ase":12125,"idae":12126,"Ġamante":12127,"ĠChris":12128,"....":12129,"ĠconvertirÃŃa":12130,"Ġdialecto":12131,"Ġdedos":12132,"quismo":12133,"ĠCongo":12134,"ĠYu":12135,"Ġenfrentarse":12136,"tomo":12137,"triz":12138,"yr":12139,"Ġpostul":12140,"Ġrecurso":12141,"inaria":12142,"Ġcohe":12143,"ĠapoyÃ³":12144,"ĠproclamÃ³":12145,"Ġperif":12146,"Ġdistancias":12147,"ĠTuvo":12148,"Ġgarantizar":12149,"Ã³to":12150,"dist":12151,"ĠpercepciÃ³n":12152,"ĠoraciÃ³n":12153,"ĠComenz":12154,"Ġinstitucional":12155,"Ġgeneraciones":12156,"Ġimpedir":12157,"Ġruido":12158,"ĠcercanÃŃas":12159,"ĠHil":12160,"quim":12161,"ĠTiempo":12162,"guila":12163,"Ġcampeonatos":12164,"Ġasedio":12165,"Ġpp":12166,"laje":12167,"vide":12168,"Ġ1830":12169,"Ġsiglas":12170,"Ã©lico":12171,"Ġventanas":12172,"Ġpregunta":12173,"ĠfÃ¡r":12174,"Ġprofesores":12175,"ĠdifÃŃciles":12176,"Äį":12177,"ĠKong":12178,"ĠCortÃ©s":12179,"Ġvigente":12180,"ĠRiver":12181,"ML":12182,"tanos":12183,"Ã³grafo":12184,"cons":12185,"ĠTeorÃŃa":12186,"Ġprovocar":12187,"Ġmagist":12188,"Ġinaugura":12189,"ĠmÃ³viles":12190,"ĠChan":12191,"ieran":12192,"ĠLac":12193,"donde":12194,"Ġprotesta":12195,"ĠautomÃ³viles":12196,"Ġ85":12197,"ĠBahÃŃa":12198,"Ġ1821":12199,"terrÃ¡nea":12200,"Ġconstantemente":12201,"Ġvarones":12202,"bÃºs":12203,"ĠStan":12204,"itch":12205,"ĠPosee":12206,"Ġ1879":12207,"ali":12208,"Ġunen":12209,"caya":12210,"pina":12211,"Ġestel":12212,"Ġdol":12213,"ĠGold":12214,"Ġinspirado":12215,"Ġconmemora":12216,"genos":12217,"ĠaceptaciÃ³n":12218,"ĠRomero":12219,"Ġsentencia":12220,"tinas":12221,"ĠExtremadura":12222,"ax":12223,"ika":12224,"Ġprotector":12225,"Ġinterfaz":12226,"ĠInca":12227,"Ġdisfra":12228,"uicios":12229,"ĠexpulsiÃ³n":12230,"omen":12231,"Ġrealistas":12232,"Ġabandonado":12233,"ĠpodrÃ¡":12234,"Ġarca":12235,"tens":12236,"Ġpref":12237,"Ġcompuso":12238,"Ġcolombiana":12239,"Ġcomprender":12240,"Ġrepublicanos":12241,"ordi":12242,"terapia":12243,"drÃ¡":12244,"Ġcopa":12245,"Ġexpresidente":12246,"Ġpatrio":12247,"Ġradicales":12248,"rÃ³geno":12249,"Ġ1833":12250,"Ġpredeces":12251,"ĠsolicitÃ³":12252,"ĠhÃŃ":12253,"Ġbeb":12254,"Ġperf":12255,"ester":12256,"Ġpolic":12257,"Ġfranja":12258,"bierto":12259,"Ġsacar":12260,"ĠBillboard":12261,"Ġcantau":12262,"trad":12263,"ĠLago":12264,"quen":12265,"ĠentregÃ³":12266,"Ġprevia":12267,"Ġcombates":12268,"Ġsucedido":12269,"ĠsÃ³lido":12270,"Ġdesembocadura":12271,"ĠChip":12272,"ĠrevisiÃ³n":12273,"dellÃŃn":12274,"Ðµ":12275,"Ġdama":12276,"igi":12277,"ĠNep":12278,"Ġricos":12279,"ĠPapa":12280,"ĠXVIII":12281,"Ġlateral":12282,"sec":12283,"Ġerudi":12284,"ÃŃdas":12285,"Ġcontener":12286,"ĠMara":12287,"Ne":12288,"lando":12289,"Ġef":12290,"ĠEin":12291,"ĠIBM":12292,"andar":12293,"Ġpublici":12294,"Ġparticipado":12295,"ĠLimita":12296,"Ġdialectos":12297,"ĠcinematogrÃ¡fica":12298,"Ġdramaturgo":12299,"ĠRas":12300,"itariamente":12301,"Ġenterrado":12302,"Ġhablado":12303,"Ġrealista":12304,"1979":12305,"ĠRevolucion":12306,"Ġpra":12307,"Ġcongreso":12308,"ĠEver":12309,"ĠLaw":12310,"Ġcargas":12311,"ĠNacimientos":12312,"Ġtendencias":12313,"Ġprotagonistas":12314,"ĠEvoluciÃ³n":12315,"Ġproducciones":12316,"Ġseparadas":12317,"Ġpropone":12318,"Ġpatio":12319,"Ġmantuvieron":12320,"Ġ5000":12321,"ervatorio":12322,"bon":12323,"vy":12324,"ĠMet":12325,"ĠAssocia":12326,"Ġinmun":12327,"ĠacÃºst":12328,"ĠVat":12329,"Ġcubrir":12330,"Ġlleno":12331,"Am":12332,"grafos":12333,"ciencia":12334,"Ġine":12335,"idar":12336,"font":12337,"jaros":12338,"Ġnubes":12339,"ĠsimultÃ¡neamente":12340,"yen":12341,"Ġorganizada":12342,"ĠVeracruz":12343,"Ġconvencional":12344,"Ġotorga":12345,"ĠMercedes":12346,"asi":12347,"Ġllamaba":12348,"Ġextrema":12349,"ĠSky":12350,"ĠfrÃŃa":12351,"Ġordenador":12352,"ĠPrin":12353,"Ġadoptado":12354,"ĠCalderÃ³n":12355,"Sta":12356,"2016":12357,"Ġtoros":12358,"Ġcomprar":12359,"ĠCapilla":12360,"stos":12361,"Ġalcanzando":12362,"comun":12363,"ĠprÃ³xima":12364,"ĠdueÃ±o":12365,"ory":12366,"Ġherb":12367,"helm":12368,"PR":12369,"etti":12370,"Ġcalcular":12371,"ĠeligiÃ³":12372,"Ġoptim":12373,"Ġbloques":12374,"ĠBrun":12375,"Ġcuch":12376,"ĠNum":12377,"Ġcasado":12378,"Ġarmadas":12379,"Ġpidi":12380,"ĠSul":12381,"Ġpropon":12382,"Ġrecib":12383,"Ġhuevos":12384,"vados":12385,"Ġlac":12386,"tenimiento":12387,"Ġcomputadoras":12388,"Ġirregular":12389,"Ġmuertes":12390,"cales":12391,"ĠGuay":12392,"ĠbotÃ¡nico":12393,"ĠdiscusiÃ³n":12394,"rima":12395,"Ġ1848":12396,"Ġsorpresa":12397,"Ġselva":12398,"ĠKennedy":12399,"Ġaman":12400,"Ġcabezas":12401,"Ġpropietario":12402,"ĠDirector":12403,"Ġrivales":12404,"Ġsintetiz":12405,"fag":12406,"Ġgrabaciones":12407,"ĠSociety":12408,"ĠPresidencia":12409,"Ġintra":12410,"ĠcaÃ±a":12411,"Ġotorgado":12412,"%),":12413,"Or":12414,"rente":12415,"xis":12416,"acÃ¡n":12417,"ĠpreocupaciÃ³n":12418,"ĠdesempeÃ±Ã³":12419,"quierda":12420,"Ġnecesarias":12421,"Ġsirven":12422,"onias":12423,"icada":12424,"ĠAlejandrÃŃa":12425,"Ġdependencia":12426,"Ġlabios":12427,"ĠMid":12428,"Ġsalto":12429,"ĠquizÃ¡":12430,"Ġconservador":12431,"300":12432,"tosa":12433,"ĠColumbia":12434,"07":12435,"ĠSajonia":12436,"ĠestarÃŃa":12437,"ĠViv":12438,"oraciones":12439,"ĠYugosla":12440,"ĠEmperador":12441,"ĠHein":12442,"esos":12443,"amante":12444,"ĠPur":12445,"endida":12446,"Ġadver":12447,"cioso":12448,"Ġsubcampe":12449,"ĠseÃ±alÃ³":12450,"FE":12451,"ĠProtec":12452,"Ġabandono":12453,"Ġdesconocido":12454,"Ġira":12455,"ĠBrig":12456,"ĠEnerg":12457,"ariciones":12458,"Ġparticipan":12459,"Ġpatri":12460,"Ġvieja":12461,"ĠFlorencia":12462,"Ġesclavitud":12463,"Ġanat":12464,"Ġpunk":12465,"Ġguerrill":12466,"Ġperdieron":12467,"iedad":12468,"ĠArmadas":12469,"timos":12470,"ĠDy":12471,"piter":12472,"Ġprevio":12473,"Ġcobertura":12474,"Ġdibujo":12475,"ĠLang":12476,"Ġextendido":12477,"work":12478,"Ġlist":12479,"cap":12480,"luencia":12481,"Ġmantenido":12482,"Ġinteresante":12483,"Ġelectromagn":12484,"rales":12485,"ĠLiv":12486,"ĠhomÃ³nimo":12487,"ĠautÃ³c":12488,"Ġextranjera":12489,"ĠEric":12490,"ĠGall":12491,"Ġregresa":12492,"Ġsospech":12493,"Ġdeno":12494,"ondas":12495,"istiÃ³":12496,"Ġacaba":12497,"Ġutilizaba":12498,"Ġfinanciera":12499,"Ġlevantamiento":12500,"ĠAdi":12501,"Ã³cratas":12502,"uria":12503,"Ġcarn":12504,"Ġefectivo":12505,"Ġlento":12506,"iser":12507,"ĠAnat":12508,"ĠMars":12509,"Ġzapa":12510,"Ġcambiado":12511,"ĠJerÃ³nimo":12512,"ĠBlue":12513,"ĠcomitÃ©":12514,"Ġhechas":12515,"Ġverso":12516,"ĠJefe":12517,"AC":12518,"itis":12519,"orth":12520,"Ġautobuses":12521,"itÃŃ":12522,"ficientes":12523,"Ġfrancos":12524,"ĠgeografÃŃa":12525,"Ġsoberano":12526,"ĠNÃºÃ±ez":12527,"Ġantici":12528,"oluciones":12529,"med":12530,"Ġespejo":12531,"Ġhuelga":12532,"//":12533,"Ġencan":12534,"Ġtrascen":12535,"ĠTop":12536,"ĠaustrÃŃa":12537,"rimientos":12538,"Ġcatalog":12539,"ĠURSS":12540,"bec":12541,"ueves":12542,"Ġdependiente":12543,"py":12544,"Ġseman":12545,"Ġseguida":12546,"queros":12547,"ĠLie":12548,"Ġtienden":12549,"ribuciÃ³n":12550,"Ġcapitales":12551,"ns":12552,"ĠHas":12553,"Ġpublicidad":12554,"Ġdeterminados":12555,"Ġeco":12556,"ĠLara":12557,"ĠToro":12558,"etta":12559,"vestre":12560,"Ġanuncia":12561,"Ġfundadores":12562,"ĠDeclar":12563,"ĠLisboa":12564,"Ġconcejales":12565,"Ãª":12566,"Ġtrage":12567,"Ġpuro":12568,"ĠChÃ¡":12569,"Ġrecta":12570,"Ġproduciendo":12571,"Ġrecoge":12572,"ĠaristÃ³crata":12573,"bri":12574,"ĠsustituciÃ³n":12575,"ĠhabrÃŃan":12576,"Ġiniciaron":12577,"Ġmaterias":12578,"Ġtasas":12579,"Ġ54":12580,"ĠAcciÃ³n":12581,"ĠBaviera":12582,"ĠBroad":12583,"garse":12584,"Ġconc":12585,"Ġ98":12586,"ĠextracciÃ³n":12587,"fice":12588,"Ġobispos":12589,"SI":12590,"Â´":12591,"Ġapor":12592,"Ã³teles":12593,"abilidades":12594,"ĠTib":12595,"ĠMedellÃŃn":12596,"ĠÃģr":12597,"Ġfrecuencias":12598,"Ġvelocidades":12599,"ĠconstituyÃ³":12600,"Ġconduce":12601,"dares":12602,"Ġpide":12603,"Ġdesm":12604,"Ġanillos":12605,"Ġutilizaron":12606,"Ġ1892":12607,"Ġrestaurantes":12608,"vento":12609,"ĠGala":12610,"Ġamino":12611,"Ġsolu":12612,"Ġastron":12613,"Ġdetenido":12614,"ĠinÃ©di":12615,"igma":12616,"Ġtiende":12617,"Ġpase":12618,"Ġmusulmana":12619,"Ġnotablemente":12620,"ĠTaylor":12621,"ĠinauguraciÃ³n":12622,"ĠFranÃ§ois":12623,"ĠvarÃŃan":12624,"Ġpromin":12625,"Ġpresentaron":12626,"Ġjuvenil":12627,"elt":12628,"Ġtecho":12629,"Ġtraslado":12630,"Ġsuperficies":12631,"Ġvuelto":12632,"ĠAntio":12633,"ross":12634,"ĠtÃ©rmica":12635,"vich":12636,"Ġeuro":12637,"cita":12638,"ĠPunta":12639,"ĠBenjam":12640,"ĠManz":12641,"Ġcaras":12642,"Ġtraspas":12643,"Ġterminado":12644,"ĠXIV":12645,"Ġcrimen":12646,"Ġ1868":12647,"ĠcinturÃ³n":12648,"sky":12649,"Ġcuartel":12650,"Ġrenombr":12651,"Ġprocedimientos":12652,"ĠEri":12653,"try":12654,"Ġ1812":12655,"ĠSede":12656,"uracÃ¡n":12657,"Ġmisiles":12658,"Ġefectiva":12659,"ĠgermÃ¡n":12660,"ĠIgualmente":12661,"ĠcapÃŃtulos":12662,"Ã¡micas":12663,"1976":12664,"ĠagrupaciÃ³n":12665,"ĠHijo":12666,"ĠcontemporÃ¡nea":12667,"orros":12668,"ĠFla":12669,"Ġlesiones":12670,"ĠMetropolitana":12671,"Ġfri":12672,"ĠLug":12673,"Ġmayoritariamente":12674,"Ġextenso":12675,"rarse":12676,"enti":12677,"carriles":12678,"Ġvende":12679,"ĠcomprensiÃ³n":12680,"Ġfrutas":12681,"Ġnombramiento":12682,"ede":12683,"Ġreferente":12684,"ĠmanifestaciÃ³n":12685,"lÃ³g":12686,"ĠFerr":12687,"Ġguarda":12688,"Cal":12689,"ĠBis":12690,"Ġnombrar":12691,"Ġcensura":12692,"iamente":12693,"ĠCav":12694,"Ġargumentos":12695,"ĠhÃºmedo":12696,"ĠCA":12697,"atÃ¡n":12698,"ĠinfecciÃ³n":12699,"Ġllamarse":12700,"ĠLux":12701,"Ġmuralla":12702,"ĠBoeing":12703,"Ġtos":12704,"ĠCampos":12705,"Ġautomovilismo":12706,"Ġluc":12707,"olar":12708,"ĠATP":12709,"Ġcorreo":12710,"Ġprocesamiento":12711,"Ġconstituido":12712,"Ġhorizontal":12713,"Ãī":12714,"Ġ1884":12715,"Ġportuguesa":12716,"ĠLeopoldo":12717,"nio":12718,"ĠAlf":12719,"Ġpintores":12720,"Ġdeterminadas":12721,"ĠVent":12722,"ĠgenerÃ³":12723,"Ġneum":12724,"Ġconforme":12725,"kg":12726,"Ġlej":12727,"Ġ56":12728,"ĠParte":12729,"ĠAristÃ³teles":12730,"Ġcitado":12731,"voz":12732,"venciones":12733,"Ġpropici":12734,"ĠProto":12735,"ĠHotel":12736,"ĠcÃ³nsul":12737,"ĠMallorca":12738,"cÃŃas":12739,"Ġdefinida":12740,"1973":12741,"quias":12742,"Ġmaneras":12743,"gros":12744,"ĠpertenecÃŃa":12745,"ĠatracciÃ³n":12746,"ĠbÃ¡sicas":12747,"ĠfotografÃŃas":12748,"Ġreson":12749,"Ġdestacadas":12750,"Ġentradas":12751,"Ġfavorable":12752,"ĠHispano":12753,"Ġconferencias":12754,"ĠporciÃ³n":12755,"Ġintern":12756,"ĠCenter":12757,"ĠreferÃ©ndum":12758,"ĠLibertadores":12759,"ĠpretendÃŃa":12760,"ĠProyecto":12761,"ĠReserva":12762,"Ġvulner":12763,"ĠIsaac":12764,"ĠInc":12765,"ĠArmenia":12766,"ciosa":12767,"Ġreconocidos":12768,"Ġdefinitivo":12769,"ĠOlÃŃmpico":12770,"Ġcaballeros":12771,"bajo":12772,"Ġnecesitan":12773,"Ġaprobada":12774,"ĠFilosofÃŃa":12775,"ĠTipos":12776,"mÃ¡tico":12777,"ĠinflaciÃ³n":12778,"veno":12779,"Ġcolecciones":12780,"ĠAM":12781,"ĠHero":12782,"ĠÂ°":12783,"Ġexpresar":12784,"lovaquia":12785,"Ġalu":12786,"Ġdesl":12787,"Ġemp":12788,"Ġpolici":12789,"Ġiniciado":12790,"Ġderivado":12791,"wick":12792,"Ġmanufac":12793,"Ġcortas":12794,"gata":12795,"ĠIsidro":12796,"Ġexperimento":12797,"Ġexitosa":12798,"Ġposesiones":12799,"Ġcrecer":12800,"ĠtrÃ¡ns":12801,"Ġdicen":12802,"niciÃ³n":12803,"Ġpreval":12804,"Ġopciones":12805,"ĠBandera":12806,"ĠSr":12807,"Ġtrajo":12808,"Ġinvitado":12809,"ĠValdi":12810,"Ġdemuestra":12811,"ĠhistÃ³ricamente":12812,"ĠRoss":12813,"Ġventajas":12814,"Ġmarcada":12815,"ÃŃtm":12816,"Ã©lica":12817,"Ġum":12818,"Ġcarl":12819,"Ġconsideradas":12820,"ĠDiario":12821,"ĠdanÃ©s":12822,"pales":12823,"ĠDicho":12824,"Ġobreros":12825,"tasio":12826,"terial":12827,"ĠCarlo":12828,"Ġdenominan":12829,"Ġ[...]":12830,"ĠHabsburgo":12831,"RE":12832,"Ġabar":12833,"2017":12834,"Ġ1885":12835,"ĠCartago":12836,"Ġprovisional":12837,"Ġinyec":12838,"ĠAli":12839,"Ġnegras":12840,"Ġcorrespondencia":12841,"ĠquÃŃmicas":12842,"ĠtelÃ©":12843,"Ġmonstru":12844,"dadores":12845,"ĠseÃ±alar":12846,"ĠPersonajes":12847,"Ġencer":12848,"ĠEnl":12849,"Ġrodaje":12850,"Ġequip":12851,"poli":12852,"Ġ1893":12853,"Ġregistra":12854,"wen":12855,"Ġesencia":12856,"Ġbrin":12857,"ĠcrÃ³nica":12858,"Ġcompositores":12859,"ĠmÃ¡rmol":12860,"Ġsentimientos":12861,"Ġbicicle":12862,"Ġdenunci":12863,"Ġcerrada":12864,"itoria":12865,"ĠgrÃ¡ficos":12866,"Ġescolar":12867,"Ġaprender":12868,"digos":12869,"Ġopuesto":12870,"tella":12871,"ĠcaÃ±Ã³n":12872,"ĠtÃ©":12873,"ĠDE":12874,"ĠMarsh":12875,"ĠpasiÃ³n":12876,"ĠDark":12877,"Ġurbanas":12878,"Ġende":12879,"ĠMaj":12880,"Ġconfundir":12881,"ĠcomprÃ³":12882,"Ġfibras":12883,"ĠconcesiÃ³n":12884,"ĠBun":12885,"ogÃŃa":12886,"Ġviuda":12887,"Ġintenso":12888,"ĠelectrÃ³nicos":12889,"ĠbÃ¡sicamente":12890,"tena":12891,"verde":12892,"ĠreputaciÃ³n":12893,"ficado":12894,"Ġevac":12895,"xias":12896,"Ð½":12897,"Ġexperimental":12898,"ĠsÃ¡bado":12899,"Ġconsigo":12900,"Â»;":12901,"ĠCoruÃ±a":12902,"Ġhayan":12903,"ĠQuito":12904,"ĠBoston":12905,"ĠMike":12906,"Ġfemin":12907,"Ġ68":12908,"Ġmuseos":12909,"Ġdedica":12910,"Ġmesti":12911,"bit":12912,"ĠMateo":12913,"Ġrenacen":12914,"Ġdigitales":12915,"ĠJuliÃ¡n":12916,"Ġseptentrional":12917,"Ġatentado":12918,"cÃ³p":12919,"ĠpsicologÃŃa":12920,"Ġproveniente":12921,"Ġdescanso":12922,"\";":12923,"uza":12924,"ibo":12925,"Ġaumentando":12926,"Ġ1882":12927,"ĠMiami":12928,"Ġsupuestamente":12929,"Ġtropicales":12930,"Ġ(âĢĺ":12931,"icon":12932,"Ġrepeti":12933,"istente":12934,"Ġeliminado":12935,"ĠBuena":12936,"Ġfortuna":12937,"Ġdesencaden":12938,"Ġabra":12939,"ĠlegÃŃti":12940,"ĠLiberal":12941,"ĠasistiÃ³":12942,"Ġescenarios":12943,"Ġinunda":12944,"ulados":12945,"Ġincluidas":12946,"Ġfacultades":12947,"Bo":12948,"Ġcolspan":12949,"Ġmila":12950,"Ġemplean":12951,"Ġlinf":12952,"ĠGeorgia":12953,"ĠChur":12954,"ĠMarie":12955,"Estados":12956,"culares":12957,"Ã¡neo":12958,"Ġabord":12959,"Ġ1886":12960,"Ġdisputar":12961,"Ġelaborado":12962,"ĠexploraciÃ³n":12963,"ĠStalin":12964,"tabria":12965,"fan":12966,"Ġdescrita":12967,"ĠTax":12968,"Ġrefugio":12969,"fol":12970,"Ġgiro":12971,"ĠTos":12972,"Ġpresi":12973,"Ġopiniones":12974,"Ġexterno":12975,"landeses":12976,"Ġcapacidades":12977,"rile":12978,"Ġtrastornos":12979,"Ġconsideraban":12980,"ĠfotÃ³":12981,"Ġmedallas":12982,"ĠFerrocarril":12983,"ĠPuerta":12984,"Ġperon":12985,"ĠChap":12986,"Ġdatan":12987,"Ro":12988,"ader":12989,"gon":12990,"Ġelegida":12991,"Ġ1881":12992,"Ġmurallas":12993,"Ġnazis":12994,"Ġutilidad":12995,"ĠhÃ¡bitat":12996,"Ġiones":12997,"ĠAS":12998,"=\"#":12999,"Ġturcos":13000,"Ġsobrino":13001,"Ġasalto":13002,"ĠFÃŃsica":13003,"Ġagro":13004,"Ġpropietarios":13005,"Ġfuncionar":13006,"Ġrepo":13007,"ĠDicha":13008,"Ġtermo":13009,"Ġsanta":13010,"Ġ1876":13011,"ĠBanda":13012,"Ġasegura":13013,"Ġhambre":13014,"ĠEul":13015,"ĠKaz":13016,"Ġplomo":13017,"ĠpÃºblicamente":13018,"Ġapoyado":13019,"Ġfallecido":13020,"podos":13021,"ĠAmer":13022,"ĠlocalizaciÃ³n":13023,"Ġreceptores":13024,"iwÃ¡n":13025,"fuer":13026,"utos":13027,"Ġrepresentaba":13028,"Ġ1887":13029,"ĠMacedonia":13030,"Ġfinancieros":13031,"Ġcomentarios":13032,"ĠInicialmente":13033,"ĠYugoslavia":13034,"Ġhuir":13035,"ĠinscripciÃ³n":13036,"Ġenfoc":13037,"eller":13038,"Ġextender":13039,"Ġtemprano":13040,"ÑĢ":13041,"Ġheridas":13042,"rillas":13043,"ĠOlim":13044,"ĠVillan":13045,"Ġemergencia":13046,"Ġresiduos":13047,"Ã¡ter":13048,"Ġculp":13049,"Ġtoman":13050,"cab":13051,"ĠcomentÃ³":13052,"Ġsodio":13053,"Ġ1850":13054,"oresc":13055,"Ġconste":13056,"Ġecuator":13057,"pri":13058,"taje":13059,"Ġprobar":13060,"Ġcastel":13061,"Ġhumil":13062,"1970":13063,"prenta":13064,"Ġrodeado":13065,"Ġaustraliano":13066,"ĠsolÃŃa":13067,"Ġsolista":13068,"rillos":13069,"ĠEstatu":13070,"Ġturco":13071,"Ġvecino":13072,"ĠparÃ¡metros":13073,"Ġunidos":13074,"Ġfluido":13075,"Ġrelevantes":13076,"ĠLeonardo":13077,"unciaciÃ³n":13078,"Ġunieron":13079,"Ġquedaba":13080,"ĠprohibiciÃ³n":13081,"Ġsituadas":13082,"Ġabundancia":13083,"Ġretrato":13084,"ĠVizcaya":13085,"Ġlema":13086,"ĠCala":13087,"ĠglÃ¡n":13088,"Ġpolo":13089,"Ġactivista":13090,"ĠcÃºpula":13091,"ĠAudiencia":13092,"ĠpÃ¡r":13093,"ĠEstruc":13094,"ĠBag":13095,"ĠConf":13096,"Ġadyac":13097,"soci":13098,"Ġextranjeras":13099,"ĠDolores":13100,"Ġexportaciones":13101,"ashi":13102,"Ġentregar":13103,"Ġ1820":13104,"Ġmultiplic":13105,"Ġdetectar":13106,"Ġmirada":13107,"Ġfibra":13108,"Ġcampamento":13109,"PU":13110,"wan":13111,"Ġlaguna":13112,"ĠElena":13113,"Ġtenis":13114,"Ġchar":13115,"TC":13116,"igan":13117,"ĠHues":13118,"Ġtranscurso":13119,"Ġarmado":13120,"ĠWilhelm":13121,"ĠgrÃ¡fica":13122,"ĠjurÃŃdica":13123,"ĠChÃ¡vez":13124,"top":13125,"ĠâĢ¢":13126,"Ġtrastorno":13127,"ĠLuz":13128,"ĠproyecciÃ³n":13129,"ĠrecuperÃ³":13130,"wig":13131,"Ġconstruidos":13132,"Ġgoleador":13133,"lah":13134,"2019":13135,"ĠColorado":13136,"Ġlentamente":13137,"Ġmachos":13138,"ĠKra":13139,"racciÃ³n":13140,"Ġcontempl":13141,"ĠLec":13142,"elle":13143,"Ġcomunica":13144,"ĠGuad":13145,"Ġmeseta":13146,"Ġmetabol":13147,"Ġretablo":13148,"Ġlarg":13149,"Ġradic":13150,"ĠJunior":13151,"ĠFootball":13152,"Ġrean":13153,"ĠUrb":13154,"ĠmercancÃŃas":13155,"yes":13156,"ĠcrÃŃmenes":13157,"ĠbasÃ¡ndose":13158,"ĠcontribuciÃ³n":13159,"Ġcubierto":13160,"ĠmigraciÃ³n":13161,"Ġexitos":13162,"ĠOxford":13163,"Ġimponer":13164,"Ġconexiones":13165,"Ġpaseo":13166,"Ġadoptar":13167,"Ġamericanos":13168,"Ġalgoritmo":13169,"Ġconductor":13170,"Ġasocia":13171,"sis":13172,"Ġemisiones":13173,"presente":13174,"ĠatÃ³mica":13175,"Ġbueno":13176,"ls":13177,"Ġingre":13178,"Ġencargada":13179,"ĠGolfo":13180,"Ġpretende":13181,"PL":13182,"Yo":13183,"ng":13184,"ĠCoch":13185,"Ġcalcio":13186,"ĠtemÃ¡tica":13187,"ĠSoto":13188,"Ġasesin":13189,"ĠKer":13190,"ĠArn":13191,"Ġherido":13192,"Ġparejas":13193,"teos":13194,"ĠIsland":13195,"1975":13196,"Ġheter":13197,"rang":13198,"ĠCasas":13199,"Ġencarga":13200,"Ġalternativo":13201,"ĠacadÃ©micos":13202,"ĠTÃº":13203,"turaciÃ³n":13204,"viaciÃ³n":13205,"Ġcompara":13206,"Ġlegislativo":13207,"Ã©fono":13208,"Ġhardware":13209,"Ġespor":13210,"ĠSÃŃ":13211,"Ġrara":13212,"ube":13213,"ĠZh":13214,"Ġsentimiento":13215,"ĠUniversitaria":13216,"ĠgrÃ¡fico":13217,"ĠejerciÃ³":13218,"nley":13219,"Ġsuyo":13220,"Ġinoc":13221,"ĠBush":13222,"Ġ57":13223,"ĠPakistÃ¡n":13224,"Ġmagia":13225,"Ġtienda":13226,"ĠEspecial":13227,"ĠDouglas":13228,"ĠLocal":13229,"umi":13230,"Ġjuliano":13231,"ĠaÃ±ade":13232,"ĠminorÃŃa":13233,"Ġdirigidos":13234,"ĠConcilio":13235,"ĠPort":13236,"Ġcondens":13237,"text":13238,"pur":13239,"ĠSegovia":13240,"ĠsalÃ³n":13241,"ĠcrÃ¡ter":13242,"Ġocurrido":13243,"ĠMagal":13244,"Ġperros":13245,"Ġcusto":13246,"versiÃ³n":13247,"ĠJusto":13248,"Ġtormenta":13249,"ĠPizarro":13250,"ĠNelson":13251,"ineros":13252,"ĠrecepciÃ³n":13253,"ĠJosef":13254,"Ġprofundamente":13255,"ternidad":13256,"Ġajedrez":13257,"anca":13258,"Ġtap":13259,"ĠguÃŃa":13260,"ĠNewton":13261,"Ġcircuitos":13262,"uebles":13263,"Ġ1810":13264,"ĠFranz":13265,"ulaciones":13266,"ĠThom":13267,"ĠChristoph":13268,"ĠastrÃ³nomo":13269,"anco":13270,"ĠGÃ¼":13271,"ĠÃ¡tomo":13272,"Ġaluminio":13273,"Ex":13274,"ĠHong":13275,"ĠAbd":13276,"ĠBrian":13277,"cones":13278,"Ġlatitud":13279,"ĠHidro":13280,"Ġexceso":13281,"ĠRoja":13282,"Ġpale":13283,"Ġmariscal":13284,"Ġrestricciones":13285,"Ġformaba":13286,"tamen":13287,"ĠOrtiz":13288,"ĠThor":13289,"Ġcruzar":13290,"Ġhue":13291,"ĠAri":13292,"Ġinteriores":13293,"estivales":13294,"ĠmodificaciÃ³n":13295,"hue":13296,"ĠEast":13297,"athan":13298,"Ġsolares":13299,"ĠaviaciÃ³n":13300,"Ġagl":13301,"Ġlogros":13302,"Ġcorporal":13303,"Ġprevisto":13304,"Ġfieles":13305,"Ġmata":13306,"ĠPerten":13307,"ĠMenor":13308,"Ġescasez":13309,"Ġalmirante":13310,"Ãºpiter":13311,"ĠChe":13312,"ĠTito":13313,"Ġ1800":13314,"Ã©rm":13315,"Ġmarg":13316,"Ġpobla":13317,"questa":13318,"Ġasistir":13319,"Sal":13320,"apar":13321,"ĠOtto":13322,"Ġ1873":13323,"Ġcostera":13324,"Ġviernes":13325,"Ġacredi":13326,"Ġmedicamentos":13327,"Ã©jar":13328,"Ġreedi":13329,"Ġjura":13330,"ĠAsuntos":13331,"Ġconcretamente":13332,"Ġestabil":13333,"Ġpriva":13334,"ĠsabÃŃa":13335,"Ġconsiguieron":13336,"ĠHispania":13337,"Ġtensiones":13338,"Ġredujo":13339,"ĠFol":13340,"Ġrenta":13341,"ĠescÃ¡ndal":13342,"ĠErmita":13343,"Ġmigra":13344,"ĠETA":13345,"ĠHora":13346,"ĠUN":13347,"Ġpopularmente":13348,"Ġpresentaciones":13349,"Ġruedas":13350,"ĠGobernador":13351,"].":13352,"Ġpant":13353,"tiro":13354,"Ġ1865":13355,"feld":13356,"ullo":13357,"Ġespir":13358,"Ġ1871":13359,"ĠAbu":13360,"Ġclasificar":13361,"ĠprecipitaciÃ³n":13362,"ĠLand":13363,"ienses":13364,"Ġcomparten":13365,"ĠÂł":13366,"econ":13367,"Ġcelebrada":13368,"Ġcastellana":13369,"GA":13370,"ĠControl":13371,"ocitos":13372,"ĠCop":13373,"Ġindependientemente":13374,"Ġabiertos":13375,"sson":13376,"ÅĤ":13377,"Ġcoches":13378,"atar":13379,"Ġcentra":13380,"ĠPerio":13381,"Ġdesaf":13382,"boy":13383,"Ġesencialmente":13384,"ĠconfusiÃ³n":13385,"ĠestÃ¡ndares":13386,"Ġdudas":13387,"Ġescuchar":13388,"ĠOrtega":13389,"Ġespalda":13390,"ĠdebutÃ³":13391,"cionistas":13392,"ione":13393,"Ġenfrentar":13394,"Ġnovelista":13395,"Ġeducativo":13396,"ĠMiss":13397,"ĠJas":13398,"ĠMÃ©rida":13399,"ĠLittle":13400,"mado":13401,"ĠFund":13402,"quesa":13403,"Ġsantuario":13404,"ĠpartÃŃcula":13405,"ĠPompe":13406,"Ġhembras":13407,"ĠJardÃŃn":13408,"ĠApertura":13409,"zca":13410,"ĠharÃŃa":13411,"ĠCora":13412,"Ġfutura":13413,"Ġsignificativamente":13414,"Ġpersonalidades":13415,"Ġlenguajes":13416,"Ġsuministro":13417,"gente":13418,"Ġax":13419,"Ġcaci":13420,"pecto":13421,"ĠColl":13422,"Ġincons":13423,"Ġplu":13424,"Ġvener":13425,"Ġparad":13426,"ders":13427,"Ġcolabora":13428,"Ġpisos":13429,"zgos":13430,"asia":13431,"ogen":13432,"Ġ99":13433,"ĠMaz":13434,"vania":13435,"ĠgeogrÃ¡fico":13436,"ĠIlust":13437,"hasta":13438,"iada":13439,"zano":13440,"ĠPun":13441,"Ġestructural":13442,"fri":13443,"wal":13444,"Ġball":13445,"ĠDream":13446,"ĠOk":13447,"Ġdeform":13448,"Ġrelativo":13449,"Ġaislamiento":13450,"Ġadmir":13451,"raltar":13452,"Ġvegetal":13453,"ĠBeck":13454,"uya":13455,"ĠArque":13456,"Ġrequisitos":13457,"Ġmillas":13458,"ĠConserv":13459,"ĠConstitucional":13460,"garia":13461,"Ġmarcar":13462,"Ġaparente":13463,"Ġpublicaron":13464,"Ġasteroides":13465,"ĠRoca":13466,"Ġdespre":13467,"ĠHierro":13468,"Ġpag":13469,"pleo":13470,"Ġplato":13471,"Ġapoder":13472,"Ġastro":13473,"Ġfederales":13474,"Ġdisciplinas":13475,"Ġdeclaraciones":13476,"VI":13477,"Ġempar":13478,"Ġpescado":13479,"cisiÃ³n":13480,"Ġromanas":13481,"Ġhemisferio":13482,"zen":13483,"ĠCrim":13484,"Ġsocios":13485,"Ġlocaliza":13486,"Ġreunir":13487,"ĠelÃ©ctricos":13488,"ĠSacro":13489,"Ġbudismo":13490,"ĠEva":13491,"Ġdesp":13492,"Ġdesinte":13493,"Ġdisminuir":13494,"Ġretiro":13495,"ĠTara":13496,"Ġdestinos":13497,"ĠmÃºsculo":13498,"ĠFormaciÃ³n":13499,"acia":13500,"ĠEc":13501,"elly":13502,"Ġderivada":13503,"ĠZeus":13504,"ĠEar":13505,"Ġacent":13506,"ĠMonterrey":13507,"ĠtrÃ¡nsito":13508,"rell":13509,"usse":13510,"usco":13511,"Ġamb":13512,"Ġplacer":13513,"ĠExper":13514,"Ġradia":13515,"ĠrevelÃ³":13516,"Ġdescendencia":13517,"ĠOce":13518,"arial":13519,"Ġcumplimiento":13520,"Ġtarjetas":13521,"ĠHigh":13522,"Ġplural":13523,"Ġmemorias":13524,"ĠrenovaciÃ³n":13525,"ĠregulaciÃ³n":13526,"ĠtriÃ¡ngulo":13527,"ĠmandÃ³":13528,"Ġrectang":13529,"ĠSouth":13530,"Ġleyendas":13531,"ĠGeneralmente":13532,"acao":13533,"ĠbÃŃbl":13534,"ĠDia":13535,"Ġsiente":13536,"Ġaproximada":13537,"1978":13538,"Ġascendencia":13539,"Ġgubernamentales":13540,"ĠMuy":13541,"Ġaren":13542,"ĠmarÃŃtimo":13543,"Ġrueda":13544,"Ġverbo":13545,"Ġsecuencias":13546,"ĠnitrÃ³geno":13547,"Ġnacionalista":13548,"Ġsocialismo":13549,"Ġnormales":13550,"Ġave":13551,"Ġenrique":13552,"rigo":13553,"Ġ53":13554,"Ġdesple":13555,"Ġideales":13556,"Ġ1883":13557,"donesia":13558,"Ġcenten":13559,"Ġenormes":13560,"ĠOla":13561,"udiciales":13562,"Ġembarca":13563,"Ġsime":13564,"Ġproductora":13565,"Ġafueras":13566,"ĠPower":13567,"Ġdemostr":13568,"Ġmanifiesto":13569,"ĠoÃŃdo":13570,"haus":13571,"ĠPlaya":13572,"Ġpermitieron":13573,"1974":13574,"1977":13575,"Ġpoblados":13576,"Ġdistingue":13577,"ĠcontemporÃ¡neo":13578,"'t":13579,"://":13580,"Ġgreg":13581,"Ġmaci":13582,"ĠPrograma":13583,"Ġbebida":13584,"utin":13585,"ĠCarnaval":13586,"Ġcorrecta":13587,"Ġexport":13588,"guÃŃa":13589,"pÃ³st":13590,"Ġvasco":13591,"Ġsorpren":13592,"Ġsencilla":13593,"Ġatractivo":13594,"Ġamo":13595,"Ġdelitos":13596,"Ġaliado":13597,"low":13598,"ĠCorpora":13599,"Ġaceptado":13600,"Ġcompetir":13601,"ĠespectÃ¡culos":13602,"Ġdesigual":13603,"Ġbarra":13604,"ĠdocumentaciÃ³n":13605,"ĠTaiwÃ¡n":13606,"Ġterrorista":13607,"ĠiluminaciÃ³n":13608,"Ġtestimonio":13609,"Ã©i":13610,"Ġmaquin":13611,"Ġgravita":13612,"wski":13613,"ĠturÃŃsticos":13614,"ĠdiÃ¡logo":13615,"Ġfranquicia":13616,"Ġespectac":13617,"Ġautobio":13618,"ĠsuspensiÃ³n":13619,"ĠShi":13620,"Ġvistas":13621,"Ġcosm":13622,"ĠCallao":13623,"Ġdesarrollados":13624,"ĠerrÃ³n":13625,"ĠTradi":13626,"Ġgato":13627,"cht":13628,"Ġtrazado":13629,"ĠRoos":13630,"cron":13631,"teur":13632,"rane":13633,"Ġformados":13634,"Ġ1867":13635,"ĠSimon":13636,"ĠimplementaciÃ³n":13637,"Ø§":13638,"Ġquiero":13639,"Ġtriple":13640,"Ġuniversitaria":13641,"Can":13642,"omeo":13643,"Ġ().":13644,"ĠJam":13645,"Ġhabituales":13646,"Ġcontando":13647,"ĠSÃ³lo":13648,"tÃ¡ndose":13649,"ĠYoung":13650,"Ġgarantiz":13651,"abellÃ³n":13652,"ugby":13653,"ĠciudadanÃŃa":13654,"Ġinfluenci":13655,"Ġvirtual":13656,"Ġmexicanos":13657,"ĠmantenÃŃa":13658,"Ġempezar":13659,"ĠdiÃ³cesis":13660,"Ġfug":13661,"Ġgir":13662,"ĠWall":13663,"ĠToponimia":13664,"Ġsantos":13665,"Ġreducida":13666,"Ġreclut":13667,"IX":13668,"Ġlogo":13669,"Ġkg":13670,"ĠgastronomÃŃa":13671,"Ġocasionalmente":13672,"Ġentusias":13673,"igÃ¼":13674,"Ġbibliotecas":13675,"ĠClemente":13676,"fun":13677,"ĠStr":13678,"uche":13679,"Ġreemplazar":13680,"Ġpaisajes":13681,"ĠabsorciÃ³n":13682,"ĠmÃ³dulo":13683,"ĠSas":13684,"Ġresultante":13685,"ipo":13686,"ĠLord":13687,"turalmente":13688,"Ġtriste":13689,"Ġesquina":13690,"ayor":13691,"losa":13692,"Ġusaba":13693,"Ġrector":13694,"ĠcientÃŃficas":13695,"ĠMercado":13696,"eria":13697,"ĠactuÃ³":13698,"Ġocupan":13699,"Ġuniversitario":13700,"ĠobtenciÃ³n":13701,"Ġasegur":13702,"Ġpremi":13703,"Ġdividen":13704,"Ġperfecto":13705,"Ġcondena":13706,"Ġbil":13707,"Ġjoy":13708,"ĠRamos":13709,"Ġdarse":13710,"Ġregistrado":13711,"Ġbebidas":13712,"ĠIvÃ¡n":13713,"cto":13714,"Ġfeste":13715,"ĠJÃºpiter":13716,"ĠseÃ±ores":13717,"Ġwith":13718,"Ġnovia":13719,"ĠSex":13720,"ĠCasi":13721,"Ġposeer":13722,"ĠBulgaria":13723,"gencia":13724,"ĠenvÃŃa":13725,"Ãºes":13726,"Ġimpre":13727,"Ġafirman":13728,"ĠLucÃŃa":13729,"Ġavanzada":13730,"ĠcÃŃ":13731,"osaurios":13732,"Ġdign":13733,"ĠdÃºo":13734,"Ġafili":13735,"ĠÃºnicas":13736,"marÃ©s":13737,"ĠLinux":13738,"ĠJaneiro":13739,"ĠStephen":13740,"ĠGr":13741,"ĠAlas":13742,"Ġdispuesto":13743,"âĢĻ,":13744,"Ġartificiales":13745,"ĠMexicana":13746,"So":13747,"ejas":13748,"Ġeusk":13749,"Ġpresiones":13750,"ells":13751,"ĠPaso":13752,"ĠLyn":13753,"izaron":13754,"Ġcasarse":13755,"uble":13756,"Ġ!!":13757,"Ġpsi":13758,"Ġvist":13759,"ĠINE":13760,"urÃŃa":13761,"etano":13762,"Ġcres":13763,"ĠIdi":13764,"iosos":13765,"ĠResul":13766,"Ġinus":13767,"Ġconvoca":13768,"ĠAdol":13769,"Ġbanc":13770,"Ġalea":13771,"Ġterritoriales":13772,"Ġcaracterizan":13773,"Ġarmados":13774,"Ġvocalista":13775,"Ġdiscrim":13776,"Ġcompil":13777,"ĠNevada":13778,"Ġ1878":13779,"ĠsultÃ¡n":13780,"Ġrecaud":13781,"ĠhÃºngaro":13782,"Ġ),":13783,"esar":13784,"ĠPul":13785,"Ġtengan":13786,"Ġadjud":13787,"Ġinsign":13788,"ĠdenominÃ³":13789,"ĠEscudo":13790,"mografÃŃa":13791,"Ġcloro":13792,"amilton":13793,"ĠÃģlbum":13794,"Ġcerebral":13795,"Ġsubir":13796,"ĠVes":13797,"Ġprimario":13798,"Ġformaban":13799,"pidos":13800,"Ġbanderas":13801,"Ġtrabajaba":13802,"Ġ1861":13803,"Ġcriterio":13804,"ĠespontÃ¡n":13805,"Ġinundaciones":13806,"arÃ¡n":13807,"ĠPilar":13808,"egro":13809,"brica":13810,"ĠParanÃ¡":13811,"ĠInterÃ©s":13812,"Ã¡ndolos":13813,"ĠNiÃ±o":13814,"iggins":13815,"Ġech":13816,"Ġfiebre":13817,"ridas":13818,"ĠAstr":13819,"ĠMonta":13820,"Ġhebreo":13821,"DI":13822,"tl":13823,"Ġenamor":13824,"abeth":13825,"Ġgam":13826,"ĠAlrededor":13827,"ĠGalile":13828,"vÃ¡":13829,"Ġcampus":13830,"ĠLetras":13831,"Ġdecidir":13832,"ĠCantabria":13833,"Ġpatas":13834,"itim":13835,"Ġcolo":13836,"Ġcalcula":13837,"ĠveÃŃa":13838,"Ġderrotas":13839,"ĠGalle":13840,"Ġdecadencia":13841,"ĠVÃ¡zquez":13842,"Ġdivul":13843,"ĠÃ©lite":13844,"Ġpanor":13845,"ĠcÃ¡lculos":13846,"Ġdefensores":13847,"Ġcatedr":13848,"Ġorbital":13849,"Ġinesta":13850,"cionismo":13851,"Ġimpu":13852,"alizaciones":13853,"Ġdobles":13854,"Ġmilenio":13855,"ĠOliv":13856,"Ġadministrativas":13857,"oks":13858,"Ñģ":13859,"Ġeficiente":13860,"ĠVari":13861,"Ġusadas":13862,"apro":13863,"Ġproducidos":13864,"Ġsustituir":13865,"Ġcontactos":13866,"Ġsuficientes":13867,"Cl":13868,"hy":13869,"ĠÃ©n":13870,"ĠCron":13871,"ĠPom":13872,"atriz":13873,"ĠcardÃŃa":13874,"Ġcrece":13875,"ĠadquisiciÃ³n":13876,"ificÃ³":13877,"tienden":13878,"Ġocurrir":13879,"Ġalternativas":13880,"Ġjueces":13881,"Ġpseudo":13882,"domin":13883,"ĠinvenciÃ³n":13884,"Ġtraje":13885,"Ġmaterna":13886,"Ġtalleres":13887,"Sa":13888,"cima":13889,"Ġtriunf":13890,"Ġbienestar":13891,"ĠtelÃ©fono":13892,"ĠcrÃ©dito":13893,"ĠVillanueva":13894,"veza":13895,"ĠalgodÃ³n":13896,"Ġibn":13897,"Ġestrenada":13898,"Ġrelevante":13899,"Ġlabores":13900,"naciÃ³n":13901,"ving":13902,"escri":13903,"Ġdelito":13904,"Ġguerreros":13905,"Ġdisminuye":13906,"Ġdecenas":13907,"iter":13908,"ĠBÃ¡r":13909,"Ġprosa":13910,"Ġ66":13911,"ĠRod":13912,"ĠPublic":13913,"fasis":13914,"Ġeficiencia":13915,"Ġ72":13916,"ĠOrle":13917,"Ġidentificado":13918,"ĠMaximil":13919,"ĠJud":13920,"ĠEjemplo":13921,"Ġimprim":13922,"Ġexamen":13923,"Ġcrucero":13924,"ĠValdivia":13925,"mus":13926,"inch":13927,"Ġexpec":13928,"ĠÃ©stas":13929,"ĠlesiÃ³n":13930,"Ġida":13931,"ĠCanciÃ³n":13932,"Ġcaracterizado":13933,"ĠÃ³ptica":13934,"andes":13935,"ĠPit":13936,"Ġmed":13937,"ĠPropie":13938,"Ġespaciales":13939,"Ġpreparar":13940,"Ġasociadas":13941,"ĠGrammy":13942,"ducto":13943,
[...]
